▁yn	18949
▁,	15616
▁.	14697
▁in	12278
▁	10694
que	4267
▁ye	4167
h	3953
▁y	3569
n	3530
a	3278
▁ynic	2980
▁Au	2780
▁;	2652
▁de	2539
▁ca	2469
li	2255
▁yhuan	2082
1	2035
▁oncan	1937
▁ipan	1805
▁auh	1804
i	1758
▁xihuitl	1722
▁no	1651
co	1622
o	1606
tzin	1605
s	1596
z	1563
▁:	1529
▁ypan	1491
▁yc	1467
▁amo	1349
▁huel	1282
▁ihuan	1261
▁niman	1221
▁ompa	1212
▁i	1188
▁nican	1178
tl	1170
c	1099
▁ma	1098
▁o	1070
▁ce	1063
tli	1042
▁a	995
▁|	973
▁çan	942
▁ic	938
▁In	934
▁se	927
▁on	896
ya	890
▁zan	879
▁'	828
▁años	815
can	809
▁yehuatl	807
2	807
uh	804
to	804
▁omoteneuh	785
▁don	777
▁Mexico	767
ca	743
▁?	740
▁ica	730
6	703
▁tlen	686
▁oc	666
▁ya	664
▁ytoca	653
▁mo	644
▁axcan	642
5	635
▁catca	632
tzinco	625
▁Yn	622
▁tla	620
▁cenca	618
▁San	609
xihuitl	600
▁tlahtohuani	597
e	587
quac	573
▁uan	562
▁Juan	558
▁iuh	556
4	556
l	548
¿	544
▁A	532
3	529
0	525
aya	524
▁metztli	523
▁inic	523
▁tlacatl	519
▁mexica	514
▁ynin	513
tin	513
▁mochiuh	489
▁itoca	489
an	486
▁ti	479
▁qui	479
▁Francisco	479
▁mani	467
▁quin	455
9	452
▁te	449
▁Ma	442
pa	440
▁I	433
▁ni	433
▁tlaca	433
huan	413
8	411
me	410
in	409
tica	401
▁yuh	400
▁Sant	392
j	375
zin	370
7	370
▁para	362
-	356
pan	352
▁ça	347
▁yehuantin	342
▁ixquich	339
▁t	338
▁Ca	330
▁e	328
▁ne	328
▁Pedro	326
▁T	323
▁la	318
▁calli	313
▁ihcuac	313
▁itech	308
hua	308
zque	306
▁cualli	304
▁Ye	304
tiuh	302
▁ahmo	292
▁ome	287
▁iquac	286
▁mochi	284
▁atl	283
▁Miguel	283
▁Tecpa	282
▁No	280
▁C	274
▁yehuatzin	272
oan	272
▁Nican	270
▁ayac	270
▁altepetl	270
▁tlalli	267
▁Acatl	266
▁Maria	263
▁inin	263
▁!	261
▁huey	259
▁motenehua	258
é	257
▁to	256
▁tonati	254
qui	250
▁Calli	250
ez	248
▁Tocht	247
▁Y	246
▁pesos	245
▁Diego	243
te	242
r	240
on	237
▁Dio	237
▁Sanct	235
]	231
es	231
▁tlahtoque	231
▁Amo	230
▁ipampa	229
dad	229
▁xiuitl	223
▁Tenochtitlan	221
▁O	221
ia	220
▁mi	219
ón	218
▁uel	216
▁nopa	214
▁del	213
▁Martin	213
▁ciu	213
▁ypampa	208
ni	207
▁xi	206
▁n	205
▁Ce	205
uan	203
▁ytech	203
▁tlalticpac	202
▁omochiuh	200
▁fray	199
▁wan	198
▁yuhqui	197
▁yxquich	197
▁Huehue	196
▁Niman	196
▁huehuetque	194
▁visurrey	193
no	192
▁España	192
▁yancuic	192
▁momiquilli	192
¡	192
ti	191
tia	190
tiaque	190
▁tic	189
▁nohuian	187
▁chichimeca	184
▁Zan	182
▁nochi	180
v	178
zo	178
▁nehuatl	176
▁justicia	175
▁Tla	174
▁Yhua	174
▁teopixque	174
▁acico	173
▁X	173
▁totecuiyo	173
▁unca	173
▁españoles	172
“	172
▁niquito	172
zquia	172
▁campa	171
▁Antonio	171
▁mil	171
▁”	171
hcuac	170
▁azo	170
ua	170
▁Amaqueme	170
▁intla	166
▁nepa	166
▁Axcan	165
▁yca	165
▁Pablo	162
▁umpa	161
hquac	161
▁hual	161
▁por	161
▁mochiua	161
▁con	160
▁oqui	159
▁achto	159
▁tle	158
ctli	157
▁za	157
▁Ynic	157
▁nic	156
▁nelli	155
▁Hernand	154
▁san	154
▁mochintin	154
▁tonal	154
ica	153
tzintli	151
yotl	151
▁D	150
▁nel	150
ín	149
▁ki	148
▁Culhua	148
mpa	148
▁tlahtocat	148
▁mayor	147
▁ta	147
▁Tlen	147
▁oyuh	147
▁aca	146
lia	146
▁iuan	145
▁governador	144
▁[	143
▁Ipan	143
teuhctl	143
án	141
▁alcalde	141
▁pero	139
▁Cruz	138
titlan	138
▁iuhqui	137
▁Ana	136
▁inon	136
▁Chalc	136
▁omomiquilli	135
liztli	135
ke	134
▁aquin	134
dias	134
tla	134
▁ika	133
itl	133
▁icome	132
▁itla	132
▁escribano	131
ihqui	131
▁mes	131
▁testigo	131
Ç	131
▁Sancto	131
tlan	131
motlahtocatlalli	131
▁arçobispo	130
▁quenin	130
▁mochihua	130
▁yece	130
▁quiniento	129
▁miec	129
piltzin	128
—	128
omingo	126
▁omo	126
▁mah	126
[	126
▁quen	125
▁señor	125
▁teoyotica	124
▁chalca	124
quintin	124
▁Luis	123
ntin	123
k	122
▁p	122
▁icuac	122
▁d	121
▁yuhquin	121
▁nahui	120
cayotl	119
▁aocmo	118
▁kikua	118
▁miac	118
▁chane	118
▁atle	117
▁matlactl	117
catca	116
▁Te	116
▁su	116
▁tlahtocati	115
▁xochitl	115
oc	115
▁alcaldes	115
▁nemi	115
▁rey	114
▁hualla	114
▁yehica	114
▁	114
▁cana	114
▁ichan	113
▁onca	113
▁Xuare	113
▁moch	113
▁h	112
ía	112
▁achtopa	111
▁ical	111
▁tleyn	110
toc	110
lco	110
▁español	110
▁Uan	110
▁nozo	110
▁oquito	109
los	109
▁ahno	108
▁teopan	108
▁mic	107
meh	107
al	106
queh	105
▁quiça	105
mo	105
▁domingo	105
tepec	105
▁nima	105
▁Se	104
▁motlalli	104
▁cenpohual	104
dios	104
▁achi	104
▁ocachi	103
▁escrivano	103
▁monequi	103
▁can	103
▁juez	103
▁quimati	102
▁ixpan	102
atl	102
ero	102
t	102
hqueh	101
▁tlacpac	101
yo	101
▁cuix	100
tatzin	100
▁Chichimecateuh	100
▁maj	100
▁tein	99
▁quipia	99
▁Inin	99
▁mag	99
▁ante	99
▁Ypan	99
m	99
ztli	98
centetl	98
▁monamaca	98
▁inamic	98
▁abril	98
hoan	97
estad	97
▁icce	97
▁occe	97
▁ipa	97
▁V	97
ó	97
eh	97
▁im	96
yemo	96
▁XI	96
▁mayo	96
▁ychan	96
çi	96
▁huehue	95
huatl	95
▁padre	95
teca	95
▁saj	95
▁mochipa	95
os	94
tihui	94
▁non	94
▁teotlac	94
lique	94
Ihuan	94
▁Joseph	94
▁tepetl	94
▁huei	94
loc	93
▁Marí	93
▁Tenanc	93
(	93
▁tlamantli	92
▁yxpan	92
▁tomin	92
)	92
▁Yehua	91
lo	91
▁Aztla	91
▁om	91
▁nech	90
▁yo	90
iencia	90
▁P	89
ço	89
▁ka	89
▁posesio	89
▁wa	89
▁c	88
▁an	88
▁cani	88
▁quitohua	88
▁onpa	88
▁occequi	88
▁cequi	88
▁cemilhuitl	87
huitl	87
▁yez	87
ui	87
▁na	87
▁sancto	87
▁xic	86
▁Cuix	86
iano	85
▁nehin	85
▁ytla	85
▁kampa	85
▁hueyi	84
▁kitoka	84
▁tlatoque	84
▁ammo	84
▁ke	83
▁Nima	83
▁mochihuaz	83
iembre	83
▁M	82
pampa	82
▁huecauh	82
▁viernes	82
▁ual	81
asta	81
▁omito	81
tzino	79
uitl	79
▁macuil	79
nepantla	79
▁peuh	79
▁momati	79
▁teopixqu	78
▁Nuev	78
▁tomine	78
▁hualquiz	78
▁taman	78
▁August	78
huayan	78
quez	78
▁komo	78
as	78
▁cate	77
▁ixquichtin	77
▁huallaque	77
matl	77
▁en	77
▁tech	77
xiuitl	77
lli	76
▁izqui	76
▁ohualla	76
d	76
▁quito	76
▁occequint	76
▁VI	76
▁çano	76
▁Atonal	76
▁cen	76
▁cihua	76
ça	75
▁yaoyotl	75
▁cihuapill	75
▁VII	75
y	75
▁cruz	75
▁tepan	75
iman	74
▁otzatzi	74
▁Tlatilu	74
▁teo	74
▁nicmati	74
▁Garcia	74
oso	74
▁tlahtolli	74
▁ipatiuh	73
hicomoztoc	73
▁icpac	73
▁omic	73
catqui	73
iz	73
ngeles	73
▁Atenc	73
▁totecuyo	72
▁motocayotia	72
▁lunes	72
aj	72
▁keme	72
hui	72
▁XIII	71
u	71
▁IX	71
▁testigos	71
titech	71
▁ihtic	71
▁Huel	71
▁puchteca	71
▁obispo	70
▁quihto	70
▁Mochiu	70
▁huan	70
▁yntech	70
▁chaneque	69
▁Azcapotzalco	69
ique	69
tsin	69
▁nauh	69
▁Ah	69
ado	69
III	69
▁amatl	69
▁S	69
▁anozo	69
oña	68
▁ynamic	68
▁mitz	68
▁mach	68
▁quichihua	68
▁tlatohuani	68
catl	68
▁Mo	68
yaya	67
sco	67
▁Al	67
▁azteca	67
▁Tlatilolco	67
▁pil	67
▁tenochca	67
▁tecpan	67
▁onpohual	67
▁México	67
▁ton	66
▁macehualti	66
▁totolli	66
▁Ome	66
▁s	66
▁Vela	65
xochitl	65
bre	65
▁tepitzin	65
layllotlacteuhct	65
val	65
▁ey	65
▁cuali	65
ylhuitzin	65
▁macuilli	65
▁çatepan	65
▁motlallico	65
▁noso	65
▁Mendo	64
▁tlatolli	64
▁ah	64
▁Ica	64
▁XII	64
▁dos	64
▁motlalia	64
▁Gas	64
▁Xoco	64
alli	64
▁aci	64
missa	64
▁Ysabe	63
ka	63
onso	63
▁ynpan	63
▁quiz	63
par	63
na	63
▁Colhuacan	63
▁tehuanti	63
▁N	63
▁III	63
▁diablo	63
▁onká	63
▁Sanche	63
bado	63
▁m	62
maqueme	62
ma	62
▁ayamo	62
▁mexi	62
▁Tlanahuatih	62
ticatca	61
▁itechpa	61
▁intech	61
rço	61
▁quim	61
▁VIII	61
▁matlac	61
enero	61
mpaneca	61
▁alguacil	61
▁noponi	61
yan	61
▁tlein	61
▁notlatol	61
xtli	61
▁oya	61
{	61
▁Oncan	61
▁mar	60
▁neci	60
▁iman	60
▁Re	60
tle	60
huantzitzin	60
ico	60
▁yeyi	60
▁mohuicac	59
juak	59
▁Ximene	59
ticpac	59
▁oiuh	59
▁mahuiztililoni	59
loque	59
▁omentin	59
▁yehua	59
▁quil	59
▁sá	59
tzi	59
cac	58
rú	58
▁yon	58
▁Valer	58
í	58
ito	58
ujki	58
▁occen	58
calli	58
▁quimo	58
▁nan	58
zqueh	57
htic	57
▁ac	57
▁nopilhuan	57
▁Yc	57
tontli	57
▁oti	57
▁aqui	57
▁omoteneuhtzino	57
}	57
▁zatepa	56
▁tianquiz	56
▁juni	56
az	56
▁nohuiyan	56
▁tlaxillacal	56
▁Tlilteca	56
atzin	56
ske	56
▁timo	56
▁aya	56
x	56
▁tel	55
▁Pe	55
▁huallehua	55
▁ymixpan	55
ce	55
rio	55
ahuac	55
qualli	55
▁Xi	55
chtli	55
ús	55
▁tliltique	55
▁oni	55
liz	55
▁tlacah	54
▁quihual	54
▁nica	54
▁G	54
octu	54
▁cente	54
▁matlacpohual	54
▁yzqui	54
▁nimitz	54
▁teocal	54
lá	54
▁febr	54
▁juramento	54
da	54
▁nepapan	54
▁yectli	54
▁Jes	54
▁tlaco	54
▁cahuitl	54
enta	53
▁tzillini	53
▁ono	53
quahuitl	53
glesia	53
▁kiilui	53
ani	53
▁Tlaco	53
▁anoço	53
ah	53
▁Quahuitzat	53
▁huell	53
▁occepa	53
▁Tzaqualtitla	53
el	53
huac	53
▁quexquich	52
▁ohtli	52
▁kuali	52
▁Moteuhcçoma	52
▁melahuac	52
▁yntla	52
▁xochi	52
▁quename	52
▁peso	52
▁mahuiztic	52
▁To	52
ton	51
▁quezqui	51
▁yauh	51
▁Castilla	51
▁Tlal	51
ian	51
nimo	51
▁oquichiuh	51
▁otic	51
▁tlahtocayot	51
▁cihuatl	51
calco	51
yoc	51
▁occeppa	51
▁Tequani	51
▁cempoal	51
▁mitohua	51
poliuhque	51
▁itechcopa	50
▁onoc	50
▁tetl	50
▁ceppa	50
ceppa	50
▁quimilhui	50
ipiltzin	50
▁yeuatl	50
znequi	50
catzintli	50
▁nian	50
és	50
▁chinam	50
▁Pas	50
▁moyetzticat	50
▁ax	50
▁tlali	50
▁oquin	50
▁huelis	50
tic	49
▁quiza	49
▁och	49
▁itlal	49
▁marte	49
▁pipilti	49
▁huehuey	49
▁Jeró	49
▁man	49
▁Sebastian	49
▁ytencopa	49
▁conito	49
▁Nehua	49
▁yehuan	49
quichiuhque	49
▁]	48
▁huitz	48
auh	48
▁akmo	48
tinemi	48
▁manca	48
ac	48
▁ipaltzinc	48
za	48
ta	48
▁misa	48
tepetl	48
▁Inic	48
kilo	48
▁sa	48
oles	47
la	47
nado	47
▁tehuan	47
motlalilia	47
▁chicahuac	47
▁intlahtoca	47
▁oquic	47
agos	47
kilit	47
▁aço	47
▁me	47
▁timacehualti	47
htli	46
▁juebes	46
▁julio	46
yahque	46
ldo	46
teouh	46
▁aoc	46
▁clérigo	46
ayc	46
▁Ya	46
iago	46
▁x	46
▁mochiuhtzino	46
▁Fern	46
▁cecen	46
▁satepa	46
▁itocayoca	46
▁iyollo	46
▁cuicatl	46
tique	46
▁yniqu	46
▁tleco	46
▁kualt	46
/	46
▁Ompa	46
▁E	46
▁queman	46
érc	45
catzin	45
▁semi	45
▁ixquichcauh	45
▁q	45
▁tecpo	45
▁u	45
▁ypa	45
▁Geronim	45
acxoteca	45
venta	45
acalli	45
▁nicmaca	45
ik	45
▁motla	45
▁nama	45
▁omome	45
▁chicome	45
▁acatl	45
▁tequitl	45
▁caxtolli	45
▁icel	45
tlamantli	45
tiaya	45
▁cuica	45
▁muchiuh	45
▁doctor	45
▁yohua	45
▁ahcic	44
▁oquimo	44
▁II	44
▁Juana	44
▁Na	44
▁Yehuan	44
oa	44
▁ytocayoca	44
▁ipanpa	44
▁hualmochiuhtia	44
▁tlahtol	44
▁nochipa	44
▁den	44
▁oydores	44
pus	44
seh	44
rqués	43
tlahtoani	43
▁Martín	43
▁Ante	43
tzticac	43
▁quitlalli	43
▁onkan	43
▁Garc	43
▁Felipe	43
▁Can	43
▁moteca	43
▁topan	43
▁monasterio	43
zi	43
tlamico	43
▁itic	43
cuahuitl	43
▁tlatoani	43
▁mitoz	43
▁tepilhuan	42
tequiuh	42
ye	42
▁quitocayotia	42
▁Jacob	42
▁inchan	42
▁Luy	42
do	42
▁patlahuac	42
▁carrancista	42
▁ohuala	42
▁necoc	42
▁el	42
▁tecpatl	42
quitoque	42
mitl	42
▁opeuh	42
lhuitl	41
▁cemanahuac	41
▁quinequi	41
▁queh	41
▁he	41
▁sie	41
▁nez	41
▁tlaxilacall	41
▁monjas	41
▁China	41
▁Quauh	41
▁set	41
▁cal	41
antzin	41
▁cocone	41
▁Quen	41
▁oyeya	41
pohuiz	41
▁ihuicpa	41
▁chichi	41
toton	41
▁oncuan	41
▁zapatista	41
liaya	40
▁onkak	40
▁ticmati	40
▁xonacatl	40
▁callaqui	40
equintin	40
▁izquican	40
▁Mariana	40
▁tlacat	40
▁nicnequi	40
▁nonamic	40
tlaca	40
zquiani	40
mati	40
pol	40
▁tlal	40
copa	40
▁ueyi	40
▁ilhuicatl	40
▁yhui	40
▁jue	40
▁onic	40
▁Huitzillihuit	40
loni	40
▁Tetzcoco	40
oyan	40
▁napohuall	39
▁otlananquilli	39
liztica	39
▁Yehuatl	39
uaya	39
▁xa	39
nantzin	39
▁Mah	39
nixpan	39
▁ypilhuan	39
▁onmatlact	39
▁moyetztica	39
▁quilhui	39
▁istak	39
▁oncaxtolli	39
▁icnahui	39
▁ahuel	39
▁teotl	39
▁pouiz	39
▁noyollo	39
▁pohui	39
timani	39
▁ychpoch	39
▁tlamachtilcal	39
▁cuahuitl	39
▁Tullam	39
▁teocuitlatl	39
▁Nochi	39
▁Pere	38
▁yglesia	38
▁Yuh	38
katk	38
▁notahtzin	38
▁monequiz	38
ando	38
ina	38
uatl	38
ayoj	38
▁oks	37
quene	37
▁chil	37
▁Aya	37
▁oquitecaquiti	37
▁quemman	37
cuac	37
▁Tona	37
▁tepe	37
▁nochtin	37
▁axca	37
hmo	37
▁mocauh	37
oni	37
▁xochiyoua	37
les	37
▁once	37
▁kwak	37
▁otli	37
▁ticpia	37
▁yaque	37
▁ycpac	37
F	37
tlacauhqui	37
▁ican	37
▁muchi	37
▁aic	37
▁mantia	37
▁telpochtl	37
▁entons	37
ahzo	37
▁camo	37
loyan	37
▁Lun	36
▁namech	36
▁tica	36
camo	36
huia	36
▁H	36
otequihua	36
▁nehua	36
ltzin	36
▁mohuica	36
▁caxtol	36
▁chicon	36
▁onaci	36
▁otech	36
▁Cohua	36
▁maxiti	36
▁Aquin	36
tlauhtecatlteuhc	36
▁yeka	36
uia	36
▁kimana	36
ilhuitl	36
tlanahuatili	36
▁at	35
nequi	35
oque	35
manalco	35
▁quetzalli	35
otl	35
’	35
▁iztatl	35
▁nochan	35
▁yepohual	35
▁nen	35
caxitl	35
▁Yao	35
▁miak	35
▁Huan	35
▁ašan	35
huaya	35
▁iyo	35
▁Aca	35
ual	35
▁oquiz	35
▁mocallaqui	35
▁chicuacen	35
▁ilhuicac	35
▁tochtli	35
tzitzin	35
▁Baltha	35
▁nicam	35
oca	35
▁aud	35
▁Sebasti	35
▁Popoca	35
▁sep	35
▁ohual	34
▁tepetzint	34
▁miyec	34
ko	34
▁Totecuiyo	34
▁ipilhuan	34
quiteneuh	34
▁tlalpan	34
▁iuhquin	34
▁nictlali	34
▁k	34
▁itlan	34
▁iz	34
▁tlatilulca	34
quiuh	34
▁noviembr	34
▁chimal	34
▁Quine	34
ntli	34
tetl	34
▁mihto	34
▁Iqui	34
ohuac	34
▁quizque	34
▁Cu	34
▁Magdalena	34
▁imixpan	34
▁kil	34
▁tlaço	34
▁Ic	34
▁Compañ	34
▁Axayacatzi	34
ernador	34
▁iztac	34
tenco	34
▁cemi	34
atzintli	34
▁mihtohua	34
ás	34
▁ayocmo	34
sic	34
▁nonantzin	34
ro	34
en	34
nahui	33
sesek	33
▁regidor	33
▁moyollo	33
▁nopan	33
huexotl	33
▁ontetl	33
utl	33
▁axox	33
▁iteyo	33
aca	33
▁quitqui	33
▁chiquacen	33
▁Tle	33
▁nikan	33
▁ynacayo	33
▁Oncu	33
▁hui	33
▁Tziuh	33
▁Testigo	33
▁omomiquili	33
▁Guerr	33
▁Man	33
cui	33
▁ytechpa	33
▁chalchihui	33
llo	33
ún	33
tlacamo	33
io	33
▁Marin	33
▁tlami	33
tlalpan	33
▁miquiz	33
abri	33
▁xon	33
iztli	33
▁gob	33
tacico	33
▁Chichimeca	33
toca	33
▁milli	33
▁xole	33
▁tlacual	32
ppa	32
▁nocal	32
▁Ac	32
▁tlatla	32
▁macihui	32
▁cepa	32
▁quimotlalili	32
▁cocolizt	32
▁Yaotl	32
▁tohueytlahtoca	32
residen	32
▁quenmania	32
▁yntoca	32
capilla	32
▁estaca	32
▁Per	32
▁Christ	32
▁chicue	32
zar	32
▁xiuhpa	32
▁Acamapicht	32
▁cemanahua	32
▁Oc	32
matica	32
tiz	32
▁tehua	32
▁culhua	32
▁unpa	32
▁Nauhyot	32
▁nauhtzon	32
▁Intla	32
▁quimochihuilli	32
▁tonali	32
▁nocone	32
▁huitze	32
ihmo	32
▁Tlahtocan	32
mej	32
▁omochiuhtzino	31
▁Azo	31
▁quitoa	31
▁Lo	31
▁noca	31
▁Joan	31
uantin	31
xiuhtzin	31
▁ycal	31
	31
▁tota	31
go	31
▁Santiago	31
▁Chalchiuh	31
▁teopancal	31
uiaj	31
▁Qui	31
▁huehca	31
tihuitze	31
uac	31
▁quimon	31
▁tlayahualolo	31
▁yehoa	31
eque	31
▁licenciado	31
▁omacoc	31
▁tito	31
tecatl	31
▁omotlalli	31
▁Ti	31
▁yah	31
▁quilhuia	30
▁eheca	30
itzochiyahuizotl	30
▁itlami	30
▁noyol	30
▁piltzint	30
▁Sacramen	30
▁Azta	30
▁itlahtoca	30
chicome	30
▁mitoa	30
▁Chapoltepec	30
▁Nehuatl	30
ión	30
▁yxquichcauh	30
▁las	30
▁Yancuic	30
sar	30
▁nocon	30
▁Huitzillopoch	30
▁ot	30
▁L	30
▁quihuica	30
▁hualmohuicac	30
oz	30
▁moztla	30
lito	30
▁quihtohua	30
ome	30
▁hueca	30
ocac	30
▁itlatol	30
huaz	30
▁ymac	30
▁ytloc	30
▁Thom	30
pajti	30
▁choca	30
▁quimitalhui	30
tzontli	30
cauh	30
▁onech	30
▁Tiacapan	30
▁chicuey	30
▁palacio	30
▁oncate	29
▁ix	29
brer	29
▁yhua	29
sme	29
▁tlahco	29
▁tletl	29
ren	29
▁Cuepopa	29
▁Chalchiuhmomoz	29
▁tlayahuallo	29
▁Ip	29
tito	29
testamento	29
▁tofirma	29
▁pan	29
▁mí	29
▁chichilti	29
▁oztomeca	29
▁Melch	29
ntica	29
▁Hueyi	29
▁tlahtocapil	29
▁quichiuh	29
▁caxtolpohual	29
▁altepetlypa	29
ra	29
itzin	29
▁tocon	29
tlatqui	29
tliltic	29
▁iquey	29
▁Baptista	29
chimal	29
▁quihualhuica	29
▁hora	29
▁ten	29
▁nino	29
quia	29
▁quauh	29
▁tenanc	29
▁omotlali	29
▁atlan	29
▁castil	29
▁tlama	29
▁pehua	29
▁Toteoci	29
▁venta	29
quihui	29
▁Leon	29
▁Jab	29
ic	29
▁cua	29
pena	29
zintli	29
▁Tenuch	29
ardo	29
▁Teohuateuhc	29
huacan	29
kan	29
▁sentabo	28
▁Huitzilopoch	28
opil	28
▁ohui	28
▁Teocalti	28
▁macoc	28
▁noja	28
▁concui	28
▁cuauh	28
▁cihuame	28
▁miqui	28
▁Tenoch	28
▁Sa	28
▁moteylhuia	28
▁tlayahualolizt	28
cecni	28
hin	28
▁tonan	28
▁ijkin	28
▁quimachiyoti	28
▁Ni	28
▁amono	28
iga	28
huiz	28
▁coztic	28
▁nanakat	28
▁kema	28
▁oacico	28
loz	28
tihuitz	28
▁Huexotzinco	28
▁Itzcohuat	28
hual	28
▁Col	28
tlalia	28
▁icac	28
▁inpan	28
▁ohuac	28
ili	28
ára	28
▁Acxo	28
▁ama	28
▁si	28
▁Xochiyoua	27
▁cuacualtzi	27
tzonco	27
va	27
▁pouhqui	27
▁XXI	27
milhuitl	27
▁Mach	27
▁macuilpohual	27
ontli	27
▁Co	27
▁Mexica	27
▁kineki	27
yacac	27
tlallia	27
▁quauhtli	27
▁quetzal	27
▁nocuel	27
▁ilhuitl	27
▁mu	27
▁moyetzticate	27
▁totlaçonan	27
▁quinamaca	27
se	27
▁ypam	27
▁tlatocat	27
▁xochmilca	27
cualcan	27
▁incal	27
cihuatl	27
▁ilhuitzin	27
pixque	27
▁Angel	27
▁teca	27
de	27
le	27
mani	27
▁Sá	27
cuic	27
ipan	27
▁Andr	27
▁cuauhtla	27
Á	27
▁cenpohuallon	26
▁onka	26
▁Xic	26
yohualtica	26
▁otla	26
ueytl	26
▁ihui	26
▁teomama	26
X	26
omihto	26
▁tata	26
▁señora	26
▁Marqués	26
illa	26
▁kitokaytia	26
▁uejueyi	26
▁pregon	26
topixque	26
▁onnahui	26
uhque	26
▁Zaca	26
▁Ipalnemohua	26
▁ytlal	26
oxcoxt	26
▁quinpeuh	26
▁tochan	26
▁niquin	26
euhctl	26
▁seki	26
cia	26
ehuac	26
▁Ne	26
jki	26
▁Luca	26
▁oydor	26
miuh	26
▁ypal	26
nkak	26
▁Cuali	26
▁yaz	26
▁motlanahuatilli	26
huiac	26
▁tepaneca	26
▁yan	26
▁poliuh	26
▁quiyahuac	26
chichimeca	26
▁polihui	26
▁quiyahui	26
ior	26
tecuhtli	26
▁ite	26
ato	26
▁comendador	26
▁Momoch	26
▁ih	26
nte	26
▁notoca	26
uhtli	26
ntzin	26
▁blanco	26
▁Pi	25
▁tlaxilacaleque	25
xiuhti	25
macac	25
▁Tezca	25
▁Huitzilihuit	25
▁Tepe	25
nin	25
▁macoz	25
▁corte	25
▁Luren	25
azque	25
lloque	25
▁namo	25
▁nelti	25
▁tlamatinime	25
▁testamento	25
▁momiquili	25
ki	25
ita	25
caltitlan	25
▁atenco	25
▁quaresma	25
▁ocelotl	25
▁tlacati	25
▁ypilhuantzitzin	25
▁quema	25
▁teutl	25
▁quichiua	25
▁carta	25
▁un	25
▁ay	25
▁atentlipan	25
asa	25
▁mellahuac	25
tenamitl	25
▁Xochi	25
▁Tenochtitla	25
poyon	25
aco	25
▁fiscal	25
▁nanima	25
▁Miac	25
▁Señor	25
▁Tlahco	25
▁acan	25
▁capitá	25
▁ihuiyan	25
▁cali	25
melaoa	25
theo	25
▁totlal	25
▁yepazohtli	25
▁totoni	24
▁Di	24
▁yntlahtoca	24
micac	24
chilli	24
▁Quiz	24
▁Tercer	24
▁quimicti	24
▁xoch	24
lmeca	24
▁iciuhca	24
▁Sal	24
bispo	24
▁Guzm	24
tixpan	24
▁totoca	24
▁calpoll	24
▁Inime	24
▁xinech	24
▁itta	24
▁omey	24
ehuaque	24
▁re	24
▁iaxca	24
▁oki	24
tlacatl	24
▁huecahua	24
▁Pano	24
▁neh	24
▁Quin	24
▁mopaca	24
▁icmacuill	24
▁quitta	24
▁quincahua	24
▁Totolte	24
▁ohtlipa	24
▁tia	24
▁mique	24
ves	24
▁Canin	24
▁Cort	24
▁Padre	24
▁wal	24
miquico	24
▁noço	24
▁poui	24
▁kena	24
▁monamaka	24
tlahtoque	24
▁quitoz	24
▁tocal	24
▁tosa	24
▁Xocoyo	24
▁mochiuhque	24
▁timitz	24
▁Ahuitzot	24
▁Isabel	24
ana	24
▁Xochimilco	24
▁quitlalia	24
▁itequiuh	24
chez	24
▁al	24
▁atzaqual	24
▁hueyapan	24
▁xocon	24
▁Th	24
▁hualmohuica	24
ihui	24
▁Lope	24
▁tetepe	24
chi	23
▁zihuapil	23
▁quicauh	23
▁tlaxcalteca	23
▁peua	23
▁mononotza	23
▁tlatilolca	23
cauhque	23
▁tlenamaca	23
▁moquixti	23
tes	23
▁visita	23
loya	23
mian	23
iaya	23
▁nouia	23
▁Cont	23
▁tlazo	23
▁machiztic	23
▁immano	23
▁huehyi	23
lleque	23
▁ym	23
echtli	23
▁mochtin	23
yohuacan	23
▁kin	23
pipilti	23
tok	23
▁kisa	23
nco	23
▁niya	23
▁pa	23
cho	23
us	23
▁chichimecatl	23
▁Tlaca	23
▁hualaz	23
▁inacayo	23
▁tehhua	23
▁intlatol	23
anil	23
▁motlali	23
▁teuctli	23
intin	23
▁kemaj	23
▁pantzin	23
▁Xu	23
ár	23
▁icihuauh	23
ipa	23
▁Mart	23
ére	23
▁tlatouani	23
▁Atlauh	23
▁Teoc	23
listli	23
▁Roma	23
▁quimana	22
yotzin	22
▁teopixca	22
htzin	22
▁ima	22
▁chi	22
▁tlaxillacalpa	22
▁quauhtla	22
▁Tehhua	22
▁mito	22
‘	22
▁opanoc	22
▁quinhual	22
▁ynehuan	22
dor	22
▁momoztla	22
▁tictlali	22
▁momana	22
tik	22
tzitzinhua	22
nahuac	22
▁Rodrig	22
ilia	22
▁Cuitlate	22
▁quimilhuia	22
I	22
▁nauhxiuhti	22
▁ito	22
▁Queman	22
▁xiuit	22
▁quinhuica	22
dos	22
▁Esc	22
▁motlacatilli	22
▁altepe	22
rrey	22
huani	22
nemi	22
▁ilhuica	22
▁titla	22
▁isquich	22
▁genera	22
lico	22
▁ixua	22
▁tetech	22
▁Me	22
▁calaquia	22
▁rebolúsio	22
▁ytlan	22
lotl	22
▁tlatocati	22
▁fech	22
▁anca	22
impan	22
ulco	22
cohuatl	22
▁Ken	22
quipiaya	22
▁oquich	22
▁temo	22
lmach	22
▁quiual	22
▁Quauhtli	22
ada	22
▁Chalm	22
▁moči	22
▁po	22
▁ueuet	22
▁Jesuc	22
hristo	22
▁ycome	22
oribi	22
tenta	22
▁inpilhuan	22
▁vey	22
▁iyol	22
▁Cuitlahuac	22
ino	22
▁palio	22
tiaz	22
▁tl	21
siko	21
nauhtetl	21
▁maca	21
▁Jer	21
▁miecpa	21
▁matlactlomome	21
▁Quetzalcanauhtl	21
▁motec	21
▁guardi	21
▁quinotza	21
▁ynchan	21
▁nika	21
▁yajki	21
▁ichpoch	21
▁ymatica	21
huaque	21
otonqui	21
▁quipiaya	21
▁ayatl	21
nenenque	21
▁uey	21
chihuaz	21
rera	21
▁otlapacho	21
▁omotocateneuh	21
eve	21
▁Kema	21
▁Don	21
▁tlacochcalca	21
▁kichiua	21
ohualli	21
▁Toteo	21
brica	21
▁tiquin	21
▁ikuoujyo	21
w	21
▁mixpan	21
▁huallaci	21
▁Quauhcece	21
▁quinonotza	21
▁chicueyi	21
tlaxillacalleque	21
ria	21
firma	21
▁yec	21
▁cu	21
oncaxtolli	21
▁quittaya	21
oac	21
▁motlayahualhui	21
huique	21
tzitzihuan	21
tlalli	21
▁mahtlactli	21
tahuan	21
▁chiconpohual	21
▁youal	21
▁iccen	21
▁Tec	21
▁maco	21
▁quiyauh	21
▁semana	21
▁Hu	21
▁yao	21
ara	21
cam	21
▁Capitá	21
▁nechmaca	21
▁cual	21
tepeuh	21
empo	21
manca	21
▁intlal	21
▁acaltica	21
▁cem	21
▁cualtzin	21
▁kani	21
▁caxtollom	21
▁Sentlanahuatil	21
▁tottatzi	21
▁omaxiti	21
teo	21
▁Cuauh	21
▁omei	21
tocatzin	21
▁quitoca	20
▁Tepeyacac	20
▁Ant	20
tonac	20
rez	20
▁quiquixti	20
▁nepantla	20
cozcatl	20
tequitzin	20
▁tlamatini	20
nanacatl	20
▁centlamant	20
teotl	20
▁quiyahuiz	20
▁mochan	20
▁mimic	20
akmo	20
▁oppa	20
▁mono	20
tiliz	20
▁onelti	20
▁iqui	20
▁ualla	20
▁pano	20
yohualli	20
▁huallaz	20
▁otlipa	20
▁tocnihuan	20
ánde	20
macehualli	20
▁teyacana	20
wan	20
tolinia	20
▁Para	20
▁nictene	20
▁yey	20
▁Axayaca	20
cnihuan	20
▁iquin	20
alante	20
▁moma	20
▁Tehuan	20
▁nitla	20
▁oquittac	20
▁tequiti	20
▁otlananquili	20
▁quimomaquilli	20
▁quinexti	20
▁pilli	20
▁tlatoca	20
▁orne	20
▁hueyac	20
huitz	20
▁má	20
▁tototl	20
▁Ayac	20
ador	20
▁onoca	20
htzino	20
▁XXV	20
▁K	20
▁ualmotlali	20
rcel	20
ih	20
▁leonportilla	20
▁Anahuac	20
toque	20
▁patla	20
▁Fe	20
▁tley	20
exihco	20
pia	20
▁Auitzotzi	20
▁tlamacazqu	20
jua	20
chinanco	20
▁we	20
▁moquetz	20
▁nauhpohualxihui	20
cenpohua	20
▁ichpokero	20
▁centzon	20
via	20
▁Matlactli	20
uicaya	20
▁motta	20
▁otihualla	20
▁Huitzil	20
▁mochihuas	20
▁ihuian	20
▁anqui	20
▁it	20
ayotl	20
▁quimoteotia	20
pachiuh	20
▁tek	20
▁ixochiyo	20
omextin	20
▁nohuia	20
nauac	20
▁Anton	20
▁tlahtoli	20
▁itechpohui	20
▁Tlaltlanahuatil	20
▁mexicatl	20
▁Mocel	20
▁ko	20
▁Bernard	20
▁Bartolome	20
=	20
▁ayao	20
▁omachiztic	19
▁nekwt	19
▁ch	19
▁kiijto	19
ix	19
▁mocuepa	19
▁Alta	19
▁Jap	19
ticac	19
▁kan	19
ocan	19
jtani	19
▁achitzin	19
cic	19
▁Carlo	19
▁tlan	19
▁tzatzihua	19
▁Cual	19
sa	19
▁quittaz	19
▁oqu	19
▁oquicac	19
▁mochiuaz	19
▁amotle	19
▁tihui	19
lla	19
xic	19
▁tlalmant	19
▁tinemi	19
píritu	19
▁teotenanc	19
▁moman	19
▁favor	19
kwa	19
▁quitocayoti	19
▁mill	19
ospital	19
tech	19
stli	19
▁notech	19
▁qual	19
▁Maxtlato	19
▁altepehua	19
▁quiahui	19
▁xolal	19
▁toc	19
osme	19
lhuiloc	19
huatzin	19
▁Monte	19
▁cofradía	19
sp	19
ualli	19
▁ichpoca	19
▁queni	19
▁inahuac	19
▁Toch	19
▁Corte	19
zcatqui	19
quiz	19
▁Cacamat	19
▁ticchihuaz	19
kopa	19
▁Quenin	19
tzalan	19
ticate	19
▁yej	19
▁diciembre	19
▁oquimotlalili	19
▁Quetzalco	19
▁Achtopa	19
hcac	19
▁Campa	19
▁Valle	19
ólito	19
▁imaxca	19
yocan	19
▁tepuz	19
▁hualpeuh	19
▁ahque	19
▁tonacayo	19
▁nuestro	19
▁eyi	19
▁yaxca	19
▁yeynti	19
tilia	19
chicuey	19
▁quicui	19
▁Nuestr	19
▁quitemaca	19
ch	19
▁quinmictizqu	19
tlaçopiltzin	19
▁quimocaquilti	19
▁kichipaua	19
▁quinmaca	19
pilhuan	19
▁oneci	19
gen	19
onnahui	19
coz	19
▁sin	19
▁Zapat	19
▁sanct	19
▁keman	19
L	19
▁itzintla	19
nenque	19
manel	19
▁tiquito	19
▁tlatihuani	19
▁teh	18
▁tepoztl	18
▁Yopi	18
▁quipehualti	18
▁ixiujyo	18
▁acah	18
coppa	18
▁kuamekat	18
▁capa	18
▁litro	18
▁tlahuic	18
xitilli	18
pehuaya	18
cucolc	18
▁omonamicti	18
▁quincauhtia	18
▁tlacatecolotl	18
▁Zavallo	18
▁oh	18
▁qu	18
yah	18
▁quaxoch	18
▁Mochi	18
▁Paso	18
▁citlal	18
▁tlananquilli	18
ytic	18
▁naualoztomeca	18
exot	18
▁maestro	18
▁naui	18
▁ote	18
htica	18
▁ši	18
▁Colhuaca	18
▁nin	18
▁tilma	18
▁tlacuilol	18
▁tomi	18
pohuallonmatlact	18
▁cempohual	18
▁niquilnamiqui	18
▁est	18
▁Colua	18
▁icuic	18
zcate	18
▁Con	18
▁Ram	18
▁tlake	18
tlatol	18
▁ken	18
▁ticneltili	18
tinemia	18
man	18
▁hi	18
▁Cenc	18
acatl	18
nia	18
▁kači	18
ate	18
erna	18
callitic	18
▁onez	18
▁oquimocaquilti	18
▁quimoquixtili	18
▁tlatzintla	18
ü	18
▁calaqui	18
▁popoca	18
▁soldados	18
▁Greg	18
▁immo	18
▁Chicome	18
tizque	18
▁onemi	18
▁moquetza	18
▁ut	18
▁motlapo	18
▁Cano	18
uel	18
▁toca	18
ey	18
uachcauht	18
▁nomaicni	18
eva	18
▁Tozcuecuex	18
▁Quauhtemoctzi	18
▁teopa	18
▁kajfent	18
miran	18
▁quihualhuicac	18
▁Tlacatl	18
tlaolli	18
▁textli	18
▁ciua	18
techpa	18
kej	18
▁yohual	18
▁mopan	18
▁tlatocayotl	18
ntoton	18
▁XX	18
▁ciuatl	18
▁mopilhuati	18
▁pejki	18
▁Quetzalmaçat	18
çacatzi	18
▁di	18
yn	18
▁itlatqui	18
ixiptlatzin	18
▁Mich	18
▁quiquetza	18
▁Nic	18
▁abbad	18
▁tlah	18
▁nofirma	18
▁Macuex	18
▁quemania	18
▁neca	18
▁ordinario	18
▁tinech	18
▁Ocelotl	18
▁ok	18
▁oquicui	18
▁momaquixti	18
▁Kuesal	18
otlalnan	18
▁tepantlahtoani	18
▁chicuete	17
▁Es	17
▁ayok	17
onimo	17
▁azcapotzalca	17
tamachiuh	17
▁tlacuali	17
▁caxtollon	17
▁huetzi	17
▁otlahtocati	17
▁texcal	17
tlanequiliztica	17
▁Cat	17
▁ahcito	17
▁mococohua	17
inos	17
▁mononotz	17
tococ	17
uhtica	17
▁Tlacatec	17
▁mohuicxiti	17
▁Ki	17
lan	17
pacca	17
xocoyo	17
▁quinhualyacan	17
▁ytlahtocayo	17
hualli	17
tonco	17
▁Papa	17
▁tlatoli	17
▁Ylhuicamina	17
▁Ko	17
▁quitoznequi	17
mic	17
▁como	17
▁š	17
▁Ican	17
▁teyacan	17
Chalchiuhtlatona	17
ntla	17
▁achiton	17
▁Balta	17
▁inana	17
▁etc	17
▁Heca	17
▁Quauhtle	17
▁Xochitl	17
▁axkana	17
▁temachtia	17
▁temicti	17
▁hualmocuep	17
▁cuauhtli	17
▁Tomas	17
aque	17
▁conde	17
taya	17
▁otlatlacoltilo	17
ztlacatiz	17
▁tlacamo	17
lizque	17
ces	17
▁itloc	17
▁tapalol	17
▁oconan	17
sin	17
▁xihuitli	17
di	17
llique	17
▁ytocatzin	17
▁toma	17
▁descalço	17
▁teteu	17
▁Buen	17
▁quitla	17
omotlanahuatilli	17
▁chicomozto	17
▁tequi	17
▁Yaca	17
▁quintoca	17
tiliaya	17
▁akin	17
▁nemia	17
▁ayoj	17
▁pipiltzitzinti	17
▁nehoa	17
litic	17
▁oto	17
▁manel	17
▁quicahua	17
▁miyequint	17
▁colhua	17
▁Teçoçomoctzi	17
van	17
micohuac	17
▁quima	17
▁teocuitla	17
▁niaz	17
namaquilti	17
campa	17
▁Alvar	17
▁tenahuac	17
▁hualtemo	17
▁nuev	17
tza	17
▁mota	17
chan	17
▁quimatoca	17
▁XXX	17
▁cacauat	17
zan	17
▁omochi	17
▁yocoxca	17
uaque	17
▁itlac	17
▁mocahuac	17
▁motlatol	17
▁tekitij	17
▁Xiuh	17
▁kitalilia	17
▁teu	17
▁tlanahuatilmeh	17
▁mote	17
▁titlaca	17
▁nicneltili	17
▁provisor	17
▁nemohua	17
▁mesica	17
▁semiya	16
▁miyak	16
▁pehuallo	16
▁toyollo	16
▁coza	16
▁Chapultepe	16
▁tepa	16
xochi	16
po	16
▁yntlan	16
▁Ix	16
nacio	16
inas	16
▁testigosme	16
▁moyol	16
rced	16
▁arcobispo	16
nel	16
eño	16
▁Moyo	16
▁Francisc	16
▁Tiça	16
▁tlahto	16
ccan	16
▁atlauhtl	16
macoc	16
▁Acacit	16
▁omoquixti	16
▁quiteca	16
llanc	16
▁Iman	16
tih	16
▁kuoujtaj	16
▁moteilhuia	16
▁tequihua	16
▁lo	16
tlalmomozt	16
▁mix	16
▁nehon	16
ector	16
▁Uajka	16
yollocacopa	16
▁totlaçot	16
▁hue	16
ciado	16
▁Tzompa	16
▁cohuatl	16
▁oquiçac	16
nenemi	16
cue	16
▁nimitztatauhtia	16
▁mopia	16
▁alguazil	16
tztlacoçauh	16
▁otlica	16
▁neztica	16
▁anauac	16
ecatl	16
ohua	16
uiac	16
huacatl	16
▁mocui	16
▁Chicuey	16
▁itepotz	16
▁Acxit	16
▁imacehual	16
▁nicuel	16
▁Xal	16
▁ocon	16
▁occecni	16
▁monotsa	16
▁onmomiquilli	16
ixpan	16
▁yek	16
▁nimo	16
yac	16
▁pe	16
tiquizque	16
maca	16
ecan	16
nahua	16
ixtoco	16
▁Om	16
tlacah	16
▁xiuh	16
panecatl	16
tas	16
▁ie	16
quizque	16
▁yzca	16
▁quimolhuili	16
tzon	16
▁corona	16
▁Achto	16
▁ohkion	16
ixti	16
▁Kual	16
▁Xochmilco	16
▁Xaltoca	16
▁Laza	16
uhqui	16
jkí	16
▁naxca	16
▁Mi	16
ne	16
▁neu	16
▁mocahua	16
nbre	16
uaca	16
▁michime	16
▁Texcalco	16
▁Achi	16
▁ach	16
▁ahcop	16
▁eua	16
wak	16
tiw	16
▁tona	16
jtouaj	16
▁tino	16
▁kikuaj	16
▁cuel	16
poni	16
▁quitlatlauhti	16
mochiuh	16
▁tlathui	16
ok	16
▁On	16
▁com	16
▁Tlacopan	16
▁oquim	16
▁ycac	16
▁atenquiça	16
▁oquimilhui	16
senta	16
▁Pa	16
▁iya	16
▁oquichti	15
▁cuacualaca	15
▁En	15
▁Tleyn	15
itlan	15
tihuia	15
▁motech	15
regon	15
tlallo	15
▁Sem	15
yuhqui	15
▁mihtoa	15
▁omohuica	15
xumal	15
▁huicci	15
▁namique	15
▁ytetzin	15
alina	15
lti	15
▁regidores	15
▁totlatoca	15
allanca	15
▁quiquetzque	15
▁escritur	15
▁Cuahuitzat	15
totocac	15
olito	15
▁quitema	15
▁moteylhui	15
▁Tehua	15
zenca	15
▁bueno	15
▁Eca	15
▁itlahtocayo	15
▁quitlali	15
▁itak	15
▁quite	15
▁zoqui	15
caltin	15
oltzin	15
▁acallotli	15
uaj	15
▁eski	15
huiyac	15
▁Za	15
▁tealti	15
ilhuia	15
tili	15
▁tepeuh	15
▁omochihua	15
▁ymomextin	15
▁Cente	15
▁occente	15
era	15
yon	15
quiyauh	15
omitl	15
▁noxhuiuh	15
▁tit	15
▁huexotzinca	15
▁Ka	15
cahua	15
ña	15
octli	15
mana	15
▁cuent	15
▁quichihuazque	15
▁omote	15
▁Z	15
▁immoyollo	15
▁kuoui	15
ltia	15
uani	15
▁Sanc	15
▁quicaqui	15
▁omuchiuh	15
▁omaco	15
▁oquihto	15
▁imil	15
mantsi	15
▁chic	15
▁Tloque	15
▁primer	15
▁tlatquihua	15
ika	15
▁teteucti	15
▁tepoz	15
▁Occequi	15
▁piltzitzin	15
▁quitlalitia	15
▁monoltito	15
▁yquizayanpa	15
▁tulteca	15
▁ikamojyo	15
etzontli	15
▁ycel	15
▁ohki	15
▁maceual	15
▁b	15
huehuetl	15
▁apachiuh	15
tlazohcamati	15
▁tlallolinaliz	15
▁milla	15
▁frayles	15
▁Chiquace	15
▁cahuayo	15
▁quinmicti	15
▁nipa	15
▁Macuilli	15
cahuan	15
▁española	15
hqui	15
▁Bartolom	15
▁Huexotla	15
▁ymaxca	15
▁yaoyo	15
▁Tlacateu	15
▁U	15
▁ikan	15
tón	15
palli	15
▁quicac	15
▁quinnotz	15
tepitzin	15
▁nauhcampa	15
▁Teçoçomoct	15
▁Oquito	15
▁Occep	15
▁quimatia	15
▁imal	15
▁icchiquacen	15
qualloc	15
ychpoch	15
▁ahtle	15
▁notla	15
▁zo	15
onamaka	15
▁Tezcatlip	15
▁Ay	15
▁provincial	15
▁Ga	15
▁uajka	15
▁chalchiuh	15
▁federal	15
▁miaque	15
▁tlapal	15
▁altepeme	15
▁quizaz	15
▁Nicol	15
lacateticpac	15
▁Ba	15
▁yu	15
▁omocauh	15
▁kikui	15
▁tenochtli	15
▁iixpan	15
▁Amatlanahuatil	15
▁tzotzomat	15
maski	15
▁inijuanti	15
namacac	15
▁Ipa	15
▁Ytzquauhtzi	15
▁Ozto	15
▁nite	15
▁onpeuh	15
▁Gran	15
▁Ecatzin	15
▁intlahtol	15
▁omoyetzti	14
▁cocol	14
▁totla	14
▁Mil	14
▁kiteki	14
oua	14
▁caxtilan	14
▁nomac	14
▁temi	14
▁kipiya	14
▁real	14
is	14
▁motz	14
oyonia	14
Cuauhtlequetzqui	14
▁Cuitlaxcohuapa	14
▁Tetzauh	14
▁inime	14
hquion	14
▁Coyohua	14
▁Ig	14
mocuepque	14
▁ytic	14
▁yezque	14
pitza	14
▁itzonteco	14
▁ytlatqui	14
▁seis	14
▁ijkini	14
quique	14
ahui	14
uiz	14
▁quitlalcahui	14
uique	14
▁tlani	14
▁veint	14
▁Nikau	14
neki	14
▁ualteyaca	14
polco	14
quetza	14
▁eltok	14
▁Nama	14
▁Atlixeliuhqui	14
▁pas	14
hualmohuiquilli	14
▁len	14
▁yaya	14
▁Ayotzin	14
occan	14
▁ohualquiz	14
nohualca	14
ixca	14
▁naua	14
etetl	14
▁tlatlac	14
▁elito	14
ayah	14
▁onyeya	14
▁Tlamaocatl	14
▁Pue	14
Ma	14
chiuhque	14
▁conilhui	14
▁Ualleua	14
▁pro	14
▁ahuax	14
▁motetequi	14
▁tlaxcal	14
▁neč	14
nenca	14
nca	14
▁magnifico	14
▁tlacua	14
▁Seki	14
▁ihua	14
macal	14
▁tu	14
tepeca	14
▁pilolo	14
▁ontzon	14
izque	14
▁oahcic	14
qua	14
▁Huax	14
acac	14
▁oquitla	14
▁Cohuatlyc	14
▁tlaškal	14
▁itlahtol	14
nanquilia	14
momoyahua	14
pilli	14
▁Tlaxcalla	14
▁Rosa	14
▁tocol	14
▁quihuicaz	14
▁niccui	14
▁onneci	14
▁pochteca	14
▁chiuhcnauh	14
▁ocelo	14
▁El	14
▁atol	14
▁quinhualhuicac	14
▁ci	14
▁ocallaqui	14
▁tecuan	14
ehua	14
▁tepiton	14
▁Atlix	14
▁nia	14
▁ahço	14
res	14
▁intlan	14
▁pur	14
▁Totecuyo	14
▁epohuall	14
▁tlatol	14
▁sintli	14
▁ytlatol	14
▁huillohua	14
▁hualhuia	14
▁oce	14
▁icamara	14
olco	14
▁neltilizt	14
cate	14
▁Tiçocic	14
▁ahci	14
pra	14
▁val	14
▁tolteca	14
▁oquihual	14
▁titlanahuati	14
yaoyotl	14
▁moneki	14
oquan	14
▁ocno	14
▁neli	14
▁talticpactzin	14
▁ixquichca	14
▁quitlani	14
▁Moys	14
▁yztac	14
▁oksi	14
▁otlacat	14
▁itstok	14
▁hua	14
▁intoca	14
▁quichihuaz	14
▁pipiltoton	14
▁yaui	14
▁Yey	14
tilli	14
iliz	14
▁matlactlomey	14
▁tlanahuati	14
itic	14
solo	14
pantli	14
▁tlapanahui	14
▁oaci	14
▁occentlamant	14
▁au	14
▁Itz	14
▁quimotlallili	14
▁tlapan	14
kualtsin	14
yá	14
hueyi	14
▁cuauhtin	14
▁LX	14
▁kimaka	14
▁mač	14
▁tres	14
▁inehuan	14
molli	14
ral	14
dez	14
▁quitlahtocatlal	14
▁Quexqui	14
▁quimomaquili	14
▁ik	14
▁momamal	14
▁nik	14
▁pr	13
▁motolini	13
▁ticmo	13
▁taol	13
tilo	13
conetzin	13
▁Mexicatl	13
▁Córdo	13
▁nacatl	13
equi	13
cexiuhti	13
▁tzatzi	13
▁inteocal	13
▁nicpia	13
▁teneuhtica	13
coneuh	13
ilique	13
▁canpa	13
▁otzatzihua	13
▁tlatohua	13
▁doctores	13
chiuhcnahui	13
▁Amanalco	13
tlahtul	13
▁ICUIC	13
ompehua	13
▁Mexicatzinco	13
▁quinyacana	13
▁emol	13
amo	13
wa	13
▁tlauhquechol	13
▁Tepi	13
▁omomama	13
▁quimolhui	13
▁toco	13
▁yzquican	13
choca	13
▁tetlan	13
▁Mora	13
▁Tecpayoca	13
▁quitoua	13
▁tloque	13
tlactlomey	13
xima	13
▁Noch	13
euatl	13
teyacanaliz	13
▁hualmotlalli	13
▁Ju	13
piaya	13
▁v	13
▁id	13
quechol	13
htaya	13
naui	13
▁contlalli	13
yok	13
óp	13
▁Maca	13
▁oquitlalli	13
▁ipilhuantzitzin	13
huitec	13
▁metro	13
▁ohualmohuica	13
▁tlateotocani	13
▁christianos	13
▁La	13
▁quimaci	13
▁maçatl	13
▁akoli	13
notle	13
▁quimotlalilitia	13
▁momauhti	13
▁tak	13
▁tal	13
xo	13
chipahuac	13
▁quicauhque	13
▁ichpocame	13
▁nien	13
▁Josep	13
▁Cl	13
▁ze	13
titlani	13
amatl	13
tilma	13
tlahtolli	13
▁macoque	13
▁mati	13
▁nikau	13
▁bwe	13
▁tlahtoca	13
han	13
▁teixpan	13
▁Nochipa	13
▁Quaquauhtzi	13
▁ozto	13
▁cenpohuall	13
▁cuezcon	13
ojuanti	13
▁chikauaya	13
▁itlahtoltzin	13
▁cue	13
▁niztlacati	13
▁merino	13
▁nell	13
▁quitlaliz	13
lahtocateixiptla	13
ltiz	13
▁motecpan	13
▁Guadal	13
ltik	13
emimilolc	13
paneca	13
▁Neçahualpil	13
▁Tlaliztacapa	13
▁ylhuica	13
▁Nahui	13
iuh	13
▁An	13
quetzaya	13
▁huallolin	13
nna	13
▁ixtlahuapa	13
▁oquizque	13
▁ommatlact	13
▁Ta	13
▁muči	13
▁zazo	13
▁topa	13
ixco	13
▁tlayahuallolizt	13
▁poztec	13
tzinohua	13
▁Uel	13
▁totech	13
auak	13
▁antocnihuan	13
▁Su	13
namic	13
omentin	13
▁Quatlecohuat	13
▁tlaaltil	13
▁Nec	13
▁oquinequia	13
▁Christo	13
▁cicitlalti	13
▁aten	13
▁yqu	13
▁Acamapich	13
▁huaxchilli	13
textli	13
▁ayo	13
▁ami	13
▁Zatepan	13
▁campana	13
▁Hernan	13
▁Xinech	13
erdo	13
ayan	13
▁texixico	13
▁Quema	13
▁tlauel	13
▁Mizqui	13
▁Quito	13
tlaoli	13
▁michi	13
▁Santo	13
▁chiuhcnahui	13
ulhuacan	13
pí	13
tulo	13
techmonequi	13
lacatl	13
▁notlal	13
chichi	13
▁cinco	13
▁teucuitla	13
▁tleh	13
▁moihtohua	13
▁Chimalpopoca	13
▁onocon	13
▁Oqui	13
▁ximo	13
▁quexquichcauh	13
▁top	13
▁nih	13
▁Jos	13
▁calmimilo	13
▁muchinti	13
ehuatzin	13
▁karg	13
▁expa	13
▁quimacac	13
VIII	13
▁okseki	13
▁Marc	13
▁tayi	13
▁kinamaka	13
peuhque	13
poualli	13
tecuhyo	13
atol	13
▁xinachtli	13
▁Nian	13
maça	13
▁molpilli	13
▁Timal	13
namacaya	13
▁aotli	13
▁Tiçaapa	13
▁puerta	13
▁huetz	13
▁mixtli	13
encia	13
▁monexti	13
▁Tlatlani	13
▁nemiliztli	12
mach	12
▁otocon	12
▁nonacayo	12
▁qualo	12
▁xochicual	12
▁nikani	12
▁Yohualla	12
caxtolli	12
▁Cen	12
▁mictilo	12
olla	12
▁caltzallan	12
otepeuh	12
▁mochipau	12
▁Barb	12
yec	12
▁itual	12
▁Uitzilopoch	12
▁nictema	12
otlatlauhtilia	12
▁yciuhca	12
▁izquitlamant	12
▁possesió	12
ervan	12
xiptlatzin	12
youa	12
kwakon	12
▁tlalmacehua	12
▁onoya	12
ciyahua	12
▁tecont	12
▁moc	12
huilo	12
▁xoxo	12
▁hualmicuani	12
▁motamachiu	12
▁tlapalli	12
▁xiuhtoto	12
apan	12
▁conetl	12
tepe	12
▁innacayo	12
▁ha	12
▁Zanye	12
▁alta	12
oj	12
▁taaman	12
tecomatl	12
▁quimochihuili	12
▁cavallo	12
▁Tezcaco	12
▁temamauhti	12
▁Timo	12
▁chicuace	12
yacan	12
▁totome	12
▁tecuhtli	12
▁huehcauh	12
▁ixiuh	12
▁macehual	12
▁andas	12
ario	12
▁niccaqui	12
iyo	12
▁oksehpa	12
A	12
▁centent	12
▁moquetztica	12
▁iteyccauh	12
▁maytl	12
▁maço	12
onmotoquilitia	12
▁cabildo	12
▁contlali	12
▁kikuechoua	12
▁quimohuiquili	12
lazohcamati	12
▁tsikitsi	12
▁imoztla	12
▁tinemiz	12
▁quichihuaco	12
tlehua	12
▁nechpactia	12
▁quizaya	12
▁omotlacohui	12
▁polliuh	12
▁tzauhcti	12
huiya	12
▁nopiltzin	12
▁mixnamiqui	12
▁itencopa	12
▁xochime	12
▁ceme	12
▁mas	12
ol	12
▁yquiçaya	12
quaxoch	12
▁icno	12
▁Achitome	12
liloc	12
▁cholo	12
▁Por	12
▁cuacual	12
▁temazcalli	12
▁Le	12
▁Acolnauacatz	12
▁Tulla	12
▁Quauhtliquetzqu	12
▁ui	12
▁Tolteca	12
▁oquimitta	12
▁quinec	12
▁illamatzi	12
▁kanin	12
▁Huetzi	12
▁niquetza	12
ihua	12
▁mocalti	12
yaw	12
cempoall	12
upe	12
asan	12
squich	12
aliztli	12
cihuapill	12
motlalico	12
▁señorati	12
macaque	12
▁quitlacoz	12
▁Quetzal	12
▁tik	12
▁motlatocatlal	12
ano	12
▁tenuch	12
zqui	12
▁quihtotihui	12
▁apachihui	12
tico	12
▁chiquacenpohual	12
tlatquitl	12
▁huelic	12
▁matlacmatl	12
temaquixtiani	12
▁quimottiliz	12
znequia	12
▁tetla	12
macaya	12
▁quimopiel	12
▁macuili	12
it	12
▁teyi	12
tequi	12
▁huehcapa	12
peuhtica	12
▁caxtiltecah	12
▁quimat	12
▁oquinmo	12
htoc	12
tecque	12
otatzin	12
tzotzoma	12
▁moyoteca	12
uica	12
▁niquim	12
▁canato	12
equachcauht	12
▁Cemi	12
▁macah	12
atili	12
▁yx	12
npa	12
▁Xom	12
▁Chiconco	12
chiuhcnauhpohual	12
tlakatl	12
▁quinahuati	12
▁ninequi	12
▁hermano	12
▁moskaltia	12
▁xokoyol	12
▁Quexquich	12
▁ocho	12
▁quittac	12
▁amixpan	12
chin	12
"	12
▁maseualme	12
▁quinhuicac	12
nbo	12
ihuaya	12
▁Ax	12
tamal	12
▁santo	12
▁quiuica	12
▁Sando	12
▁Salome	12
yauh	12
▁tlahtlacol	12
cenyeliz	12
▁chantlaca	12
▁Quahui	12
▁mocal	12
▁occec	12
▁uajkapa	12
▁quimoneltilili	12
quimanque	12
▁ayaxcan	12
▁tlayi	12
▁xoxocti	12
ba	12
▁petla	12
tepoz	12
▁pouh	12
▁ninemi	12
tlahtoltzin	12
▁ceceyaca	12
quixtiz	12
▁xochimilcopa	12
▁masehual	12
▁motlahtocatilli	12
▁tih	12
▁mohuicatz	12
▁motlalito	12
▁ihca	12
▁nequi	12
Sennechicolistli	12
pixqui	12
lmeh	12
▁Cal	12
▁tealtiani	12
▁niquihto	12
▁quixohua	12
▁tiqui	12
▁pi	12
▁Paul	12
▁petlacal	12
▁Hernán	12
▁Chimalhuaca	12
▁taki	12
▁kuouj	12
macuilli	12
▁tlalle	12
▁oco	12
▁emperador	12
ipe	11
▁Montes	11
▁atliti	11
▁malti	11
▁kiitak	11
och	11
hualti	11
ayotzin	11
▁pachiuh	11
▁quiztica	11
▁yzcatqui	11
▁chicuepohual	11
▁tlachinol	11
▁mestiço	11
▁ompohual	11
▁mochiuhtica	11
nozo	11
óme	11
▁xitomatl	11
tencia	11
▁icontlamant	11
▁caci	11
mamani	11
▁zohua	11
▁Ayo	11
▁Vis	11
▁yma	11
▁yquizaya	11
huelitiliz	11
▁nicchihua	11
koko	11
▁mocentlali	11
wi	11
▁Cristo	11
▁oniquito	11
▁quimocuilli	11
▁yahqui	11
tach	11
▁tlamach	11
htiuh	11
jko	11
ochtin	11
ktik	11
ahuiltia	11
▁tenantsi	11
▁miactin	11
▁cateh	11
uitze	11
namiquito	11
chon	11
▁kwaw	11
dito	11
▁fundador	11
▁Bo	11
▁xochicualli	11
▁licencia	11
▁quinmomaquilli	11
▁oy	11
▁tepetla	11
▁akol	11
titla	11
▁Opochhua	11
mil	11
▁Tzon	11
▁Pá	11
▁Dami	11
▁Chicuhnau	11
▁tlatlaco	11
▁Naui	11
▁Maximilian	11
▁tiquiximati	11
▁tlamin	11
lhuan	11
▁et	11
▁Tlayllotlac	11
▁ytzintla	11
yol	11
▁Omaca	11
▁oquichihua	11
▁mochihuazquia	11
▁kiijtouaj	11
tzatzilia	11
ntzitzin	11
▁tzo	11
▁yancuica	11
▁ychpochhua	11
monamicti	11
▁titech	11
▁mot	11
cta	11
▁Tonaca	11
▁totlaçomahuiz	11
tlahtol	11
et	11
▁quicohua	11
▁albaceas	11
▁Tecuciztecatl	11
▁cepan	11
ohueh	11
▁mozt	11
▁xo	11
▁yohuac	11
▁Qu	11
▁Temilotzi	11
tlatlaya	11
▁ocze	11
ochtli	11
kachi	11
▁moxelo	11
nice	11
▁quinamacaz	11
▁onmopehualti	11
▁pres	11
▁Axayacat	11
▁yetok	11
▁ticnamaca	11
namiqui	11
tlehuatl	11
▁Nezahualcoyot	11
▁yccen	11
NIC	11
▁quipiaz	11
calqui	11
pix	11
▁itoka	11
mon	11
▁nombr	11
▁chicoc	11
▁coyon	11
kun	11
▁nanma	11
▁quechol	11
▁Oquiz	11
tzontecon	11
▁ahquin	11
chpuchtzin	11
tz	11
▁tite	11
yaj	11
tlacuihuayan	11
▁tlato	11
▁Toni	11
▁inemac	11
tilique	11
▁moquixtilia	11
tamalli	11
tonal	11
▁quicua	11
cemilhuitl	11
▁quitoti	11
▁neciz	11
	11
▁tonyaz	11
▁hueyaltepe	11
huizque	11
▁acolhua	11
icauh	11
nos	11
▁quicuiz	11
▁one	11
unta	11
▁Tecuanipan	11
▁Guille	11
▁nakatl	11
▁quicuitia	11
lihui	11
pillo	11
▁Xochiquen	11
▁nota	11
▁tlayahuallolo	11
▁oquihualhuica	11
▁amitla	11
ciento	11
tzintic	11
▁onino	11
motlatlauhtili	11
eo	11
itas	11
▁tiquim	11
▁cemana	11
▁ammi	11
▁Tlacayelel	11
nacochtl	11
▁criyoyo	11
▁kipia	11
▁kičiwa	11
▁franc	11
tecpan	11
cualita	11
nentlamati	11
▁hualquiça	11
▁metla	11
tsoyon	11
lik	11
miquito	11
▁quihualmo	11
nextiliz	11
tototl	11
f	11
▁Trini	11
▁micca	11
▁Tlachcuititla	11
▁cenpoual	11
▁hualmocuepque	11
▁timexica	11
▁tlanext	11
nahuas	11
steca	11
▁Tlatil	11
▁moyaua	11
tlahtocatlalli	11
▁quichihuazquia	11
▁pehuaz	11
▁temachti	11
▁niqui	11
▁hueh	11
▁chanehque	11
▁centavo	11
▁mocen	11
▁Cilcu	11
▁quiquetz	11
▁Tzacual	11
▁cexiuhti	11
▁conaqui	11
▁altepeyo	11
▁sampa	11
notlahtol	11
tlamantin	11
▁oquimochihuilli	11
▁Altepetl	11
loto	11
tahtzin	11
▁quimomachilti	11
▁tami	11
▁itlanahuatil	11
▁cece	11
panahui	11
yolic	11
▁ihqui	11
itzticac	11
so	11
▁tiya	11
▁mahuiz	11
▁tlate	11
epaso	11
▁oquichiuhque	11
▁quimocahuilli	11
▁wic	11
tiazque	11
▁altepepan	11
▁sito	11
▁motlatolti	11
▁omotlalico	11
▁yas	11
▁Qua	11
ente	11
▁noncua	11
nechicolistli	11
▁Sot	11
▁quintla	11
▁quipi	11
tihua	11
ej	11
tlamiz	11
uian	11
xiquipil	11
chihualloc	11
▁xochitica	11
▁xu	11
▁hualcallac	11
▁nicmacatiu	11
▁Iztac	11
ehuantzin	11
▁atezca	11
▁tehhuatzin	11
▁tlaciuhqu	11
▁Nochtin	11
▁do	11
▁pleyto	11
acahuan	11
yocoya	11
▁teat	11
▁Teotena	11
▁apóstol	11
▁maya	11
talia	11
bax	11
▁Ypam	11
▁f	11
▁inquisidor	11
tiquiz	10
▁name	10
ak	10
▁kiuika	10
▁ich	10
▁conitta	10
atiuh	10
lathuic	10
▁onxiuhti	10
pacho	10
vio	10
▁Chal	10
▁quitzinti	10
quintayocoli	10
chichic	10
▁pia	10
▁cueponi	10
▁tomahuac	10
▁motlapachoa	10
▁Quinto	10
▁nenca	10
▁quimotoquilli	10
▁mocencauh	10
ola	10
▁niquitta	10
antoton	10
▁Vera	10
cruz	10
▁Concepció	10
itaci	10
ezzo	10
gue	10
▁inyollo	10
▁onechmolhuili	10
▁tepitsi	10
▁elki	10
▁alvaceas	10
M	10
▁tzontli	10
▁motoca	10
▁comitl	10
▁cui	10
▁tlapia	10
▁moca	10
▁Ihqui	10
▁telpoca	10
▁onin	10
▁Ika	10
▁tlachpana	10
cua	10
▁minoto	10
▁uajki	10
kto	10
▁quitequi	10
chihuili	10
altepe	10
▁oquit	10
▁chilposon	10
▁tlequiquiz	10
▁quinhualhuica	10
▁paqui	10
▁aye	10
▁tomac	10
▁Coco	10
▁ano	10
▁atentli	10
tlaltecah	10
euhque	10
▁Xochitecutl	10
xiuh	10
tlatlauhtia	10
▁xiquin	10
iuj	10
▁onmo	10
mecatl	10
▁Tenan	10
molpili	10
▁Augustin	10
eca	10
oya	10
aloya	10
▁umotlali	10
▁At	10
▁motlatoca	10
nechico	10
nan	10
HUITL	10
▁cocoxqu	10
iuhqui	10
▁tete	10
▁inemiliz	10
cuepa	10
teneuh	10
▁Tecuicho	10
▁matlacte	10
▁yyoca	10
▁uauj	10
tepan	10
▁momanilti	10
otzin	10
▁castolli	10
▁Oquin	10
▁matlatzinca	10
ltiaya	10
▁hualmo	10
▁Tamo	10
anchan	10
▁quimanilli	10
▁motocac	10
▁oquimottili	10
▁tiaz	10
▁notlanequiliz	10
▁angel	10
▁Milla	10
uak	10
▁motemachtili	10
▁onihualla	10
tlalman	10
tepeual	10
▁ueuey	10
tiuia	10
peuh	10
▁Malintzi	10
▁mocaua	10
paso	10
▁amoma	10
▁tlantocant	10
▁Toyaot	10
▁quinextia	10
▁callac	10
chachan	10
▁oquimoneltilili	10
▁ithual	10
tamachihua	10
cozqui	10
▁tlatocayoti	10
▁oquimotocayoti	10
▁uaki	10
▁mopa	10
▁nochin	10
rillo	10
▁noxhui	10
nton	10
▁ana	10
▁mochihuaya	10
▁momat	10
▁itoloc	10
▁tía	10
▁yol	10
hualco	10
cahuili	10
▁opoliuh	10
▁pu	10
▁quallo	10
▁Ocachi	10
azquia	10
dam	10
rtes	10
itonal	10
▁Tziuhtecat	10
▁Malinalc	10
quiliztli	10
motlan	10
▁motataca	10
yé	10
chiuhqui	10
▁tom	10
▁cuauhtlahto	10
▁Tochinte	10
▁xolo	10
▁mocua	10
▁patiyo	10
▁reyes	10
il	10
rmo	10
▁totoli	10
onco	10
▁quitohuaya	10
▁Axkana	10
cihuatzin	10
▁nochtlaca	10
zco	10
▁popo	10
▁hu	10
▁oquitocayoti	10
▁tlahcuilo	10
▁Tollan	10
▁quallan	10
▁tokniu	10
▁Acolhuacan	10
▁seys	10
▁ohua	10
onmacuilli	10
tlapo	10
cal	10
▁tlaxcalli	10
▁Cihua	10
▁iximacho	10
tani	10
matia	10
▁quinmach	10
▁chichime	10
▁ayoc	10
tian	10
▁amech	10
iscos	10
▁Mahtlactli	10
illo	10
▁Caxtillan	10
▁Quauhnahuac	10
▁acocall	10
▁mojmostla	10
▁nimitzmaca	10
▁tzon	10
▁Timitz	10
▁Couatl	10
▁acal	10
▁xopan	10
antzinco	10
▁kinekij	10
▁Cohuatla	10
atolli	10
moquetzaco	10
▁tiazque	10
▁Matlaltzi	10
huelitzin	10
▁quitazque	10
▁sig	10
asqua	10
nahuatia	10
▁tlil	10
▁nanqui	10
▁nawi	10
sé	10
▁ticchihua	10
▁quimocuitlahuia	10
xokoyol	10
▁mitl	10
uic	10
latan	10
nek	10
▁matlactin	10
▁xiquipil	10
nequiz	10
rina	10
▁teci	10
▁tiquilhui	10
pam	10
▁nenemi	10
▁icnotlaca	10
▁Ipalnemoa	10
▁Tole	10
▁uno	10
imitl	10
▁Atezcapa	10
at	10
▁tleca	10
▁itzti	10
huel	10
▁Tepeteopa	10
▁chicuei	10
mma	10
▁iciuau	10
▁inchachan	10
etzin	10
▁Bautista	10
▁tzilini	10
▁hualnen	10
alpan	10
▁toni	10
techpohui	10
jtok	10
cen	10
▁onmotlalli	10
uaz	10
▁axoxtlantli	10
ocmo	10
▁IN	10
▁nana	10
▁mocpac	10
▁xacal	10
▁ve	10
▁niquitoh	10
oaya	10
▁chalchiu	10
olhuacan	10
▁itstos	10
tiui	10
▁ticate	10
▁teteo	10
▁noma	10
▁uala	10
▁nikilwia	10
▁Este	10
▁Cuacuauh	10
▁ixco	10
▁huala	10
▁icomilhuit	10
▁omonamaca	10
▁kwal	10
ntzinco	10
motlalis	10
▁omomachti	10
opa	10
xoch	10
b	10
▁mihiyo	10
▁ifirma	10
▁Tepantlahtoani	10
tlanahuatilmeh	10
tlamacazque	10
quizazque	10
mectli	10
▁pohuia	10
hatzin	10
ixiptla	10
▁F	10
huipil	10
acan	10
pohua	10
ue	10
▁Tlatquic	10
▁Margari	10
▁cafen	10
quimil	10
▁calnacaz	10
▁itlazoh	10
▁cualant	10
▁coni	10
▁atlauhteca	10
▁inmac	10
▁Motecuhzoma	10
pil	10
▁icmatlactl	10
yacapan	10
▁mamal	10
▁Quat	10
▁em	10
tlactlomome	10
alta	10
▁tlaltipac	10
▁quimotla	10
▁governació	10
▁kwartiy	10
▁Hueymolla	10
▁lice	10
▁Citlaltepe	10
▁nitemo	10
achi	9
clar	9
▁mocuepaz	9
mochintin	9
tinemiz	9
nezcayotia	9
tlac	9
▁yollo	9
ctiaya	9
▁ticchiuh	9
▁fuer	9
▁Uexo	9
▁matlactzon	9
ilu	9
▁Tonan	9
meca	9
▁oquimat	9
▁Conito	9
▁Cencil	9
▁hualquiza	9
▁otiquin	9
▁otomi	9
▁Tlil	9
▁De	9
mbre	9
▁tohuan	9
▁moihc	9
▁ohuic	9
caya	9
áb	9
▁días	9
▁nicuicanitl	9
▁mex	9
chane	9
▁momiquiliz	9
▁tlapech	9
▁domin	9
igos	9
▁nihuetz	9
▁nechmo	9
▁Mal	9
▁Amotlen	9
▁quimocohui	9
▁muchiua	9
▁Consejo	9
▁ticto	9
▁Boni	9
▁kostik	9
kali	9
▁opa	9
metl	9
▁totecuio	9
▁quimitta	9
ICA	9
yas	9
calque	9
tokaj	9
▁omictilo	9
lhuia	9
cahuatl	9
▁Matlaco	9
uez	9
▁tajko	9
cuica	9
tlanque	9
▁totoltetl	9
picti	9
▁chia	9
▁sebad	9
▁respe	9
▁caxiti	9
nahuatil	9
▁Eu	9
▁omococo	9
takilo	9
▁ueli	9
▁luto	9
▁quimama	9
▁quimolhuilia	9
▁mocxi	9
illi	9
cuauhtlahto	9
ihuatzin	9
lhuiaya	9
▁Cue	9
▁totlahtol	9
▁itata	9
▁for	9
▁huico	9
bla	9
▁mochihui	9
▁tix	9
▁calla	9
▁xochimilca	9
laque	9
resa	9
▁notlaçot	9
▁okse	9
tec	9
▁ilhui	9
▁yexiuhti	9
nohuian	9
▁icoppa	9
▁papaquilizt	9
▁icniuh	9
▁Tor	9
▁Hual	9
otahtzin	9
ehuatl	9
p	9
un	9
▁Temizt	9
hamo	9
▁canónigo	9
▁tequani	9
▁Quauhtemoc	9
▁candela	9
▁inome	9
iliaya	9
▁Ximo	9
▁wel	9
esto	9
▁Sim	9
▁cá	9
ican	9
▁dfo	9
▁omocallaqui	9
▁yalhua	9
▁Moztla	9
▁Tonalliy	9
▁xiccaqui	9
▁mexihco	9
▁tlahuellilo	9
yotlan	9
▁ycallaquia	9
▁nochpoch	9
▁Cali	9
siden	9
▁visurreyes	9
▁tlahtohua	9
cualli	9
ololo	9
emi	9
▁nomil	9
▁omomiquilitzino	9
▁yezquia	9
▁Ben	9
ollo	9
▁ontlachia	9
icuac	9
▁otlatoca	9
▁tlamachotil	9
▁Ymixpan	9
▁tijchiua	9
▁quinpia	9
icpac	9
▁canela	9
quimopielia	9
ázar	9
▁Tzotzo	9
tlatoque	9
▁yahue	9
▁ytlatzin	9
tika	9
xtlatl	9
pichtl	9
▁Quauhti	9
▁cofrad	9
tlananquilia	9
▁uelis	9
tzonquiz	9
▁It	9
▁iqua	9
toqueh	9
▁Aculhuacan	9
▁tihual	9
calaqui	9
cuitlaxcol	9
▁quitz	9
▁tlaqual	9
ollin	9
▁mayanalo	9
▁otlal	9
▁mococo	9
▁tlaocol	9
▁ahhueli	9
▁yolcame	9
▁yowa	9
▁matl	9
▁cenquiz	9
▁Nepa	9
uacatl	9
ihuitonco	9
quin	9
çopilhuantzitzin	9
▁cilia	9
átic	9
huanyolque	9
▁oquiquetz	9
etl	9
▁temac	9
▁seminario	9
▁cultura	9
▁nahuatl	9
▁Catha	9
▁Cha	9
aske	9
quitohua	9
▁axonka	9
▁tij	9
▁pani	9
nacatl	9
▁aco	9
▁telpocame	9
lolli	9
telpoch	9
▁calac	9
callaqui	9
▁ln	9
ga	9
▁calpol	9
mento	9
▁oquixquich	9
▁tote	9
tzitzintin	9
huatin	9
▁Apa	9
▁oquima	9
▁Quauhtitla	9
▁Epcoa	9
▁Coyoaca	9
teyxpan	9
▁Nia	9
▁koma	9
▁Hui	9
ci	9
huicpa	9
yollo	9
▁qua	9
▁ku	9
cihuatequipano	9
▁cuach	9
▁metztica	9
▁onicnemili	9
▁Com	9
▁kon	9
ltique	9
▁eli	9
▁nauhcan	9
jke	9
itla	9
▁necalli	9
▁nitlanahuati	9
▁ymon	9
chayahuac	9
▁Yztac	9
▁yehoantin	9
▁guardia	9
▁cha	9
▁molinia	9
▁coyol	9
KILIT	9
stro	9
cohua	9
▁tecpill	9
nemilliz	9
▁neneuhqu	9
▁matlactlonce	9
ós	9
▁topilhua	9
▁quinhualquixti	9
▁nimitzmactili	9
▁noyolo	9
▁quimohuiquilli	9
▁castol	9
▁ho	9
▁tlat	9
▁Mazaque	9
tlacamecayotl	9
mi	9
nti	9
▁este	9
▁ixo	9
ochi	9
▁yeti	9
▁oquimolhuili	9
ezontlalnamacoya	9
▁poctl	9
xque	9
▁toyolo	9
▁itecpanchan	9
▁conmottilia	9
▁note	9
▁mac	9
▁Cuitlach	9
lpilli	9
▁tepacti	9
olo	9
▁monotza	9
▁ixnesi	9
emachticatzintli	9
▁moyetztiez	9
▁ticateh	9
tihuani	9
▁nomon	9
ntencia	9
▁uia	9
hualiztli	9
▁mixco	9
▁tenahuati	9
▁quimanaz	9
▁Ipalnemoani	9
huicaque	9
▁Ach	9
▁tlazoh	9
▁quipie	9
▁quineltili	9
▁nocep	9
▁Nanahuatz	9
▁tlatqui	9
tiez	9
sá	9
eyxtin	9
uilli	9
itos	9
pachotia	9
▁pos	9
▁nohuiya	9
apachiuh	9
techcopa	9
yca	9
▁auc	9
aznequi	9
▁conan	9
▁inxiuh	9
▁imac	9
ueitl	9
▁taxkal	9
▁Tzonpa	9
coc	9
▁iteč	9
▁ualleua	9
layecanani	9
tlahuac	9
▁otlayahuallo	9
▁Huitzilla	9
tlanequiliztzin	9
▁omotla	9
▁oquitlali	9
▁chichiton	9
▁ynquisidor	9
yaca	9
▁atoya	9
▁virrey	9
nrri	9
▁Agua	9
tihue	9
▁alguaciles	9
▁yoki	9
▁Acolmi	9
▁ocholo	9
▁Teca	9
▁apis	9
ías	9
polihui	9
▁toquichti	9
▁ceppaya	9
cuhtli	9
▁Nameh	9
omey	9
huetziz	9
▁quihuallan	9
▁nijneki	9
▁oquilhui	9
▁hospital	9
▁motlallitzino	9
▁Tetza	9
▁toxiuh	9
▁macuiltetl	9
▁Itech	9
▁diario	9
▁Tenayoca	9
hoa	9
▁oquiten	9
▁tlejko	9
cah	9
cpac	9
▁Nahuaque	9
▁ycnocihuat	9
▁nahual	9
▁tiachcauh	9
xoxouhqui	9
▁ei	9
namiquia	9
cuauh	9
▁Ytzco	9
▁Tequi	9
ehuantin	8
▁ihuitl	8
ihuiyan	8
▁cochiz	8
▁nopiltz	8
tihuetzi	8
▁tlapani	8
ati	8
▁nex	8
▁Quateot	8
▁mori	8
llos	8
inanyo	8
▁huipil	8
euh	8
nime	8
▁çe	8
▁Huey	8
tiachcauh	8
macxoya	8
▁yntocatzin	8
▁ynfirma	8
ihtic	8
▁Cas	8
▁Quihto	8
▁conetzin	8
cocohua	8
pohual	8
▁sabado	8
▁ytlaca	8
▁Silv	8
▁Yon	8
▁kua	8
▁oticma	8
▁cemilhuit	8
▁ypatiuh	8
▁mocentlalli	8
calaquia	8
▁oual	8
▁cocoliz	8
▁elot	8
▁ihuic	8
▁chololteca	8
tiquiza	8
▁çatepa	8
tlapactli	8
▁temaco	8
▁moto	8
chiquacen	8
▁tomat	8
or	8
temohua	8
teopan	8
▁mazatl	8
▁axiuac	8
▁Pan	8
centlamantin	8
melauac	8
huico	8
▁quimoteochihuil	8
toquili	8
▁eztla	8
aro	8
▁naranja	8
▁otleco	8
▁kimaneloua	8
▁ninotoca	8
▁Chimal	8
▁yectla	8
▁kwa	8
▁nocuell	8
nacayo	8
▁Ytzcahua	8
▁otitla	8
▁tlema	8
▁otit	8
▁moskalti	8
▁ytlacahui	8
▁itauhcayo	8
▁The	8
▁paht	8
huehue	8
uelita	8
▁xochiyojt	8
nichoca	8
▁kali	8
▁conteca	8
▁Muñ	8
▁cualyotica	8
tlatoaya	8
ño	8
uin	8
ihuan	8
huili	8
▁tlamaceuh	8
▁toxochi	8
▁nohpalli	8
noch	8
▁tomatic	8
ilpi	8
▁onimitz	8
ras	8
▁quicuillo	8
▁Ceyno	8
▁pain	8
▁Bel	8
rtyr	8
tsitsi	8
▁Az	8
▁ylhuicac	8
▁kiteuatsa	8
▁occentlamantin	8
ocalaquia	8
▁ximotequipacho	8
notza	8
▁oquimicti	8
▁quiyahuallo	8
▁itenco	8
▁močin	8
▁Ern	8
▁acic	8
▁macocui	8
▁komal	8
ntlali	8
yohual	8
huic	8
H	8
▁Franci	8
▁motocayoti	8
colegio	8
malina	8
▁isisna	8
▁oniquihto	8
▁ompoal	8
▁oacic	8
ETZA	8
▁imomextin	8
TIN	8
nex	8
▁Ro	8
nanquilli	8
N	8
▁tiyaca	8
▁aciz	8
▁huatzinco	8
tlap	8
▁nochpochtzin	8
quetzal	8
chalchiuh	8
▁ytztia	8
▁kosa	8
▁Tlacopa	8
▁Motelchiuh	8
▁hualehua	8
tlahtollo	8
▁cactiman	8
motlachcuitlaxil	8
▁tiquizaz	8
mahuiço	8
▁Tlotli	8
▁quimaxiti	8
▁oquitta	8
▁ihcac	8
popo	8
zenquizca	8
▁popoliuh	8
▁yxhuiuhtzi	8
▁cuixcoc	8
motlaocoliliz	8
cuiliz	8
▁hualyetia	8
▁quicuaya	8
▁totlazo	8
maka	8
▁informacio	8
▁tochi	8
▁monechico	8
quiçaya	8
lizpan	8
▁Tecayehuat	8
uctli	8
entre	8
▁toch	8
▁calaquizque	8
cobar	8
▁tlahueliloc	8
▁tecamapa	8
cateh	8
tlaocol	8
▁quiçaz	8
▁much	8
teupan	8
▁Moquiuitzi	8
zolli	8
tlamellahua	8
lican	8
▁Lu	8
▁motequipacho	8
diá	8
▁alm	8
▁otlatlanil	8
anazque	8
▁tlachia	8
▁bara	8
▁mana	8
couatl	8
▁oticchiuhque	8
▁tict	8
▁Ahuat	8
▁titlato	8
▁cano	8
▁momachtiz	8
tálo	8
huicaya	8
▁tlatoz	8
▁ninomaquixti	8
▁quimonapalhui	8
▁xoconochtli	8
ixnamiquiz	8
misa	8
▁ommacuil	8
sej	8
▁Neçahualcoyot	8
tenamic	8
▁tiquitoz	8
▁iuelti	8
itia	8
tolo	8
▁momaca	8
▁anahuaca	8
▁kiita	8
ualco	8
toz	8
▁kiajsi	8
xolal	8
▁huecapa	8
▁itzotzoma	8
▁comal	8
teuhctitlan	8
▁intzonteco	8
▁quintlalli	8
tihuetzca	8
▁quita	8
▁quicuic	8
▁nekwa	8
▁conpehualti	8
▁huaqui	8
▁ichpochtzin	8
▁itzon	8
uauhnahuac	8
▁quinmo	8
▁tlatzacuiltiloz	8
▁miquia	8
▁conquetz	8
▁ohuall	8
molloc	8
▁nappa	8
▁Fra	8
▁Atl	8
npaneca	8
▁oquimonamicti	8
▁quixmati	8
ppoal	8
oconcuic	8
cual	8
▁itztic	8
yohuac	8
▁mictlan	8
▁caquizti	8
neda	8
▁XV	8
▁Car	8
▁yaomic	8
nki	8
▁Tecpan	8
nic	8
▁motetoquilli	8
▁oraciones	8
▁quix	8
▁yexpa	8
▁nentlamati	8
icno	8
▁zazan	8
yotica	8
▁cone	8
▁Huehueyo	8
šilti	8
ocelotl	8
metztaya	8
panolti	8
▁Macuil	8
▁itstoke	8
▁sabe	8
▁yajke	8
▁Ueue	8
ohuatlayauhcan	8
enca	8
▁Kani	8
▁Teopan	8
htiliz	8
▁caxtil	8
▁moquatequi	8
úñ	8
tlactloce	8
tlatlami	8
mimichtin	8
▁barrio	8
ilti	8
uallaque	8
▁ahquihuan	8
▁ilamatzi	8
micti	8
▁nicno	8
▁cocoxque	8
poloa	8
▁Tell	8
▁nauhte	8
▁popolihui	8
tlatolmelauh	8
uacan	8
▁nauhpohual	8
tztli	8
▁tlaix	8
▁tlamama	8
cahuaz	8
▁tlacuchcalcat	8
pielia	8
▁Sierra	8
▁nicchihuaz	8
▁Ch	8
coni	8
oti	8
▁moyolloh	8
ihiyo	8
▁niquiza	8
▁mela	8
▁Tlatel	8
▁mocahuaz	8
▁quimil	8
lloc	8
lca	8
mapan	8
cuali	8
▁Nopa	8
▁neka	8
ostej	8
▁yetzonxi	8
▁otlachi	8
▁yncal	8
▁tetzauitl	8
ahuia	8
tencatl	8
mah	8
▁cuahcual	8
▁ju	8
çaca	8
▁ocuach	8
hke	8
▁Acol	8
▁ceb	8
lolco	8
▁itlaço	8
▁monechicos	8
▁Tlahtol	8
▁oquauhtlahto	8
▁cihuapil	8
*	8
▁lis	8
▁esk	8
▁ueue	8
▁etl	8
cihuauh	8
▁Jua	8
▁quitequipacho	8
lica	8
▁Porf	8
irio	8
onalli	8
▁patriarc	8
▁uico	8
▁Hueymac	8
▁quiihtos	8
wili	8
▁iteocaltzin	8
▁az	8
▁iy	8
coatl	8
tequiti	8
▁Faustin	8
home	8
▁ticneltil	8
▁xoc	8
▁intlac	8
▁oton	8
▁quimaca	8
▁Mimich	8
▁iteopixca	8
açi	8
▁panoz	8
▁tlalla	8
▁Tlotepetl	8
▁Yo	8
des	8
chihua	8
▁occeh	8
▁capell	8
▁quimonamiquilli	8
▁nemizquia	8
matzin	8
▁conmocaquilti	8
▁Aust	8
▁trigo	8
oyahque	8
▁tlacoch	8
▁ocalac	8
▁Gan	8
▁nauhtlamant	8
▁Xim	8
▁Tlalteca	8
▁quihualcui	8
contlaza	8
zhuatl	8
▁Mallat	8
▁ynpilhuan	8
▁oncas	8
▁tlachie	8
▁Amax	8
▁oquico	8
▁mohuentique	8
xca	8
re	8
tzacual	8
gustin	8
▁papan	8
▁yaoteca	8
▁quih	8
▁techyahualloto	8
▁nomati	8
▁huia	8
▁yoma	8
▁Aguila	8
▁nikin	8
chilcuitlaxcolli	8
▁tiquita	8
tlapehpeni	8
▁texo	8
▁ycnahui	8
▁tinemizque	8
aua	8
ría	8
kuoui	8
U	8
▁Sen	8
▁Mazatl	8
uilana	8
▁noce	8
▁tonahuatlahtol	8
▁quatro	8
▁timiqui	8
melahua	8
tlactli	8
ama	8
▁moteneuhtzino	8
▁tinen	8
▁močiwa	8
▁motemachtilli	8
▁ja	8
altique	8
▁tlatlatlauhtilo	8
▁mollon	8
▁tlapoali	8
▁connoz	8
▁temoc	8
▁ab	8
▁Huitzilopuch	8
▁yui	8
namiki	8
petlapan	8
▁tehoanti	8
ros	8
tocan	8
hualmotlali	8
omotlahtocatilli	7
mellahua	7
lado	7
▁tlaxkali	7
tlatlani	7
▁mexihca	7
▁otinech	7
pepeyoc	7
▁nimonan	7
▁uetsi	7
▁ticmocuitlahui	7
▁tlahuelilo	7
tepehual	7
▁otlama	7
▁kima	7
cavaz	7
apana	7
▁monahuac	7
▁tlacualo	7
▁tlaquetzal	7
▁itec	7
▁quintlatlauhtia	7
▁sacramento	7
celiya	7
▁iztay	7
orden	7
▁quintocayotia	7
nes	7
tenan	7
▁atitla	7
▁tlatlani	7
yxti	7
coaz	7
oaz	7
▁teyol	7
▁huehuentzi	7
otoca	7
imopilia	7
▁Ipal	7
miz	7
▁Rodr	7
▁omotecac	7
▁matlalt	7
▁niccohua	7
▁caltepito	7
xtin	7
chitzin	7
▁wakun	7
bal	7
▁itek	7
▁hualmoman	7
cuitlapil	7
pitzac	7
tocayotia	7
▁šiw	7
▁tanto	7
OLLI	7
▁mozcalti	7
▁ihiyo	7
laca	7
▁Cequi	7
▁XVII	7
▁Polo	7
▁calman	7
ntlapal	7
motlapohpolhuili	7
▁pisil	7
▁mone	7
▁caltech	7
▁Nimitz	7
tlacahuan	7
uecauh	7
▁Petro	7
▁tlitl	7
tohua	7
▁oyeca	7
▁tlamahuiztili	7
▁quinpillo	7
wia	7
mosewi	7
▁Ha	7
▁yuli	7
temoctzin	7
▁Tlacahuepan	7
▁patr	7
▁tlapacho	7
▁manzanah	7
ropa	7
▁icnauhca	7
▁chico	7
▁ohualnenen	7
poztec	7
toma	7
manili	7
▁tlalpollo	7
tlecahui	7
▁toplantita	7
▁teipa	7
aga	7
nta	7
quicac	7
▁hoc	7
iya	7
▁dies	7
▁tlatlanilo	7
▁tlale	7
▁oma	7
▁icmacuil	7
▁Tepa	7
▁Gali	7
hca	7
▁cuicani	7
▁tlamana	7
▁ualtemo	7
▁tlamati	7
▁Pasqua	7
tlanahuatilli	7
▁tepehuani	7
▁Jesucristo	7
kilnamiki	7
xitia	7
▁ixic	7
▁oquiquixti	7
cuilohua	7
quechtlan	7
▁tijneki	7
umár	7
▁kuatitla	7
▁netotilo	7
▁quimamati	7
quetzqui	7
▁tictocuitlauia	7
ueytlatoca	7
▁itha	7
▁Cua	7
▁icchicuace	7
▁Xiuht	7
▁moce	7
▁provincia	7
xiuhtlapohual	7
▁Quipia	7
▁yhuiyan	7
▁moilui	7
▁tot	7
▁yolca	7
ehuayo	7
▁iteco	7
▁atentlipa	7
▁Acatla	7
▁notomine	7
▁motequipano	7
caltech	7
istat	7
huacam	7
loca	7
yeyan	7
▁cavallero	7
pez	7
iel	7
▁ilihuiz	7
▁notzalo	7
hquen	7
▁tlapalti	7
▁tiquitta	7
ejo	7
jor	7
fa	7
▁Tzapotla	7
▁tiquittaz	7
▁kejn	7
tlahtohuaya	7
▁oquimochihuili	7
tejki	7
▁napoal	7
eya	7
▁quinnonotza	7
▁ichpuch	7
▁XXVII	7
▁quauhnauaca	7
▁yohualpa	7
▁temachtique	7
poliui	7
▁Izta	7
▁onya	7
tlakwa	7
▁coton	7
▁chiqui	7
▁otlacauhqui	7
▁Aten	7
tlaytlaniliztica	7
▁quelehuia	7
▁firma	7
iti	7
▁otihual	7
▁oquicauh	7
▁Quauhtepec	7
cenyollo	7
▁inacaz	7
▁opoliuhque	7
piloua	7
motla	7
▁ytlaço	7
▁tzilli	7
▁tlacopaneca	7
▁quixitini	7
▁chollo	7
▁conitu	7
▁itlah	7
▁ayauh	7
▁amaca	7
▁tococ	7
▁niccahua	7
tecuiyohuan	7
▁anquin	7
▁Mac	7
tlamellahualti	7
▁iselti	7
epanca	7
▁Hispantlal	7
▁quimocuitia	7
▁quimoquechili	7
▁Quemah	7
yso	7
nal	7
oči	7
▁nicnotza	7
▁amotla	7
▁nohuan	7
▁iamox	7
ohuaya	7
eras	7
▁ç	7
▁sopilote	7
▁kintla	7
▁noteuh	7
mamá	7
▁hualmoquetza	7
▁omocuep	7
▁Totecuio	7
tlayocol	7
tlamotla	7
▁telpuch	7
miquiz	7
xtik	7
▁quihcuilo	7
▁Quezqui	7
▁ymi	7
uxcux	7
tihqueh	7
▁tlaol	7
once	7
▁Chalchiuhtli	7
quetzque	7
▁ihuaxca	7
▁mocuep	7
▁tlachihualli	7
▁maicni	7
▁tlachihualti	7
▁macehualtzitzin	7
▁hualca	7
▁persona	7
▁yxiptla	7
ucho	7
cuel	7
▁Map	7
▁tohuey	7
cihuatlahtoca	7
edes	7
otlak	7
▁mopehualti	7
▁Apepetz	7
én	7
motlacatilitzino	7
▁monamic	7
▁namatl	7
▁ticnequi	7
nehnemi	7
▁kwalika	7
▁ičan	7
totlatol	7
▁totol	7
tor	7
▁nep	7
▁tacizque	7
ahuil	7
polohua	7
▁Atzaqualc	7
imitac	7
▁quinamiqui	7
▁muchihuaz	7
▁quimonilhui	7
▁kiualika	7
tlapal	7
▁pleito	7
▁Tlaçotzi	7
▁teuhctlahto	7
omeca	7
▁quiqua	7
▁coatl	7
▁oquitlanque	7
cahuilli	7
▁Uitziliui	7
▁Tepan	7
▁Acolnauaca	7
▁callihtic	7
▁notahtzitzihuan	7
tlehcoz	7
tzontec	7
aller	7
▁koyo	7
▁omompo	7
▁teko	7
cuicatl	7
caquitia	7
▁tamech	7
▁palani	7
▁Matla	7
cocol	7
ilpia	7
quixohuaya	7
▁tlacochcalcatl	7
htalhuia	7
▁mimiqu	7
▁mototoni	7
ichan	7
▁tepilolcua	7
▁tepilolcuauhti	7
hueli	7
▁ixcua	7
kamoj	7
▁tlaxilacalpa	7
motlanahuatilia	7
akaj	7
tepitztic	7
xueli	7
▁mitotia	7
▁omotlacatilli	7
tiuitz	7
▁tlamahuiçol	7
▁choquiz	7
tlatlauhtilli	7
▁Ual	7
rón	7
palehuilo	7
▁Azcap	7
tzalco	7
▁Uauhquil	7
▁honcan	7
▁quinequiz	7
▁Cohuatl	7
iuitl	7
ini	7
▁Toci	7
▁Tep	7
▁quihta	7
ine	7
▁nicmelahua	7
▁quitzitzquia	7
mocuachhui	7
atilia	7
coya	7
▁titemo	7
tekpi	7
▁informaci	7
▁calmeni	7
sos	7
▁nocni	7
▁tonehua	7
▁oypan	7
alem	7
▁Babylon	7
▁Huei	7
▁itlahtollo	7
▁ixtlauatl	7
▁tim	7
▁Coa	7
▁quinpacho	7
▁quimonequiltia	7
▁año	7
▁mocuitia	7
▁intloc	7
tlaquimilol	7
yaque	7
▁quimottilli	7
altzin	7
▁desd	7
▁dizie	7
▁kipoyelia	7
▁motlatolcuepaz	7
▁otlacatque	7
▁Momauhti	7
▁notechmonequi	7
▁tezcaco	7
altepetl	7
hualoc	7
▁oquineltili	7
▁yato	7
nemitia	7
▁Tzompan	7
monequiltitzino	7
▁quipolo	7
▁kamoj	7
▁kipixto	7
▁quinanquili	7
▁Mictlan	7
▁hueyiatl	7
▁yeho	7
iki	7
▁cecec	7
▁tzitzica	7
ieuayo	7
▁Xolloc	7
▁Chimalpahin	7
▁contla	7
tzallan	7
▁cequin	7
▁oquitoca	7
▁Tlahcoxonacatl	7
tlazotlaya	7
▁motlahtolti	7
icnequia	7
cuili	7
▁Que	7
milli	7
▁nocniuh	7
▁niyaz	7
▁quipatla	7
onpehua	7
teopixque	7
▁zanyeno	7
▁quinchiuh	7
tepotzco	7
▁nemiz	7
ida	7
▁Acoc	7
rte	7
▁ythual	7
▁otlachalani	7
▁tlapohual	7
▁sikiera	7
atlactli	7
▁quichihuas	7
▁ocualicaya	7
▁ohualtemo	7
yehua	7
kwitlaš	7
ectli	7
▁mocencahua	7
lcá	7
ntar	7
▁marque	7
▁ohuiloa	7
yoj	7
▁toteouh	7
`	7
▁mierco	7
▁chicomilhuit	7
lar	7
yolqui	7
▁momoz	7
▁inteyacanca	7
aška	7
▁neltic	7
▁cuachcal	7
tlaliz	7
netoliniliz	7
▁Nica	7
▁tie	7
▁ticmatiz	7
huecauh	7
▁uitz	7
▁Motolini	7
▁Cecen	7
momachitia	7
▁ohuatzintic	7
▁Casta	7
▁ylhuicaa	7
cikawas	7
vicario	7
orre	7
▁tetecuhti	7
▁yectic	7
▁Baltesa	7
▁tlay	7
ijuanti	7
▁iteyc	7
caz	7
▁Ozoma	7
▁Tzonpahua	7
tlapachol	7
▁tlaskamati	7
▁achitonca	7
▁mocaqui	7
▁chinan	7
aparri	7
▁amoyollo	7
▁ninomati	7
nonotzque	7
▁macuilxiuhti	7
itac	7
▁kwika	7
▁Huitznecahual	7
▁incihua	7
nemiliz	7
▁XVI	7
itstó	7
▁tlatotonia	7
▁ytlacamecayo	7
▁conitoti	7
▁quinpactia	7
▁necht	7
▁zacatl	7
▁quimomachitia	7
▁quau	7
▁quitlaco	7
▁tlatoa	7
▁yllamatzi	7
▁nopilo	7
▁itechpan	7
▁gr	7
entos	7
quinoc	7
	7
iliztli	7
wela	7
mador	7
▁oquinmaca	7
chcue	7
▁amaix	7
▁tlamelahua	7
▁ikone	7
▁tlateochihual	7
▁tleyc	7
halchiuhtlahtona	7
▁maquiz	7
altia	7
wakun	7
▁kal	7
▁tomatl	7
▁Nem	7
▁anima	7
urga	7
▁corregidor	7
▁quimottili	7
▁onechilhui	7
▁quimotlapalhui	7
▁Sanctíssim	7
▁cococ	7
cuecuexa	7
▁quimonahuatil	7
tlapaltzin	7
▁tetta	7
monec	7
▁copal	7
uiztli	7
sen	7
tlalcoual	7
▁niva	7
ones	7
▁medio	7
▁Tetzcuco	7
itztihui	7
▁tecouani	7
▁oquipehualti	7
▁otlihpa	7
▁pilokichpiltsi	7
▁hueyatl	7
xi	7
▁tiça	7
▁nele	7
▁Acap	7
quixti	7
▁nono	7
ienda	7
▁Ytz	7
tlatique	7
▁hualcallaqui	7
▁tlame	7
▁hualmehuiti	7
▁otlathui	7
▁nicnotlamati	7
▁mopatla	7
sla	7
xochiyo	7
calmecac	7
▁otiquitta	7
▁hualmocuepa	7
▁bay	7
▁hualhui	7
ciuhca	7
opuchco	7
▁motlaliz	7
▁Chi	7
huelli	7
nijki	7
lamanca	7
▁aman	7
cuillohua	7
▁tlamaniti	7
son	7
▁ocse	7
▁Cempoall	7
stin	7
▁yt	7
▁omopouh	7
panoaya	7
▁iyolloco	7
▁nocue	7
▁omotlapo	7
tiloc	7
▁omononotz	7
▁cenquizca	7
amox	7
cuilo	7
▁cacoc	7
▁capill	7
molhuili	7
▁kana	7
▁tekit	7
tlatohuani	7
▁occan	7
▁coyohua	7
ahue	7
▁teixco	7
▁colo	7
tlatlahtia	7
quitaque	7
▁tlatillo	7
▁sant	7
quauhtli	7
eme	7
▁novie	7
ocatl	7
▁Yeh	7
▁Vizcay	7
▁quicoco	7
rre	7
▁uits	7
▁tlaka	7
▁caxtoli	7
▁ticuicani	7
▁tiquihtoz	7
▁Tequixquipan	7
▁ompeuh	7
tlapan	7
▁imatica	7
▁oka	7
▁Tepoztl	7
mallinal	7
▁maseual	7
▁zacuan	7
▁vel	7
▁lu	7
▁Coru	7
moquetzaya	7
▁xami	7
▁Coyoueue	7
ndado	7
▁Mont	7
▁tlapic	7
▁xochimila	7
▁quimocaquiti	7
▁Topantemoc	7
▁toaltepe	7
▁quimontocatia	7
▁Zorita	7
▁oquinanquil	7
▁Ynquisició	7
cmatlactlomome	7
rey	7
asilio	7
chihuaya	7
▁pactia	7
ansa	7
cias	7
amelahua	7
▁omihtilhui	7
▁Oso	7
litec	7
nanakat	7
▁nicuhtzitzi	7
▁toltecatl	7
entetl	7
▁teč	6
▁tlazotilma	6
ecni	6
▁uexotzincatl	6
▁Caxtolli	6
▁motlan	6
huallamattia	6
cel	6
▁immitzin	6
▁otimo	6
▁noc	6
▁otoconcu	6
yampa	6
▁inxiuhtlapohual	6
▁xiuhtla	6
tlapohual	6
tze	6
motta	6
▁timochi	6
▁icococa	6
tipa	6
▁Cuauhtli	6
ouat	6
▁otequiti	6
▁ycallaquiyanpa	6
▁beint	6
ajuia	6
▁Coz	6
▁inhuel	6
tlahuilli	6
▁conmotlalili	6
▁quinmocuitlahui	6
▁arçobisp	6
▁Mochipa	6
▁Amitla	6
tocaya	6
habito	6
▁totlaçottatzi	6
▁quizaloz	6
macehua	6
auhcampa	6
▁teteuhcti	6
tex	6
▁tlajko	6
htin	6
hcan	6
uatro	6
▁quixtlahuaz	6
▁Justi	6
lozque	6
▁august	6
▁cator	6
▁motlallia	6
▁toconito	6
▁tepahti	6
▁Teyehua	6
▁Neh	6
▁Pochtla	6
uhtiuh	6
▁tlahca	6
▁teki	6
▁teš	6
wec	6
▁toyao	6
▁timota	6
ilo	6
tób	6
▁quimi	6
uc	6
mmaca	6
▁natzin	6
▁pollihui	6
▁chilacachtextli	6
hue	6
nenepil	6
uayan	6
▁noncuica	6
▁totatoc	6
▁ticmaca	6
▁ihuel	6
colli	6
▁nepapa	6
▁Villa	6
ihuaconetl	6
▁ichte	6
quicauhtia	6
▁Tecui	6
▁titlanamacazqui	6
motlanahuatilli	6
▁quauhtlapecht	6
inechmopahcayohu	6
▁huehcahua	6
▁uecaua	6
▁mopouh	6
nete	6
▁moquetzinotica	6
neyxcahuil	6
▁yhuelli	6
▁quimixnamiqui	6
▁Asi	6
▁xihualla	6
▁icxi	6
▁tecomatl	6
pouhqui	6
▁momacaz	6
▁monemiltia	6
▁metsti	6
▁tlamamal	6
uil	6
maquili	6
ebes	6
▁pati	6
▁Itzt	6
poua	6
poyahua	6
▁Ycno	6
▁otecaquitil	6
▁Flor	6
▁quimpehua	6
tlapallo	6
▁tamal	6
omeh	6
▁niquitlani	6
▁nohue	6
quatequi	6
▁tlatlauhqui	6
▁icol	6
▁tema	6
▁iyao	6
quiliz	6
▁kimeua	6
▁mahuilti	6
▁Tlacateuh	6
▁Tepo	6
tlalmomoz	6
▁cuepon	6
▁estandarte	6
▁quihualmihualli	6
nopilhuantzitzin	6
▁quimoquenti	6
çoquiquixti	6
ehuetzquiti	6
quema	6
oncexiuhti	6
nezcayoti	6
▁CHIL	6
▁Mohuic	6
▁nechca	6
▁tec	6
▁quicauhti	6
▁Nopiltzintzin	6
▁cuitlapill	6
▁atlapall	6
tentli	6
alti	6
motlalli	6
▁tekitl	6
▁anquito	6
▁oniquitta	6
manta	6
▁imman	6
▁yeni	6
▁llice	6
▁gentiles	6
▁tlacuillo	6
cio	6
ales	6
▁monepano	6
quilia	6
▁komalko	6
▁Itla	6
ako	6
▁ynacaztla	6
▁niaw	6
llocan	6
ampa	6
▁mical	6
▁Uitz	6
Tenochtitlan	6
▁lea	6
techachan	6
ntzi	6
▁Coza	6
▁xochitla	6
▁Malitzin	6
▁Lú	6
▁oniquita	6
▁Dan	6
▁cuicca	6
▁iyolloh	6
▁yxquichca	6
▁quineltiliz	6
kisas	6
▁quitlatia	6
▁Xicala	6
icnopillo	6
cahuato	6
▁quimocohuiz	6
ilui	6
▁quinquixti	6
pocht	6
▁oquimotla	6
epke	6
mando	6
▁imma	6
▁tzonteco	6
▁ajkopa	6
▁cri	6
▁olini	6
▁tlachihual	6
▁itz	6
▁Yalhua	6
▁oyeco	6
▁quicuiliz	6
▁Joven	6
qué	6
calehcapo	6
▁xitl	6
pollo	6
manaya	6
sako	6
▁achtopan	6
▁yntlatqui	6
▁yntlatoca	6
▁oquinyacan	6
▁achcacauhti	6
▁callaquia	6
maxitic	6
▁huiloa	6
▁tlapac	6
▁huetzti	6
▁Quauhtzetzelt	6
▁onmatl	6
lama	6
▁contoca	6
▁tos	6
esek	6
quimopialia	6
▁quiteylhui	6
▁molpi	6
▁mohuetziti	6
moctzin	6
▁quipollo	6
▁yaca	6
▁kimikti	6
▁nocel	6
▁onechtlaocol	6
axcatili	6
huane	6
▁Nonohualcat	6
▁nicneltil	6
xa	6
calpol	6
▁Nanal	6
▁tepanecatl	6
kwali	6
▁Fi	6
▁Tlatlahtocayo	6
▁yaoc	6
tlachihualtzin	6
▁timitzno	6
ltzinco	6
▁moteneuh	6
terre	6
▁pipi	6
▁yauy	6
kalaki	6
▁cocox	6
▁Muteuhcçuma	6
machio	6
▁quiteneuhti	6
achcocolhua	6
▁tlanepanol	6
▁kikualia	6
▁Ehecatl	6
▁ahuiyacan	6
▁Iz	6
▁tecua	6
▁conpatla	6
mokejketsa	6
hpa	6
olton	6
▁quilpi	6
▁tlachallani	6
▁oumic	6
▁ičpokato	6
▁tiamiqui	6
cayohua	6
E	6
LLI	6
quixmati	6
liliztli	6
▁mahuiztique	6
chipahuaque	6
▁momatiz	6
iotl	6
▁Acolhuaca	6
▁Quauhtlatoa	6
nexti	6
▁otlih	6
▁icih	6
▁yxhuiuh	6
▁quinyacan	6
▁huexotl	6
▁Chicon	6
eltica	6
alticpactzin	6
▁alma	6
tlal	6
▁yoa	6
▁tetlaocolti	6
escuela	6
▁merce	6
laloya	6
▁quihuinti	6
huitltemoc	6
calihtic	6
▁una	6
Ca	6
▁Cuauhtzin	6
wis	6
▁ganin	6
ias	6
▁huecapan	6
▁quitztica	6
▁azta	6
▁itlaquen	6
ematl	6
▁cox	6
▁mism	6
▁mohuaxca	6
▁totlatqui	6
ilis	6
▁Octepitzin	6
▁Quimach	6
▁ixtlahuatl	6
▁huallehuac	6
▁kikaua	6
▁ixmati	6
▁Bartholomé	6
▁oquimoteoti	6
apa	6
▁nonan	6
sión	6
▁quimonequilti	6
quimicuilhui	6
▁oualla	6
▁yntlal	6
▁ixtla	6
choquiz	6
▁tlatzacual	6
quizqui	6
ihuitl	6
eso	6
▁čiki	6
ixtlahuaz	6
▁tlilli	6
ikan	6
yaoyo	6
▁Bonifacio	6
▁icalaquia	6
▁cuele	6
uallitlan	6
pinauhti	6
hihua	6
etitlaniz	6
tlaelehuiliz	6
▁quitlallia	6
temoa	6
▁Regin	6
um	6
▁timonequilti	6
pi	6
▁Bernab	6
▁Noca	6
▁tlacualchih	6
▁tlacayo	6
lahtolli	6
quixtia	6
mama	6
quetzalli	6
▁mulato	6
▁quit	6
▁Ticpia	6
▁malinalca	6
▁Citlal	6
▁omotlanahuatili	6
▁miequi	6
▁yaotlato	6
▁ispan	6
▁hualhuilohua	6
▁pipiltont	6
▁Ru	6
▁epohual	6
▁mowika	6
▁weya	6
▁onicon	6
▁quinyaoyahuallo	6
▁quimochihuilia	6
rda	6
tlachicahuilili	6
▁moyocoya	6
▁tiaca	6
lantlaca	6
▁quetzaliz	6
▁ualmo	6
▁matlaquilhuit	6
▁tequitizque	6
yolo	6
opolla	6
▁tetzahua	6
▁hualte	6
uiquili	6
▁motetzahui	6
tlapalehuia	6
▁temazcal	6
macpal	6
totonil	6
tlatzoal	6
▁tlamani	6
▁Cuica	6
aquia	6
▁chikaua	6
▁niki	6
▁Hecatzin	6
▁huapal	6
tecpaneca	6
▁oquica	6
pahuic	6
tlahuitol	6
▁ahua	6
uiaya	6
liuhtica	6
▁tlaxilacal	6
▁Maquimatica	6
▁monan	6
▁excan	6
▁tlahtolloyan	6
▁kometa	6
uili	6
ualhuia	6
▁ipehuaya	6
idad	6
▁motlapacho	6
Al	6
▁metzt	6
▁Oya	6
▁kaltsinta	6
▁quinnahuati	6
▁Ihquion	6
▁xih	6
▁ahciah	6
ab	6
▁xoxoui	6
▁Paz	6
▁onmaxi	6
xaya	6
▁choquizt	6
▁niquita	6
zoh	6
calmimilo	6
▁otitononotzque	6
ualmotlalli	6
totoca	6
▁icuiliuhti	6
xanco	6
▁xitinque	6
nequia	6
▁Tlananquili	6
▁Cohuatzin	6
chihuazquia	6
▁oquinmicti	6
▁moquixtia	6
icuiliuhti	6
▁Mixcoua	6
▁tlatzquito	6
▁quiixtlali	6
xitinque	6
▁cecentlamant	6
ltic	6
▁Yacahuetz	6
▁Zorida	6
ahuilti	6
▁tlacateccat	6
▁quitlapo	6
▁hualtecauh	6
ar	6
▁espir	6
itu	6
▁mellel	6
tlayohuaz	6
tzonquiça	6
▁onicac	6
▁quintolini	6
callac	6
▁Nino	6
▁ihquin	6
▁mococoa	6
▁limon	6
altin	6
metzpa	6
▁patio	6
▁Momoztla	6
▁machiyotl	6
▁cehual	6
eua	6
▁niquauhtl	6
▁taka	6
▁kuento	6
eocolhua	6
W	6
▁Yaotzin	6
▁mictillo	6
▁yewi	6
▁yoquich	6
▁quinmoquixtili	6
neuhque	6
▁quilhuiquixti	6
▁cochia	6
lloni	6
▁mitzmo	6
▁toton	6
ispan	6
miquillitzin	6
▁teuc	6
pozon	6
▁cehui	6
▁huitza	6
azqual	6
▁chicontetl	6
niquilhui	6
nechichihual	6
▁cohuatequitl	6
▁xoco	6
▁pregun	6
nemizque	6
▁xiqui	6
tetzotzon	6
hiuhcnahui	6
▁timiquiz	6
▁ihuinti	6
▁ixhua	6
▁cuah	6
▁Iyol	6
ltzallan	6
▁icihuahua	6
▁iicniuh	6
▁nohhui	6
popocatzi	6
▁Yxco	6
▁mal	6
▁tenantzin	6
▁elotl	6
miximati	6
▁quilpilli	6
▁acame	6
taz	6
▁yotla	6
▁Anca	6
▁quenman	6
▁timotla	6
▁tapach	6
span	6
ilhui	6
▁Motecuzoma	6
spañoles	6
tek	6
▁Just	6
izquixochitl	6
huiliztli	6
▁chichil	6
▁Tlillan	6
itiuh	6
▁chicuacenpohual	6
▁quimach	6
▁polihuiz	6
▁deci	6
tillo	6
nacaz	6
▁yyao	6
▁Quauhtla	6
▁nicnemilia	6
▁niquix	6
▁treinta	6
zinco	6
▁xitech	6
▁taxca	6
teyacan	6
▁Moquihuix	6
▁nicquetz	6
▁Muño	6
▁motlal	6
igot	6
udo	6
htoqueh	6
▁mazo	6
▁pactica	6
▁ehua	6
xquichtin	6
qu	6
▁papac	6
▁cuitlatl	6
▁quiualit	6
▁tlatlanti	6
cizque	6
▁chantih	6
▁makuil	6
▁Nequametzi	6
▁eltó	6
▁sink	6
▁tlatlatlauhti	6
▁tlaxi	6
xixitin	6
▁mocni	6
▁notecuiyo	6
▁uitsyo	6
▁dia	6
tonati	6
▁kinejki	6
▁moča	6
▁incha	6
yoh	6
▁Xico	6
tlamati	6
▁ycauaca	6
▁micalli	6
▁itestamento	6
▁tiki	6
▁ticcaquilti	6
paccanonotz	6
▁Cana	6
▁bala	6
▁huac	6
ach	6
quauh	6
▁motepe	6
▁Malin	6
▁Cuitla	6
▁quitlatla	6
tzillin	6
ayo	6
▁itenyo	6
titlania	6
▁kichijke	6
▁tixpa	6
▁omonexiti	6
stlacosauh	6
▁quihuicac	6
ohome	6
▁vi	6
kawi	6
chiuh	6
▁quicuique	6
▁Alfredo	6
▁calco	6
▁tatok	6
▁quihualcauh	6
jchiua	6
htinemi	6
▁Ey	6
▁pedas	6
▁concuiz	6
á	6
▁tecpa	6
▁Ihuicpa	6
▁tepacho	6
▁arroz	6
▁Chimalma	6
▁quiselis	6
▁nompa	6
▁imojuanti	6
▁Senador	6
▁onihui	6
▁iyeya	6
▁tecuani	6
poliuh	6
lvar	6
▁siem	6
▁çann	6
▁nicouil	6
▁moteilhui	6
▁teupixqu	6
▁vezino	6
mal	6
▁Nex	6
▁Tic	6
▁Estado	6
ihuitzin	6
cas	6
▁Hel	6
▁otica	6
▁tilmah	6
nahuatilli	6
tlahtohuani	6
yocox	6
▁Quetzalcoatl	6
▁Malacate	6
pec	6
▁ymachtzi	6
tlahuiz	6
▁quitlati	6
▁Ad	6
notzque	6
iego	6
▁onmani	6
▁pahpaqui	6
▁onquiz	6
momanaya	6
▁mohuetzilti	6
▁Cuauhx	6
pohuan	6
▁Otla	6
▁oquitemaca	6
▁comino	6
▁tetzc	6
mocaquilti	6
▁ička	6
▁imiquiliz	6
▁ponhui	6
etes	6
▁chan	6
cuitlapan	6
▁icemel	6
▁pochot	6
▁omoquetz	6
▁Mexic	6
▁ocallac	6
nbr	6
▁omotequipacho	6
▁tlazohtla	6
▁huehueyi	6
▁tlatzitzillica	6
▁quimottiti	6
▁icruz	6
▁teyttitilo	6
hualmoquixtili	6
▁noconilnamiqui	6
▁Teuhcxo	6
▁inhuicpa	6
▁mox	6
▁Quau	6
▁Reyes	6
mictizque	6
▁tlacatque	6
▁Uta	6
▁kimati	6
htos	6
opechteca	6
▁tis	6
pitzahuac	6
▁poyauhteca	6
▁Mizquitl	6
notlatlahtia	6
▁Tomatla	6
chicahuaque	6
▁oquinec	6
▁Tehhuehuent	6
▁vandera	6
tecopa	6
huian	6
tequitl	6
▁Amoca	6
▁momac	6
nimitztatauhtiti	6
▁mixcolot	6
▁yhuinti	6
▁tlacuilo	6
vamderra	6
hpan	6
ETL	6
IN	6
tecon	6
tlahtocatzin	6
▁yolli	6
piqui	6
▁michin	6
▁Tepozt	6
▁Cuetlaxtla	6
actica	6
ntlanahuatil	6
▁teix	6
▁Ocuill	6
tos	6
▁notex	6
▁tepal	6
tamachilis	6
▁xiujtsi	6
quizayan	6
▁cuitla	6
▁Niño	6
iztlacatiz	6
tlen	6
▁nemizque	6
yencuic	6
▁onte	6
▁onechmo	6
oloc	6
▁tlac	6
huaca	6
▁quihtotia	6
▁ita	6
▁inkinekij	6
▁noze	6
▁moteochiuh	6
ltenco	6
oquizaya	6
▁otlacati	6
▁innacaz	6
▁ocalaque	6
▁molnamiqui	6
▁Atlixco	6
tlali	6
▁Oco	6
▁cenpohuallonma	6
▁Sekin	6
▁ixiuhtlapo	6
▁notia	6
mekoj	6
▁Temillotzin	6
▁nemoa	6
▁nahuatlahtol	6
▁pahpacohua	6
▁Tech	6
▁elo	6
tequihuacayo	6
▁huiptla	6
▁motlahtocatlali	6
▁motlatlalli	6
huitequi	6
ego	6
nextik	6
▁Mota	6
ponti	6
▁frai	6
dico	6
▁iztaque	6
▁yyo	6
icuillo	6
▁Tlacochcalcatl	6
tapani	6
▁Testigos	6
mayiti	6
pe	6
htocatlalitzino	6
tecpana	6
▁Xicomoya	6
hualneci	6
▁omocalti	6
▁yteyccauh	6
ten	6
▁moten	6
▁Uiz	6
▁Vaticano	6
hco	6
▁tecul	6
ú	6
▁Uajkin	6
titlaniz	6
▁ahuiac	6
ezcayo	6
▁cuexteca	6
▁oquinchiuh	6
niz	6
▁tonquiza	6
teocaltzin	6
▁Toltitla	6
▁ciuatzitzinti	6
▁yocu	6
▁quimocuitlahui	6
▁onchicuace	6
▁B	6
▁cirio	6
▁Cipac	6
▁yeye	6
▁tlatzilini	6
▁nezi	6
▁tepeua	6
▁mate	6
▁quipacho	6
▁ycallaquiya	6
▁kuenta	6
▁techan	6
comitl	6
▁kar	6
▁quiteneuh	6
yeliz	6
▁orno	6
▁nicchiua	6
▁mozcalia	6
▁Xochin	6
▁Reyno	6
▁tothatzi	6
▁nocne	6
▁keski	6
▁pueblo	6
▁omoman	6
▁Zanno	6
xoxoui	6
▁achiyok	6
▁timocahua	6
▁tlanahuatil	6
▁honp	6
cu	6
▁occequin	6
▁čan	6
▁oniye	6
▁imaman	6
walkis	5
▁tiwala	5
▁tlazomaxtla	5
▁tlahtocatiz	5
▁ancate	5
huica	5
▁cuetlaxtecatl	5
▁quimocahuili	5
ses	5
▁chilpitzahuac	5
▁immonaca	5
netequipachol	5
dn	5
▁tlaihiyouilizt	5
tenyo	5
▁tinotzaloz	5
quihuicaya	5
nijke	5
atipa	5
▁timocacaya	5
kaj	5
▁motechiuhcaua	5
▁inteo	5
▁quipallehui	5
tlazotla	5
cavallo	5
▁toka	5
▁atliua	5
▁imachiyo	5
cacque	5
popolo	5
▁chichic	5
▁am	5
mitra	5
▁viz	5
▁cepaya	5
▁oquixixitini	5
elipe	5
▁quichihuaznequi	5
▁Tlazo	5
▁teocuitlay	5
▁notomin	5
cpatl	5
▁yohui	5
ssion	5
▁Profes	5
oatl	5
notlahuel	5
machiliz	5
▁marques	5
▁anmohuica	5
tlamatihui	5
▁mixnamic	5
▁techpalehuiz	5
▁Totec	5
▁chicuhna	5
▁quipatiyoti	5
yolocacopa	5
▁quixelo	5
alla	5
▁acue	5
epantla	5
▁motlancuaquetz	5
tlalnamiquiliz	5
▁nipahpaqui	5
▁timonan	5
▁Conilhuia	5
▁oquimopaccaceli	5
▁otlamomotla	5
▁tetlatqui	5
▁coco	5
▁Ph	5
CO	5
▁tijtil	5
onakat	5
▁Totecu	5
▁Oca	5
▁centecpan	5
▁šo	5
ixui	5
▁tlapapal	5
nila	5
▁ajko	5
▁Quilhui	5
▁culhuacan	5
▁tlacanecuilo	5
tlapana	5
caquiti	5
▁ycuiliuhti	5
▁caqui	5
mofirmati	5
▁quicencau	5
chihuilli	5
macaz	5
tú	5
▁onmiquani	5
kwent	5
▁macehua	5
▁napoualli	5
yolcocoa	5
▁Nech	5
huellamatiz	5
▁siya	5
rrill	5
▁Yhuitl	5
sio	5
quic	5
▁yhuicpa	5
▁quinmohuiquilli	5
fri	5
▁Cemanahua	5
▁quauhtlahto	5
▁tzihuactla	5
▁cuillotl	5
▁çacatla	5
xillo	5
▁tzatzayan	5
necuil	5
iuhtia	5
nka	5
▁ume	5
▁ocenquiz	5
▁pielo	5
liznequi	5
▁yuwa	5
▁sowa	5
▁Teotl	5
▁mehua	5
▁tetlacolti	5
▁ittaz	5
coliztli	5
▁tlemamal	5
euhctlacoçauh	5
icchiuh	5
▁quitlaniz	5
cahuiz	5
▁mulatoti	5
iaque	5
mundo	5
oquizque	5
yaoquizca	5
▁galli	5
▁tzomi	5
quiltic	5
omopehualti	5
uat	5
▁kajón	5
▁quimin	5
▁iyaoquizca	5
tloc	5
▁itlachi	5
eliz	5
▁ohuetz	5
▁Amil	5
catlteuhc	5
tsi	5
▁kikuito	5
▁Uitzilopuch	5
nolhuil	5
uico	5
▁tlatoaya	5
▁xquin	5
▁moilochti	5
▁huelitiliz	5
ssión	5
▁nonemiliz	5
tzotzona	5
▁momachtizque	5
▁anquimati	5
chí	5
▁nimitzn	5
justicia	5
▁Merc	5
▁QUE	5
potoni	5
▁titlazohtlazqu	5
▁quiman	5
▁fi	5
chichiuh	5
▁quiuatqui	5
▁acolnauacat	5
manon	5
ečilwia	5
▁nicalaqui	5
▁Velá	5
malacachotih	5
▁neltillizt	5
▁otechmo	5
▁quinanquilli	5
▁Nicpia	5
▁Tlahui	5
pilla	5
tomahuac	5
▁ipillo	5
pilhuantzitzin	5
▁yxpoyahua	5
tol	5
▁kite	5
▁teyollo	5
▁ynmac	5
▁quihualtoca	5
▁quicuaz	5
▁nacayo	5
cehui	5
▁tiquinmaca	5
▁hualmoto	5
▁Cani	5
uauhtzin	5
traba	5
▁kito	5
onimic	5
tlanel	5
▁kichijchiua	5
▁Ximotlali	5
▁Xolo	5
non	5
▁Juare	5
▁imixpa	5
▁coche	5
tlatlalochti	5
▁yhuin	5
mopehualti	5
▁Teatin	5
matinime	5
tlacuauhnahuati	5
▁quimoyacanilia	5
▁itlapohual	5
▁onezque	5
pilo	5
▁escri	5
ura	5
▁ichpo	5
▁ijuanti	5
▁tekuani	5
iko	5
▁nipilt	5
▁ychina	5
KAMOJ	5
coal	5
▁yquiza	5
▁itztoc	5
▁motlahtocatil	5
▁tlachix	5
▁teochol	5
▁tuwalt	5
▁cuicanitl	5
okachi	5
▁ocnoce	5
▁tlalmaceuhqu	5
▁mizquica	5
▁inne	5
ualiztli	5
▁peones	5
▁omonemili	5
▁conc	5
ilio	5
▁nauinti	5
namacaz	5
▁onquiça	5
xochime	5
▁xochimil	5
▁Cuitlauac	5
▁nemico	5
▁tewa	5
QUIN	5
▁TE	5
temachtica	5
▁molino	5
nganin	5
mocentlamachti	5
▁pohpolihui	5
mocemaxcatilli	5
▁tlatzacuiltil	5
iua	5
▁Moteoczoma	5
omic	5
tztoc	5
▁nimitzon	5
▁motzon	5
▁quiquetztia	5
poctlan	5
▁tlapallan	5
▁tijkuaj	5
▁kalijtik	5
▁noconito	5
onequixtil	5
▁Totoquihua	5
▁itlaaltil	5
▁quimmaca	5
▁ixquichi	5
▁yxiuh	5
▁ake	5
▁yehuanti	5
▁quiten	5
▁quimopialli	5
nahuatitia	5
yolloco	5
▁quimihtalhui	5
ekwt	5
▁Atoto	5
tlatziuh	5
▁quimictia	5
▁caxtilantlacah	5
▁XXIII	5
caltzin	5
▁Acul	5
ycpac	5
▁ticte	5
itiz	5
imihiyo	5
KOYO	5
kišmat	5
itiaya	5
▁čiči	5
▁sikiw	5
▁weyi	5
▁nehnemi	5
▁quipachoua	5
eu	5
tlahtoltica	5
▁quiauh	5
▁walpano	5
▁sis	5
panoya	5
▁mocehui	5
▁tlanauatia	5
▁tlejkok	5
olegio	5
TL	5
ahuaqui	5
kas	5
ñe	5
▁quinpalehui	5
▁tlalman	5
▁Yoal	5
quechilia	5
itizque	5
tiquitaque	5
▁bor	5
xiuit	5
huantoc	5
▁tlapitza	5
▁molini	5
▁tlallolini	5
▁Tol	5
▁nohuel	5
▁ayxtlahua	5
▁quineltoca	5
▁timika	5
▁tlacuicuil	5
tiyanquiz	5
▁tlahe	5
▁Mixcohuatl	5
▁Ci	5
▁Xa	5
▁niyas	5
▁tlahuana	5
▁tlaceli	5
▁quinmochihuilli	5
▁ximotlali	5
▁Yzcoatzi	5
▁Tlalocan	5
tiloz	5
▁tamechtohuiquil	5
▁ynemac	5
▁tiwi	5
▁yehuatzi	5
▁omahuilti	5
tiv	5
▁cualtetzi	5
aiac	5
palehui	5
opochcopa	5
tentoc	5
▁Quil	5
▁quimocihuauhti	5
▁omocuepque	5
▁titlakuas	5
▁tlateteko	5
▁monemitia	5
cameh	5
▁pitzome	5
icoton	5
xayac	5
▁quineltilizque	5
▁uajtli	5
▁yetetl	5
pehuazque	5
tlacpac	5
▁Des	5
lle	5
▁Guad	5
rax	5
▁Azca	5
lilia	5
petl	5
macazque	5
▁onhuala	5
eas	5
lcahua	5
▁mit	5
▁oquinchiuhque	5
▁Quiyauh	5
▁nene	5
▁quicuepil	5
uicaz	5
▁pol	5
laquico	5
▁yoyolime	5
monemitiz	5
amilca	5
chiua	5
▁oquinahuati	5
▁toconmela	5
▁Acolma	5
▁quauhtlatollo	5
▁Quetzaltotot	5
▁tepinauhti	5
kano	5
htili	5
▁kipa	5
▁Universi	5
▁techpaleui	5
intokay	5
▁Cuetlaxo	5
ntoc	5
▁totlahtoca	5
▁omocencauh	5
tomin	5
monanquilili	5
ixmati	5
▁intzon	5
quentia	5
▁ounaci	5
poall	5
▁teuton	5
tecutli	5
▁Unca	5
tekitise	5
▁mocuecuep	5
▁motata	5
ovar	5
cencahua	5
matcatzintli	5
ajar	5
▁AUH	5
▁Tepaneca	5
▁mero	5
▁ič	5
tonameyo	5
▁hualnez	5
papalotl	5
▁Noteahu	5
▁mocuicati	5
▁Herm	5
▁quihualtem	5
itlema	5
▁umoteca	5
contetl	5
▁ahuil	5
▁tlaquen	5
xayaque	5
▁cihuapipilt	5
▁kini	5
cahuilia	5
vallos	5
▁mopilhuan	5
quimacaque	5
tencopa	5
miccahue	5
▁tiw	5
▁Tlauel	5
▁Totol	5
anacan	5
rne	5
▁yehyecatl	5
▁motzicoa	5
▁quitoquilia	5
▁nahuati	5
▁quicuazque	5
ihtoa	5
▁hualoli	5
▁Tlaqui	5
tzcali	5
▁temoque	5
tzauh	5
toto	5
▁quinmopachilhui	5
mecauh	5
hicac	5
yauhtzin	5
▁otemoc	5
▁Amilpam	5
▁Ja	5
▁nicxochi	5
▁quetzalitzt	5
▁huitztla	5
▁tzillin	5
▁oquimocohui	5
▁yot	5
xilan	5
▁itiachcauh	5
▁tlayohua	5
▁itzmiquilitl	5
▁Motlali	5
▁poyox	5
▁tlatzacca	5
▁quimocuiti	5
▁ikuitlapa	5
nehuiyan	5
▁otoco	5
▁tzopelic	5
▁quihualmama	5
▁quimolhuia	5
▁quenma	5
▁monetolti	5
▁omocehui	5
▁otiquitaque	5
▁ontlaxtlauaz	5
▁icomienda	5
▁quicaua	5
mantoc	5
uhtoc	5
uillo	5
mania	5
ayyo	5
▁nimiquis	5
quixtiaya	5
▁amotlatoca	5
ijuikas	5
▁Cotolc	5
▁quicaquiz	5
▁Onech	5
▁cortes	5
▁Tzompahuaca	5
▁mon	5
▁mecahuiteco	5
▁oquitecaquilti	5
▁kion	5
▁Chacha	5
▁quiualilhui	5
▁quichi	5
pixca	5
▁nocontlali	5
▁Nixpa	5
▁quimomaca	5
huetz	5
▁tlapco	5
ale	5
▁testico	5
yehuatl	5
▁Xocon	5
▁moxochi	5
zcaliliz	5
uchtzin	5
notztia	5
T	5
▁quimix	5
ahuiz	5
▁nelle	5
pactli	5
hualmeh	5
almeh	5
▁tonemiliz	5
▁çoqui	5
▁maquimatica	5
▁cehuiz	5
▁quincuiliz	5
taol	5
▁tichane	5
tlami	5
motlatlauhtilia	5
▁tzatziz	5
lhui	5
▁uc	5
▁nauilhuit	5
▁tlatete	5
mellel	5
▁tenex	5
▁kipaka	5
▁canon	5
▁kitemo	5
▁totonia	5
amanqui	5
▁quimixpanti	5
▁Melahuac	5
▁machia	5
▁mictla	5
▁cuanaca	5
▁quitzacuilli	5
▁itlanex	5
cuauhyo	5
▁cahuah	5
▁itelpoch	5
tzacuh	5
▁omix	5
▁Yztacal	5
xoco	5
ohhuanalti	5
▁quinauati	5
▁Uacal	5
▁tlacoçahuia	5
▁ocaxilti	5
tlacallaquil	5
▁Eva	5
▁oye	5
▁aua	5
tacatl	5
▁Otech	5
▁huerta	5
taj	5
cuauhtlahtotia	5
▁mayan	5
escrivano	5
▁notzallo	5
▁Cap	5
neyxcuitill	5
zotl	5
▁amic	5
sion	5
tlahcuilo	5
lohua	5
▁amihiyo	5
▁caltempa	5
▁conmanili	5
tleya	5
mayauh	5
▁ipampan	5
▁talpan	5
močiwili	5
chia	5
▁mocnelili	5
▁may	5
catzitzintin	5
▁mapapatauak	5
anpa	5
teilhui	5
▁ytlalpan	5
▁oquinmomaquilli	5
▁cavalleros	5
huallo	5
▁niccuepa	5
bano	5
▁momachitia	5
▁iheua	5
technonotza	5
▁mocolhua	5
▁Tepetla	5
▁nicnanquili	5
▁quitocatinemi	5
teco	5
elnamiqui	5
▁chiquacemin	5
tur	5
cacopa	5
▁quipanahui	5
omačti	5
▁Teuc	5
▁mopohua	5
▁Gon	5
▁motlaliaya	5
▁tlatlaz	5
kema	5
▁namicoz	5
▁kitekili	5
miqui	5
tka	5
tlayocoya	5
▁none	5
quauhtla	5
▁ytzonteco	5
iuhti	5
▁Carran	5
maro	5
▁cuartel	5
▁ixitlan	5
nanquiliz	5
▁nicn	5
▁xw	5
alca	5
▁techual	5
▁tlecopa	5
▁Ton	5
▁notata	5
ehuaya	5
▁tlapitzal	5
▁proces	5
pepetlauh	5
alcatl	5
▁Tocui	5
ltecatl	5
▁Tizoc	5
▁mizquitl	5
HUA	5
▁quimochihuiliz	5
▁quilnamiqui	5
▁ast	5
▁noteh	5
tlacatecollo	5
pahpati	5
▁Neca	5
▁monequiltia	5
nečmaka	5
titia	5
▁Acuezcoma	5
▁ytzti	5
anime	5
▁Roch	5
tlatlacol	5
xico	5
▁teyo	5
▁mochihuazquiani	5
ztica	5
▁techmo	5
paka	5
malhuaçoca	5
▁titlakwa	5
▁ohuel	5
▁Queni	5
▁Teotihuacan	5
▁mocehuitzino	5
▁Mihtoa	5
▁matlacpoal	5
nechmocnelili	5
▁ontla	5
cializ	5
▁aquen	5
chixtica	5
▁kwalani	5
▁quinemilti	5
catzitzinti	5
mahpict	5
▁mocentlalia	5
matlac	5
▁quemen	5
▁lugar	5
▁nemih	5
▁oquimon	5
mekat	5
kana	5
yocoyalloc	5
fi	5
mihtalhuia	5
▁tlamatilizt	5
eteylhui	5
▁oquichpil	5
ohuani	5
▁oquinnahuati	5
▁tlapo	5
▁concauh	5
▁omonanahuati	5
▁Xiuhca	5
lis	5
▁pica	5
▁Toteco	5
quicauh	5
▁yxpa	5
▁Kiilui	5
▁omomauhti	5
phet	5
▁kenk	5
kwalikak	5
namaki	5
▁icha	5
tlanilli	5
anti	5
nomatca	5
▁otimitz	5
▁Note	5
▁actihuetz	5
▁ichtaca	5
yu	5
tecpancal	5
nemili	5
ehuiliaya	5
▁ihuitz	5
O	5
▁Oaci	5
pohpoa	5
▁moix	5
▁tetetstik	5
▁Castill	5
quitenyoti	5
maco	5
▁moteneua	5
▁quimocaltili	5
orral	5
▁oquixitini	5
tzatzaqua	5
▁kweb	5
▁itečin	5
▁ycalaquiam	5
moteneuh	5
▁ochpan	5
morado	5
▁mokaua	5
temactilis	5
ocu	5
▁Vespas	5
▁techon	5
calxelol	5
▁ximopanolti	5
▁Tloqueh	5
▁conmochihuili	5
ños	5
conehua	5
▁zanio	5
▁Teocuitlap	5
xicoz	5
▁huallo	5
▁mocuic	5
▁mopolo	5
▁huallamelauh	5
mopechtec	5
▁mano	5
▁awelito	5
iak	5
namiquiz	5
▁ocello	5
▁chipaua	5
mayahui	5
quimotlaltia	5
▁Celestial	5
▁quitemohu	5
▁nikile	5
tlazque	5
ierra	5
▁nec	5
manaca	5
hquez	5
uicaque	5
aloc	5
▁omatlactl	5
▁oquintla	5
ivitla	5
▁tomahpil	5
▁oquite	5
▁tepoztlacuepon	5
▁motomine	5
▁Tequichihua	5
▁itia	5
▁teuhc	5
tlahtocatlallilo	5
notzalo	5
▁koua	5
▁Quaquauh	5
▁ipiltzi	5
itlahuiz	5
▁Tequan	5
xayacatzi	5
▁mocueptzino	5
▁int	5
▁angli	5
▁tictocuitlahui	5
lloco	5
yunka	5
quihuecapano	5
▁quitlalten	5
ixko	5
▁otu	5
intla	5
▁tixochit	5
monahuatilli	5
▁hualmocueptzino	5
macuilpoal	5
ihcuilo	5
▁pepen	5
▁Motec	5
ualoua	5
▁Chimallaxotzi	5
momaquili	5
▁cihuatzitzinti	5
▁Rr	5
for	5
▁ixtlahua	5
malacacho	5
▁quitzonquixti	5
▁officiales	5
aquilli	5
▁chicuexiuhti	5
icnotlamati	5
akak	5
▁otlan	5
miquiliz	5
▁conix	5
niaya	5
▁ixiptla	5
icontetl	5
▁kitla	5
ozquia	5
▁Tecama	5
▁oxiuhti	5
▁tecu	5
cohuaz	5
uz	5
▁xim	5
▁Acal	5
▁metst	5
▁tilahua	5
▁ythuall	5
▁Nocni	5
cofradía	5
oqui	5
▁macuiltzon	5
PA	5
peualtia	5
▁hualmocallaqui	5
▁XXII	5
cuepca	5
▁quitenehua	5
▁Popo	5
▁oquitlalitia	5
ahuiyacan	5
▁Ayopocht	5
▁ijtik	5
▁hualmiquani	5
▁estaga	5
totol	5
▁epoual	5
éne	5
▁quihuallitta	5
itech	5
▁yten	5
▁yahtinemi	5
▁tatama	5
▁olin	5
uicoc	5
▁yoquichhui	5
▁temimil	5
edi	5
quihue	5
▁cihuatontli	5
yollali	5
ahhuilia	5
ochtzin	5
▁cacahua	5
pitzalo	5
▁kajfen	5
atzitzintin	5
▁hueli	5
▁asis	5
▁nohua	5
nez	5
yi	5
ixpantis	5
nahuatili	5
quey	5
▁mohuepahua	5
▁quitlaça	5
▁mochiuhtia	5
▁elis	5
▁sehcano	5
▁teuctl	5
▁cempual	5
tlalhuiquixti	5
▁duques	5
▁tocommo	5
▁Crucifixo	5
▁Cuauhtemoctzin	5
▁hocat	5
manahui	5
▁Tel	5
▁tlatemo	5
▁Tlantilolco	5
▁onoz	5
▁caxtillan	5
▁civil	5
▁huilohua	5
▁tečmaka	5
▁Chalchiuhma	5
tlall	5
▁quiximati	5
▁Dionis	5
▁oquichi	5
▁key	5
▁Toribi	5
asitiw	5
TZ	5
▁tlanextia	5
beatificaci	5
pachoz	5
▁nicpo	5
nen	5
▁Otic	5
▁takua	5
▁Moquiui	5
vi	5
lot	5
▁ipilhua	5
▁Motecuhçoma	5
▁ihuitopil	5
▁ycnauh	5
tocayotl	5
▁Im	5
▁poli	5
▁intlahtocayo	5
yoquic	5
▁Chiapa	5
taro	5
▁antle	5
titotlatolcuepaz	5
conmana	5
▁timoquixti	5
am	5
▁nanahu	5
tennamic	5
▁iteopanc	5
▁Coyol	5
▁axihua	5
sta	5
uca	5
▁kuapalak	5
▁quimmac	5
▁omeh	5
▁Tlach	5
eyçahui	5
▁oquincui	5
▁otlayahual	5
▁ip	5
▁Matlatzinc	5
▁cocoya	5
▁pahpaquiliz	5
▁Tlan	5
chocaya	5
imopanolti	5
tlacamecayoti	5
▁neto	5
▁niquiximati	5
▁nauhcanpa	5
▁Huecapa	5
axca	5
ë	5
▁tocoto	5
▁kilnamiki	5
▁nikita	5
▁tlapitz	5
▁cohuayotl	5
▁notlalnaca	5
▁mili	5
▁Theohuaca	5
▁Bapti	5
▁oniquin	5
nenequi	5
▁tama	5
azar	5
▁nimitsilui	5
▁timaco	5
▁inextla	5
chicuacen	5
▁oquinamiquito	5
ssesió	5
kespa	5
ál	5
▁otechilhui	5
▁tepatique	5
xquich	5
tepiton	5
▁tiltik	5
▁quinmotlalili	5
litzino	5
▁yeylhuit	5
▁oquimomaquil	5
capa	5
oltica	5
comienda	5
▁konetl	5
▁ypiltzi	5
▁castillo	5
▁miaqui	5
tlamatiliz	5
namacoya	5
huelic	5
ocatzin	5
ver	5
▁hualpe	5
▁quimocallaquil	5
benta	5
▁vara	5
catiaz	5
chijki	5
▁imaceual	5
▁yaomiqui	5
▁ticuazque	5
▁yaotlapia	5
▁ohue	5
huiyan	5
▁yxpam	5
moyahua	5
▁jubileo	5
▁tlallolin	5
▁otzintic	5
▁Beat	5
okoj	5
dre	5
▁tiaw	5
▁kas	5
tca	5
▁chinampaneca	5
▁mayanallo	5
▁yvispera	5
▁monauati	5
tipohualo	5
▁onpan	5
▁ayya	5
▁tzitziquitzin	5
tlatecpan	5
▁oquimpeuh	5
iquipilc	5
maceuh	5
xotlac	5
▁Viv	5
kito	5
▁libre	5
tekitiske	5
▁Jacobit	5
▁totlalnan	5
machti	5
▁tlalticpaque	5
▁Quaquauhçi	5
alton	5
▁Guadalcá	5
uati	5
▁tekiti	5
▁matlatlac	5
▁teoc	5
▁nicpiazquia	5
▁yolo	5
quauhnahuac	5
▁caxtilantlahto	5
ijtik	5
▁otitlacat	5
▁nanmo	5
▁calhuahza	5
rag	5
rka	5
moteochihuilli	5
▁yxcoyan	5
quizqueh	5
▁moxima	5
far	5
nqui	5
▁Oficio	5
▁Ke	5
uhtiaque	5
▁izca	5
▁onotzalo	5
▁omoteylhui	5
icpiaya	5
▁iquech	5
▁Magn	5
▁itzmolini	5
TOMAT	5
▁inezca	5
▁chapol	5
▁mochin	5
▁quimocuitlahuiz	5
▁kikoua	5
▁tlacualoya	5
▁Math	5
▁quateçontzi	5
cihuaicni	5
▁kikaki	5
▁confirmació	5
bo	5
iton	5
▁motlapachilhui	5
ono	5
nonqua	5
▁nokone	5
notz	5
▁quitlatlauhtia	5
▁ymal	5
▁nopapá	5
▁hordinario	5
▁imach	5
▁Macuilp	5
▁impa	5
▁quinechico	5
▁omotlacatili	5
▁Quah	5
tepequec	5
▁tomil	5
tejtek	5
ikniua	5
▁ytlacauh	5
dro	5
▁honpohual	5
▁cihuanton	5
▁Tenonotzaliztl	5
▁kikuecho	5
ittaya	5
▁Nomaicni	5
huilia	5
tzinoz	5
▁centlan	5
▁auto	5
piaz	5
▁yoya	5
▁nahuatlahto	5
▁quimichi	5
▁nečtla	5
▁tiyaz	5
▁hualyeti	5
▁tontla	5
etlatl	5
motlamachti	5
apata	5
sur	5
▁otlacua	5
ueyo	5
axcalli	5
▁Fran	5
▁quicouh	5
xiuhtia	5
▁oquipixque	5
▁prefect	5
▁calaquiz	5
▁chihualo	5
▁Nahual	5
▁ynquisidores	5
▁cuart	5
▁ipetl	5
▁nihual	5
rcas	5
tzintla	5
▁legua	5
▁tlalcou	5
▁Icno	5
▁omi	5
▁ichpuchtzin	5
▁tlacotenc	5
motlazotilia	5
▁yancuique	5
▁achica	5
▁tlatzotzona	5
callaquilli	5
chiuaya	5
▁xexeliuh	5
▁quitzacua	5
lania	5
▁milpa	5
paño	5
▁tenamiki	5
▁tamali	5
▁ypial	5
▁tematequilo	5
nelli	5
tlacemicnopilhui	5
▁tlamachtil	5
ibuen	5
ozque	5
animan	5
pilhuia	5
čiwalti	5
▁altepechanehque	5
▁tepos	5
▁noxochi	5
zacatl	5
▁tlahtocaaltepe	5
▁Ayocua	5
▁tihuetzca	5
ltin	5
▁albacea	5
ixpehpen	5
▁či	4
▁mičoak	4
▁mohuicaz	4
onmicuani	4
roa	4
▁iç	4
nomacehual	4
alijtik	4
tlatlaniloz	4
▁neteilhuil	4
panohuaya	4
▁occetic	4
▁xinechmo	4
▁mochichihua	4
camac	4
▁otinechmo	4
▁motlaca	4
▁ecauh	4
ecauh	4
▁tlaye	4
▁tonn	4
▁tlanez	4
nahuatilih	4
▁techcauh	4
▁ynmacaça	4
▁temallaca	4
▁itlazo	4
tlanamacazque	4
xakual	4
tlatilulca	4
iquinpia	4
leta	4
▁theniente	4
▁incel	4
nicnamaquilti	4
onenonotzal	4
tlahtoca	4
▁Moyocoyatzin	4
▁mochantili	4
enepil	4
▁yani	4
▁oticcac	4
▁celia	4
coyahuac	4
▁Tezozomoctzi	4
tzauhctia	4
▁Quauhtemalla	4
▁yatok	4
▁muchihua	4
▁motzacua	4
ochihuaya	4
ortug	4
▁agust	4
▁iuhca	4
cedula	4
cocoliz	4
▁cenpoal	4
▁monamicti	4
▁quenameh	4
▁huelitiz	4
▁otlayohuac	4
▁oquimocuil	4
▁oquimanili	4
quimilolo	4
▁oconquixti	4
cpa	4
caxiltia	4
polhuiz	4
rdo	4
▁Yxquich	4
▁motlatoltiz	4
▁onicteneuh	4
uiliz	4
tilizque	4
▁tiqualhuica	4
tecolotl	4
▁tlacotona	4
▁quiquechcoton	4
▁xiuhp	4
▁iatlapal	4
▁oquimocaquiti	4
acica	4
▁isiua	4
močiw	4
OCON	4
chic	4
▁ohtlatoca	4
▁cuetlahui	4
▁Teutontlal	4
▁amatlahcuilol	4
▁Yzcat	4
cayotica	4
▁Tlacochcalc	4
▁Tolnahuac	4
▁pitzonacatl	4
▁motlalili	4
teloloh	4
▁Tzinacant	4
auac	4
▁nimitzno	4
ltal	4
▁kitlani	4
▁oteochihual	4
▁cozti	4
chcatl	4
▁Lucia	4
▁Antr	4
dalena	4
oncan	4
▁chal	4
uicatz	4
▁teponaz	4
teponaz	4
tlaxili	4
▁nenonotzal	4
▁tlacualchihualo	4
▁omochanti	4
▁xocom	4
▁momuztl	4
▁xexelolo	4
▁responso	4
▁Quiual	4
▁tiqua	4
huehuetque	4
▁pobre	4
quinamiquito	4
▁Chollol	4
▁Tesca	4
choquiztlapal	4
▁TLA	4
vas	4
rrí	4
▁altepetlaca	4
zaliz	4
nemizqueh	4
▁quimitlanilili	4
▁iquex	4
catla	4
▁yxtlahua	4
▁oquimoma	4
nalli	4
▁mosoa	4
▁tlallo	4
motepotztoquili	4
uhtia	4
quimiliuhtia	4
▁quihuillantia	4
▁naška	4
▁semp	4
wali	4
otoc	4
▁tlatolti	4
▁chichihuala	4
chihchica	4
▁tlaçul	4
▁Citlall	4
onpa	4
▁Am	4
▁amiqui	4
huetziqui	4
▁momaceual	4
▁tecoco	4
itzineuh	4
quiaya	4
yollamachiliz	4
cuepque	4
▁xitiniz	4
▁quimonamicti	4
▁quimixiptlati	4
▁chinampa	4
▁itqui	4
▁quimonpehualti	4
▁Zara	4
azul	4
▁chicuacentetl	4
▁quizqui	4
▁seyajtok	4
quinhualhuicac	4
▁nechilhui	4
▁oncallaqui	4
▁nontla	4
▁Xichual	4
vatl	4
▁mayanalizt	4
▁çacap	4
▁tlaj	4
majts	4
▁nix	4
▁quiya	4
oltecatl	4
eski	4
necah	4
▁itzcuauht	4
htihuitz	4
▁sekin	4
mimil	4
▁Tepal	4
icio	4
otza	4
nicmachiyoti	4
pias	4
iztac	4
▁omoyecti	4
▁nesi	4
moquetza	4
ehuico	4
▁comiss	4
▁amatlacuilol	4
▁Occe	4
▁cilantro	4
▁tlahuizcal	4
caca	4
▁quizo	4
QUI	4
tlaxcal	4
▁tiye	4
auhqui	4
nentlamatia	4
▁totemachtica	4
▁met	4
▁cuico	4
▁cuicoano	4
▁monono	4
▁kwalikak	4
momaquilli	4
▁pepetlaca	4
cizquia	4
▁Lante	4
ima	4
▁ticana	4
teuhctlahtoca	4
opoch	4
▁Toton	4
▁Xip	4
chimall	4
achcauh	4
▁mocepan	4
omotlahtocatlali	4
▁nenquiça	4
mintaci	4
catzinco	4
tlahtohua	4
▁yehepohual	4
cuauhtli	4
▁nextic	4
▁Totolli	4
tecpoyo	4
bia	4
mamaza	4
▁notequi	4
▁nihuala	4
▁ait	4
▁Tapal	4
catetel	4
▁Ytzc	4
▁mok	4
ombre	4
▁timonequiti	4
▁ymoztla	4
▁quica	4
▁poçoni	4
ihualmouicac	4
▁pipil	4
▁juzti	4
sia	4
▁ximonemiti	4
▁semilla	4
testigo	4
pepeni	4
pinahuiz	4
ze	4
▁moquetzino	4
mol	4
nemachti	4
▁itlahcuiloltzi	4
▁esp	4
machiyo	4
tlahcuilol	4
acizque	4
tiahqueh	4
▁Mochihua	4
▁timalihui	4
▁cihuateopix	4
huitica	4
▁niconet	4
▁nitlal	4
tenqualac	4
uiya	4
▁ytztit	4
macoque	4
astañ	4
▁Tecpatzin	4
ukw	4
▁Servan	4
calpan	4
xiuhtico	4
yl	4
macehualhua	4
▁Cimat	4
huicaz	4
▁mocalaqui	4
▁motlalitzino	4
▁totahuan	4
▁xiquimon	4
mimina	4
▁tomal	4
machiyoti	4
nmanque	4
teocal	4
▁momachtia	4
▁Yek	4
▁notlatzin	4
acico	4
▁coyoa	4
▁nahuatill	4
tliltica	4
▁kitameui	4
▁ivi	4
▁nac	4
▁Teo	4
▁mihtotia	4
▁intlaca	4
HUAN	4
ilito	4
kopin	4
▁ahciz	4
caltzaquallo	4
▁meca	4
uitec	4
▁chimalhua	4
▁yaotlapiallo	4
exo	4
yoyah	4
ué	4
▁hualmotzotzona	4
loli	4
ehcoc	4
tentlapiqui	4
▁quipopo	4
tlamachotil	4
▁motitiz	4
▁niccohuili	4
▁immoma	4
▁immocxi	4
▁Teh	4
▁titekitij	4
▁Is	4
ileui	4
▁Chikomexochitl	4
▁tiualajki	4
xotla	4
▁fuerza	4
▁teyxhuihua	4
tlaneuhti	4
▁Calm	4
axalo	4
▁Xiloxochc	4
litia	4
mochihuili	4
ehualoz	4
▁nocihua	4
▁ayam	4
▁ihc	4
yahuallo	4
▁quimocihuahuati	4
▁misotlak	4
hapultepe	4
palxochi	4
▁Maxtlatzi	4
▁conetic	4
lko	4
▁oquihualmo	4
quiyahuac	4
▁onaqui	4
▁descalso	4
hualmiquanitzino	4
▁totec	4
tzontlan	4
▁esquina	4
▁monexiti	4
hcatzin	4
tičolo	4
▁quimocaquitica	4
▁nemilizahuiyaca	4
▁maxix	4
hxili	4
▁huitzeh	4
▁chanono	4
LIN	4
▁yaw	4
▁tečin	4
▁letra	4
quicuitlacoyoni	4
▁huian	4
panitlaza	4
▁itepeuh	4
▁gran	4
wti	4
▁xwe	4
roz	4
▁Tul	4
cuepaz	4
quaque	4
▁quimontlalia	4
▁motlapololti	4
zaz	4
nahuatilia	4
maceual	4
tepuzmacuauh	4
xahua	4
tlacatzitzintin	4
huitiaya	4
calpixca	4
chocti	4
▁cuicuica	4
laqui	4
oquipan	4
né	4
ur	4
▁techpeuh	4
▁oncuica	4
macati	4
▁tezca	4
▁tlahui	4
▁tipolihui	4
lactli	4
▁cacahuaxochitl	4
namacaque	4
▁par	4
▁Techichiquil	4
▁pah	4
cualo	4
ihtaz	4
ihcuac	4
tehua	4
▁ichichi	4
▁mohta	4
▁Xichualcuican	4
▁titlachia	4
▁icnime	4
▁xicmat	4
entencia	4
▁ehecat	4
▁YE	4
moneltilli	4
▁oquimama	4
tecaya	4
notlamachti	4
▁yoyoli	4
▁miltequitca	4
▁Onia	4
huitia	4
chtique	4
cuacecahuil	4
▁contzinti	4
conelhua	4
▁imeyxtin	4
▁Tzonpan	4
▁Tiquin	4
▁nohuaxca	4
▁Chicomo	4
▁mocuihcui	4
nauhcampa	4
▁nicuica	4
▁monextia	4
▁otlaneltoca	4
medias	4
▁Oquipiaya	4
tlapitzaliz	4
▁oquiyocox	4
matini	4
▁Ur	4
tsope	4
cohcolti	4
▁siki	4
▁ora	4
▁icehce	4
▁cathetrá	4
▁TIen	4
▁Yxquichi	4
▁Ohui	4
▁otiqui	4
▁omoco	4
▁huacal	4
▁onpohuall	4
▁quimococol	4
▁cima	4
▁monetech	4
▁yqua	4
der	4
maquilli	4
cihuanton	4
▁yoyol	4
▁tichoca	4
naquiz	4
▁tinechmaca	4
mojuanti	4
▁uetz	4
▁ipil	4
▁Agost	4
coton	4
xeliuhcayo	4
acitihui	4
▁ontlazohtla	4
vez	4
▁nimitstem	4
kakatso	4
▁chichinaca	4
calcohual	4
▁ticchihuazque	4
S	4
tzonquizca	4
tihueh	4
ecahuil	4
▁carmeni	4
▁kuidado	4
▁ocontlalli	4
▁ytlanahuatilt	4
▁oytt	4
▁onhui	4
▁ipetlacal	4
kin	4
▁tlenkikwas	4
▁iyomiyo	4
tlanemili	4
▁yekyekt	4
▁tlapopoka	4
ahuilquixti	4
▁ycha	4
▁matlactloce	4
aroa	4
▁opano	4
▁icte	4
macuex	4
▁iccaxtollom	4
om	4
▁onyez	4
tlapololtiz	4
titi	4
caquiltia	4
tacal	4
cohuilli	4
▁Otompa	4
xpan	4
▁teteco	4
vent	4
▁kwali	4
▁koš	4
▁chicomilhuiti	4
▁oquimoca	4
▁yeyeca	4
▁tlapetlani	4
▁kiyekana	4
▁Amb	4
▁mome	4
▁Nikan	4
▁oncac	4
▁yciu	4
amana	4
quimihiyohuilti	4
yohuan	4
▁Xiuhcoyol	4
▁ualciuatla	4
▁Cuetzpaltzi	4
pilçi	4
▁quilnamic	4
▁quintemo	4
epilhuan	4
olhuiliz	4
▁tequipan	4
▁timihtilhuia	4
▁tihuallaz	4
▁quinmolhuilli	4
oregidor	4
quitquitiui	4
▁yetic	4
▁cuahto	4
cuexcochtlan	4
llacatz	4
▁imicpa	4
acal	4
▁Fr	4
▁cochi	4
yohui	4
latl	4
mimicti	4
pantzin	4
▁axkimati	4
▁aki	4
▁otima	4
▁cempoali	4
quiza	4
tetetzotzon	4
ninocihuauhti	4
iyaya	4
▁metz	4
ahci	4
▁uajkajki	4
zcatl	4
▁oquinhualquixti	4
alcay	4
▁bast	4
ciua	4
motlaliliz	4
▁iztlacati	4
▁elisk	4
▁ixcuichehua	4
▁moč	4
▁tlaocoxti	4
▁descomunió	4
▁pastor	4
▁Goçal	4
▁Nauh	4
▁taxcaltzin	4
▁Sol	4
▁nemauhtilo	4
mecayo	4
cuauht	4
▁Yztacxochit	4
▁Mastlat	4
▁ycalaquiyan	4
▁Tiyaca	4
tzatzi	4
▁kitlachili	4
▁motlatqui	4
▁itlapil	4
icamac	4
▁tetloc	4
acayohua	4
▁contlaz	4
mitalhui	4
popohui	4
▁kalaki	4
lacxipanhui	4
▁quihualmotla	4
anato	4
ech	4
huehuetzto	4
acachto	4
yek	4
exexellolo	4
miak	4
▁quicoua	4
▁acalo	4
oxixitin	4
▁imayauhca	4
▁patlani	4
yahualol	4
▁oconanacatl	4
▁quitocaya	4
▁topil	4
▁Mic	4
▁onchiuhcnahui	4
▁quimopilhui	4
chil	4
catinemi	4
titica	4
▁pahpaquilizt	4
▁descar	4
▁amiz	4
▁Ytztlotzin	4
▁hualya	4
nehnen	4
may	4
▁tlalhuacpan	4
▁quixitiniz	4
▁nixochi	4
aqualti	4
▁ycalaquia	4
▁caltitlan	4
miccatepozt	4
tenotz	4
▁tocen	4
quiliztica	4
ticnamaquilti	4
▁tezcatecomat	4
▁kita	4
▁itstoya	4
tumpa	4
ltepec	4
▁owal	4
makili	4
calac	4
▁poyoxnacatl	4
uallo	4
▁acoc	4
ranpi	4
▁omotlalia	4
▁Coatl	4
▁Nav	4
alco	4
▁otite	4
xamani	4
macoz	4
▁immix	4
htique	4
▁metl	4
▁Huixacht	4
▁tlatlacahui	4
pitz	4
▁Nika	4
tepalehuiliz	4
▁itena	4
namiquiliztzin	4
yectiliz	4
teomama	4
▁quihualnotz	4
▁poste	4
▁quimomictili	4
tlati	4
xihui	4
mohtili	4
eyi	4
▁matlaktli	4
mome	4
▁ximehu	4
▁esc	4
▁quimotlaliliz	4
▁Iuhqui	4
tlachicauili	4
▁titlanauati	4
▁tzonquiz	4
▁quihualla	4
▁Omo	4
pualli	4
euaya	4
▁otlat	4
incalco	4
▁namechno	4
▁cholojk	4
▁quincauh	4
▁quitemohui	4
quamimi	4
▁Itechpa	4
▁mahtlacp	4
▁tequitiz	4
▁Ocello	4
yohua	4
▁Xaquin	4
▁nopilhua	4
▁anech	4
molcahuili	4
▁tlamacaz	4
▁Hor	4
▁oncastol	4
▁otlatolmelauh	4
pohuaz	4
tenonotzaliz	4
▁Tlaquilx	4
mahmana	4
▁nentlaca	4
xtlahuatl	4
▁moteteca	4
cuicatica	4
ér	4
▁inglestlahtohua	4
▁Tlalti	4
▁iixco	4
IV	4
celic	4
pilti	4
▁itlacapa	4
motlahtlanili	4
▁iteo	4
nezcayotili	4
▁Nicu	4
lás	4
▁Tleyca	4
▁huicoc	4
▁notlaxilacalti	4
▁nichihua	4
▁mocual	4
▁nikito	4
petlame	4
▁plantano	4
▁tijkua	4
ynic	4
▁Kejn	4
yocol	4
▁ijk	4
▁omoten	4
▁caxtilteca	4
enin	4
uallachia	4
nepa	4
▁iquizaya	4
▁tonaci	4
▁kos	4
▁xokok	4
▁nakas	4
▁yeki	4
iš	4
antli	4
▁otihuala	4
▁quimonehualti	4
▁ba	4
leque	4
▁ahc	4
▁quilui	4
▁oquimitalhui	4
▁quixnamicti	4
▁Tepotzotla	4
cuilia	4
▁atlatl	4
kimikti	4
lín	4
quiti	4
nicmohtili	4
hueliti	4
▁itepotzco	4
▁omotlahtolti	4
nauhpo	4
▁Quim	4
▁Tepitzin	4
▁sia	4
lecan	4
potonil	4
vana	4
▁kanik	4
imacoc	4
moztlatica	4
zillo	4
mohualhuiquili	4
▁conpeualti	4
▁Azc	4
▁Tziuactla	4
nonantzin	4
▁Quaquapiça	4
▁quichihuilia	4
▁kaj	4
▁ninoquixti	4
▁nipoliuh	4
▁mohue	4
▁moteo	4
iah	4
▁Dur	4
▁tlatzopeliloni	4
▁quimpia	4
cequi	4
miquili	4
▁quitetec	4
▁moyecti	4
▁ori	4
neros	4
▁espada	4
▁CA	4
NIN	4
▁huallotlatoca	4
▁ocçe	4
▁Oçomat	4
antica	4
▁Xoh	4
▁mimil	4
catoc	4
▁quinamoya	4
▁Mictla	4
▁tlalquitzquili	4
▁Grec	4
▁chihuallo	4
▁ninomiquili	4
ualtzin	4
▁Matlac	4
▁tzonquiça	4
cuique	4
moxillan	4
▁tlayoua	4
▁tlaneltoca	4
cotonas	4
chtlan	4
tlacual	4
▁cuauhta	4
er	4
aquiz	4
pilhuati	4
▁oquimiqu	4
anilli	4
moquixtitiquiz	4
olinia	4
▁moxtlaua	4
mocalti	4
▁Po	4
xolehua	4
▁moteka	4
quinchololti	4
▁moteuhc	4
quecholl	4
▁ayot	4
▁tineci	4
▁tetlaocol	4
▁monges	4
ahtolli	4
▁titononotza	4
ec	4
▁ompoh	4
▁teotica	4
icaya	4
tojmi	4
▁toconnamiqui	4
▁Cahual	4
▁pehualo	4
chitl	4
▁opouh	4
pactia	4
▁quixo	4
hti	4
quichihua	4
▁quimonamaquil	4
nemac	4
mauhti	4
cuecuenot	4
ualyaca	4
▁ualcallaqu	4
▁Tezozomoct	4
ohui	4
▁cecem	4
salo	4
▁Mex	4
▁Uax	4
▁ynteyacanca	4
tlamachiliz	4
▁neyxnamiquilizt	4
anati	4
▁baratu	4
nahual	4
▁yxmatlallehua	4
uantzi	4
▁nimiqui	4
▁titlatla	4
▁tatli	4
oloz	4
çacatl	4
ençacat	4
tlayecolti	4
▁tropa	4
▁teuh	4
tenehua	4
▁xolopi	4
tlahuelilocati	4
cihuiz	4
▁tlatequipano	4
teuhca	4
temo	4
▁iluikak	4
▁tapalca	4
ztlaeual	4
coyolli	4
▁Itzquauh	4
▁ololi	4
▁Chalchihuitl	4
moquequelo	4
taque	4
▁noyolio	4
iernes	4
▁ista	4
iollo	4
▁Secretario	4
▁momachti	4
huiaya	4
▁Ihyo	4
llohuaya	4
▁onye	4
antlaca	4
panoz	4
▁Itey	4
▁quimotlauhti	4
▁Maza	4
▁onihual	4
texcall	4
uanyolque	4
NO	4
▁cecentlaca	4
▁manic	4
▁quinmomaquili	4
▁ex	4
ecu	4
ticpiaya	4
angor	4
tolome	4
▁altepetli	4
ncauhque	4
▁tequipanos	4
rolog	4
▁omochihui	4
▁Pill	4
▁Uizil	4
hcihui	4
▁moquixtili	4
yomatzin	4
▁icyey	4
ulla	4
almazalo	4
▁couatl	4
▁tlequa	4
tata	4
▁atli	4
▁Atezca	4
▁tepexictlac	4
▁kinimak	4
lant	4
nopillo	4
▁Xon	4
▁notlaquen	4
▁Muy	4
▁Opoch	4
▁tiquitlani	4
tlachcuitetel	4
timitzmaca	4
cayopan	4
▁quelehui	4
melchiquiuh	4
▁quitemacaz	4
ZO	4
cencauh	4
tehuaz	4
▁pouhtica	4
▁tiyez	4
ohualla	4
▁mimati	4
ezque	4
▁xicon	4
▁Nelí	4
tetzotzona	4
▁quellehuia	4
▁Notat	4
▁yepewa	4
▁čiko	4
▁tlatlacah	4
▁ixne	4
▁teut	4
iske	4
▁yxtlamati	4
acic	4
momanque	4
▁tlecuill	4
▁Onca	4
▁sitlal	4
▁xihualhuiya	4
▁quimacicacaqui	4
▁oquinmonochili	4
quiztiquiça	4
moujti	4
▁Mon	4
▁yaotequi	4
tzitzqui	4
▁izcalti	4
▁tlatemowi	4
▁Ticoc	4
▁tijuikas	4
▁patlah	4
quauhtzin	4
▁kiti	4
▁moye	4
akin	4
▁ate	4
▁Coyo	4
▁oqualo	4
▁tlachiya	4
yeman	4
▁takuauak	4
▁oniual	4
▁gan	4
▁tonte	4
ehuaz	4
▁almo	4
hcuilhui	4
▁miximati	4
xitiniz	4
▁netlapachol	4
▁tomacehual	4
▁mochioa	4
▁Tl	4
tenemac	4
▁iluikatl	4
▁ymaltepe	4
▁tzonquiza	4
▁tocateneuh	4
▁Ocelopa	4
▁cuahui	4
▁quitocaz	4
▁cuicuil	4
▁moxtlauh	4
▁oquilpico	4
▁oquihuicac	4
tque	4
temohui	4
▁itomine	4
▁polliohuac	4
▁yepohuallo	4
quiquiz	4
▁Yoyo	4
▁moteuiaj	4
▁quimononochil	4
▁icniuhti	4
▁ox	4
cul	4
▁tlaman	4
▁Tequihua	4
▁tzaqualtzint	4
hué	4
▁intlatocau	4
▁Epcohuat	4
tí	4
▁oquimah	4
▁omonanahoati	4
▁Maça	4
▁Occente	4
▁quitemoa	4
tlalhuiz	4
catic	4
▁axtlen	4
hquia	4
▁omoch	4
pili	4
▁Omoce	4
mixmachilia	4
tlanamaquiliz	4
zouipill	4
neli	4
▁ticcuiz	4
▁tecpayo	4
sitsi	4
▁Yx	4
koneme	4
▁Tianquiz	4
úb	4
▁tachcauh	4
▁prima	4
▁tictlan	4
▁ayk	4
tlatla	4
▁toto	4
▁nitlanauati	4
ahua	4
▁tonto	4
▁çoço	4
▁unte	4
xiuhmolpilli	4
çalo	4
▁kokolis	4
▁kimolontia	4
kuoujyo	4
▁ilhuil	4
▁tiitstose	4
allo	4
mocuil	4
▁quihtoz	4
▁Nicnequi	4
monequitia	4
xcatzin	4
▁tlaxamanil	4
▁yntlahtol	4
▁moyahua	4
▁nipaxialo	4
▁toxochimil	4
▁Nahuaqueh	4
viso	4
▁cehua	4
▁mitotique	4
▁cenpohuallom	4
▁tlamochihua	4
tlalcohual	4
▁poye	4
tacayoti	4
▁Chapoltepe	4
ç	4
▁cozca	4
▁caxati	4
quetzalpatzac	4
▁iikni	4
ane	4
▁Tzihuac	4
▁Yeyi	4
tlah	4
▁teaxca	4
▁uejka	4
▁namot	4
ahtoltzin	4
▁honte	4
▁tlatemactilis	4
ixhuiuh	4
▁tlatlata	4
▁pala	4
bra	4
▁Naua	4
▁ynmacehual	4
cuele	4
▁Opano	4
▁nenemo	4
▁huehueca	4
▁Cadena	4
▁ytlaxilacaltia	4
▁tlatlacoltiloc	4
▁quitzacu	4
▁moteylui	4
▁noxuiuh	4
▁oquicel	4
▁yhuian	4
▁quihualyaca	4
▁manozo	4
▁chichipahuaque	4
▁Cuauhtemalla	4
▁Chicahua	4
ztique	4
▁ychcapixqu	4
▁mona	4
▁Tzaqual	4
▁Comi	4
▁oceppa	4
piliz	4
▁Tequichihualis	4
xcali	4
▁Xicon	4
▁Xuchimilco	4
chichiuhtia	4
teochihua	4
▁ouala	4
eonechicoliz	4
ontetoca	4
▁motlacatili	4
▁tlahuil	4
▁nina	4
č	4
ualloc	4
itini	4
▁Madr	4
▁Atlaco	4
▁itlacamecayo	4
armas	4
ijtouaj	4
panoua	4
▁uejkapan	4
▁tequipano	4
▁omitz	4
▁quitemachi	4
loaya	4
▁otiya	4
alcalte	4
▁otemoque	4
ouaj	4
▁nijchiuas	4
anto	4
ub	4
ehichi	4
cuacua	4
▁ayocm	4
▁mopialis	4
▁quinmocahuilli	4
▁quinmanilli	4
ittac	4
quipan	4
▁ianiman	4
▁otiquinte	4
otinemi	4
▁moteihtiti	4
▁otlatopil	4
▁hualteyacan	4
▁kiyek	4
▁tlachipau	4
EL	4
biex	4
amen	4
▁ue	4
▁Encarnació	4
tehuitequi	4
▁Nohuian	4
▁Tlacanteo	4
▁tlapopotz	4
▁Calliyma	4
nyan	4
▁amox	4
▁quimochihuilili	4
▁mošiyo	4
▁cuetla	4
ihtac	4
▁cehcen	4
▁tlatecpant	4
▁Quimolhuili	4
▁nicnocohui	4
▁cocin	4
lliz	4
▁tequitih	4
TLI	4
▁teuhcyot	4
▁yacuica	4
▁tequa	4
▁omca	4
auhtitlan	4
tlachihual	4
▁oquix	4
▁tlatlatla	4
▁quitlatlaz	4
▁quitle	4
tatah	4
▁kiuatsa	4
▁roman	4
▁oquichihuili	4
xoxo	4
▁tlamahuizol	4
▁More	4
petlauh	4
▁imetz	4
▁menor	4
▁nitlachie	4
▁tlapi	4
▁fres	4
▁tlamacehua	4
▁tenemiliz	4
▁kaswela	4
▁seg	4
▁tlaneltili	4
▁cauhtica	4
nicy	4
ximatin	4
▁marquesa	4
quelehuia	4
mahuizoh	4
andan	4
▁quihualquixti	4
tiya	4
apantica	4
▁quinemilli	4
▁momama	4
▁copehualti	4
tihuetz	4
tlanahuatil	4
▁oquicuic	4
▁otitech	4
▁quiuallitla	4
atlycha	4
▁Totomi	4
tlahtocateopixqu	4
omanilli	4
nextia	4
▁tozan	4
▁mochihchi	4
▁setie	4
▁calxexelolt	4
▁quincuili	4
ciaci	4
moyolcehui	4
mamalihua	4
tillan	4
▁xoconcaqui	4
temi	4
iztica	4
▁yaoti	4
▁telpopocht	4
tificaci	4
ninoquetza	4
tohuaya	4
ista	4
▁xocoyo	4
▁niwi	4
▁chicahua	4
▁altepechan	4
▁tlasencahual	4
▁tlapalehui	4
▁quichichiuh	4
hicuacen	4
▁otlanahuati	4
imati	4
▁imayauhcan	4
▁Atlan	4
motlatlanili	4
▁oquimotlallili	4
▁ipati	4
▁onitla	4
▁tlahuahhualoa	4
melel	4
tzivac	4
▁mopilhoa	4
tacti	4
quinmonahuatilli	4
ujtok	4
macehualti	4
▁nohuiyanpa	4
tlahpalo	4
▁hualpano	4
exi	4
▁amaihcuilol	4
▁quincuitia	4
ltilli	4
▁tlayahualo	4
tlacatecolo	4
▁yte	4
tlachco	4
oxochitl	4
▁quincallaqui	4
htzi	4
▁mixiuh	4
ués	4
uiti	4
cocone	4
huitza	4
▁tlayllotla	4
▁acitica	4
▁rep	4
▁Tzo	4
tzontla	4
▁uejkaua	4
▁nikinca	4
hualpanahui	4
▁Topan	4
▁oaxcatil	4
▁Oyeya	4
éj	4
centlaliaya	4
oza	4
PAN	4
▁anquimocaqui	4
▁quitlacamati	4
neloa	4
ixahuia	4
▁niccauhti	4
▁motlaz	4
matque	4
▁onemia	4
▁tlakuaka	4
▁chicuetlamant	4
▁moquimilo	4
▁tzauh	4
imal	4
nintasojkamatili	4
tajtol	4
▁nextamal	4
▁Gutier	4
▁tokone	4
piya	4
▁xitin	4
▁motequi	4
▁inyeya	4
▁tochimal	4
▁chant	4
tlahtocayo	4
▁ueca	4
dal	4
▁Tlaxcala	4
▁aregl	4
huitze	4
ek	4
▁oquinmoten	4
potica	4
▁Yeuantin	4
tokaytia	4
icniuhtzi	4
▁Val	4
tzacuili	4
ontlahtocat	4
huey	4
▁quichioa	4
tiwe	4
▁nove	4
▁Perd	4
ido	4
▁manima	4
patla	4
quimixquechilli	4
▁pexon	4
▁mixcahui	4
macehual	4
▁Huitzitl	4
▁chalchiuhtla	4
▁conitot	4
nemiliztli	4
▁aoca	4
liti	4
cuaya	4
tul	4
▁icpalpa	4
callan	4
▁Popoyot	4
manque	4
▁oquimohuiquilli	4
▁Coli	4
▁immac	4
▁tzapoteca	4
▁tlahtoa	4
▁Vi	4
cente	4
motlali	4
tlacahualtiaya	4
▁totalmanic	4
▁Oto	4
▁momimicti	4
▁ace	4
▁onpohuallon	4
teniente	4
▁quiyahualloto	4
▁tlahcuilolli	4
▁cuauhtlapech	4
▁oyx	4
▁topalehuil	4
▁oquitlatla	4
▁oquixtla	4
▁kiix	4
▁onia	4
toconmaca	4
ados	4
▁netecpano	4
çoma	4
otia	4
tlatete	4
▁mohuillan	4
tlachalaniz	4
▁monamiqui	4
cayeliztli	4
▁Mis	4
▁mazeuhal	4
▁coro	4
▁quihuicatz	4
xeloa	4
▁cristiano	4
▁kualanij	4
▁titoto	4
moc	4
xacal	4
▁niantle	4
▁kwent	4
▁ohualmo	4
▁mayana	4
▁maça	4
▁oquinpehua	4
▁xochihuehuet	4
ollohua	4
▁kaka	4
mochin	4
▁yacachto	4
▁ycopa	4
panok	4
▁guerr	4
▁ohualhuil	4
▁onite	4
▁quipohua	4
tzonteco	4
molhuichihuilili	4
▁Tzimpa	4
▁Tlanahuati	4
▁orégano	4
cmo	4
nemilis	4
eopixcatlatecpan	4
nas	4
▁Pepena	4
▁quihualitqui	4
mopiyal	4
machtiaya	4
mauiztili	4
▁chiuh	4
▁tlalpolo	4
▁Consep	4
euayo	4
▁quitlahtlati	4
▁teteuh	4
▁tlaolkuntl	4
▁quimochicahuil	4
elo	4
machizti	4
▁nochpuchtz	4
nidos	4
rociaroquih	4
gada	4
tlacanechicoliz	4
▁oyah	4
▁Teohua	4
▁coh	4
mocalaqui	4
▁ticalaquiz	4
quilitl	4
▁quilpillico	4
▁tlalnan	4
▁imaicni	4
▁nitlacua	4
terio	4
▁quintollini	4
▁Fabi	4
tiquiça	4
▁quimotetza	4
▁tamechto	4
mauhca	4
kiera	4
▁ixtlahuatlaca	4
omesti	4
▁tinemizquia	4
▁tenyo	4
tijneki	4
▁Nonan	4
abad	4
▁xite	4
▁quexqui	4
xexelo	4
tzinitzcan	4
pinos	4
▁tlazolli	4
▁huallitztoc	4
úr	4
mihiyohuilti	4
▁mitzon	4
ocelo	4
nican	4
▁Cuauhtlahto	4
obarr	4
obia	4
riz	4
ococa	4
▁kipixki	4
aloz	4
▁chachal	4
▁nihualla	4
▁tohueytlatoca	4
nyaz	4
▁nixpa	4
icac	4
tura	4
▁opahpac	4
▁yepohualxiuhti	4
▁tetzacu	4
▁chalchiuhtoto	4
tlahtocan	4
tlahtoli	4
ictocaquiltilico	4
▁secretario	4
pehuaz	4
▁omot	4
tlahtocaycpal	4
▁Anmehuan	4
▁necuiltonolizt	4
▁itlacauh	4
▁atica	4
▁oconchiuh	4
▁timotlacohuia	4
▁kipantem	4
▁oquicuep	4
▁tepoztla	4
xicol	4
▁nocuacuil	4
ouan	4
▁quitlami	4
▁Merino	4
cenquizca	4
▁oquimati	4
▁Yaote	4
ulli	4
▁quitlanili	4
xitin	4
▁nitlama	4
omachix	4
▁yeva	4
▁tiquelehui	4
▁tlapohua	4
alhuia	4
erre	4
ber	4
▁ciuatlan	4
▁ciuapil	4
▁nonquiz	4
▁tlanamacazquia	4
▁maman	4
▁mama	4
▁lisian	4
▁quiyocox	4
radici	4
▁kayot	4
machiyotl	4
chá	4
▁telpoch	4
mandamiento	4
▁Nimitztatauhtia	4
yewalo	4
▁nitoc	4
guero	4
▁amame	4
▁Cohuanac	4
▁Tetlepanquetza	4
▁kikixtia	4
▁kuou	4
motlapalo	4
komid	4
xal	4
▁avía	4
▁le	4
▁ochollo	4
ssa	4
tlachcuitla	4
▁conma	4
chihuilia	4
ij	4
▁timoquetz	4
▁Oh	4
▁ymixpa	4
▁quinamicti	4
▁inacaztla	4
▁yayá	4
▁tum	4
▁Quitla	4
elelquixtiz	4
teuc	4
▁timitznotili	4
cualtzin	4
dora	4
temoz	4
▁xx	4
quimati	4
▁omonexti	4
yhuin	4
▁mixtlapacho	4
xqui	4
nonoualc	4
▁conmotla	4
▁Zoqui	4
▁toncuica	4
▁monamikia	4
machtiz	4
▁tlatecqui	4
▁sol	4
▁Todo	4
▁quintlamamaca	4
▁teuhctlato	4
▁tzotzoma	4
tapach	4
▁cemen	4
▁mochoquili	4
▁motocatenehua	4
kitowa	4
▁xijmaka	4
▁mocuaatequi	4
▁tictocaz	4
▁izquic	4
mahcehual	4
▁Xochitlal	4
▁cecenyohua	4
paquiya	4
stre	4
▁ixochi	4
▁Onen	4
▁oconmo	4
▁tikin	4
▁teohua	4
▁axa	4
▁quinpehuat	4
huilli	4
▁plata	4
▁techmaka	4
▁Moteuhcçuma	4
tlatocayo	4
▁tlacotl	4
▁Tiçaua	4
▁calohtli	4
▁tictomac	4
▁omopacho	4
▁otlato	4
▁niquilhui	4
yezque	4
▁tlaixnextilis	4
maquixti	4
▁ytechcopa	4
▁tičiw	4
▁tocay	4
▁otonya	4
tlazocamachilili	4
pre	4
▁amoztlacat	4
▁kinkui	4
▁quicahuazque	4
tenoj	4
▁omonemilti	4
zapol	4
▁quincauhti	4
▁ahuia	4
▁motlaloa	4
▁kitl	4
ehuato	4
▁melel	4
mpoal	4
▁Mar	4
▁mochijki	4
uiyo	4
▁quimatiz	4
▁tlanamaca	4
amaco	4
xto	4
▁Yzqui	4
quimocnelili	4
comit	4
▁chicahualizt	4
pits	4
▁miquitlani	4
▁tsik	4
tlalticpac	4
poctzi	4
▁yuhca	4
concaqui	4
▁oczequi	4
▁tequichihuani	4
▁ehuani	4
▁Huitznahua	4
mochihua	4
▁tlanonotza	4
huiptla	4
▁icpalti	4
▁quiyomahui	4
▁motecac	4
▁quenami	4
▁Kiijtouaj	4
▁conquechcoton	4
▁taoltsi	4
▁Chiconquiauh	4
▁Upan	4
tollini	4
chihuaco	4
iern	4
▁fal	4
▁topixcatzin	4
ihuinti	4
▁petici	4
▁cepo	4
▁Cacamatl	4
tzayan	4
▁axaxayacatl	4
▁governadores	4
quimonechicalhui	4
cis	4
▁Manozo	4
▁tziua	4
▁ixpolihui	4
▁Tlamacazqui	4
▁quenamica	4
▁xal	4
▁nictoca	4
▁Teçoçomoc	4
▁kipixtó	4
mochiuhtzinotica	4
noço	4
▁tontemiquico	4
▁omicuani	4
epec	4
▁colhuaca	4
▁tlatlauhtilo	4
▁quimopieliz	4
▁tlamelaua	4
▁oro	4
▁tocayotil	4
loxochitl	4
▁parte	4
▁Uitzilla	4
▁centímetro	4
hpiani	4
▁motlati	4
▁tepehua	4
▁opopoca	4
▁tlalnamaca	4
▁mihmati	4
mpopolo	4
▁tenehualo	4
▁chipauak	4
▁tlaneltoquilizt	4
▁momi	4
ecatzin	4
uka	4
tijtok	4
▁kiijku	4
▁retabl	4
▁quitepotztoca	4
▁cecenyaca	4
▁popoch	4
▁ticceli	4
▁Celi	4
tinen	4
▁difun	4
▁tlapatla	4
▁quimopi	4
tlatski	4
itec	4
▁ahuic	4
mochihuaz	4
▁quichalani	4
ocal	4
▁quimochihuillia	4
▁kikwa	4
kamoui	4
quihtac	4
mahuiz	4
▁motlaxcal	4
▁tlatomonki	4
tlacuilol	4
upil	4
▁pozon	4
toka	4
▁malinči	4
▁tepi	4
▁tateuat	4
▁inhuaxca	4
▁Antoni	4
▁nimitzilhui	4
▁je	4
▁quauhtzonyo	4
▁xichualcui	4
chicahualiz	4
oniznequi	4
▁mitztequipacho	4
▁Alç	4
neltiliz	4
▁quititlaniz	4
▁ninochi	4
▁intlanel	4
▁Oje	4
▁amaxca	4
▁tetlanextilli	4
ocoltlatzillinil	4
▁tlazaloa	4
patioti	4
cuitiuetz	4
▁chichina	4
▁niquintemo	4
▁tlahuizcalpa	4
▁Yaocui	4
▁cahuapa	4
ega	4
▁maestr	4
ltilo	4
▁nat	4
yazque	4
cuitlahuic	4
cenca	4
mopalehui	4
ços	4
tolteca	4
▁Alcalde	4
▁ogovernadorti	4
▁Tlacochin	4
▁mosencahuas	4
▁tequitini	4
matlactlomey	4
▁oquimin	4
▁minuto	4
▁amocol	4
poloua	4
▁namico	4
▁nemaque	4
yolquima	4
▁Teco	4
▁nexicol	4
▁teocuitlat	4
tiyajki	4
quinotzque	4
▁kami	3
▁Xoxopan	3
▁pitso	3
▁quinchichiua	3
▁quincencau	3
semiya	3
▁tlaxcaltecatl	3
▁distansia	3
▁tlakuaj	3
▁cuauhchilli	3
▁kiitato	3
quiyelizmaca	3
▁huehcatlal	3
▁omotocayoti	3
▁Ayaxca	3
▁oticoch	3
pachilhuiya	3
tep	3
axix	3
olhui	3
tetequi	3
▁xol	3
▁quimonahuatili	3
▁connotza	3
▁iloti	3
ttalli	3
▁icxitl	3
▁quihtoh	3
barra	3
itauhca	3
▁xiuhtlapohua	3
▁quiyancuilli	3
▁xicmati	3
mihtic	3
▁immotozcatlan	3
chotl	3
▁omocala	3
▁tlanamaco	3
coma	3
▁tekua	3
▁Un	3
tlapia	3
cihua	3
▁teumil	3
▁ouas	3
quimiloa	3
▁ver	3
▁techmaca	3
huaqui	3
inko	3
▁calacoua	3
▁netla	3
▁present	3
▁quiquaz	3
chichina	3
▁tocelo	3
miyahuatl	3
cuezal	3
ololti	3
▁tiquinmon	3
appan	3
▁Tezcatl	3
▁tezcatl	3
ux	3
▁Oan	3
▁oantla	3
cnelli	3
çenca	3
tlapacholpan	3
▁titlanamacaz	3
topil	3
▁inmonasterio	3
▁motzacuaz	3
huenchihua	3
▁komitl	3
▁yequita	3
▁quihualcen	3
▁cempouali	3
acayo	3
yacahua	3
▁Hue	3
▁omocahua	3
▁nociyeliz	3
ellacuaua	3
▁ommihzo	3
▁quimocelili	3
▁necocolo	3
▁toyaca	3
▁teua	3
▁quitemolia	3
quisidor	3
▁Sala	3
▁Xopanizt	3
▁yajti	3
▁Basqu	3
quinmonanamiquil	3
quimottili	3
▁quimahuizoh	3
toneuh	3
▁niquinn	3
estre	3
albaceas	3
▁noquia	3
▁tlalma	3
▁techilhui	3
xiquitta	3
extli	3
▁huicallo	3
▁mochiuhtoc	3
onoc	3
polo	3
▁toteu	3
▁toztomeca	3
▁zolli	3
▁coniya	3
huiliaya	3
▁quitlapalo	3
▁Itzintla	3
▁tlacuiloz	3
▁moza	3
tečkaw	3
osen	3
OCHTLI	3
▁Cuacua	3
▁Otomi	3
▁planeta	3
▁moxtlahua	3
▁mocenma	3
lotzin	3
tetlapopolhuiliz	3
llitic	3
▁tlatzonilpi	3
▁mixnami	3
▁moyaual	3
▁cihuacuacua	3
xiujyo	3
koli	3
▁Quauhqui	3
▁nopiltzintzin	3
▁tacua	3
pital	3
▁kiixka	3
▁chilt	3
huallaque	3
tiquimoncallaqui	3
tlaocoya	3
kiw	3
▁muchiuhtzino	3
▁Oncate	3
▁tzinitzca	3
namicoc	3
▁ycihua	3
▁posse	3
cuicani	3
▁tlatlacoh	3
ztac	3
conitlacoz	3
▁kualk	3
▁Xokoyol	3
▁ualajk	3
▁tlalchi	3
▁quimoquechillit	3
▁hehecatic	3
▁quitlallica	3
mul	3
kilwis	3
▁yekwika	3
▁mosewi	3
zonco	3
altica	3
▁tecp	3
icha	3
▁tamonahui	3
▁tlaxa	3
▁motepewa	3
moma	3
▁kikwas	3
resaro	3
▁quiquetzaz	3
undo	3
tlapallan	3
▁Nonohualc	3
▁necuame	3
ticatzintli	3
quintzatzili	3
▁omotepexihui	3
▁nakat	3
▁tictemo	3
▁itotonca	3
▁iyamanca	3
▁waki	3
kwi	3
uetz	3
▁otonac	3
▁quimoma	3
▁quizti	3
▁cacax	3
▁quiquehquetza	3
ualtin	3
etic	3
▁Xan	3
atlacomol	3
▁tene	3
neyxca	3
xeloliz	3
huiztic	3
zcapoçalc	3
tetepacho	3
▁Atlitlallacya	3
▁quimamaya	3
▁netlatilo	3
spital	3
▁kuoujtajpa	3
ehualo	3
quiauh	3
▁huahua	3
▁monoma	3
▁Mitoa	3
▁tetolini	3
▁quiquiz	3
▁tocac	3
▁malli	3
huiltequi	3
alihtaya	3
▁techpolo	3
▁cenman	3
cencaua	3
tlamachiotitinen	3
▁Uetz	3
▁quihua	3
▁itelpuch	3
▁Nej	3
ejek	3
▁kualani	3
▁tepoçot	3
ecaliliz	3
▁honca	3
ycpate	3
nelhuayo	3
pina	3
tlapalteo	3
▁quicualita	3
▁lim	3
cayopa	3
viz	3
▁Chichicuepo	3
opan	3
▁iniquei	3
▁icenca	3
chihualiz	3
▁tlalnamiqui	3
▁xiuj	3
mekayo	3
jti	3
ixnamiqui	3
▁otioal	3
mimictia	3
▁Meca	3
tochtli	3
chiquacemin	3
chollohua	3
▁Vie	3
▁condes	3
rado	3
motlanika	3
mexi	3
▁mihtoti	3
▁xuchi	3
▁cuauhxi	3
tlatequipano	3
▁cuachpani	3
▁quihualli	3
xonka	3
▁papa	3
▁xinechmac	3
uidaro	3
yancuilli	3
▁peniten	3
▁nimitztla	3
▁tlaquetz	3
tlamacho	3
▁tlaxtlahua	3
kuase	3
noteyccahuan	3
tlaytlaniliz	3
▁XOXOUHQUI	3
▁pipixauhti	3
PI	3
▁Topal	3
huetzin	3
AN	3
lana	3
▁tlaneci	3
ztlan	3
▁Molin	3
makas	3
ejkolti	3
▁xaxamaca	3
▁oconca	3
omolhuia	3
noza	3
▁pipitz	3
▁tlanco	3
▁tepetzinco	3
▁tetz	3
▁otiquimon	3
▁quimomachizti	3
perroqu	3
motecuhzoma	3
▁Ilhuicamina	3
▁ycchicuey	3
▁anquimot	3
▁motlatlali	3
jka	3
▁oneč	3
▁oquimaci	3
▁tepati	3
quitlaliliaya	3
oxa	3
▁tlapechpa	3
pahcayo	3
▁perochia	3
▁onhuetz	3
▁yteuhctlahtoca	3
▁tayocoya	3
▁mokuapa	3
▁bisi	3
▁huipta	3
▁Xoxo	3
uilti	3
▁ticpix	3
▁Caxtil	3
ztihuetz	3
▁org	3
anillo	3
chixticate	3
▁teumecha	3
ve	3
vic	3
gou	3
▁alcal	3
▁Esteba	3
▁camohtli	3
▁teoaxochi	3
▁Quihual	3
▁xihualmohuica	3
▁Balde	3
▁ycxi	3
tigo	3
cnooquicht	3
tlacoz	3
▁immih	3
tlatzotzona	3
▁omoca	3
▁motlapaloa	3
▁ahziti	3
▁onyaz	3
▁Tex	3
tit	3
▁hualmoquetz	3
iyaliz	3
▁noteocal	3
zemica	3
nextil	3
▁ga	3
▁taxtahuil	3
mamal	3
maxiujyo	3
tzico	3
anima	3
ynpan	3
nmocihuauhti	3
▁omotta	3
huiliz	3
tapalcamahuilti	3
▁nictec	3
▁nitlachi	3
▁yquizan	3
▁Tapia	3
▁noxuiu	3
eda	3
▁tocaye	3
▁Chicun	3
ike	3
manalo	3
maquauh	3
▁timitzto	3
▁onteixti	3
▁cuitlaua	3
▁peohua	3
▁quimonochilli	3
▁quiualhuicac	3
▁quitlacamatiz	3
tejko	3
▁tizatl	3
▁Momoztlatica	3
htinemia	3
▁calehcapo	3
▁mikti	3
▁Cuitlahua	3
apalla	3
lanca	3
noncua	3
▁Napo	3
▁kač	3
ikana	3
▁tetlazohtla	3
▁oniquim	3
▁molcaxi	3
caltema	3
cohcotoc	3
zontli	3
quizaz	3
čičiwa	3
▁inima	3
▁ikši	3
▁ximote	3
auhca	3
lac	3
yor	3
▁Ocellopan	3
▁tlacochcalcati	3
YACA	3
▁tepetlamimil	3
▁hualquixohua	3
mazatl	3
▁išm	3
mahuiztlachihual	3
nequetza	3
▁ixtlamati	3
tequipacho	3
uhtinen	3
titinen	3
▁ontlamin	3
▁nochcalco	3
poloz	3
▁quitlaocolti	3
▁ythoal	3
▁timomiquili	3
teoxiuh	3
▁Nottatzin	3
otinechmocnelili	3
▁quicallaqui	3
▁xinach	3
▁motecuyo	3
▁nuestr	3
▁netequipacholli	3
▁kuati	3
icomecatl	3
▁quinyacapi	3
▁ylpito	3
▁Acallo	3
panitl	3
mixnamiqui	3
lcatl	3
ilhuitia	3
omiquiliz	3
mextin	3
quechili	3
▁nicmacatia	3
▁ximohtili	3
yez	3
opanoque	3
miximachili	3
▁otlatla	3
vigilia	3
▁nomach	3
▁quipixca	3
▁quimocuicuil	3
huehuetlal	3
omo	3
yahual	3
▁quitemo	3
quinnotza	3
▁onyohuac	3
▁tlamahuiço	3
▁cenquiça	3
▁Mexicame	3
▁tlamacehualizt	3
▁onpoliuh	3
nahuacatl	3
chichicha	3
▁timoma	3
tlacalhuiz	3
▁mokakili	3
▁tipopolihuiz	3
tepacti	3
▁cocolo	3
▁tlamahuizolti	3
lahto	3
▁onc	3
▁otlate	3
XO	3
▁letras	3
tlahcuilocatzin	3
rit	3
▁acitimoquetzaco	3
▁tapa	3
▁ahkwe	3
kisa	3
▁Niñ	3
uatzin	3
XXX	3
▁pajke	3
▁tlepan	3
▁ycuic	3
▁concuic	3
tleco	3
▁onpohualxiuhti	3
▁moqu	3
aqui	3
▁mom	3
▁mopapan	3
▁Mixcoa	3
▁nictzotzon	3
▁tezcatzintli	3
▁quicnopilhui	3
maxca	3
tzatzayan	3
elti	3
jtsili	3
acacic	3
tecuh	3
tel	3
tlaihioui	3
catiz	3
▁motlacamati	3
▁quicahualti	3
alixko	3
xiko	3
nalquixti	3
etzilacatl	3
▁ayotl	3
▁comon	3
tetzilacacuicat	3
chhuipil	3
cayotia	3
▁izquixochitl	3
quitoa	3
▁Tlilla	3
ntes	3
▁techalo	3
▁miltequit	3
▁quicauhtehua	3
▁ihcua	3
▁tlaocolchoca	3
huiquilia	3
toctli	3
vir	3
▁tiamico	3
tlachialti	3
▁tlaciahu	3
▁otemic	3
▁Ahua	3
tzalpan	3
▁nemacho	3
▁nicca	3
▁yntepachoca	3
ezyo	3
▁micmo	3
▁ameli	3
▁semill	3
▁tematequil	3
tecpancalt	3
▁tlayaca	3
▁teylpi	3
aquauhtlatlachia	3
▁tictoca	3
papalo	3
▁Lim	3
C	3
tlamatinime	3
ense	3
noce	3
▁ahquique	3
mochoqui	3
ninocuiltono	3
nomati	3
▁ticnemilia	3
▁quicuitlacoyoni	3
▁cinc	3
uenta	3
▁tolxacal	3
▁axala	3
▁Neçaualco	3
yotzi	3
lnamiquillitzin	3
▁divin	3
quizca	3
huito	3
▁anmonelchihua	3
▁mizo	3
nepalehuilo	3
xiuhpohualtzin	3
huecapano	3
▁motema	3
amaque	3
molhuilia	3
▁cuicapiqui	3
dov	3
oven	3
notlazohcamatili	3
▁molon	3
tolli	3
▁metztaya	3
▁tohuampoh	3
tlapaltin	3
▁prior	3
▁tlamaceu	3
tamachiua	3
tecuiyo	3
quimellauh	3
tequipano	3
▁china	3
nemanalo	3
quinmoteochihuil	3
auatil	3
ltica	3
▁mohuitequi	3
▁sasa	3
▁quinhualhuicaz	3
▁nahuallahtol	3
▁hon	3
▁paka	3
mantenero	3
difun	3
mottititzino	3
tlacoch	3
ycxi	3
▁quimiximachili	3
nahnamiqui	3
xolo	3
▁huihuilo	3
▁Tlica	3
ñ	3
idor	3
zteca	3
olicp	3
▁Elen	3
nemacti	3
▁Quimitalhui	3
▁Oti	3
itlanili	3
ikate	3
yayaj	3
▁ijuezh	3
opalehuizque	3
▁tocahy	3
▁antlanamacazqu	3
▁regi	3
▁Ment	3
▁ticcemaxcati	3
▁tlei	3
eta	3
▁xihuala	3
▁cuahtla	3
ierto	3
▁huihuito	3
▁Bi	3
▁Ciencia	3
xotzin	3
▁oneohua	3
quixnamiqui	3
▁tlaqua	3
quinnotz	3
▁Nocon	3
▁domíni	3
▁oquinquixti	3
yolime	3
ema	3
▁quinapallo	3
teopancal	3
▁tzicuini	3
▁nenenca	3
alo	3
▁otihue	3
apantli	3
▁cahuatemo	3
▁quitzontequi	3
▁itsinta	3
▁netzoll	3
▁omotlati	3
chiqui	3
▁oquipatla	3
▁oquiqua	3
anamaca	3
▁hey	3
miki	3
▁tihmati	3
▁titlapa	3
▁šokt	3
čiki	3
▁ayatilakt	3
otenahuatil	3
cahualtiz	3
ijkuiloj	3
▁tajtol	3
▁Pro	3
oma	3
▁Xiquixti	3
▁kiuiuita	3
▁tet	3
▁tepejxi	3
vica	3
▁tetecuti	3
▁Tetlacolti	3
▁niteixmati	3
▁tiquimont	3
▁oquipolo	3
▁oticpolo	3
▁motlallo	3
▁quitlaz	3
▁moijtó	3
maquiztl	3
▁Quech	3
▁nimitzm	3
▁monelchiuh	3
caquiz	3
▁motlanequiliz	3
llico	3
▁quiçallohua	3
▁quimoquechiliz	3
quihcuani	3
▁ahhuiya	3
▁clavo	3
▁moyec	3
▁wey	3
▁penk	3
▁quihualtitlan	3
▁tlatequipanohua	3
▁poliui	3
uise	3
allaque	3
▁onchicom	3
▁Anglitlal	3
amatini	3
▁Ge	3
rge	3
ederic	3
▁Xochit	3
uauhtexpetla	3
▁quinyec	3
▁Iyaca	3
bca	3
▁oquintoca	3
tenque	3
▁oquintlal	3
▁quiyaochihua	3
▁onac	3
▁otimitznotil	3
▁Oyec	3
▁Asun	3
▁tlatz	3
▁Tictemohu	3
▁motzoncui	3
teuhctlatol	3
▁pillo	3
tlatlauhti	3
▁Jho	3
iro	3
▁onechtlahtlani	3
▁ayocuic	3
▁nopi	3
nahuati	3
▁tipiltzin	3
motlaque	3
▁oquimomaca	3
▁españolti	3
▁chayauac	3
▁anauaca	3
▁mimientaj	3
▁Gra	3
ctu	3
▁Oyuh	3
▁Pantitla	3
poč	3
▁piz	3
▁ytenco	3
▁onpoual	3
echcuiliznequi	3
▁anemizquia	3
▁mitotiz	3
▁icorona	3
izoltic	3
▁totopixque	3
▁escuella	3
conde	3
▁etzon	3
▁motepanti	3
▁uhk	3
▁quiualhuica	3
iyaua	3
aliti	3
▁quimonextili	3
▁kamati	3
yacatia	3
notlapololti	3
▁otitlahto	3
▁cuitia	3
mitac	3
▁mochiuhtihuitz	3
▁toktli	3
▁yompa	3
ntlamaka	3
pehualoc	3
cihuamon	3
▁mitzmaca	3
▁ticmaxcatiz	3
▁melahuacayoti	3
▁oconcui	3
▁tlachiuall	3
napallo	3
▁temoj	3
▁concuiliz	3
▁kiualik	3
▁icopa	3
	3
▁tima	3
▁kitepeua	3
▁Itzco	3
▁achitzinca	3
artiy	3
▁yxpoliuh	3
motlatitlani	3
▁inyeyan	3
mocaltili	3
▁camdela	3
ólo	3
▁Itlac	3
▁quihualmomaquil	3
▁memet	3
▁imontlamanixtin	3
sejsé	3
▁quicuicati	3
▁Ayapanc	3
ttiti	3
▁tetzauh	3
▁iquizayan	3
alcoual	3
▁ianima	3
▁Uitzil	3
▁quinchiuhti	3
das	3
▁mulcaxi	3
▁ahuiliz	3
sti	3
▁tzahtzi	3
cuacuala	3
patlahuac	3
tlehuatza	3
▁temolcax	3
poliuiz	3
▁quimitzt	3
cuilli	3
lailotlaqu	3
▁CC	3
▁panela	3
▁Xochip	3
cato	3
▁ihuayol	3
catoton	3
▁ojolol	3
▁kakauat	3
▁nicpie	3
▁anmo	3
tapayol	3
quauhtitlan	3
▁ocuil	3
▁Arm	3
ng	3
pahuilli	3
▁nijmati	3
▁onicmaca	3
▁oticui	3
▁teixami	3
amitl	3
▁chalchiuhtin	3
▁niquincen	3
▁Hier	3
▁moyetzinoticat	3
uanime	3
mac	3
▁hualmotla	3
tlamelahua	3
▁amotech	3
▁ximohuicaca	3
cochi	3
▁xiquihto	3
aquiltito	3
juez	3
▁niah	3
▁mokoa	3
▁oquimotil	3
▁Macues	3
uextecatl	3
ichocaya	3
yamo	3
yc	3
ancopinca	3
quí	3
▁quiyeyeco	3
▁quitzotzon	3
bí	3
pano	3
▁ticanazque	3
tlaxtlahuil	3
tequitihuac	3
hcuilo	3
tlapolhui	3
▁mé	3
itzitzin	3
▁quimopahtili	3
▁tlatzontequi	3
▁nemiliz	3
zquiaya	3
momiyo	3
▁mopo	3
lomey	3
awi	3
▁Xime	3
▁ticochi	3
ecient	3
fessión	3
▁acallo	3
▁motollini	3
▁ycchiuhcnahui	3
▁ticcacqu	3
kitaj	3
▁obra	3
eros	3
▁concau	3
motlatlalitia	3
▁Ihui	3
nauatia	3
▁tlahtul	3
liuhtoc	3
▁hualmoxtlahua	3
tlayua	3
▁cematl	3
hualtepotztoca	3
▁moyaochihua	3
▁nam	3
tlatlauhtilia	3
▁nictemachi	3
▁Aran	3
▁motlatito	3
tlaniz	3
▁nocohuiz	3
itlazohtlazquia	3
▁simolotl	3
tlanahuatiliz	3
▁mozcalli	3
zquiah	3
▁tlacateca	3
▁tlalticpatli	3
▁moteponaço	3
▁nesis	3
cauil	3
▁pixqui	3
moyetzticate	3
▁respo	3
sus	3
▁yntlatohuaya	3
jtika	3
▁oquimmicti	3
nehuaz	3
▁teopixcatlahto	3
▁Pila	3
naventura	3
▁tlachik	3
▁Chikometepetl	3
▁mocue	3
▁ticmotlalili	3
▁timoqua	3
mocelo	3
▁mitztolini	3
huilana	3
▁moyeyeco	3
tlalcahuica	3
quallani	3
hueytlahtoca	3
▁KUOUJ	3
▁mictiloz	3
iselo	3
▁kitson	3
▁ticmocuili	3
▁itlatocau	3
ilnamiqui	3
motitlanilili	3
▁atlaco	3
pich	3
emanahuac	3
xitlahuali	3
calahque	3
▁bo	3
▁oquitlacal	3
pachi	3
ncate	3
▁anquiz	3
machiliztica	3
catica	3
chihchi	3
oteoticanan	3
▁Xalli	3
titlazohtlazquia	3
▁lečon	3
cahuaca	3
ahuique	3
▁Huitz	3
▁timotlaco	3
▁tlatecont	3
zomal	3
cahualo	3
itoloc	3
▁ticmottili	3
▁nihčiw	3
▁Nono	3
ijkak	3
quix	3
▁tsikat	3
▁tlapolo	3
▁nipo	3
uetzi	3
iquili	3
maguili	3
▁tiitstoke	3
▁decie	3
anca	3
oali	3
▁quico	3
▁tlaten	3
mixmauhti	3
▁motl	3
naltia	3
ihneki	3
ntia	3
emol	3
▁totolime	3
▁cax	3
▁ixpoli	3
lamatzin	3
▁mimizt	3
totonia	3
▁tiquizque	3
▁tlapepen	3
▁Tleca	3
oehcoc	3
sis	3
olti	3
▁tiah	3
▁azcat	3
pía	3
nauati	3
▁jor	3
amento	3
maquixtili	3
▁amococo	3
tlaxtlahualo	3
▁oquitlaco	3
▁tihualaz	3
▁motatzin	3
cepan	3
▁intlatul	3
mikti	3
imalhua	3
▁timote	3
tecuilhuit	3
▁mocuiltono	3
▁motlauht	3
mayo	3
▁tlapatio	3
▁Uitziliuitzi	3
ihtohua	3
▁Xochiaya	3
nochi	3
▁Moteucsomazin	3
▁Tonalix	3
uitlahuaca	3
quimilo	3
tihtaya	3
uix	3
nicmolhuili	3
▁Ama	3
vani	3
acatzin	3
▁christiano	3
▁omoquatequi	3
▁Ahueli	3
▁inchichimeca	3
▁tleic	3
tlanamaca	3
momachiltili	3
▁nicnexti	3
▁itocayo	3
▁nepacopa	3
▁tocuic	3
tlatilolca	3
huallachia	3
auil	3
▁ocpa	3
xti	3
pouhtia	3
mitalhuia	3
▁moyolcuiti	3
▁huelliti	3
▁hualaci	3
▁tiuala	3
▁maltepetlal	3
▁Xuchmilco	3
▁elotla	3
yolli	3
▁tehuica	3
quixtemo	3
▁quihtlani	3
ueuetl	3
▁nechcuili	3
▁omotlayahualhui	3
quixtilli	3
ualla	3
iayah	3
▁omanili	3
▁cuau	3
▁horno	3
▁Otec	3
▁kitemoua	3
▁nochina	3
▁Yzua	3
▁nineci	3
chicahuaz	3
UEL	3
huallolin	3
▁motlaqualti	3
▁xij	3
lbar	3
▁Nu	3
▁tlapa	3
▁pak	3
tlačičino	3
▁nezti	3
otemaquixti	3
▁quj	3
▁notecu	3
acxoyatl	3
▁Quimon	3
▁mochichiua	3
patzac	3
▁ameyal	3
▁quicelilti	3
tami	3
▁tlatamachihual	3
▁cence	3
nacaztla	3
▁xomol	3
▁quimocuitlauia	3
rga	3
huayol	3
▁patlantinemi	3
bbad	3
▁ytlachi	3
motozcatla	3
▁tlayahualolotia	3
poualxiu	3
▁um	3
ythual	3
▁quiixpanos	3
▁quiix	3
nechicolis	3
▁onmomayauh	3
▁onmotla	3
ctic	3
▁aciquiu	3
tentzone	3
▁quauhti	3
calpul	3
▁Pu	3
ntsi	3
▁mochiuhtzinohua	3
tepetzin	3
▁tlapancall	3
xtlauaz	3
▁noteyc	3
▁quimoyolloti	3
bun	3
lam	3
▁moteuhcçauh	3
▁tlatzacui	3
pohui	3
▁ant	3
▁amehuan	3
techcuitlahuilti	3
▁quimotitlanili	3
huiquilliz	3
▁tetlatzontequil	3
▁tinocone	3
ximohtili	3
▁nehtoll	3
xochicozqui	3
▁Blan	3
pilhua	3
▁tepuztlahui	3
▁Orne	3
▁anquichi	3
acuazque	3
▁conquistador	3
cocoto	3
▁innemiliz	3
temohtinemi	3
▁tzi	3
tzicuini	3
▁mocehuia	3
▁Dom	3
▁yniquin	3
micohua	3
▁Yohual	3
tzitzimit	3
aventura	3
▁xicmocaquilti	3
▁iama	3
lollin	3
▁oquihuite	3
▁ipeuh	3
kriad	3
▁epoal	3
▁ompoual	3
▁tlamachiliz	3
miyahua	3
▁ymachcauh	3
▁oquimote	3
machilia	3
▁oquimitlanilili	3
uis	3
huaxca	3
▁ticualani	3
▁nonia	3
tlahuanque	3
▁yxcuichehua	3
▁nictlazohcamati	3
ihyohui	3
▁tepachohua	3
monamiquilli	3
▁noquich	3
▁timoquequelo	3
walikak	3
▁titletlali	3
▁titlachpana	3
▁tihca	3
▁titlaqua	3
tzahua	3
▁iistak	3
▁itlahuillanalpa	3
tlatititzal	3
sojeto	3
▁tlalilo	3
▁quiahua	3
naka	3
▁mociahu	3
▁motequitili	3
tlapaltehuil	3
▁ilama	3
▁omom	3
▁icuitlapan	3
▁ticman	3
▁Bla	3
▁pialo	3
▁acat	3
▁ximochi	3
telpocat	3
tlamatca	3
caqui	3
▁timonencahua	3
▁ajsiti	3
▁tlanexil	3
ttatzin	3
▁uitzmallot	3
▁tiyas	3
▁mostla	3
▁oquimottilli	3
▁omotlanaoatili	3
tepieli	3
▁xical	3
▁moyaochichiuhti	3
▁tlahuitol	3
nš	3
▁tlakwa	3
▁tlatocatlatol	3
▁xictlali	3
huallihua	3
▁ometzta	3
▁Edu	3
motequipacho	3
luz	3
▁onechmaca	3
▁diploma	3
▁Xinechmo	3
huiquilli	3
▁tehuilotl	3
▁ihtacatl	3
ntique	3
▁yhuic	3
▁tonnetla	3
ehuilo	3
▁Chicueyi	3
tehuan	3
teh	3
tlalhui	3
▁titlacuazque	3
ihto	3
▁ualase	3
motlateochihuili	3
nello	3
kwaltlamotlatewa	3
ahkwe	3
▁quimamaca	3
▁momajkajki	3
▁ontlami	3
uauj	3
barbeč	3
maicni	3
▁tiacaua	3
▁Tlacoch	3
ahuiya	3
temoc	3
ziuh	3
ochitl	3
nopal	3
▁mopapá	3
▁ateco	3
▁tlaapacho	3
▁oquinhual	3
▁nicia	3
▁tohuehuetla	3
▁ticpie	3
ticateh	3
▁Herna	3
latzopeliloni	3
youiliz	3
quinezcayoti	3
▁omixtlapa	3
ichpochtzin	3
▁XXVI	3
seis	3
▁Amuel	3
▁tequitque	3
▁quimonemilili	3
▁uexotzinca	3
▁Yztactlalloca	3
▁taza	3
▁iayo	3
▁nitlahto	3
▁tlacoxi	3
ax	3
▁tiquiça	3
mahuiztic	3
atla	3
▁cien	3
▁onitlacat	3
▁tepetli	3
▁adi	3
▁Huicol	3
▁Queza	3
Te	3
▁oticquix	3
▁ymacehualhua	3
▁otechcocoli	3
▁otimocohui	3
▁Gos	3
ança	3
▁quiteyttiti	3
▁Hipo	3
▁quitemoz	3
eleui	3
onanki	3
▁pololo	3
tiuetzi	3
▁Ra	3
▁tlatl	3
inechmomaquili	3
▁quimonochili	3
▁quimotzatzilili	3
quihyoui	3
callaquica	3
peuhca	3
▁intlamaceuhca	3
▁tocniuhtzi	3
▁huacqui	3
anoce	3
▁momal	3
xij	3
pipil	3
▁quitocamaca	3
▁tiquihtozque	3
▁Cama	3
cohuili	3
▁kiiskaltiyaj	3
▁tikwa	3
iitak	3
chacha	3
▁quiyahualot	3
▁otlatlac	3
necoc	3
niente	3
cauhtehuazque	3
▁onmaxiti	3
▁nimitznotlalca	3
tlapololtiliz	3
▁mocelo	3
▁nontlachia	3
pehualtia	3
▁ximocaquiti	3
atomat	3
achic	3
ltican	3
xiccauh	3
▁techhual	3
▁tetlamamaca	3
čan	3
▁tlatlatzcuepon	3
▁quinchihuili	3
lasa	3
tlacahualtiz	3
tenanyo	3
▁Mix	3
iuhcan	3
▁mokajk	3
▁icihuapil	3
▁tlachichihua	3
▁exo	3
▁tiltike	3
▁Bart	3
moketsa	3
▁motilma	3
▁točan	3
pantlazque	3
▁itokay	3
olot	3
chihualoc	3
▁tlamat	3
▁quinmihuali	3
▁kimolta	3
▁tommo	3
tlaza	3
▁nimitzix	3
▁nimitzonno	3
llotzin	3
▁mitoni	3
▁tajta	3
▁toctit	3
▁nemech	3
oquichtihua	3
manik	3
▁oquimixquechil	3
▁nem	3
ocalpan	3
mmolhuil	3
moseui	3
▁kipoyeli	3
ouij	3
teten	3
▁ohten	3
▁teten	3
▁quimotoquili	3
yolpachihuitia	3
pohpul	3
▁Metztitla	3
▁huica	3
▁nomicca	3
▁sasampa	3
▁ilamat	3
ticmati	3
litih	3
cula	3
alchiuhcan	3
▁tiquihtohua	3
▁mamatiw	3
mawak	3
▁mopoua	3
▁Totonacapa	3
▁xicmottili	3
▁iyom	3
▁ticmonequilti	3
▁Cuauhtlehuanit	3
temicti	3
▁quitenehuil	3
ip	3
▁teiz	3
▁Oquipix	3
▁icnoueue	3
▁icnoilama	3
huallihuallo	3
tlaachtopaytt	3
▁cuepo	3
xiuhquechol	3
▁pitza	3
▁nomant	3
▁ajsiko	3
▁quizaqui	3
▁otito	3
▁techmacaz	3
chpa	3
▁otlanonotzalo	3
▁cocoa	3
cenquixti	3
ht	3
Ozomat	3
▁mučti	3
kajki	3
▁maci	3
▁nitlacat	3
▁totlatla	3
nexin	3
▁Acolnahuac	3
huallatocatlalli	3
▁Quaquapitza	3
iloz	3
▁oniquilnamic	3
▁onechmonochili	3
▁ipilhuantzitzi	3
▁tajtaku	3
▁tlejkotok	3
▁mango	3
▁yokikw	3
enti	3
▁Ompo	3
▁octepitzin	3
culo	3
▁ig	3
▁macehualaltepe	3
▁Azcatlxoch	3
▁pepetlauhti	3
▁ualeua	3
laixhuasan	3
▁moixtlali	3
quimomictili	3
▁Moma	3
▁huitzil	3
metla	3
▁quinnotza	3
yahualtic	3
▁motequipanohua	3
▁patlahuacchilli	3
tlaecolti	3
▁ticqua	3
huatili	3
▁icuiliuht	3
▁itztia	3
lali	3
▁tliletl	3
▁Tlaylotla	3
uilo	3
tista	3
auhque	3
▁hualqui	3
pepecho	3
nechchihuili	3
ixnextia	3
▁tinechmocahuili	3
▁pina	3
▁cuacua	3
▁omitl	3
teopixcatlahtoca	3
▁tlamiminalo	3
tlanehti	3
uit	3
ekij	3
▁kamp	3
tlašiko	3
▁nemihua	3
▁tlacatica	3
▁unmotlali	3
▁momo	3
▁kipijpixka	3
▁kiuipana	3
▁tlapehpen	3
▁motlaquen	3
centlami	3
▁mattiu	3
▁ixcaui	3
nauatilo	3
▁tlapeui	3
▁Tezcatlamiaual	3
tilmaht	3
maxtlat	3
▁Bazqu	3
konana	3
▁otlahto	3
▁momachiyoti	3
▁quimotlahto	3
▁quinpollo	3
šišiko	3
▁timilacatzo	3
▁macui	3
▁nechmomaquili	3
▁Or	3
motiliqui	3
quichtl	3
ordo	3
moquixtilia	3
echipahual	3
▁hueliti	3
quitzquili	3
quilti	3
▁xiuhton	3
▁Xicomoyahual	3
▁oahzi	3
▁tlaocoya	3
▁neltoc	3
mochiuhililiz	3
▁onechnanquili	3
totonillo	3
iachcauh	3
cuepcayotili	3
cehuili	3
▁ymahuiztililoni	3
▁timali	3
tocuepazque	3
▁cempoualxi	3
▁Eg	3
yttallo	3
çe	3
octacatl	3
quauht	3
enanca	3
▁Tolla	3
▁Tetl	3
huehueyac	3
cehcemm	3
ateko	3
▁ichtequi	3
quan	3
▁quintlamaca	3
▁tohuaxca	3
▁tlaxtlahuili	3
cahuilis	3
▁tequichihuas	3
anquimocuili	3
▁amix	3
▁amocpa	3
▁nitlachix	3
aquin	3
▁acicamati	3
▁tine	3
ahzito	3
pokero	3
▁quipalehui	3
▁oniqu	3
▁icnauhtetl	3
▁tziuac	3
▁tlazoll	3
▁tlatechpohuili	3
▁Huehcapa	3
▁amatla	3
▁quiixnextis	3
▁kiitski	3
ele	3
tíssim	3
ticia	3
▁ynnemac	3
▁quinxexel	3
▁nitekiti	3
▁Si	3
▁omotlalitzino	3
▁mocacayahua	3
nochtin	3
▁techilui	3
ualajki	3
▁tlatlam	3
▁Icuic	3
nivia	3
▁wanin	3
▁ycuitla	3
▁xihui	3
▁bote	3
▁chicuepoual	3
▁Matlal	3
▁yncha	3
yollotili	3
tlaquaya	3
▁ohualmocuep	3
pohuili	3
avi	3
tzop	3
tziquitzin	3
pacohua	3
▁Texo	3
▁let	3
ablo	3
▁mage	3
▁tlazopilli	3
nechtlaocoli	3
aye	3
▁Quetzaltepe	3
▁ninotzalo	3
itlapopoloz	3
▁nictzon	3
▁nimitzcue	3
▁costa	3
▁otitlachi	3
▁Altepeyo	3
▁mosen	3
▁moyoliti	3
▁tlatzquitos	3
▁mocalaquis	3
liaj	3
▁kiko	3
▁Kinamaka	3
quicuauhtzotzon	3
▁aoh	3
ithual	3
▁Lib	3
▁yxhui	3
mora	3
▁nahuatlato	3
quimocencahuili	3
sare	3
▁cat	3
pacti	3
ahtzin	3
mochi	3
▁tečp	3
▁tlaapachiuh	3
▁nicochi	3
cuaz	3
▁ilacatziuh	3
▁namonan	3
nsia	3
▁quimilpi	3
▁conmononochilli	3
▁ontlachix	3
▁quihualmin	3
▁tlachihuall	3
inenca	3
▁nicnamaca	3
amia	3
▁atoco	3
tihuac	3
▁mich	3
▁Izca	3
▁ticchioaz	3
iecpa	3
cochian	3
▁ycuiliuht	3
notlanehui	3
▁quitquitia	3
conen	3
▁cemilhuitlapo	3
▁xitechmomaquili	3
▁noquichti	3
▁not	3
▁nictemaca	3
tlahtlani	3
▁oquinotz	3
cochca	3
tlamaka	3
oncel	3
tetlatzontequili	3
▁acali	3
tlaneltocani	3
reg	3
▁Her	3
ocho	3
▁tipa	3
▁ximocuepa	3
▁momoyaua	3
▁tei	3
▁pitztzahtz	3
▁mahco	3
▁monacaz	3
▁motlaocol	3
▁quicahcahua	3
▁xili	3
▁oquinemili	3
▁cor	3
▁quinmachtiz	3
▁poztequi	3
niquincohuaz	3
▁kichijk	3
▁motoma	3
cocolia	3
▁xihual	3
olli	3
tiqueh	3
▁teyao	3
▁cahcic	3
▁Santísim	3
catitlan	3
rólogo	3
▁Chá	3
▁exiuhti	3
▁Tecuhyl	3
tequipachohua	3
▁ser	3
▁tlanel	3
▁tlatlehuatz	3
▁teochihuallo	3
▁quimopalehuilli	3
▁kipan	3
▁vez	3
▁quiualtza	3
teucal	3
▁tlatzontequili	3
▁Cihuay	3
▁Tlahuan	3
▁incue	3
▁ocu	3
hualloto	3
▁quincauhtiquiz	3
▁so	3
momiquilli	3
▁cacaxt	3
▁tlatetec	3
IHTACATL	3
ZA	3
kwaconti	3
▁kiixmati	3
▁quinmi	3
▁mie	3
atilul	3
uapa	3
▁kitema	3
omiyo	3
kualanij	3
cuia	3
quizaya	3
▁oquitocac	3
▁caltla	3
▁nicnonamaquili	3
▁ocacic	3
▁antlazohtlazqu	3
ytlanahuatiltica	3
ichkua	3
▁onotech	3
pho	3
pixcatzin	3
jr	3
▁cocoyo	3
▁tzotzopi	3
▁yahui	3
teu	3
kpak	3
weli	3
ačiwk	3
▁oquimotoquilli	3
▁tlatlapana	3
▁quitlatlati	3
ehecac	3
▁bi	3
tiuala	3
▁quitotoc	3
▁calxexelol	3
icatca	3
▁calacecahuil	3
tlaliliaya	3
▁quiceli	3
▁quicuitaci	3
mohuetziti	3
▁immalaca	3
ochco	3
teputz	3
moquequetza	3
▁quimopalehuili	3
▁compeualtia	3
▁kitsetseloua	3
▁motlapa	3
čoa	3
kwik	3
▁cencamatzin	3
nonnocuiltonohua	3
▁nopilwa	3
▁tlatepoz	3
▁otiquinmaca	3
icnoitta	3
calti	3
▁ticpou	3
▁tzatziua	3
▁tictenehuaz	3
onrr	3
▁quicahuiliti	3
▁conmo	3
uallonotia	3
lxochitl	3
mochihuiliaya	3
llac	3
▁ticpiaz	3
▁ticchiuaz	3
ticcentlali	3
▁Yuhqui	3
chalco	3
▁huallapacho	3
huepahui	3
quitz	3
▁ilnamiqui	3
▁omozcalli	3
▁calque	3
quitlacanotz	3
▁oquimopiel	3
metz	3
▁quimocahuiliti	3
▁Anauac	3
▁Cuauhtena	3
▁tentiman	3
piltont	3
▁quimanili	3
mocaquiz	3
yaochihua	3
▁quimahuizo	3
ihcuilhui	3
xoçi	3
▁onmoxtla	3
▁col	3
▁tlahtlayohua	3
▁tlamayecam	3
▁nochichi	3
▁quitzaqua	3
▁kinilui	3
▁huici	3
▁yohuala	3
motlayecolti	3
▁Tran	3
▁oquimanque	3
uicac	3
nekij	3
▁quahuixtlahua	3
▁quitlamamaca	3
▁cociuatlani	3
▁manto	3
▁mulata	3
▁quincahualti	3
teyo	3
▁Zacua	3
▁couixca	3
▁Ximotla	3
ehcahui	3
izqueh	3
▁quinmachti	3
huiquiliz	3
▁huilohuaya	3
ikak	3
▁Anu	3
irez	3
▁quinmauh	3
tlatlachia	3
▁tiquixmati	3
▁Otlan	3
petici	3
▁cuentla	3
cay	3
▁Pochot	3
▁nahuitzin	3
▁Coc	3
villa	3
▁temict	3
▁pitzo	3
atzah	3
quisas	3
▁quauhtemohui	3
▁Ray	3
mihmiqui	3
tlatohua	3
▁nicaqui	3
▁macho	3
▁quitztilti	3
tepeua	3
▁quinmolhuili	3
▁tzatzitinen	3
tetequiz	3
▁cathólic	3
cuepalloc	3
▁kiitstok	3
▁koyome	3
▁Quimilhui	3
catzi	3
▁nau	3
▁iexca	3
▁ompik	3
▁Mosco	3
▁pupu	3
uayo	3
▁chijchi	3
quintlayecolti	3
uhtaya	3
▁tlatlahuil	3
▁motlancuaquetza	3
▁oquimonochili	3
▁noten	3
▁notelputz	3
▁Moteuczoma	3
▁quitocac	3
▁tlacoyoct	3
▁Titlacahua	3
▁inteopixca	3
šika	3
sewis	3
▁quí	3
▁quimixotili	3
geni	3
macato	3
tekis	3
kipia	3
▁omoteca	3
▁innechichihual	3
itepec	3
kwaw	3
▁caltequichihua	3
netemalo	3
▁Quemmani	3
▁texoh	3
▁cuep	3
ntitlan	3
▁quinohnotza	3
▁anoz	3
pactzin	3
ytech	3
▁totlaakatsii	3
ahuayo	3
▁nete	3
quixtihtaya	3
molhui	3
▁nehnemilizt	3
tinemizque	3
▁Ichpoc	3
tima	3
sita	3
olini	3
▁ithuall	3
xquixti	3
tlaquehui	3
kueta	3
▁nezca	3
▁rancho	3
▁yepoal	3
▁quipiazque	3
▁zuquichiuhqui	3
ite	3
▁paraxes	3
▁otequitque	3
tlachiuhtli	3
▁conanazque	3
arcab	3
nça	3
▁Arí	3
atzi	3
▁yokisa	3
▁Opeh	3
QUE	3
CAHU	3
▁TLEN	3
LI	3
cuitlatic	3
▁timonenequi	3
▁huehuetz	3
quilli	3
▁ommoca	3
chihual	3
▁itlatlacol	3
▁imomiyo	3
▁ohualne	3
▁yxco	3
oyola	3
▁ytlat	3
kixti	3
tiski	3
▁ahueli	3
▁onicnocohui	3
▁imeixt	3
quincahuilitiaz	3
▁Vitzilop	3
▁oquitz	3
▁titlazotla	3
▁oticca	3
▁xan	3
ncha	3
oquichi	3
nechmononochili	3
▁intepachoca	3
▁temal	3
▁Xopan	3
jmej	3
▁kitemaka	3
▁chanti	3
kuitaxkol	3
▁kioya	3
ketsa	3
▁notlalco	3
▁quitemaz	3
▁quiyacanti	3
▁omatl	3
▁huiya	3
▁tlatzillinilo	3
▁anmotlat	3
▁tiquihta	3
itlahcuilozqu	3
▁Yhuipa	3
▁zacatla	3
▁tecuanotza	3
quiztinen	3
▁clerigos	3
▁conitlan	3
tenehuallo	3
▁ceyohual	3
▁profet	3
▁bulla	3
edo	3
bi	3
▁hualtzinti	3
quiztoc	3
mocnoyt	3
kipí	3
ihuahua	3
▁Guana	3
▁Hi	3
▁Quer	3
▁Tab	3
pas	3
watiw	3
▁kwan	3
▁yekwal	3
mokwep	3
▁omocauhque	3
▁quipouhti	3
enonamican	3
im	3
▁nekwtia	3
▁mocauhtzino	3
▁otitlanamacaque	3
▁otocui	3
▁icpa	3
teopixcahua	3
▁quince	3
cehuizque	3
▁intlacatecolo	3
▁onyahque	3
▁quihuallali	3
lwa	3
▁chich	3
▁tlacatecollo	3
▁quimacaci	3
huil	3
▁nocihuam	3
▁axtekiti	3
▁nijku	3
▁tiwe	3
tlayahualoliz	3
▁Ytencopa	3
moyollalili	3
▁matzal	3
▁hualhuiquil	3
▁yukon	3
techtekipanouaj	3
bid	3
▁teoamoxt	3
▁tlaneltilli	3
▁momecahuitec	3
▁Quenotimo	3
▁tlaneltocaz	3
▁quimittaz	3
uakuou	3
▁oconce	3
▁TLE	3
▁ontlatlachi	3
teuhct	3
lehuia	3
▁quitecati	3
▁Teuhcho	3
▁Joa	3
quiça	3
▁Quauhtlato	3
▁quipachohua	3
▁tlatilo	3
▁moquich	3
zti	3
▁Chiauh	3
▁yxayo	3
ixahui	3
▁Chicahualis	3
▁Tlahtolchihuali	3
yocmo	3
ecayotl	3
tlachihuali	3
▁Ahuax	3
▁niquinmacac	3
quequetz	3
▁cempoual	3
▁ocaxi	3
▁conmati	3
▁toconicxinami	3
anke	3
▁innahuatil	3
htiaque	3
▁mixteca	3
▁tlacanechicolti	3
▁netequi	3
▁otim	3
▁concahua	3
▁mochanti	3
▁opolihuic	3
▁tziuhco	3
▁matlacxiuhti	3
▁potoni	3
▁papalo	3
OJ	3
▁Yollo	3
emania	3
▁go	3
▁Fl	3
erra	3
▁quenmaniya	3
▁xaltocameca	3
▁yamanca	3
▁kuo	3
▁moui	3
ijti	3
mopechteca	3
kawili	3
▁ših	3
▁quitequili	3
▁oquicuit	3
▁motlapalo	3
tlacohua	3
motlatzontequili	3
▁motencopa	3
▁moteki	3
sneki	3
▁Hueca	3
motlalia	3
put	3
▁tep	3
▁oipati	3
cualoc	3
▁nob	3
▁ytlaque	3
▁Ixtlahuapa	3
▁pacticat	3
nemachtiloya	3
▁nohpal	3
▁otlacualo	3
tlaocoli	3
▁necahualizt	3
patlanaliz	3
▁notlake	3
▁Tlat	3
homa	3
cha	3
tona	3
▁Xol	3
▁chilnanaca	3
▁itop	3
▁tex	3
pensaro	3
▁quipitza	3
çon	3
çatzint	3
amalco	3
▁quinmamaca	3
▁quintequi	3
▁hotli	3
chantlaca	3
▁naca	3
malcoch	3
amamachiot	3
▁Tlac	3
▁teocuitlaxochi	3
huiltiz	3
testicoti	3
▁omop	3
huicac	3
tlasalo	3
▁Cox	3
ilacatzoa	3
yuh	3
▁Xiuhnel	3
▁tlahuiz	3
▁Cihuatla	3
▁niczaloz	3
▁quimihua	3
▁ohualmochiuhtia	3
techmocnelili	3
▁mel	3
▁mixtlati	3
gas	3
machitia	3
ciz	3
▁alte	3
▁onkas	3
▁otahci	3
capicta	3
lehui	3
palnemohuani	3
▁atonahuiztli	3
axka	3
▁Uey	3
▁Cá	3
▁quintequimaca	3
inilli	3
▁acazo	3
llano	3
tlalamiquilis	3
▁cocolli	3
▁necetochhuil	3
▁moquetzaz	3
▁tlalmatini	3
ag	3
▁xilot	3
nechpaleui	3
▁quimaman	3
TEC	3
▁ynteopan	3
▁Gonz	3
oyuca	3
▁gente	3
▁tlatzintile	3
çuma	3
▁mavizpan	3
▁popolohu	3
cualicaz	3
provisor	3
▁max	3
▁ticten	3
▁Titlan	3
▁ninoc	3
▁Noyol	3
▁tenayoca	3
anno	3
▁quixmatih	3
tzetzeliuh	3
▁caquican	3
momachiztilli	3
▁oconmocaquilti	3
▁quimaxcati	3
▁ylicencia	3
▁conpi	3
▁ahyec	3
▁tlacamecayo	3
▁kimp	3
▁palomaxt	3
skí	3
tlalnamiki	3
tzetzeloa	3
▁cualantican	3
mamali	3
▁huehcatla	3
teopixcatzin	3
▁padrino	3
▁ymeyxtin	3
▁tijchijto	3
▁tecen	3
▁mohuenti	3
▁quixtilo	3
ahcito	3
ueño	3
tihtlaštlawi	3
anaz	3
▁timot	3
▁quemma	3
▁cachi	3
omokicki	3
▁Galli	3
▁momahuizo	3
▁hualmote	3
▁quicxi	3
▁chichicahua	3
▁luminari	3
▁quiquizt	3
▁kipixka	3
▁mamalhua	3
▁otlacuecuepotza	3
▁kio	3
tlacamictiliz	3
tlatepacho	3
uiliaj	3
▁onica	3
▁ticnanquiliz	3
▁yxquichi	3
▁xiujt	3
▁tlachihuali	3
▁onchicuei	3
sisna	3
▁kinin	3
▁ahçi	3
▁kičiwilia	3
▁mald	3
ád	3
petlacal	3
▁mocem	3
▁achcauht	3
▁Chapol	3
icpaltzin	3
▁nimits	3
▁tlayec	3
▁ynemacpa	3
▁welik	3
▁Tlanonotzalo	3
matizque	3
momiquilitzino	3
▁notlaçomahuizt	3
quinmopilia	3
tetlatlauhti	3
AYOJ	3
ztoc	3
▁apozonal	3
uauitl	3
arranc	3
min	3
▁oquihualmama	3
▁apizmiqui	3
▁Mader	3
▁hualmoteca	3
▁pahti	3
tonaltzin	3
▁nise	3
motequitilia	3
▁immeca	3
▁yttoz	3
▁nechmolhuili	3
quilmaitl	3
▁ichcame	3
ašan	3
▁otia	3
tzca	3
nac	3
matlactlonce	3
monochilli	3
▁Xo	3
▁sikera	3
▁kikuas	3
▁quitlatiz	3
▁tlanamacaqui	3
teicniuhti	3
▁omotlanahoatili	3
▁miz	3
▁Sara	3
▁Cuetlax	3
▁ninoxico	3
aber	3
del	3
▁oquimacaque	3
▁wila	3
▁moxello	3
▁vict	3
▁maltizque	3
▁tzoyo	3
pantalon	3
oton	3
▁niquinmaca	3
▁temoya	3
aquillo	3
▁mochantlalis	3
▁momatiltis	3
▁quicualitas	3
tlacuecuepotza	3
▁cualicaz	3
▁yyay	3
vacan	3
▁Offic	3
mučiw	3
▁yahya	3
▁tlamahuiz	3
▁naci	3
▁quihualmamatia	3
▁tequiua	3
motequipachilhui	3
machia	3
▁Kuati	3
▁tehoa	3
español	3
▁yquizayan	3
▁kimachili	3
▁ipal	3
tocato	3
▁Omote	3
tequilic	3
▁oxoxo	3
nezcaliliz	3
▁quimaqui	3
▁Oquitlali	3
▁cihuateupixqu	3
▁monja	3
etzticat	3
▁Go	3
yaoyahuallo	3
ollan	3
▁Mixtlan	3
▁anahuacatl	3
lteca	3
▁anoc	3
oval	3
▁Axo	3
▁Sepastia	3
▁tact	3
mmitl	3
chili	3
▁ueuejkapan	3
▁ihcahuaca	3
pieli	3
▁tlaquauh	3
▁Plat	3
▁mexicatlaca	3
ay	3
▁libr	3
▁ialtepe	3
▁zaca	3
▁omochantili	3
▁tiamic	3
xcatl	3
▁Ixtlil	3
tores	3
▁cemm	3
mechilhui	3
▁oquinmachti	3
▁yexcan	3
xtlahua	3
▁kwi	3
▁tias	3
▁tikisa	3
awilti	3
asikiw	3
▁quinto	3
▁mitotitinemi	3
▁oquipollo	3
tapa	3
▁imahuiz	3
▁omixiuh	3
▁Ri	3
▁nej	3
▁Bea	3
age	3
▁Et	3
sal	3
▁komit	3
cico	3
▁quitec	3
▁hualmoquixti	3
▁taci	3
▁nanki	3
chicueylhui	3
▁quimahma	3
celili	3
tentimoma	3
▁sotol	3
▁Toto	3
tlaxitla	3
▁J	3
▁mapoch	3
octzin	3
zcoco	3
▁imaçehualtzin	3
▁otechmonahuatil	3
▁ocontlali	3
▁tetlaca	3
▁comi	3
▁Tlallocan	3
motzo	3
▁maldad	3
▁hualmoque	3
vej	3
▁castollo	3
▁huall	3
▁tey	3
▁Chicue	3
▁quimoyacanilli	3
aliaya	3
tlatequipanoliz	3
▁quixtoquiliz	3
▁Mixcoatl	3
▁hualhuetz	3
ualtiz	3
▁Minas	3
▁niquimoni	3
uco	3
▁toconcui	3
▁immi	3
▁imm	3
zpan	3
▁Yacate	3
huiti	3
padrino	3
tson	3
▁teocaltep	3
zazan	3
amacoya	3
▁Xillo	3
▁nechteylui	3
▁quinextiz	3
▁itestigoua	3
▁quicohuil	3
▁camanal	3
temayauh	3
▁tepexic	3
maxalti	3
▁Eli	3
▁moetzticat	3
▁Teu	3
▁navi	3
quimimacaci	3
▁nacaztl	3
▁netlal	3
▁Otiquit	3
pašalo	3
regla	3
nenonotzal	3
▁Ger	3
▁innechichiual	3
mollini	3
▁nicnocaquilti	3
▁quitlecahui	3
▁kitokase	3
▁Francis	3
uace	3
noc	3
ualliua	3
iximati	3
huampo	3
ochin	3
tepitoto	3
mamaltia	3
▁huallachixtine	3
quini	3
coyan	3
ueyi	3
laman	3
▁Yh	3
▁quimac	3
▁Monser	3
▁xinechca	3
▁xochioctl	3
▁cacalac	3
ixtoc	3
▁motzauhc	3
▁onmocuep	3
atlan	3
tlapech	3
▁niqu	3
tehuazque	3
▁quicen	3
▁Pres	3
kuali	3
▁ilpiti	3
▁cuallan	3
uika	3
▁tipano	3
itztica	3
▁tlatetequiz	3
xpollihui	3
▁tzomoni	3
▁motlah	3
▁ehecahuaqui	3
neteochihual	3
▁gracia	3
▁temahtequil	3
▁nochezt	3
▁tlalxocot	3
▁tlatlati	3
chiuilis	3
▁monc	3
PE	3
lhuichihuilil	3
quimahuizoh	3
nechmonahuatilih	3
nimitznomacquili	3
▁Machad	3
▁beata	3
▁quiualitqui	3
▁quitlaoculia	3
▁yquezquilhui	3
hospital	3
▁nicte	3
jas	3
▁Ten	3
mique	3
zon	3
▁CECEN	3
acxoya	3
▁quintzatzacu	3
ixnamic	3
itohua	3
▁chichiltique	3
tlatzontequiliz	3
▁ipanima	3
tlacuilolpan	3
▁quimimin	3
▁quinemiliaya	3
intli	3
▁tetecuica	3
▁nihuehue	3
▁kuaj	3
▁Quachi	3
▁oquichiuhqueh	3
napalo	3
▁ximomauhtica	3
▁quicoyoni	3
▁yoni	3
▁Nanqui	3
▁nimicmaka	3
▁tlatataca	3
▁niquixtla	3
▁oiuhquimocaqui	3
▁ueuetl	3
▁oconmocaquiti	3
tocayoti	3
▁itehuical	3
▁yhuelitiliz	3
auatla	3
nicnopielia	3
xocpal	3
▁amaxo	3
yxpan	3
▁Moquihui	3
▁ixtelolo	3
▁ontlamace	3
tecuhtlatoloya	3
iloni	3
▁tenonotza	3
▁okitla	3
▁Desma	3
parado	3
bas	3
▁chiquace	3
▁Ue	3
tlacoyoc	3
▁mopillo	3
šiyo	3
▁weli	3
▁Omotla	3
matiltis	3
tlachilis	3
▁conmicti	3
tiça	3
▁Cuex	3
iquey	3
▁akwtle	3
istli	3
▁reb	3
▁moso	3
soua	3
▁oquicah	3
▁namotla	3
▁quitlapacho	3
▁kintlachili	3
ares	3
▁cera	3
▁tlatzotzonque	3
▁mopetla	3
▁Xolotl	3
▁quichihuan	3
▁inchinan	3
▁Tlah	3
uizcalpotonqui	3
▁Mut	3
▁Quauhxaya	3
▁Actopa	3
▁Nativida	3
▁Ometochtitla	3
kixtia	3
ubeta	3
▁moloni	3
▁yema	3
mauhtia	3
▁Nopal	3
▁ualquiz	3
▁motlalica	3
tlaco	3
▁quimina	3
▁Alexand	3
▁Tototl	3
oztoc	3
▁timotlali	3
▁mocha	3
▁nacaci	3
▁tocontla	3
▁tlacauapaua	3
auhtoc	3
▁quipehualtia	3
▁kix	3
tiwala	3
corona	3
▁quinapalo	3
▁kitlali	3
▁tok	3
▁ninoteylhui	3
▁cuidad	3
barrio	3
azqueh	3
▁ihtolo	3
▁ontlamini	3
cante	3
yotoc	3
▁huepant	3
yeya	3
▁onechtla	3
▁nemonhua	3
▁intlacam	3
▁nenamictiliz	3
▁tlapihui	3
tlanequil	3
G	3
mino	3
▁iehoa	3
▁temauhti	3
▁iqualan	3
ficiales	3
niso	3
yba	3
huazque	3
▁timacehualt	3
onohualca	3
cuech	3
antoj	3
iztzin	3
▁ycapillatzin	3
meyal	3
tlacuillo	3
▁tlatzintill	3
palehuiliz	3
▁quixquetz	3
quehuac	3
▁quitzohuiz	3
maestro	3
tzinotica	3
ul	3
▁cuicapicqui	3
juezgovernadorti	3
ntetl	3
mimi	3
▁Tziuacpopocatzi	3
▁ahuiltechi	3
▁hualpehua	3
rva	3
tlanepanol	3
imitzmactilia	3
▁pilhua	3
pachihuiz	3
tlanequilis	3
▁Xayacamacha	3
oyohualli	3
▁oraci	3
▁pac	3
▁tiquintlachica	3
nonotzaliz	3
▁peualo	3
▁nijp	3
icnequi	3
potonqui	3
▁ylpiti	3
nikanik	3
yaoquiça	3
omoteochiuhtzino	3
▁necocollo	3
uito	3
liuhqui	3
ictemotih	3
▁Tote	3
sowaw	3
▁tleno	3
▁cuauhtlatol	3
itolinilo	3
▁ticcaqui	3
yahuiz	3
cuicuillo	3
▁tihuallac	3
▁quichiazque	3
otacique	3
izcahuitl	3
alaca	3
coltia	3
▁Zazo	3
dond	3
▁tlatlapollo	3
▁tlazohtlazquia	3
ohuihtic	3
yeheco	3
▁quicohuaz	3
▁tlacen	3
▁nitlahui	3
▁ahuach	3
layua	3
▁Tecocoltzi	3
▁euanti	3
▁tlaneltoc	3
lpan	3
▁Xinechca	3
▁CHICU	3
mamalo	3
▁ohuilo	3
▁panoh	3
▁tlayx	3
lome	3
▁ayehecat	3
tlallolin	3
▁amotlatol	3
▁oun	3
tepo	3
▁incalcohual	3
tlachallani	3
▁uiloua	3
temos	3
▁quinhuapahuaz	3
ltikpak	3
▁sewis	3
cochitlehua	3
tlapalo	3
titihui	3
▁kitowa	3
▁Quir	3
▁inihuantih	3
▁Tzin	3
xquetzalloc	3
otla	3
▁omotequi	3
▁yueltiu	3
▁nie	3
ahuitzin	3
▁nicnoc	3
tlahuel	3
Lo	3
▁tlamamauhti	3
miento	3
▁tlacame	3
ixmachilti	3
ypan	3
▁tlateneuh	3
▁nauhxiuhtico	3
▁quichiuhti	3
▁morisc	3
▁innan	3
▁mantihui	3
▁talcaldes	3
▁fr	3
uwa	3
volu	3
▁Yxcoçauhca	3
itlaltepe	3
▁Tlacoxi	3
▁quixin	3
▁nopaquiliz	3
ichcatl	3
▁Mocihuaicni	3
▁tequicehuiliz	3
tzaya	3
▁Motenehua	3
▁noche	3
▁motlatlamallia	3
▁omoxtla	3
▁pinol	3
racione	3
▁bá	3
lnamiquiz	3
▁tsikame	3
huaco	3
▁nicneltoc	3
nimiquiz	3
itlaniliz	3
moteyttititzino	3
▁colua	3
▁oquiahui	3
▁tecaquitillo	3
tatauhtia	3
▁ikaya	3
▁xinechto	3
▁mozohhua	3
▁pwe	3
▁macaya	3
▁ohualnen	3
tlahtocattiti	3
tlacatilitzin	3
cuecuepotza	3
rgado	3
tlatlamanca	3
quinmonamiquiliz	3
▁kitsopelia	3
▁mocemi	3
was	3
▁tekitiyaya	3
▁ángel	3
▁tlatlapantli	3
▁motocayo	3
▁Chololla	3
▁ihuin	3
▁motecui	3
▁nečpa	3
techiuhcau	3
tlahueliloc	3
▁tiquilnamiqui	3
▁tocaitl	3
lahcoxonacatl	3
▁iluikaktli	3
molco	3
▁tiqu	3
▁yccenpohuall	3
▁adelant	3
▁connexti	3
▁cuitlaxcolizta	3
quincahua	3
▁ychpuch	3
▁mazayel	3
▁tecpaneca	3
▁ajachi	3
petla	3
▁titlazohtla	3
ndari	3
tlacat	3
▁sam	3
▁ytepan	3
mahuiçohua	3
▁nauhyohual	3
▁mocuica	3
cocoton	3
▁oniquicuil	3
▁niquimix	3
▁tiemo	3
kayot	3
▁padr	3
▁tlatzacuil	3
zotlaya	3
▁tecciz	3
mopapaquilti	3
▁Cuauhtenco	3
▁calacoa	3
▁nicnoca	3
▁kikauili	3
▁Xopil	3
huiani	3
▁tlathuic	3
▁axnijmati	3
▁okwika	3
▁Saco	3
▁mocenquixti	3
▁tepeyacac	3
▁nimixpa	3
lhuacan	3
rdó	3
▁xoxohui	3
▁Temalaca	3
▁kipantali	3
tekitika	3
yio	3
▁choka	3
▁ticah	3
tlacatiliz	3
▁konetsi	3
▁xoxopan	3
▁tlaapachohua	3
quiya	3
weyak	3
erico	3
rdia	3
▁quimoten	3
achihuani	3
uiyaj	3
▁tetlamaco	3
esor	3
▁Jo	3
▁tochina	3
▁machiyotica	3
totza	3
panahuia	3
▁tlahcuilolo	3
▁nitlahtohua	3
▁kitlank	3
otlatolcuepaz	3
▁titlachiaz	3
▁tlacahuaca	3
▁totolte	3
mixcoya	3
cenpohual	3
▁oteyacan	3
▁Nencio	3
uela	3
▁tikana	3
▁oquincauhtia	3
▁xinechon	3
vitaminah	3
▁tlaxexeloli	3
mactili	3
nocahyan	3
▁iacal	3
huecatlan	3
huahcan	3
tlaçallo	3
▁timel	3
hyo	3
tlama	3
▁quicuili	3
tzotzopazt	3
▁ycnotlaca	3
▁mehuilti	3
▁pisto	3
▁tlamina	3
▁quimixnamic	3
ijyak	3
aneh	3
▁mocnopilhuia	3
ahziz	3
motequiuhti	3
▁yokimo	3
quimotlahtlanili	3
▁tone	3
▁xontla	3
chihualtiz	3
nenahuatil	3
tlatlatlauhtiliz	3
▁teonacaz	3
▁Proffes	3
▁oquittacque	3
motlapalhui	3
▁tepanahui	3
mahuiztililoni	3
illico	3
▁tequixqui	3
ordado	3
▁indu	3
tzontecoma	3
cuauhtlapech	3
▁xiquih	3
▁cavallot	3
tlatoltecatlalia	3
▁xinechmomaquil	3
▁xikualani	3
▁quixcahui	3
onehui	3
▁Noj	3
▁pobres	3
▁callacohua	3
amatzin	3
ticnenelo	3
▁oitech	3
oçomo	3
▁quinpehualti	3
▁ixama	3
▁Yzquixochiqu	3
čiwa	3
▁tequitihua	3
▁Dircio	3
▁wak	3
cuiti	3
▁Tiza	3
▁comun	3
mechtlacahualtiz	3
▁Bartholome	3
uayya	3
▁omotlatocatlal	3
▁mohuic	3
chihualiztli	3
▁xalte	3
▁otimochica	3
mewa	3
▁nechmohuiquili	3
▁spirit	3
▁inelhuayo	3
timalihui	3
ntaz	3
▁neçahual	3
ngl	3
▁tatemp	3
cihuatlani	3
▁opapano	3
tlayecoltilo	3
▁mahuiztililo	3
momachtihqueh	3
▁macehuallahtol	3
▁Juli	3
ontlachie	3
▁quinamic	3
mochtacacallaqui	3
▁quihualchihua	3
▁Altepechanehque	3
▁ninotla	3
▁Niquito	3
otlahtlaco	3
▁yezqueh	3
ncuic	3
▁mohui	3
uhticac	3
tlamachti	3
ahuachyo	3
piezque	3
▁oquimotenehuili	3
▁napohual	3
▁mochinti	3
▁Coua	3
cexiuh	3
▁cihuachichi	3
tlačatiw	3
▁cerro	3
▁Jose	3
tlantoncant	3
▁omimi	3
▁anauacatl	3
▁ticallaqui	3
▁motoliniz	3
list	3
acapan	3
▁Pipi	3
▁quaxomo	3
▁unpopoliui	3
▁tlatlaque	3
▁quimmictia	3
▁Techca	3
althasa	3
▁nikoni	3
▁quinmottili	3
tlachichiuhcatzi	3
Amatepe	3
▁otlatlacoltil	3
quican	3
▁motlatlania	3
▁nouai	3
▁haca	3
▁azoc	3
▁tlahtolpehua	3
yeco	3
▁fra	3
▁motlacohuilte	3
▁tsoj	3
yak	3
▁tlamachtili	3
▁oticto	3
otito	3
ilihta	3
paxialo	3
▁kitsa	3
lej	3
▁tlachixtoc	3
tozqui	3
▁Huitzill	3
▁ticpaccaceli	3
icohoa	3
▁kiajsisk	3
iuapili	3
▁itilma	3
▁Toz	3
▁xicualan	3
xotzi	3
▁motoka	3
▁quihuilana	3
tlamachtia	3
▁netotonaca	3
uhtlan	3
motsojtsouiteki	3
▁nichalc	3
▁tiualauij	3
cá	3
▁tlachpa	3
▁malin	3
▁Otlecoya	3
nahualpol	3
ouas	3
▁tepitoto	3
▁uiui	3
paloa	3
▁ihcochi	3
▁quauhxinqu	3
machix	3
▁xiquinma	3
▁oquinyao	3
▁momaicni	3
zolin	3
▁otlanamacaya	3
▁contlama	3
▁nečkwa	3
tzahtzilil	3
▁moquequetz	3
▁čičik	3
▁Xaltipa	3
oliniz	3
▁motemitia	3
▁nechico	3
▁omotlan	3
▁sacerdote	3
zquican	3
▁omochicauh	3
▁ocenquiça	3
hualitta	3
▁nenenque	3
▁mochallani	3
▁yauhtlato	3
▁xochin	3
yx	3
▁tlayocoya	3
tlanamacoya	3
▁provinciales	3
▁cehuetz	3
▁piksa	3
▁ycce	3
▁ánima	3
payo	3
quitzatzacu	3
▁yowal	3
▁noteotica	3
▁chakay	3
▁Nechca	3
▁hualtzin	3
▁Ayop	3
olelo	3
mopachilhuia	3
▁tck	2
▁tiwalpanu	2
▁tika	2
▁tiko	2
▁visurre	2
ochihuaca	2
▁quimonilpi	2
oquimixquechilli	2
hualmochihuilli	2
▁quimopatili	2
titiquiz	2
xikojke	2
ilpili	2
▁tlaquenti	2
▁ipatillo	2
▁chololtecatl	2
uizquia	2
challaniz	2
▁mochiu	2
▁owa	2
▁kanasta	2
▁tacxoteca	2
▁ocahci	2
▁oquiximatque	2
▁ypalnemoa	2
mozcaltili	2
nextitlan	2
tencopin	2
utzmamauhtitzino	2
ticmuchihuili	2
▁mochoquiz	2
tepotztocca	2
▁quipihpi	2
▁itztica	2
inemia	2
uican	2
xe	2
ecolli	2
▁tlaueli	2
▁nicmelau	2
▁manen	2
motzicalhui	2
huicquili	2
nonochili	2
▁quimochiyalit	2
▁ychpo	2
amallacachotihui	2
▁nimitzqualti	2
▁timuchihua	2
mitzmomaquili	2
opina	2
▁titeixto	2
▁quimomaquilia	2
▁tictolini	2
▁timotolini	2
▁ticmahuilti	2
nanti	2
xalli	2
▁tekui	2
▁hualhuico	2
▁malinal	2
quechiz	2
jtlachili	2
▁nicnonamaquil	2
motlacualtiz	2
mocnellili	2
▁timochin	2
▁ahuilti	2
huellamachtiz	2
▁nexochi	2
▁quixoua	2
▁timopilo	2
▁tipahti	2
▁tiquauhti	2
xillampa	2
tapalol	2
▁techhuica	2
▁oquimanilli	2
▁toqui	2
▁apocyo	2
▁necu	2
quihioui	2
▁Tull	2
▁Mexco	2
▁Juanito	2
▁quihuall	2
aquitia	2
▁oyec	2
tequilia	2
▁nitlatata	2
▁oquitlall	2
▁omotemachtil	2
▁tercero	2
motlayecoltiliz	2
▁quinyaochihua	2
▁tlacualchihua	2
tzaqua	2
▁nechpachani	2
atlakui	2
tlatlaniz	2
▁cocoli	2
▁temahma	2
▁oconito	2
▁quipatioti	2
▁onmatlac	2
▁itlanaoatil	2
▁itechca	2
▁noxochihu	2
niqui	2
acicamati	2
▁quich	2
▁mopil	2
▁huepahua	2
▁ib	2
omohuepah	2
cahuah	2
▁nemican	2
▁notelpoch	2
▁noye	2
cecel	2
▁ahco	2
tennamiquili	2
scribano	2
▁tlazintla	2
▁titotene	2
▁oquimocalaqui	2
▁notlaxil	2
caltian	2
▁tlapalolo	2
▁ymach	2
▁quimah	2
erederos	2
▁nema	2
▁conchichi	2
▁Xihualmohuica	2
muztlay	2
quihualmohuiquil	2
amacazqui	2
▁analo	2
▁oquimomachilti	2
▁tlatotoniaya	2
huetzca	2
▁quitenyoti	2
▁callixa	2
callo	2
inoque	2
cemi	2
quechcotona	2
imotztimoquetz	2
▁tlaocoxque	2
tlaškalo	2
nahnamic	2
▁Ribe	2
▁niquinchi	2
▁quihualmonochil	2
▁hualhuillohua	2
▁Bu	2
▁pochikt	2
▁Iciuhca	2
▁owecito	2
kwawi	2
onew	2
tetlacahualti	2
▁Quap	2
▁Ximohua	2
▁tlenamacoya	2
otlatoca	2
▁ximotequitil	2
▁ximotlacotil	2
▁tikalaki	2
▁quimomachti	2
▁naual	2
▁CUA	2
TA	2
TAPA	2
tlacu	2
▁yaotachcau	2
antia	2
tlacalhui	2
▁quimoteyt	2
▁noconnoc	2
▁moteyc	2
iliznequi	2
▁chimaltitla	2
▁motetzil	2
▁Lutel	2
calacoaya	2
▁iteopan	2
zaliuh	2
otlaya	2
▁nappoal	2
huilili	2
▁Xtechcualcuili	2
▁CHICOME	2
ATL	2
▁contenti	2
▁Calpilc	2
▁oquinmononochil	2
▁oquinman	2
▁calma	2
▁tlacotia	2
▁motzaquat	2
▁hualcallaquiz	2
ihiyohuilti	2
iquiztihuetzi	2
quinhualyacantia	2
▁kikakatso	2
▁hoti	2
▁intlalpa	2
oras	2
▁mahuiztillil	2
hiltique	2
▁onyezque	2
tlaçoy	2
▁tlaxipe	2
▁Azcapotzal	2
var	2
▁nah	2
▁tiza	2
▁oquipix	2
▁tinemizqueh	2
▁chikuase	2
▁kitlachilito	2
▁ixuajka	2
xitl	2
poal	2
momecati	2
icque	2
▁quimimac	2
axiltia	2
niman	2
▁moteochiuhtzino	2
▁iyaca	2
potonca	2
▁motecaqui	2
motenehui	2
▁aculhua	2
▁Maçatl	2
ancaza	2
▁tianqui	2
▁Bus	2
▁kwakwawi	2
▁aš	2
tlatlania	2
malhua	2
nkwakeca	2
NONOTZALL	2
▁quimixnamicti	2
calnahuac	2
▁Ytech	2
quanmimi	2
avallero	2
tlatzintil	2
▁ytlapachol	2
cahuillitia	2
▁Tiju	2
aldo	2
▁Colo	2
▁PRI	2
▁hualhuiquili	2
▁perah	2
▁icox	2
▁Guada	2
▁quimoxina	2
tlaliliz	2
ahque	2
▁omopepeto	2
pachoua	2
ohuilli	2
▁ytomin	2
uechilli	2
▁quimopohuili	2
▁calend	2
ula	2
iqueh	2
kwili	2
▁quichichiu	2
tlatetzotzon	2
nemilizpa	2
▁motelhui	2
▁chocho	2
▁totlatlauhtia	2
tzoma	2
▁ixoloc	2
acia	2
▁tocue	2
▁monomahui	2
▁cuetlan	2
▁telpuchtl	2
uizoz	2
▁piltoktsi	2
▁tonalhuac	2
▁nietaz	2
▁techyaca	2
▁tlapolol	2
ocentlali	2
ehceyaca	2
▁omocentlali	2
quiani	2
yezquiani	2
▁chachapol	2
▁hualitztia	2
yxtzin	2
tolinilo	2
ixquetza	2
▁noalvaceas	2
cuitlahuilti	2
▁luz	2
▁trey	2
▁chiquiuh	2
▁otlamac	2
▁acht	2
kojko	2
▁kipisiloua	2
▁kipiki	2
▁yohualnepa	2
ahuahuilo	2
▁oquitlapal	2
▁cicihuam	2
timaniz	2
▁amocha	2
ocauhque	2
▁otechcauh	2
teocuitlatl	2
acapech	2
itoa	2
▁kitojtomili	2
achcauhchiuhtiaz	2
▁otoma	2
▁Vin	2
▁itlahueyi	2
nochtitlan	2
▁quiyahualoa	2
yolpatzmi	2
▁taxiujyo	2
komo	2
mekayoti	2
uj	2
▁takt	2
pixka	2
▁tečtlamaka	2
▁tečkobrarwi	2
▁platito	2
▁pes	2
titlakwa	2
catlalli	2
nepohual	2
maytl	2
▁yntlahuillanal	2
ztlacatini	2
▁Tecp	2
oyotl	2
maquizque	2
▁Naca	2
ahqueh	2
uen	2
petlac	2
ltecaz	2
▁Ameque	2
cigarro	2
▁Chilla	2
▁comis	2
tlatetemolli	2
▁elto	2
onca	2
▁ictechicu	2
▁Xinechin	2
poliuis	2
▁mohuitequiz	2
cniuhtla	2
▁tohuehue	2
▁axkiita	2
notiachcahuan	2
▁tlax	2
tennamiqui	2
digo	2
▁xiquinmo	2
quitzoualpepecho	2
▁quitzonteconti	2
▁tetzahuitl	2
▁tlaxexelo	2
▁NIC	2
UH	2
▁quinchihua	2
▁itlanequiliz	2
tlalililo	2
moneltoquiti	2
inon	2
oconihto	2
▁mixtlapo	2
quixtzacuilli	2
▁miquani	2
▁motozcatlan	2
nacaztzo	2
mpilcatinemi	2
▁quiquani	2
kí	2
▁ypetlacal	2
▁momanahuiz	2
qualnexti	2
ll	2
▁huitzillihuit	2
▁tzimp	2
stitut	2
otechquimocauil	2
▁tecuictlatoloya	2
▁tocomaca	2
▁nicnotlapal	2
nicnotlatlauhtil	2
▁notlahtoca	2
▁cathedr	2
▁itlaçomahuiz	2
maniltiti	2
▁motlapachilhuit	2
▁conmin	2
enquiça	2
uaki	2
▁otlacol	2
▁pachihui	2
mante	2
▁caciz	2
quechcoton	2
▁ča	2
▁oniya	2
▁teporingo	2
▁toye	2
ltequi	2
tzopini	2
▁timopahti	2
polihuiz	2
▁timitznexti	2
▁Chil	2
nde	2
urre	2
▁teiyemac	2
▁texochimac	2
▁onmomana	2
niw	2
▁niquimaxcati	2
▁Kiix	2
▁kuakuoujnaka	2
▁tempalan	2
▁cenpohuallo	2
tij	2
lm	2
niquihquizt	2
eochia	2
▁mollini	2
ocaya	2
huihuitequi	2
motlaya	2
emente	2
▁Ycnotl	2
▁ticquixti	2
▁Axayanca	2
▁KO	2
▁moxocha	2
▁Henrri	2
▁ymacehual	2
baxe	2
nunci	2
tlahtoa	2
▁cenpohuallonce	2
poçahua	2
▁patiz	2
▁compehualti	2
▁omitzmo	2
▁mitzitta	2
▁mitztlat	2
▁hualnotzalo	2
▁manoz	2
▁mizahui	2
▁quitleccahui	2
▁niquitaz	2
ayaka	2
▁Ate	2
esma	2
niquihtlanili	2
quilhui	2
quichp	2
inantzin	2
luis	2
▁omopantlaz	2
riba	2
▁AH	2
MIZ	2
aka	2
▁tsaj	2
▁axkik	2
huallitztia	2
emachilliz	2
▁motlacohuia	2
▁motzacuilti	2
▁Axaka	2
▁quimahua	2
▁quinmahuizpol	2
cuicuitla	2
▁mocaltiz	2
▁Nocone	2
lacatzo	2
cuah	2
momachitiz	2
nahuiltia	2
zcalia	2
nihmati	2
▁toyolocacopa	2
techmomaquili	2
▁ATOL	2
▁Petlac	2
hiuhcan	2
chilhuia	2
▁tlanki	2
chiquace	2
▁Ahuin	2
machilti	2
tlaštlaw	2
capayo	2
tlequiquiz	2
▁timay	2
tepilhuan	2
kakauat	2
▁maxiujyoj	2
▁moradito	2
▁otiquiman	2
chtzin	2
achca	2
quinmictiti	2
▁omomana	2
▁cueleh	2
▁motete	2
tlauhtil	2
caxipe	2
▁carre	2
▁Metztli	2
▁kintlali	2
▁oquitlauh	2
▁chantiz	2
▁temachtica	2
▁Xexelih	2
▁necentlali	2
▁ymamatlacuilol	2
▁tlanahuatia	2
▁kiijtoua	2
▁caltepachol	2
npeuh	2
panouayan	2
tlatlauhqui	2
mitlani	2
▁Cuixtecatl	2
▁quincuitla	2
▁moyecan	2
tihkak	2
▁kikekelo	2
unka	2
▁rato	2
▁puchtecayo	2
▁quixtia	2
▁kw	2
Otinechmocnelili	2
▁ahhuel	2
masca	2
ixtoquiliz	2
▁quipatahuaz	2
▁difondo	2
▁imechkuesó	2
▁nimechkajtejtok	2
▁motza	2
▁XON	2
▁cahualo	2
▁mika	2
▁tiy	2
▁tinemizquiaya	2
▁Anqui	2
mauhtilli	2
acaltica	2
▁tlamattinen	2
lalcocomoc	2
IJ	2
▁yoti	2
▁Caxil	2
▁xicmotlaocol	2
onilhuizolo	2
▁teotlatolli	2
▁Tie	2
▁otlaocoxqu	2
XIPOJNANAKAT	2
pecht	2
iaj	2
tsayan	2
iktok	2
▁Asump	2
▁kitso	2
tsontek	2
▁nit	2
▁Chichilquau	2
tlacahuillo	2
▁conmanil	2
▁xinechkekelo	2
tacic	2
▁tlauauano	2
kikišti	2
alma	2
▁moteylhuiya	2
▁motlayaca	2
▁rosa	2
▁Cece	2
etolliniliz	2
▁yeloa	2
▁yomaxiti	2
▁notlah	2
kowili	2
huahtzin	2
▁mahci	2
oppa	2
▁noconit	2
▁tlahuel	2
tentiman	2
▁nochpochtzé	2
▁Malitz	2
▁mopalehui	2
pozihpotoc	2
almimilol	2
▁horació	2
▁otlayahuallolo	2
▁contoquilli	2
▁Atlixel	2
ltó	2
kaltsi	2
▁oquimocahuil	2
▁omopanolti	2
▁moyaomani	2
▁atzallan	2
nyezque	2
nemohuani	2
kiko	2
▁tlamellauhca	2
cuepilli	2
▁Joh	2
geral	2
▁mosi	2
▁avi	2
▁iyyo	2
▁tictequa	2
▁tictla	2
momextin	2
otilli	2
ztapala	2
▁UITS	2
UAUJKILIT	2
conchiuaz	2
▁noconchi	2
▁contlaliz	2
tlamahuiçol	2
▁oquitlan	2
omatia	2
▁anquitla	2
toniliti	2
▁amonan	2
▁chollol	2
▁otepe	2
KOS	2
EJ	2
▁kolexi	2
pet	2
irwia	2
kwania	2
▁nitlaneltil	2
▁xiualla	2
▁anquit	2
piel	2
▁oacih	2
▁mopitzin	2
kicakwili	2
▁tzine	2
▁igovernaci	2
redo	2
▁tlaacaltemalo	2
▁koni	2
iwinti	2
▁rabia	2
▁tikitas	2
servi	2
mochtin	2
▁xuchimilca	2
▁techcuili	2
▁Totomihuacan	2
▁toxoch	2
▁Xquinta	2
▁tequitican	2
quipaccaceli	2
yollopachihui	2
▁nihualno	2
popollihuiz	2
onetech	2
▁tlayxmanal	2
huexo	2
titimani	2
▁akuakuajtli	2
▁sayolime	2
▁otlanamacaque	2
yollohua	2
quimoneltoquitia	2
▁cemixquich	2
▁quiyocuxqu	2
mamaliz	2
ozquiva	2
▁quinnemacti	2
posesio	2
▁mantlanamaca	2
tsa	2
▁otlami	2
▁mopaquili	2
tetel	2
huehyi	2
▁tetepeton	2
tlatoca	2
ticmauiz	2
ačo	2
ikwali	2
lkaw	2
▁yau	2
▁tecoua	2
▁tetlaxima	2
▁moquechmecani	2
tlamatini	2
ahualtitin	2
quimontlauhti	2
michcue	2
michmaxtl	2
▁yuhcci	2
▁molli	2
▁Cinteutl	2
▁Onmant	2
▁tlatlaxi	2
▁tlaixpiya	2
▁niitstok	2
▁tlayohuaya	2
▁chollohua	2
huahhualoa	2
▁quinmahmauhti	2
uhti	2
▁mopacho	2
▁toctla	2
mahmauhti	2
▁itlacual	2
cuepcayoti	2
▁omoçahua	2
▁onquiza	2
▁piome	2
▁Chima	2
peyoni	2
▁yayatimani	2
▁tihuetz	2
▁quinoc	2
omonamicti	2
hualcallac	2
cuauhcal	2
▁tí	2
cemaxcatillo	2
mocuepa	2
▁tlakatki	2
▁ommo	2
▁TEN	2
cuitia	2
▁MEXI	2
AYOPE	2
▁Lateran	2
▁quimocepan	2
niezquia	2
▁quinquimil	2
▁otiquimac	2
hualhuetz	2
▁immona	2
▁immotta	2
▁monemiliz	2
ahcihcamach	2
▁cenquizcacual	2
▁nitahtani	2
▁quitataca	2
▁techyahual	2
▁capachoz	2
▁atatac	2
momoz	2
yauallo	2
▁avia	2
temolia	2
ioti	2
▁tecuh	2
▁contlatocatlali	2
▁quimohu	2
ecapanilhui	2
▁huellac	2
tlalliloc	2
copina	2
totop	2
tocatlalli	2
neacatlalliaya	2
netotilo	2
miccatlap	2
tecaquilti	2
▁tatapah	2
teocuitlay	2
▁tlacohco	2
▁yun	2
▁g	2
▁tetzcuco	2
tonhuia	2
▁teum	2
ahpalehuil	2
▁Tatat	2
tlaneltocaz	2
alia	2
▁Be	2
chihuiliz	2
▁kinkakawa	2
kinawati	2
istro	2
▁mus	2
▁toquicht	2
▁ticuahcuahui	2
▁ahuiltzonc	2
▁ixto	2
ptió	2
▁ixcoya	2
xki	2
ní	2
▁Tatatzin	2
▁Opapano	2
▁neehual	2
▁mopilia	2
▁mopanolti	2
▁amechmomaquili	2
chihuillia	2
matzayana	2
▁quauhtl	2
▁momotla	2
▁hueyaten	2
lonti	2
titonechico	2
▁wip	2
deskomponer	2
kompadre	2
ečkawtewa	2
▁niuala	2
xtoço	2
▁imichca	2
▁quinmotlaqua	2
qualtilia	2
momachiztili	2
▁ihuallali	2
▁octzitziquitzi	2
ixotia	2
▁techpoyomicti	2
▁oztoticpactlaca	2
▁oconman	2
▁Amatl	2
▁cuezal	2
▁barra	2
▁cenm	2
licpi	2
tenehuilia	2
katsi	2
mitztlahtlani	2
▁tichicuace	2
▁noawelit	2
▁amatenonotz	2
▁Quiuica	2
tlatzontequilli	2
nanamiquilliz	2
▁iyama	2
▁tr	2
▁tocentlali	2
metztica	2
nemia	2
▁quimahuiztili	2
▁caxilti	2
▁Cozcaquauh	2
▁Teuhtle	2
mopehualtilli	2
▁quimote	2
▁moyolcoco	2
ikni	2
huaznequi	2
quimittaz	2
mixco	2
▁nechal	2
▁omuchiuhtzino	2
ztacmixcohuatzin	2
leon	2
mit	2
alwi	2
▁quintlatlauhti	2
echualliua	2
▁Miyahuatoto	2
uiliaya	2
▁kinkuiliaj	2
▁kiitas	2
▁caxcan	2
cahualiztlamati	2
▁yntlaquetzal	2
▁Chimalpopocatzi	2
▁Teuhtleuaca	2
▁gal	2
▁netlalolo	2
▁tzicuin	2
▁nenenti	2
▁Ocuil	2
motechicaua	2
techtahuilia	2
ecciz	2
ixpopoyo	2
▁quitlatzacuilti	2
▁imax	2
otoli	2
çoya	2
▁huelaçot	2
▁huehhue	2
cocotoni	2
▁quitequipanos	2
huala	2
▁hualas	2
▁tetequipano	2
▁Tolti	2
▁Tepetly	2
quintlaçotla	2
▁oq	2
▁icuama	2
tlatl	2
▁temecahuitequi	2
quetzaz	2
▁Quauhtlatoua	2
▁umpoualxiu	2
▁nechnequi	2
▁kit	2
melawa	2
▁serbi	2
▁Kime	2
tlazomahuiz	2
▁otlalhuiqui	2
cuacualaca	2
▁tonahuia	2
echnahual	2
▁micmotla	2
tsintoka	2
gra	2
ienta	2
▁tikinixmat	2
ahchan	2
▁taj	2
takuechauj	2
maceval	2
▁Tzonim	2
▁cacava	2
teicnelil	2
▁yxquetzallo	2
▁Tziu	2
▁Ohuan	2
patlaz	2
titzinoz	2
▁toteuhc	2
▁iyaotlatqui	2
iac	2
▁quiualciuatla	2
momaehiti	2
▁ichpocato	2
▁mopilohtzin	2
▁niquilhuia	2
▁niquihta	2
iemolhuili	2
til	2
tetlahuical	2
tzinoh	2
▁Nopiltz	2
▁nicnemili	2
▁xicmomachilti	2
▁oamech	2
moztlacahui	2
motlaucol	2
▁ayaj	2
▁ximoyol	2
▁moyequixqua	2
petz	2
ahuacan	2
hueyacatzon	2
quechpan	2
yacatequi	2
▁quice	2
▁inqua	2
xipetz	2
iwe	2
▁mokištili	2
▁quinmama	2
ylpi	2
aqualli	2
▁itlach	2
▁Mes	2
▁calce	2
mauizoltia	2
▁xotla	2
tataca	2
pachoaya	2
▁Icih	2
quauhcoz	2
▁Bra	2
sil	2
▁portuguest	2
▁Xaltepek	2
▁qujz	2
▁cemilhu	2
▁moquequez	2
pixtok	2
▁quimotemohuili	2
▁quipalehuiz	2
quinmotemohuilia	2
iquixtilizque	2
oltin	2
▁tlazohtlaz	2
lahchihui	2
▁quitlacuili	2
▁motlahuel	2
▁tenene	2
▁tlacuauht	2
pohpoalo	2
▁pachiuhti	2
▁quimonihua	2
yoma	2
cpacpa	2
▁Rive	2
▁Firma	2
▁tlajtoli	2
▁rá	2
▁igual	2
▁ninocencahuaz	2
▁oninocuep	2
▁tenohnotz	2
▁otlaco	2
▁ximoma	2
htequi	2
onero	2
ezquia	2
▁imixcoya	2
▁teocnehnem	2
▁tepeyo	2
▁tzacualo	2
seboya	2
tequimaco	2
▁totepantlahtoca	2
▁criyoyos	2
mahtlactetl	2
▁imahtlacome	2
▁Yniquic	2
▁niyon	2
▁itlat	2
nextis	2
ameyal	2
uiloua	2
tlazohtlac	2
ersa	2
MIMI	2
yaxca	2
xtoc	2
▁amechontla	2
ualpolo	2
▁mokone	2
▁posteki	2
▁oquitlaque	2
▁omocuicati	2
▁quimopallehuil	2
▁krus	2
▁tlačik	2
tetzoncui	2
▁nitano	2
▁nict	2
▁doct	2
inis	2
▁neinemi	2
alpi	2
chioa	2
▁Teyolcocoua	2
bicitleta	2
mozcalili	2
▁quimotequilli	2
iztlacahui	2
otonti	2
▁Tehuehueltzin	2
▁totzotzoma	2
mixquechilli	2
▁maxca	2
▁ticcuiti	2
icacicayt	2
▁ocontlapo	2
timotlahtolti	2
▁ytlahtol	2
▁pilokichpi	2
itsi	2
▁motlanahuatili	2
▁callaquiz	2
▁mokoui	2
▁nihueli	2
tizquia	2
▁anquimaca	2
nechuikaka	2
onilnamiqui	2
governador	2
cuiliznequi	2
▁nihuellamati	2
▁kitemi	2
▁omocema	2
▁congre	2
iquanilo	2
▁yyollocacopati	2
▁acxoya	2
▁conmonamiquil	2
mololhui	2
▁xiuhcac	2
loctzi	2
▁kitentlapo	2
▁quimonamiquili	2
▁mimiliuh	2
antiak	2
▁mokawa	2
▁kiteka	2
▁quehuac	2
▁hualmoyaca	2
opaleuil	2
teixuih	2
mixoti	2
▁yalbaceas	2
▁oquicau	2
rnman	2
juanti	2
▁cuitlatexo	2
moli	2
▁puchtecati	2
▁tlayamania	2
▁tlayamani	2
▁icuitlapil	2
anis	2
▁tictlal	2
ahuic	2
▁ompolihui	2
CP	2
chilposon	2
▁kitsopeli	2
▁teocnenemi	2
▁tlaiua	2
▁tetonal	2
pouilia	2
ualtiaya	2
▁quihuallit	2
▁yopica	2
illan	2
▁Bá	2
rbar	2
▁quinmoma	2
▁pisilchil	2
ayohtoton	2
▁tzilacayohtoton	2
KUA	2
PITS	2
▁ynhuehue	2
▁Calme	2
tía	2
▁amonca	2
▁cenquizto	2
▁notlalli	2
otlatzonilpil	2
▁onchicona	2
citlaltepozacalt	2
▁Tlalticpac	2
▁xonmo	2
▁oticce	2
▁tepantlatza	2
cuillo	2
ilacatzo	2
ncohuati	2
ciembre	2
▁quimotocayotil	2
▁nochipayok	2
▁tlahuiyaqui	2
▁tlatzillin	2
tlatlauhtilico	2
quinmomaquili	2
nenehuilli	2
▁quimotlapa	2
itlahtlachix	2
▁nimechm	2
▁timopo	2
poliuiti	2
chijchiui	2
ania	2
▁cempanahui	2
topille	2
cohcol	2
▁tlamini	2
▁kasti	2
▁ycye	2
▁mocomoni	2
▁oquimacicacaqui	2
▁mellahua	2
▁nocah	2
necuiltonol	2
RI	2
IH	2
cuihcui	2
▁moxic	2
▁notzti	2
▁contecuiliz	2
▁contetlalili	2
▁teicpaltzin	2
▁necacaya	2
▁iyxu	2
▁mociuauati	2
▁xikuatlejko	2
lericos	2
▁motei	2
▁motequ	2
motzacuiltitia	2
poztequi	2
ittitilo	2
▁Yxtlahu	2
▁Ytzcui	2
▁motemaca	2
nació	2
▁Inoyuh	2
▁Tictlal	2
ores	2
▁quipitz	2
▁bla	2
▁cacatzacti	2
caquiztili	2
▁quitlaocol	2
▁tiquihtaz	2
▁omonono	2
unes	2
yolyamaniliz	2
tzinti	2
▁itzcal	2
▁nicnextiz	2
▁quintocayoti	2
▁tocihua	2
▁quinameti	2
ixcopin	2
▁pewa	2
▁čikw	2
▁čik	2
▁kaštoli	2
▁kaštolon	2
▁kašto	2
entes	2
▁Tlalcoz	2
▁quitequipano	2
▁mopopo	2
oquimonamicti	2
miti	2
marr	2
tlazohtlayah	2
ahcia	2
▁nepaniuh	2
namechaxcatiliti	2
▁quauhtematla	2
▁motlami	2
▁motenochca	2
▁tlahuelmat	2
▁nequetzalo	2
tlapoh	2
itlaxtlahuaz	2
aualloc	2
tollin	2
▁oconaxiti	2
▁quinual	2
echnotlaytlanili	2
xicmonequilti	2
tlaytlani	2
quintlahyel	2
ichpoka	2
yolloh	2
▁onacic	2
▁iccaxtol	2
$	2
ompoal	2
▁omatla	2
▁moyectlaliz	2
▁nanatzca	2
▁huacax	2
ALL	2
▁QUEHQUICH	2
quitl	2
ocehuico	2
▁motlipichise	2
ocallo	2
▁Jac	2
quaquahu	2
▁cepayauh	2
chcame	2
kuij	2
▁mouicaca	2
▁mopiltlazohtla	2
quimitta	2
tocauh	2
▁notlan	2
motlatlauhtiliz	2
▁tlacoco	2
tlani	2
▁tlatoznequi	2
▁quellehui	2
ztitla	2
atezcauh	2
▁cale	2
▁Par	2
mamalhuaz	2
nahuatiz	2
pinauhtiz	2
mocuitlaxcol	2
cacehuaz	2
▁totomi	2
ittaz	2
▁noyecol	2
▁quinpopolloz	2
▁onmoçahua	2
ichpuch	2
AJ	2
▁mopaj	2
tsilini	2
kuajkua	2
▁moyolle	2
▁quinenemiltia	2
ihiyohuia	2
quiztinemi	2
onmonamiqui	2
quezpan	2
omi	2
temoli	2
▁coch	2
timaloa	2
coyoca	2
▁tlacacalat	2
▁machio	2
▁Rev	2
illag	2
ige	2
ífic	2
▁Tlape	2
▁ihuex	2
tlatamachihualo	2
▁moihto	2
metralladora	2
▁omotlal	2
▁teocuitlaco	2
yoltoto	2
▁yahualiuhcan	2
▁amontla	2
amehuan	2
▁Tlahuizcall	2
ncuica	2
pehpechtiliz	2
▁tecuini	2
xeliuhcama	2
▁itlamachtil	2
pahpaquiliz	2
nehualiz	2
▁tlaquil	2
▁yxquetzalo	2
▁titokas	2
▁moyetzinotica	2
tlananquili	2
▁nicmohtili	2
▁motlahtlani	2
kilwi	2
▁ytenyo	2
intoma	2
xexeloa	2
etlayo	2
uazque	2
▁Atecpan	2
chco	2
tlaliaya	2
▁Tzinc	2
▁onene	2
▁connemili	2
cehual	2
queman	2
▁titlaku	2
jkotona	2
▁oquintlalli	2
mayan	2
nacaztitlampa	2
▁quipiazquia	2
čo	2
▁Ayauhcal	2
ijki	2
tequipanozque	2
tocuilehui	2
▁noconahuilti	2
aol	2
▁omocacaiauh	2
▁totecuiyohuan	2
▁nichpoc	2
▁nechcahuilitia	2
ichiuhque	2
▁tzotzomah	2
▁Mochpoch	2
▁ticmotlazo	2
▁yteopanc	2
mixquechili	2
quitecaquilti	2
hoaz	2
▁arrieros	2
▁ontlecco	2
▁quimotzicalhui	2
▁motztiliti	2
momakak	2
apats	2
▁titlanapoualti	2
▁inxacal	2
motzotzona	2
▁tenotza	2
▁kuauitl	2
mulpi	2
iquimitac	2
▁titlacua	2
▁toro	2
timayana	2
chipahua	2
tiamico	2
▁oantlanamaca	2
▁tlayxquetzal	2
▁patlanalazt	2
▁mopuw	2
tano	2
gamo	2
▁mestiços	2
uehe	2
▁huehea	2
▁itoni	2
ualuica	2
▁motestig	2
▁quiualuica	2
▁Anyaxca	2
motlanonochili	2
▁oquimopa	2
▁Topix	2
▁iztayo	2
▁nanchi	2
tlauhtia	2
quiquiztia	2
tlacauapaua	2
nonohua	2
▁motlatoquilti	2
camisa	2
las	2
▁quimololo	2
▁nicnamacaz	2
▁quimotocayoti	2
▁tiquix	2
namictia	2
cehualcal	2
▁yohuan	2
▁mapil	2
▁tlatzonte	2
▁kiwikan	2
tlatocatilma	2
mitspaleui	2
▁mosuerte	2
▁ontlato	2
▁onmixquetza	2
▁Xay	2
ecazin	2
techtlaocoli	2
TAXKAL	2
itztic	2
tzitzil	2
▁cecuiz	2
▁nocupix	2
▁mohuihui	2
▁oquitequi	2
yolyamani	2
altiz	2
▁tem	2
pohpouh	2
▁quichali	2
▁Gio	2
▁quinqua	2
mamatla	2
▁Tozmacuex	2
▁mahtlacce	2
toke	2
▁wala	2
yeh	2
▁quehua	2
▁quiquiça	2
▁mopotoni	2
ovall	2
▁xipe	2
▁manti	2
hepoual	2
tlatlacoltiloc	2
▁noquito	2
tlajtlama	2
tlaltepuz	2
lacha	2
lacatecolotl	2
icmati	2
▁titocniu	2
ixcahuiz	2
mocuitlahuiz	2
▁toconchiu	2
▁Cuauhtlato	2
miya	2
ntocat	2
▁XXXVII	2
▁quinmocahuili	2
▁cuetlaxteca	2
▁ineyxc	2
▁Moquiuix	2
caltzauhc	2
▁mocaltzac	2
cuicçumatzi	2
▁onechitac	2
▁nauhcapay	2
▁vander	2
▁quichica	2
▁omotlahtocatili	2
▁ticmat	2
uayol	2
kinitski	2
ontlalilo	2
▁tlatzonca	2
▁matlacxiuh	2
yectilili	2
▁tlatlacauh	2
yxtlapan	2
▁quipanahuia	2
cenquizcahueyt	2
▁tiyectenehual	2
acaquin	2
▁quipohuaz	2
yectene	2
huilliz	2
▁chiquaçemil	2
micmomantenerwis	2
▁ley	2
chiapaneca	2
▁molinik	2
▁conechichi	2
quimohuaxcati	2
mihto	2
▁yoyolli	2
▁nicnocaqui	2
▁quinmotzacuil	2
▁Tlejko	2
▁anchal	2
▁xachocaca	2
afen	2
moxexelhui	2
chiliz	2
▁omocauhtzino	2
▁ocehui	2
▁nemachtilcal	2
machtique	2
uatequi	2
tlacuicuilli	2
▁icalpanpil	2
echtequipano	2
▁otitlazohtlaya	2
▁cihuatzin	2
▁melah	2
tequipan	2
acame	2
▁mocayahuaz	2
▁Resure	2
cuepon	2
▁tlael	2
ahcique	2
▁quinhuihuite	2
▁CENCA	2
▁ythatzi	2
allito	2
▁hualteyacana	2
pillohua	2
▁tlalticpa	2
axolotl	2
▁moteneh	2
▁mocentlamantil	2
rios	2
escapulario	2
▁iey	2
tilitzin	2
▁Redemptió	2
▁quimocuitlauiti	2
tlačpana	2
▁soma	2
tlayhiyohuilizt	2
tlazaltia	2
▁naval	2
imilco	2
▁tipeuhque	2
▁oquinyollotil	2
yauhque	2
yetl	2
▁tonyati	2
▁quinnamaquilti	2
tlalma	2
▁omik	2
▁mahuizti	2
onxiuh	2
yamoya	2
▁conquistadores	2
▁quihualtemo	2
ahuiacaxochitl	2
▁Huitztla	2
▁oquichihuilli	2
▁contradici	2
tlatoliz	2
emat	2
▁xelihui	2
▁Conde	2
▁ineneuhca	2
per	2
▁kajsi	2
timoyolchicahua	2
▁quihualmanil	2
tlamaquixtil	2
▁ichantzin	2
tlaqual	2
▁ilpil	2
cualtia	2
▁teotlahtol	2
▁tlaixpa	2
▁teixpanos	2
▁teotla	2
▁nechicolis	2
▁tlatzqui	2
▁Otlananquil	2
tzitzquitica	2
▁tikilui	2
▁tzatzitiquiz	2
popol	2
▁iztalectic	2
▁quichih	2
malli	2
▁kipanti	2
zohcamachililiz	2
mahuiztililizt	2
tenehuaz	2
▁mocalacti	2
▁monemilti	2
▁quinma	2
▁quincenpopoloz	2
▁tapani	2
ocontlalcaui	2
tlaxilacal	2
▁Jud	2
▁Tri	2
cauilliti	2
▁tijtlachili	2
NACATL	2
▁oticc	2
tlamahuiso	2
yolopachihui	2
▁Quateca	2
▁oquinpepe	2
totocaque	2
▁yemowika	2
quinpixtihuia	2
otecuioan	2
aquili	2
nomaceual	2
▁axkikauili	2
▁quittatiuh	2
tlamanitilliz	2
neneuhca	2
▁quihtoa	2
▁ixmantaz	2
octacanemiliz	2
▁Cempualli	2
tetetzo	2
▁Cuetzpal	2
otlatlamalli	2
▁axki	2
▁itloe	2
mozalhui	2
▁omotlaeatili	2
▁omixcu	2
▁xitlanamaca	2
▁ticchia	2
mitzmonanquilili	2
auhcanpa	2
▁Mononotz	2
elel	2
▁Zau	2
atique	2
yollapalti	2
tlacamati	2
ecanan	2
tleheo	2
ihnecui	2
▁monentlamati	2
▁Quauhtexpetla	2
▁quimomecati	2
▁Opuch	2
macues	2
▁ylpiloz	2
▁quinnamiqui	2
▁nanaca	2
▁Maxi	2
▁Quetzalquauh	2
tsapot	2
▁Ar	2
▁itepancal	2
llia	2
htiti	2
▁ahquihua	2
▁ticmoxi	2
▁quezquipa	2
▁quinmotla	2
cuaxoch	2
tehuelitiliz	2
▁iamatlacuilol	2
▁izquilhui	2
teotlatquitl	2
▁pontifical	2
▁yekim	2
chalani	2
▁tlatzitzilica	2
▁nokni	2
▁kualanke	2
huillan	2
▁matlaquilhuiti	2
ME	2
KAT	2
▁motlanauatil	2
▁acolua	2
tene	2
tlaquechil	2
quimotzitzquil	2
▁oytzti	2
teyxtla	2
▁ytenanami	2
mopalehuiliaya	2
▁nochpo	2
cauhca	2
▁Abr	2
▁candella	2
loco	2
▁Cuacualtzi	2
▁tlahuanque	2
▁otinechmolhuil	2
hualmocallaqui	2
▁quechpo	2
▁nitlači	2
▁INCUI	2
▁nocontlaza	2
tzotzopaz	2
tlapaktoka	2
tlatlahuelc	2
xiuhtlati	2
cuitlahuiz	2
▁tihuecahua	2
▁contlachiyelti	2
quanilo	2
aros	2
maxiltili	2
yece	2
▁itlalmiltzi	2
tzihuan	2
▁tlalcahual	2
tlacallaquilizqu	2
▁amechmacaz	2
kwalika	2
▁tlica	2
▁oquitlalili	2
▁Espin	2
tlahuelcuit	2
▁yoquima	2
▁titzicuini	2
mitzmocnelili	2
▁ticaaman	2
▁mitzpan	2
onquiquiza	2
ectilia	2
▁yxtla	2
▁Tij	2
▁moneltokayaya	2
▁techcahua	2
▁ixqui	2
▁immotlahtol	2
▁impopolo	2
▁onhuetzi	2
ititie	2
itznac	2
oria	2
▁kone	2
▁onitlazohtla	2
yoco	2
yecmati	2
▁Yni	2
▁moxtlah	2
▁cuepcayoti	2
uei	2
leui	2
teuhcyo	2
▁matzopetzt	2
▁yeta	2
micon	2
▁motej	2
▁tlatzihuiz	2
huicontica	2
▁neneli	2
otica	2
▁Macuilxochitzi	2
ycac	2
▁acatic	2
▁cuilo	2
▁tictemaca	2
▁anpopolli	2
▁mochicahua	2
▁otexexel	2
chtin	2
▁onechtlatla	2
▁oniquiz	2
▁mocenyeliz	2
▁tlaxaxantil	2
▁kiniuik	2
yhuinti	2
▁quipias	2
iasica	2
▁moqueque	2
▁quicocolia	2
oxiuhco	2
cahualoz	2
calmimilol	2
▁xel	2
▁tor	2
▁Tlacatecca	2
lotlac	2
▁tictocui	2
▁oniquimacac	2
▁ME	2
SO	2
▁pinauhtiz	2
lah	2
gost	2
▁tlatlaca	2
▁ohualyetia	2
▁iyatenyo	2
atenquiça	2
▁cihuamizt	2
hcahuan	2
▁titlahto	2
xayaca	2
▁sintokaj	2
▁intlacatillizpa	2
chihualliz	2
zacamol	2
pixtia	2
▁mononotzazque	2
▁inoma	2
▁Oni	2
▁uicallo	2
▁mochoquiliti	2
▁capoli	2
tzetzelo	2
▁tacahuan	2
▁Quetzalp	2
▁yaoyahual	2
▁apo	2
▁motzontecon	2
euhtzino	2
epia	2
yeyeco	2
▁yp	2
ipia	2
tezcauh	2
uexozincotlaca	2
nenehuilia	2
▁iquechcua	2
chichihual	2
▁maquiza	2
▁nocolhua	2
▁Tlak	2
lolca	2
ixtli	2
▁xictlalli	2
hicuac	2
▁mexicatlahto	2
úl	2
ortari	2
anexilot	2
▁Niquihto	2
▁NO	2
▁IZ	2
tlayahuallochti	2
▁quinpilo	2
temaquixti	2
▁Sop	2
▁Tur	2
▁moyaochiuhticat	2
ihuiz	2
mopachohua	2
▁tlahuahual	2
▁Istak	2
▁oninote	2
caxoxocti	2
▁ap	2
pauac	2
▁temimilti	2
▁onacti	2
▁ticchi	2
▁Tzilin	2
tontequiti	2
▁tlamamalo	2
▁tlacanechico	2
izahui	2
huehuetlahtol	2
huehuetlamatiliz	2
▁ticcahuaz	2
▁otechtla	2
▁motemaquixti	2
uhtoya	2
▁Totoçacatzi	2
▁Fuen	2
▁mozcallia	2
chicuacemi	2
zcaltiz	2
▁Teteo	2
lpolli	2
▁oquincocolli	2
▁mocenpouh	2
▁oquinmolhuili	2
azco	2
▁tocomma	2
uato	2
ntlalticpac	2
mottitia	2
tzacuilli	2
mmopillo	2
tzcalloti	2
▁techtlanextilia	2
▁iyat	2
▁xitomat	2
▁omotlapololti	2
▁Tlemac	2
▁zazanil	2
▁tlatlanonotza	2
▁poxa	2
ixpopolo	2
▁uapaual	2
▁topallehuil	2
▁yntlanequiliz	2
▁ticonc	2
▁Ticpiazquia	2
▁sent	2
▁ymic	2
lliaya	2
nicahci	2
ká	2
tzacuazque	2
▁cacoqui	2
▁amotet	2
tsintla	2
tlachpana	2
▁mis	2
asal	2
▁onhue	2
cahuac	2
uhaz	2
▁tichuic	2
tlacatilli	2
▁iteocal	2
teuatsa	2
▁xie	2
quintlacachiuh	2
kitij	2
tisi	2
tamali	2
▁huetzic	2
tiayah	2
▁contra	2
nemiltia	2
camiquiliz	2
▁yhiyo	2
cahui	2
▁momiquilia	2
▁queninami	2
▁quimotlatla	2
pito	2
ixtocaz	2
tlatzacual	2
▁timotlapololti	2
▁tichristiano	2
tocomm	2
▁elehuilo	2
▁monacayo	2
▁quipis	2
tlanamacazquiaya	2
▁tlaixnextilotl	2
elchiquiuh	2
▁Mayan	2
yocoxti	2
table	2
otecuio	2
ihuitia	2
tenyotiz	2
▁immomac	2
▁ticalac	2
▁inmatla	2
▁macuilpa	2
▁tlaqualiz	2
tasí	2
xka	2
uijto	2
▁moponhua	2
▁quixohuaya	2
▁inetoquiliz	2
▁tre	2
▁quiualca	2
tlalito	2
stok	2
kwep	2
ononochiliz	2
pelicula	2
temiqui	2
▁nehne	2
▁Xontlacaqui	2
▁conit	2
elí	2
▁tlap	2
▁america	2
hopin	2
▁motew	2
▁timotamacazqueh	2
jpa	2
moquichito	2
itlaltemoli	2
titlanilihqueh	2
▁intatah	2
tapetanilo	2
▁nitlawe	2
▁tiotla	2
ô	2
tonehua	2
ihuic	2
▁tetlamacaz	2
▁niquit	2
▁quitlaca	2
▁plantita	2
ncis	2
▁tlakat	2
▁meme	2
tonia	2
▁ynneyxcahuil	2
quichtin	2
▁tlanotzal	2
▁Toztecaci	2
▁micoua	2
▁Notlatzi	2
▁moceui	2
▁otitlazohtla	2
tequipanohua	2
▁quihualmotemil	2
▁quimonan	2
echmomaquixtilli	2
amal	2
itilli	2
▁kife	2
moteca	2
onamaquilli	2
▁tlanamacani	2
axihuac	2
omochiuh	2
huepahque	2
cuauhtin	2
capulcua	2
emoa	2
▁patlaniz	2
▁CeCouat	2
Cipact	2
▁momikti	2
▁tlalpa	2
▁neneliuh	2
pouh	2
▁oquilpi	2
▁yneyxcahuil	2
▁tocuil	2
tlatlalili	2
conkal	2
amotlatewa	2
▁quimopalehuiliz	2
uro	2
icmotoquilih	2
icoltiliz	2
mopieli	2
▁Occetepe	2
▁Tzill	2
▁Mantla	2
tlapach	2
▁Tlatlau	2
mantlan	2
xochitla	2
kuauitl	2
▁onyeti	2
▁chiaua	2
pahpaquilti	2
▁titequiti	2
htihuitzah	2
equitl	2
yollamachiliztli	2
▁tlachichiuh	2
quinenehuilli	2
loa	2
▁ticmana	2
auiyaya	2
▁kimoyaua	2
ixtlamachti	2
▁tlayeyecoli	2
▁tlayeyecol	2
▁ixnesis	2
tlaxolehua	2
juezgovernadores	2
▁oquimopi	2
▁Conchit	2
▁Tzitziquitzi	2
▁Omotelhuili	2
▁Nicnamaca	2
Nicnamaca	2
hcuani	2
^	2
▁tlacanacayo	2
▁xoconmati	2
▁šk	2
šulwas	2
▁tlacuica	2
tiquihiyo	2
▁otiquimic	2
uitoca	2
hene	2
▁tinoci	2
▁ticochizque	2
tlaocolli	2
▁yntencopa	2
▁Isa	2
▁tepoztlahuilan	2
icuil	2
▁tlenamaquili	2
▁iahhu	2
tecu	2
▁traytor	2
itlanauatilua	2
▁kitata	2
mota	2
▁okuili	2
▁Ticana	2
▁tocepan	2
▁nequeque	2
sterio	2
anaco	2
▁tenechico	2
▁Quezalma	2
▁omotepant	2
oto	2
nehua	2
▁ygovernador	2
▁kuesala	2
▁yohuih	2
motemaquiliti	2
▁nimitznottili	2
▁necah	2
tlacualtiz	2
▁titlamicti	2
▁tenanyoc	2
rimoni	2
tequitiz	2
yezquiaya	2
▁Q	2
▁cuauhci	2
ava	2
cuauhtzon	2
▁Lign	2
titiuh	2
▁miquiltiti	2
quimonequilti	2
▁pahpac	2
▁quaquanmi	2
▁inquisidores	2
▁ximotomint	2
▁Tinech	2
juika	2
▁tikilwi	2
eka	2
kokotoc	2
čton	2
okatika	2
▁dur	2
▁Tzinanca	2
lahpalo	2
ijkuit	2
▁kuakuou	2
icahuan	2
tzonpan	2
▁tzonpan	2
▁Ciuateucal	2
caxilti	2
▁techtlayohuil	2
▁ontlayohua	2
▁acalot	2
ocuilteca	2
tsintsaku	2
naci	2
ntika	2
ueltiuatzi	2
▁acatitla	2
nechcahuilitia	2
▁cololtlapil	2
▁hualcepa	2
▁Mallinal	2
▁tiwa	2
▁itequi	2
▁cahuiti	2
▁quezquipohualxi	2
okičiw	2
▁Tlaloc	2
matca	2
macazqui	2
▁nicnomaquilli	2
▁monemac	2
▁kuesijke	2
▁Hin	2
pialo	2
▁Xochimi	2
uiltitie	2
▁tlalxictentica	2
▁nauhyo	2
noyolitlaca	2
rot	2
▁ymeca	2
quinmopalehuilia	2
▁ancax	2
▁kipixk	2
▁šim	2
▁šimo	2
▁kipaleuijke	2
▁kipejpen	2
ohuayxtlahua	2
▁tlalpolli	2
collo	2
▁huapahuaz	2
▁poch	2
▁quitlaecolti	2
▁tlaxtlauaz	2
▁quichicua	2
ayot	2
cecenman	2
▁ylpillo	2
chihuallo	2
▁motlapallo	2
tlaquauhnahuati	2
▁motlaxtlahu	2
▁itlapal	2
icxitla	2
nohnochili	2
▁zayo	2
▁teocalmamal	2
▁hualix	2
▁Tlamacaz	2
▁teopixcacoyo	2
▁tetonalmaca	2
▁fundadores	2
tlatzihuiti	2
▁tinechmomaquili	2
▁honm	2
▁popu	2
▁tlahtla	2
tayotzin	2
atohuani	2
▁Mahtlacp	2
▁yaotl	2
▁upa	2
▁nepanixti	2
▁intonal	2
▁tinemih	2
▁tocahuazque	2
▁noyollopachi	2
▁planta	2
▁Ex	2
emplo	2
amatlacuillo	2
mahman	2
▁immal	2
▁quichiu	2
▁totlan	2
▁itei	2
xtlamachtia	2
▁zatlatz	2
accan	2
▁Crist	2
▁otlah	2
▁ocuel	2
celilti	2
tztita	2
▁itequih	2
nimokauas	2
▁moixtlalis	2
▁tonca	2
noquetzal	2
▁tinotlacachi	2
oal	2
▁tinotla	2
tlacatilili	2
tlapalli	2
iximachiliz	2
lhuil	2
topa	2
▁onicneltili	2
matlaquilhuit	2
▁Quenami	2
▁awelit	2
kuouj	2
▁nokta	2
tazque	2
cepa	2
▁Oneltic	2
▁caxa	2
▁cuecuetlac	2
▁cuicuitla	2
▁miectlamant	2
▁todo	2
▁kanto	2
kanasta	2
▁wasik	2
▁anim	2
▁teči	2
wika	2
▁tequichihualis	2
camanal	2
▁kik	2
▁tlatoua	2
quetzallo	2
▁exc	2
hualmimillo	2
▁pix	2
▁nacaztlachie	2
▁quinhualmic	2
▁momayahui	2
▁Lobo	2
ond	2
▁necahual	2
▁atliz	2
▁quimotlacoliliz	2
▁yewey	2
arado	2
▁xicmellauaca	2
▁otlatec	2
▁Quauhn	2
▁quinhualcauhti	2
ehuiti	2
itlanantejk	2
▁tlamatla	2
▁quittiti	2
▁Nezahualpilli	2
econteuh	2
tlalis	2
▁nicui	2
liva	2
seño	2
▁netl	2
▁macoman	2
▁otelhui	2
techtlacoli	2
▁huiptlatica	2
▁Xiuhtem	2
▁tepetlamimilol	2
▁zanahoria	2
▁teotlama	2
quimoteotitzino	2
kiya	2
▁Alex	2
▁repar	2
motlapacho	2
▁fue	2
▁nonotza	2
tetzilo	2
▁nonpehua	2
▁Couatepe	2
▁chicuhnauh	2
sse	2
amian	2
ititi	2
▁quiualto	2
▁quitlatol	2
▁colol	2
nechicos	2
▁monahuati	2
▁quinyecana	2
▁Secretaría	2
▁tlahtolp	2
▁kikaj	2
taxkal	2
kelpachoua	2
nmahmauhti	2
▁yole	2
mauhcamicti	2
▁quiquixtilizque	2
monečiko	2
▁xihuit	2
▁Quinnotz	2
uitil	2
▁ximaqui	2
▁iteupan	2
▁momomo	2
▁hualchichiuhtia	2
teocuitlapan	2
▁epíst	2
quimacicaytta	2
▁quiyec	2
zcuecuex	2
▁sacra	2
▁omoteilhuit	2
▁quichtec	2
▁nonemi	2
▁omicuania	2
▁ticaquiti	2
▁toconi	2
▁oquicaqui	2
mocuili	2
iciu	2
▁Tlacu	2
▁Coatonal	2
oce	2
▁hualloli	2
▁neua	2
▁copaltemal	2
monamiqui	2
▁Auitzo	2
▁Icompa	2
▁tlahmac	2
▁onen	2
amechhuica	2
▁tlamauhti	2
okowi	2
wkun	2
▁ytenpan	2
cenhuica	2
▁imahuiztla	2
▁quimopohuil	2
mate	2
▁tequannahual	2
panoque	2
tzintitla	2
▁yectlacual	2
▁ohuetzi	2
tlalliaya	2
▁tlatic	2
nechmomachiotili	2
▁notec	2
▁onitlanamac	2
▁arnm	2
▁quicahuaz	2
▁Apóstol	2
zontima	2
▁tlamaco	2
▁antetecui	2
▁ump	2
▁Caxtiltlahtoca	2
id	2
▁itzine	2
▁anene	2
uejueyi	2
ók	2
agu	2
ntlaxillacalti	2
▁oticho	2
mocauhque	2
▁otiquinm	2
▁otiquinca	2
▁maquiztin	2
catihui	2
▁tlaocox	2
▁intlaçotlat	2
quetztia	2
tlalili	2
▁pilcatia	2
mix	2
ixmachilia	2
▁masa	2
ciuatl	2
▁Epcouat	2
llama	2
▁Cuitlachco	2
▁moxinacho	2
▁apachihuil	2
▁tlamalo	2
poliviz	2
▁cuavivitl	2
yeyi	2
lototon	2
kwakwalto	2
mamatac	2
▁ticnequia	2
mellahuaca	2
quauhtlalli	2
chiyelli	2
euhca	2
esti	2
▁čičikawak	2
▁tekitis	2
▁oanqui	2
▁tziz	2
moncalaqui	2
tzatzac	2
uerta	2
▁otlapi	2
▁Fu	2
▁Villag	2
▁tziquitzi	2
tlahtolcuepa	2
▁Galile	2
▁ingleses	2
nglater	2
▁otlamamauhti	2
▁comgre	2
nande	2
centecpant	2
pupuč	2
▁kompadr	2
quiah	2
konteneroaya	2
▁kinwal	2
▁kimakake	2
▁Serra	2
▁ikechselo	2
▁teotlah	2
▁yomo	2
uepa	2
▁yoahcic	2
▁momah	2
quetzte	2
▁momanepano	2
▁quipe	2
neneuhcahui	2
▁mochicahuacama	2
piloa	2
mimilo	2
▁quiquen	2
▁And	2
onio	2
guel	2
tewa	2
kwika	2
▁nicuell	2
▁suldados	2
▁cart	2
momachtizque	2
rim	2
▁ór	2
▁ycon	2
cuaatequi	2
▁ontzonxi	2
▁matlacpohualxi	2
uatzi	2
▁quitzotzo	2
pitzticac	2
▁canaz	2
▁Yntlatol	2
▁aistero	2
momahmana	2
teotica	2
▁micti	2
▁cualnez	2
ecia	2
▁tlahchi	2
nequimilol	2
chiuhqueh	2
▁conana	2
▁xocpal	2
▁Laz	2
▁Red	2
▁monamictzin	2
lpetlac	2
▁quichihu	2
llani	2
▁quinpinauhti	2
▁tetlatlacol	2
ór	2
bito	2
▁Tlilli	2
OT	2
▁xiquito	2
▁solda	2
motlahpalhui	2
techmopil	2
▁ohuapachi	2
amechititiz	2
▁arco	2
tetlaneuhti	2
▁nipolij	2
▁atlajt	2
caquican	2
▁tequihuaque	2
▁estudi	2
▁xquinezcayotili	2
▁monemitiz	2
▁buen	2
▁ytlaquetzal	2
▁Uizilopoch	2
LNANACATL	2
▁Concep	2
▁quinmottiti	2
▁quimelau	2
▁yajto	2
▁Almo	2
limp	2
icayo	2
▁TEQUIMAQUI	2
xtlatic	2
▁Couacal	2
▁quimictizque	2
▁omotlalo	2
xaxamani	2
▁Calpan	2
▁moya	2
omiquilli	2
▁tlatlaman	2
nmocuaatequilli	2
LHU	2
AH	2
▁yemi	2
▁nimitsuikas	2
▁nimantsi	2
leo	2
▁tole	2
▁Ahuel	2
moloni	2
▁tlatequipanolo	2
ehuatiquetzaya	2
quechtli	2
tlatouani	2
▁nocalpati	2
nimas	2
chiya	2
NON	2
▁AMO	2
▁mantlazohtla	2
▁yyollo	2
omotlanamaquilli	2
uñ	2
ngel	2
▁amoxtlacuillo	2
▁kikixti	2
▁quixe	2
ore	2
▁semzon	2
▁mocuicui	2
▁Xiccaquica	2
▁nemach	2
▁xicana	2
cinko	2
▁otlayahua	2
▁ymomexti	2
lquahuitl	2
▁cou	2
culhuaca	2
axe	2
ipanok	2
▁ahual	2
▁decis	2
ete	2
▁Nihuinti	2
▁nichoc	2
▁nimayana	2
▁neloh	2
▁tzoyonp	2
otenextillitzino	2
▁Maçur	2
▁moseui	2
▁tlalitztiayan	2
teopixqu	2
lapapatiliz	2
tzompilahui	2
▁xiuhtlapohual	2
tzacu	2
▁tlacuechahua	2
▁onitle	2
hta	2
▁mehuitihtaya	2
tlauhti	2
▁niquitzt	2
▁tlatsilini	2
▁iva	2
▁pola	2
calzon	2
▁tecah	2
▁omocalaquia	2
▁omitalhui	2
hualtoquilli	2
▁nimitzonma	2
cuiyo	2
▁xicmo	2
tlalitia	2
cehuallo	2
▁imecauh	2
▁chita	2
▁quahui	2
anquihiyoui	2
▁amocpac	2
▁elotamal	2
▁imaco	2
▁CHI	2
KIN	2
TE	2
NANAKAT	2
▁Motzoyo	2
▁mamo	2
jkontsi	2
▁kajka	2
▁tase	2
axan	2
▁kimaj	2
▁kijki	2
uas	2
▁huitzilopoch	2
▁ochicahua	2
▁mahui	2
chicahua	2
▁quilnamict	2
▁tenonotzalizt	2
▁itzcoa	2
mohtlatoquil	2
▁malacachtepe	2
ajch	2
oltik	2
▁nechon	2
▁nitlananquili	2
▁tlauhtil	2
ntlatlachia	2
▁tenemac	2
▁hualmoquetzino	2
mimin	2
xpantiz	2
▁nechquechili	2
hiliz	2
ikon	2
segir	2
erafi	2
mochihuilli	2
tocontlalmaca	2
▁otlalmace	2
tzalla	2
▁xitlaoco	2
ef	2
▁quimotocti	2
▁mopapatla	2
▁dieci	2
▁Tepiltz	2
otzomatzin	2
▁asienda	2
▁riko	2
huillana	2
▁uallicatia	2
▁ciyot	2
▁Ahuiyen	2
welili	2
▁niez	2
itlamahuizoz	2
tsalan	2
▁ocahuatemo	2
yoltequipacholli	2
▁chicaua	2
▁imama	2
uali	2
▁mocnomat	2
mohuenti	2
▁tetzacuall	2
▁otetzacua	2
nacazitzti	2
▁yxtoma	2
▁ontlayahuallo	2
▁motlatzontequil	2
▁oquimohue	2
lcaquiti	2
uical	2
uitzilopoch	2
▁motemoa	2
▁tetlatemoli	2
▁tetlatlanil	2
teuh	2
pilol	2
quistili	2
▁yyaca	2
▁caltza	2
▁tequimaco	2
lement	2
▁milacatzoa	2
▁quimoquechilli	2
▁quauhtlapech	2
motecpantzino	2
hualmonapalhui	2
popochhuil	2
▁teyolmelauaz	2
moquetzaz	2
▁tiquimon	2
cauhtiaz	2
▁Ypalnemohuani	2
▁nicah	2
temoliti	2
▁motlaecoltia	2
▁ineteochi	2
▁quihualmot	2
▁tehhuan	2
▁Tlatzotzonizcat	2
xcuecuetzi	2
familiar	2
iyal	2
▁citin	2
▁tetlahtocatlal	2
kuakopa	2
▁uitznauaca	2
tecoya	2
etoquilli	2
▁Nitlayocoya	2
kol	2
▁chikom	2
neski	2
▁omocuepa	2
▁cacatl	2
▁ontlatocamaca	2
▁quimoncauh	2
▁motonal	2
huatza	2
▁nemizqueh	2
▁quitlacatilli	2
▁gobe	2
▁cala	2
▁ixtil	2
▁quinteu	2
mictiaya	2
▁Quimona	2
▁Xoya	2
▁quimixtlamachti	2
▁teopixcatizqu	2
▁intlatecpan	2
▁otlatlani	2
▁onahuat	2
▁oquixmat	2
uña	2
chichihualo	2
▁huelipan	2
▁cuicapihqueh	2
▁kinw	2
ihkwaw	2
▁conmomaquil	2
▁nauhcam	2
▁teocuitlax	2
ilotl	2
cozcati	2
tlaneltocato	2
▁quinmahuiço	2
▁kiuik	2
pejki	2
▁itsonteko	2
▁moxiujyoti	2
▁tani	2
▁ueuejti	2
▁quincui	2
▁quicuicuili	2
▁Texa	2
▁Ari	2
cone	2
▁Oquichi	2
▁ypetici	2
mauhcaytt	2
▁mocohuili	2
▁tlachiqu	2
▁oquinquitzqu	2
▁opaqui	2
▁oninomiquil	2
htocan	2
▁ahuatzapotl	2
bel	2
lota	2
▁caf	2
▁ocual	2
▁Bar	2
▁quitlaauil	2
quixtiliz	2
▁Teocal	2
equiliztli	2
▁Port	2
▁Tecol	2
tlatlepanitalis	2
▁quauhte	2
▁quauhquixti	2
▁quinmote	2
▁itzinpeuhcayo	2
▁inyel	2
▁nihšiyu	2
▁momicca	2
lcaua	2
▁pimienta	2
▁manxitlazohtla	2
▁Matlatzinca	2
▁siawi	2
tlateochihualti	2
▁predicador	2
ipox	2
▁quitquitica	2
▁ixma	2
▁oquinmilhui	2
▁xiquicta	2
▁amehuanti	2
▁tzitziquitzi	2
hilacach	2
AMO	2
HTLI	2
NOH	2
▁momacazque	2
▁diabl	2
skal	2
ayun	2
▁nelpa	2
yauchiua	2
▁Tecuantepec	2
▁Cuah	2
pach	2
altiloya	2
ohuah	2
iaxca	2
tepetla	2
▁hualah	2
▁CHA	2
ILIZ	2
▁Yzhua	2
huehuet	2
osto	2
▁tiquimoni	2
▁Tecoco	2
icemaxca	2
▁Tiço	2
▁opohual	2
tlatecpampa	2
monemilizti	2
▁tlatecpan	2
▁timi	2
▁cahuahcal	2
▁incochian	2
▁moquetzacan	2
▁tlacamacho	2
▁ayah	2
auilo	2
▁Chiconquiau	2
▁imay	2
▁sejse	2
macaca	2
▁onichantia	2
▁otlamimihti	2
▁tlachichi	2
▁quichie	2
▁tlachi	2
tlananquiliz	2
popozo	2
uauhtli	2
▁Ycon	2
nchiuh	2
▁temalaca	2
▁Tiçuntzicantzi	2
prend	2
▁yewa	2
▁tlakwawi	2
▁motekipacho	2
▁mocuecuetzo	2
▁quipopolo	2
toconi	2
ualtitlan	2
xitini	2
tlatza	2
trer	2
▁Nonamic	2
▁nicocht	2
quixo	2
▁nenanam	2
metzticate	2
tlamat	2
egas	2
▁crucifixo	2
▁tlayacan	2
▁Gén	2
▁quihuallihua	2
▁onictlalli	2
▁yotika	2
▁CeCo	2
▁uch	2
▁tocontocaz	2
▁tlayohuati	2
▁cacitimoman	2
▁oquimix	2
▁chololiztli	2
hicolti	2
▁Papalo	2
▁xochipa	2
scua	2
surrecci	2
▁iškič	2
ihtek	2
neh	2
▁tlasen	2
▁tlaixpan	2
▁quiixmatis	2
quechpano	2
▁quitoc	2
ualtepotztoccaya	2
ad	2
ellelti	2
▁quitlahuel	2
▁quineltoc	2
moztlacahuili	2
▁quimihtlanilili	2
uizque	2
caci	2
tepacholiz	2
▁hualcocolilo	2
▁tzaqual	2
cecuiz	2
mocualtiz	2
hualhuica	2
▁colex	2
▁api	2
▁axo	2
texa	2
inoma	2
▁mociyauh	2
▁moyecmati	2
▁teonca	2
iquizcalti	2
pehua	2
▁ylhui	2
conihto	2
tlaocul	2
maceoalti	2
oaca	2
ixtin	2
▁teohuamoxtl	2
▁motlay	2
▁otle	2
▁concahuiti	2
tlahuelmati	2
▁ximotlalli	2
▁onmic	2
▁omuchi	2
▁segon	2
tečse	2
▁Titemo	2
▁chicueteocal	2
▁tinechmihua	2
nottatzin	2
▁nim	2
▁tinechmo	2
cahuiliz	2
▁kimolonti	2
desayun	2
▁nomočač	2
škwal	2
panahuillo	2
hcatepec	2
▁itstoskí	2
▁quincuepil	2
omome	2
▁otlay	2
▁quinquixtiliz	2
tlahuic	2
▁Mimixco	2
icu	2
kitlak	2
▁resibiro	2
tlalmaseuhqu	2
▁Xaltepetl	2
matla	2
▁Quezaltepe	2
▁ocsequi	2
▁iquetlamant	2
huihuillan	2
▁Xoquahu	2
▁kašili	2
▁kim	2
▁quintlapalo	2
▁quixexelo	2
▁otipanoque	2
▁icuila	2
▁NEHUA	2
R	2
AZ	2
P	2
TOCA	2
OTLA	2
Z	2
D	2
▁MOMACHTIA	2
▁ON	2
CUA	2
ACA	2
ONTE	2
abo	2
gado	2
▁yç	2
▁hualcen	2
▁Hez	2
▁mopi	2
▁quimahuiço	2
moxicohua	2
▁onechnonotz	2
matiliz	2
▁quicnocau	2
▁tzopel	2
▁anentlaxi	2
▁hualmocen	2
tzauhcti	2
machiz	2
▁popuxt	2
▁valma	2
▁motonacay	2
▁momacah	2
mahuiztiliz	2
ottatzin	2
▁imi	2
▁moça	2
▁tzotzoyo	2
▁tzatzapalti	2
▁Kiman	2
mantok	2
nimechtenehuilli	2
tlalil	2
▁quimocemaxcatil	2
▁tonac	2
uizna	2
hcuepa	2
ueñ	2
▁Resurre	2
▁nikona	2
metztic	2
▁nehu	2
▁quiuall	2
acalcatl	2
▁Quauht	2
▁Ayoqu	2
▁nicalaquiz	2
▁novi	2
enevi	2
▁Yztacmixcohuatz	2
anilia	2
▁teuantik	2
▁mochiuj	2
▁ininchan	2
kauan	2
kilis	2
tajtani	2
▁manxitlanamaca	2
▁chanchiuhtica	2
▁maltepe	2
▁Kiuik	2
▁tlananquili	2
▁Oquihuica	2
▁kinex	2
itikoketsa	2
otencopa	2
▁Tzonmol	2
▁titononotzque	2
ahcoquixti	2
▁maquina	2
▁notlalcau	2
oltizque	2
▁tlachpanal	2
▁tletlaliliztli	2
tojtoka	2
▁contlacahualti	2
▁otlam	2
▁mapipitzo	2
elciciui	2
▁tlalcua	2
▁tonpa	2
▁motlapialia	2
▁ben	2
ficia	2
▁quihquiz	2
▁xitlazohtla	2
▁otiezquiaya	2
▁Cohuaxo	2
▁toy	2
▁quitocatlalihto	2
caltica	2
▁nocihuaicni	2
tlaaquil	2
▁Aoc	2
▁Ber	2
▁mocuecuepa	2
▁chichinaqui	2
▁techo	2
petzco	2
miequili	2
mochantlali	2
▁nenen	2
▁ycohua	2
▁Sur	2
▁Campech	2
ora	2
▁Tam	2
au	2
▁Yucat	2
▁kentregaro	2
tlaštlawia	2
tquihua	2
▁noquetzal	2
▁timayana	2
cuamanaz	2
▁Quiualhui	2
catia	2
▁Toçan	2
uchitl	2
▁ixtililoni	2
▁otlac	2
actia	2
ehuican	2
▁iax	2
▁ninohcuania	2
mitzmochihuili	2
ktij	2
kualanis	2
▁Nechtsotsomot	2
ečmol	2
▁tlachquiauhca	2
▁nanya	2
▁nahuaque	2
▁tzoca	2
sentilijtoke	2
okuili	2
▁chiktej	2
▁moijkuilo	2
▁Tsi	2
moteocaltica	2
▁oquitzacu	2
▁Yeca	2
▁otechtiti	2
▁moteuicalti	2
▁Missa	2
▁ueuechiua	2
konihta	2
wiw	2
epohualxiuhti	2
▁iki	2
laka	2
▁cahcocui	2
▁imetl	2
kiijtouaj	2
▁oquilca	2
▁inehto	2
▁quimochi	2
▁tlamacehual	2
mononochili	2
tzonquixtilli	2
▁quinamacazquia	2
emolco	2
hcue	2
ipiltoton	2
quihualtzauhc	2
aciones	2
moxelhuia	2
▁tlacatecolo	2
▁Oticpiaya	2
▁axcatillo	2
▁omohuetzi	2
telhuili	2
▁tlananquiliz	2
▁coyouaca	2
▁quipix	2
▁Eua	2
auat	2
▁quimocehuiliz	2
TLAHUA	2
▁oquinonotz	2
tzque	2
omotlancuaquetza	2
tetzavit	2
▁tivi	2
centeutl	2
▁otitotlal	2
icamapo	2
zhuahua	2
▁itlatoca	2
çolco	2
icpolo	2
axiliz	2
enoj	2
▁iixik	2
▁tlapancalo	2
konoa	2
▁mazayelnanacatl	2
▁aguaceros	2
anakamej	2
▁nictla	2
▁tlatzacua	2
uwi	2
importar	2
ayye	2
▁Ypalnemo	2
▁omalti	2
▁nikanka	2
▁teohuateuhcti	2
▁toconmati	2
▁ciuaua	2
▁moteyacanil	2
▁axkaneli	2
ualcallaqui	2
▁Chicomaca	2
▁motlaçulteuui	2
▁Cahuetz	2
▁Choquiz	2
▁xiquimolhuili	2
▁tlacayotl	2
huati	2
▁tequihu	2
▁nu	2
iquincemaxca	2
▁quiyolloti	2
▁apachiohuac	2
nanamiqui	2
▁hehecat	2
iruela	2
▁Islas	2
motecac	2
▁techicalli	2
▁nequamet	2
papac	2
▁xiquitaca	2
▁quiyacati	2
ynnemac	2
xtillilo	2
cxoyatzin	2
▁xaya	2
▁tehuic	2
▁teyac	2
▁tahyohui	2
▁totom	2
çolli	2
tlaquauhtzotzona	2
▁nop	2
ixpetlahual	2
▁tiuhqui	2
tezcatl	2
cueponaltil	2
▁izquin	2
ikpak	2
maquixtiz	2
▁Xali	2
ilh	2
▁princip	2
▁tlalhuactli	2
▁quincentlalli	2
▁techyahualloti	2
▁namechmac	2
▁xiquimilhui	2
alolti	2
▁Kil	2
▁Tamp	2
Y	2
ONANAKAT	2
▁MI	2
▁NANAKAT	2
▁tlacatec	2
uhçi	2
▁inhuehue	2
▁Ing	2
alat	2
▁Balb	2
lpitia	2
▁Acatlyacapa	2
▁quintlaocol	2
oixpolo	2
tinechmomaquili	2
mahcehui	2
▁quinmacac	2
▁Pr	2
viern	2
▁Aço	2
aocmo	2
timitznochili	2
yot	2
▁yomic	2
močiwa	2
▁cemil	2
ahuiayac	2
▁oquimoquixtili	2
▁omaqui	2
▁Inoyuho	2
▁tetecu	2
hualmotitlani	2
▁yehuehca	2
▁ticui	2
▁moxhuih	2
▁teuhyo	2
▁quitzohui	2
kauak	2
▁quicha	2
azareno	2
hitic	2
▁toyalhuayo	2
▁tlaceman	2
▁nechpalehui	2
icteihtiti	2
▁tetlatlauhti	2
▁nennemi	2
egun	2
▁Noco	2
▁quitlacahualtia	2
▁Yoya	2
quiçaz	2
▁quixto	2
pal	2
tlatemoliz	2
ahcihcamat	2
▁ceman	2
atlanih	2
▁Tal	2
▁Ylama	2
▁Nexpa	2
echinan	2
▁moyaotlaya	2
▁Motecu	2
mozohuahti	2
▁quimitt	2
▁Kichiu	2
▁rayo	2
camamani	2
itlani	2
quitolinizque	2
▁Pastor	2
▁tlatzacu	2
▁mopialia	2
tehpouhalo	2
zencauh	2
▁Santiagome	2
▁cuatlacecahui	2
ristianos	2
tanos	2
▁machete	2
▁Xiquita	2
▁quitza	2
poalxiuhti	2
elpuch	2
izcall	2
imma	2
mozcalti	2
▁tihualquiza	2
▁timotlaz	2
▁quentel	2
ipapatlantinemi	2
▁kikechko	2
▁omotlacali	2
▁yepazo	2
bones	2
▁imorral	2
imacehualti	2
▁tonmi	2
xochimac	2
tonalpohual	2
▁Cuauht	2
▁yteopancal	2
chie	2
▁chalchiuhti	2
▁onameč	2
▁oč	2
▁Teuhtleua	2
Tenuch	2
▁itauhca	2
▁otlapo	2
▁tlaxcalo	2
▁niconiz	2
▁chichihualayotl	2
▁notza	2
htzinoa	2
▁oquimonpeuh	2
▁huicontica	2
nenepaniuhtica	2
▁Tiquimona	2
acini	2
▁iyaxca	2
▁ymanca	2
▁hualqu	2
auhtlahtotia	2
▁kitis	2
▁timitzon	2
▁macuiltonal	2
▁tlilpotonque	2
čiton	2
ctique	2
▁oquitlani	2
▁oquinm	2
ichtequi	2
▁Otlanono	2
tzaloya	2
ixpolihui	2
cuitlahuia	2
▁huixto	2
▁quihualmanilli	2
zal	2
▁Tecuh	2
▁timokoko	2
quitiaz	2
▁ualo	2
▁totiximati	2
huicalti	2
hahuan	2
tetlaçotla	2
mot	2
▁kues	2
mayana	2
tijka	2
▁nomeros	2
oxhuihua	2
quisa	2
chiz	2
▁Juo	2
▁Ycquixochit	2
ilanal	2
▁estado	2
▁dist	2
rito	2
▁vera	2
ecuy	2
▁castillam	2
▁nocha	2
▁teopixcazi	2
zintin	2
▁tequatequia	2
▁Nixochite	2
▁moyollali	2
▁zantle	2
▁quinechicohua	2
▁nane	2
milagroso	2
▁akak	2
ikí	2
▁tlayol	2
mara	2
▁ytlacotia	2
▁callactihuetz	2
ehuili	2
topeuh	2
ayacac	2
▁xicmaca	2
▁tlexi	2
exic	2
▁tepatla	2
nocniuh	2
▁mocah	2
▁coyo	2
▁niyol	2
▁kitokili	2
okichpil	2
▁tepillo	2
tequitizque	2
▁titequi	2
nahuatih	2
tlecco	2
ictehtequi	2
▁ticyollo	2
euhaz	2
▁cos	2
ógra	2
▁otemachti	2
▁miauat	2
itok	2
▁tlapanaui	2
▁oquintlali	2
▁teteoc	2
▁oquinpacho	2
▁nomica	2
ANCA	2
▁PUCH	2
▁Oticpix	2
xkal	2
▁Techich	2
otonalhuac	2
▁moquixtitiquiz	2
V	2
▁bianco	2
itznotlahcuilhui	2
▁tocafen	2
icmotenehuili	2
▁oniquiht	2
▁yauij	2
▁cihuateupix	2
quimopehualtilli	2
hualtiaya	2
quezquilhui	2
▁kapol	2
oliva	2
▁napohualxiuhti	2
cuitlahui	2
▁Tocen	2
▁xicuica	2
amechaniliz	2
▁tictoqu	2
▁mekoj	2
caltempa	2
▁temitok	2
uchco	2
▁quimomachitoca	2
quimotlatquitoca	2
▁quiteilhuia	2
▁ontlatoca	2
▁tlau	2
▁omocati	2
cemmelahuaz	2
▁nikilpis	2
▁nijmachili	2
▁mocetoch	2
▁tetzcuc	2
▁moyaotla	2
▁Quih	2
natzin	2
▁chicuhnauhteca	2
▁quauhtitlancal	2
itiquiz	2
▁oquintzacua	2
▁Quinanquil	2
quaquamiminallo	2
▁curr	2
opohuilli	2
▁ohti	2
▁ciauh	2
tikwa	2
▁Oanquipi	2
▁otlahtocat	2
▁kikalaki	2
▁tlamahuizal	2
tiquinpopolo	2
lalia	2
▁xochit	2
liuhque	2
quihuallehualti	2
titlanili	2
xhuihua	2
▁oquincalaqu	2
▁kipolo	2
▁monamikti	2
▁telle	2
▁xonahui	2
▁quitlatlauhtili	2
▁motenext	2
▁Moqu	2
etzalizquixochi	2
moyaua	2
▁tehten	2
▁Tlalte	2
quitentia	2
ixtelolo	2
tetlajpalo	2
▁Em	2
▁omotemachtili	2
neses	2
▁cualhuica	2
▁cenquix	2
culia	2
▁kuoujte	2
▁motlatzquilihto	2
▁tequichihua	2
▁Iesu	2
▁tlatzmolin	2
▁tlaxil	2
ilhuiz	2
mihtalhui	2
▁tinan	2
▁tita	2
▁quetzalte	2
▁niespíritu	2
polliuiz	2
▁mokicki	2
▁imicni	2
▁teoit	2
tlacuaya	2
ollantzinc	2
▁kičiwilis	2
▁tlahue	2
▁tzopelca	2
ticchi	2
▁ocelilo	2
▁iyectenehual	2
▁timotlati	2
nitlacua	2
▁Español	2
▁anmopi	2
▁quipoloz	2
▁techmopalehuili	2
▁Serv	2
▁popolihuiz	2
▁tlateca	2
tlauhtiz	2
▁oconcau	2
auatl	2
▁tihneki	2
ristiano	2
▁XO	2
▁motepachilhui	2
▁Gua	2
▁oconpehualti	2
▁italhuil	2
quinamacaz	2
cax	2
cahuayo	2
apalehuil	2
▁atoli	2
▁namotat	2
▁cuecuetzo	2
nahuilti	2
▁yopanoque	2
▁tenemachti	2
▁yahual	2
ximacho	2
tlahtlacol	2
▁mocalcohui	2
nenenemilti	2
ontequizt	2
imani	2
▁Macuilxochit	2
▁ISTAK	2
▁nihkwa	2
lihta	2
▁tenamitl	2
lwia	2
tepetli	2
▁omopapanolti	2
▁icnotzitzin	2
tlacua	2
▁cahuayoh	2
chololti	2
mooraciones	2
igas	2
ardena	2
▁techiahuaca	2
▁hualtem	2
lilih	2
quitehtequi	2
conmocuili	2
▁Cuauhpo	2
entlamati	2
▁teyacantia	2
kiaj	2
mošiša	2
huelcaquili	2
nko	2
▁quinoma	2
▁tenan	2
▁tatlakwi	2
▁tikon	2
quimol	2
tlacamecayohua	2
▁mop	2
▁fe	2
quinpan	2
cuiz	2
otiz	2
▁quimotenehui	2
tlatocamacac	2
mote	2
tlacuilhui	2
▁quinmomacahuili	2
nencatzitzinti	2
itz	2
▁oquihualma	2
ixtili	2
ictemaca	2
▁titetlayelitta	2
▁Rus	2
▁Cons	2
uelo	2
laçolyao	2
▁quiualnauati	2
▁tlatzca	2
conetl	2
ztic	2
nçaçalo	2
▁quintehtequil	2
▁xitlacaquica	2
zazaz	2
qualhuicaca	2
▁yoloxochi	2
▁Ocotepe	2
tzaccayo	2
tlamanquiztica	2
acicamachi	2
▁tlahtocatilma	2
▁onquizto	2
▁nocn	2
▁noconcau	2
loltiliz	2
▁sokiayotl	2
▁Oniqui	2
▁Onechtla	2
cehuiti	2
tlatlahco	2
▁pexo	2
tlauh	2
▁oquiça	2
▁notelpuch	2
onmotlachialti	2
▁mitzonmonemi	2
ltilia	2
▁tocomman	2
quitzi	2
▁omohuelitil	2
▁otical	2
▁cuahcua	2
▁pipio	2
▁nueb	2
šilo	2
isio	2
▁mopajuia	2
▁ven	2
▁Quahelot	2
▁kek	2
nepilhua	2
▁tlamalin	2
▁motalilia	2
▁tlazul	2
▁ticahuilquixt	2
▁quinpepetlau	2
▁quinxel	2
▁Kist	2
ziuhcohuac	2
▁ayohhuach	2
▁tepach	2
ecuhtli	2
caltenpa	2
▁ycniuh	2
▁motlaço	2
▁quimotemaquilli	2
mpo	2
ocaquiztilili	2
quitzaqua	2
borr	2
tequipachoz	2
▁nitlača	2
tlačal	2
oaltica	2
▁Toltecaacal	2
tlatepeualti	2
▁nauhpohualxi	2
▁theop	2
huelicam	2
▁hualne	2
▁huil	2
jtsel	2
favor	2
▁titlananquili	2
▁Tocoltzi	2
quintlacazcaltil	2
▁quintlacahua	2
▁piltzintzin	2
▁nihmana	2
alten	2
▁incaltenpa	2
▁oquitlaocul	2
uhctzin	2
▁XOCHI	2
mamauhtia	2
▁štoka	2
totlapalhui	2
▁latintla	2
amapohua	2
▁Cuauhxical	2
▁quizto	2
tlaxikouaj	2
capan	2
▁chiconxiuh	2
▁tictequipano	2
▁titepehua	2
▁tiquinpehua	2
▁yomoht	2
momelauhta	2
▁tetza	2
▁pantal	2
▁tinechi	2
▁talmanic	2
▁axcual	2
eltoc	2
▁quipano	2
▁cihuateopixca	2
▁machiyoti	2
▁yolehua	2
▁quicuitlalpi	2
▁hualilpit	2
▁ciento	2
motlaneltilili	2
ernand	2
▁potoxt	2
▁oquixnamic	2
yya	2
xoquiuh	2
▁tlapohualiztl	2
▁sik	2
▁tlacuepa	2
▁tecpanto	2
▁xop	2
▁xiual	2
mococohtzino	2
▁amocxi	2
uilican	2
▁xitlamati	2
▁xoconcui	2
▁homp	2
moteoti	2
imitztazohcamati	2
enquiz	2
▁quimixcahui	2
conmacac	2
▁quicalti	2
caltique	2
cti	2
▁tlacuillohua	2
ihuitlatzti	2
cuauhtic	2
▁ximeuakaya	2
▁mane	2
▁mits	2
▁quinnacaz	2
▁Xixi	2
▁Noih	2
▁pepenalo	2
▁Rat	2
tlahtocateopixca	2
▁omonemiti	2
titili	2
▁tiquiixmatizqu	2
▁ocuica	2
tlatecon	2
techmolhuili	2
▁Xihuala	2
ihtlacahui	2
▁xeliui	2
▁chiki	2
ayocmo	2
▁tlatocatla	2
▁mocuitlalpia	2
▁cuetlaxtl	2
▁oquitemo	2
▁pozoni	2
▁atlapozon	2
▁conehui	2
▁tlacuazque	2
▁omopo	2
▁çihuapill	2
▁tlatlalchipahua	2
▁Acue	2
tlauhco	2
▁Calimaya	2
▁Tzinacantepe	2
▁Cuezcomatl	2
uilizapan	2
▁Tetz	2
▁tzaocti	2
▁ayaxca	2
ayu	2
▁tlatvi	2
▁xalli	2
▁chiuhpetlacal	2
▁quitopeu	2
▁Onicpi	2
tlaueliloca	2
▁quinencu	2
xihua	2
hmelahua	2
mechmotlahpalhui	2
xoxom	2
liuis	2
ahuiztli	2
otlayecchichihu	2
▁oquimac	2
ichtaca	2
▁yollica	2
came	2
▁oquintlaqueh	2
▁metztequit	2
quintlaxtlahui	2
mauizzot	2
▁imah	2
▁nictlapi	2
antihui	2
▁quinhuallali	2
lnamicoca	2
cahuitl	2
▁Oquimp	2
motetlacolili	2
▁Quauhximalpa	2
tequihti	2
quitequixtili	2
▁monemiti	2
TIK	2
▁ET	2
▁Chiapan	2
quani	2
youal	2
▁xinemi	2
▁amatlamatqu	2
▁xicmocaquitica	2
▁Alva	2
tictocayoti	2
anyan	2
▁titequitiz	2
▁omotlananquili	2
▁quinmohtili	2
nemiliaya	2
▁quinpanahui	2
quinpanahui	2
xixiquipil	2
▁Anquimit	2
▁Nava	2
▁ilhuicahua	2
lahuia	2
tlapololtia	2
ltitihui	2
▁titlal	2
▁Athe	2
▁Tiya	2
▁oumomiquil	2
xochitzi	2
xuiuh	2
▁tlehuaqui	2
▁huehcahui	2
▁tlayaualo	2
▁šteč	2
dado	2
▁Pav	2
▁conacopaytta	2
piallo	2
▁tlaquaz	2
altoton	2
▁ocehuetz	2
▁otlatzi	2
chialo	2
▁itleyo	2
tzé	2
▁quixnamic	2
▁coyolchilli	2
▁motac	2
▁inete	2
▁caquiz	2
copinal	2
▁matlan	2
▁kichiu	2
ré	2
▁kiualtit	2
tamento	2
opolo	2
gí	2
▁yotimo	2
▁motlamiya	2
tepeuhtoc	2
▁kipantaliIia	2
maniliz	2
quimocelili	2
▁tamechtahtanili	2
▁moparka	2
kseki	2
▁motlayecolti	2
▁kitexima	2
tlacacitimani	2
ikotona	2
▁Yejua	2
yehualo	2
acique	2
▁oquimizt	2
yomiyo	2
zacuili	2
oyo	2
onique	2
▁niquinpia	2
iluia	2
çaç	2
cuicho	2
▁isoldado	2
concouh	2
▁Temilo	2
▁panhuetzque	2
tenquixti	2
▁motzicoaya	2
AMA	2
popoca	2
cuicuit	2
▁Tlacateco	2
▁Amantla	2
motilquetz	2
▁tzinquiz	2
ahuilloc	2
▁quihualqu	2
▁chian	2
▁kaxi	2
yati	2
▁sobre	2
▁rego	2
▁salv	2
▁hallar	2
▁conoc	2
▁tlachichihual	2
▁tlatleycuil	2
▁quihualma	2
elpan	2
▁mocac	2
▁oquimoyocol	2
icmonochili	2
xtinemi	2
▁xicmochihuili	2
▁cuahnect	2
▁xiccui	2
oani	2
iyaj	2
▁moteonequi	2
▁monahualmati	2
puerta	2
tlanahuatiltica	2
▁yxcua	2
mocallaqui	2
▁tlanaliuht	2
▁yatia	2
▁tepoztlahui	2
▁tamayahui	2
▁quihuallalli	2
quitquilitiu	2
tlahtolcaqui	2
▁mitzchi	2
tlaxtlahuiz	2
iammiquiliz	2
onchixt	2
oaltzin	2
▁hor	2
mili	2
▁Yaocivatzin	2
kon	2
▁awk	2
▁nitew	2
▁quinoz	2
momotla	2
quinhualtitlanqu	2
huiteque	2
locatzin	2
▁toneixca	2
▁niquinno	2
▁ynetlecahuili	2
oconmamanaca	2
▁milchiua	2
▁quintlamachi	2
akun	2
▁temahuiz	2
▁xonokuo	2
palak	2
▁ontlayec	2
▁cihuacuacue	2
elik	2
▁tlaehec	2
▁Delgad	2
▁Nuñ	2
ecahuillot	2
mizahui	2
▁tocommocuili	2
▁mocamac	2
▁pilcati	2
petlatzin	2
lipe	2
lajki	2
▁quixpa	2
▁tlecuahuit	2
▁mixyayahual	2
▁meltecque	2
▁uetski	2
▁omochiuhtinen	2
▁oquimoneltili	2
▁Xtechtayocoli	2
▁onyezquiayah	2
yahuilti	2
▁onema	2
echteca	2
▁quinmotocayotil	2
▁inganin	2
▁Gonzal	2
▁telpup	2
kauili	2
▁motelchi	2
nezque	2
▁quimonauatilli	2
▁tlanama	2
etay	2
▁yekin	2
areglaro	2
▁tzonhuaz	2
▁itey	2
▁itequ	2
▁tecue	2
▁chacal	2
▁cuetzpal	2
yeyecalhui	2
cuilolli	2
bert	2
▁janu	2
▁Xuchi	2
▁tlamachio	2
ció	2
tepeuhtitlali	2
zotilma	2
▁otlatamachiuh	2
▁Yoa	2
▁moteuh	2
ilpitoc	2
tzauhc	2
▁ayauhcoçamal	2
tepalehuic	2
▁ytem	2
▁macehuall	2
▁carmelita	2
▁descalça	2
cenyo	2
enemitiaya	2
▁tau	2
▁pahtilil	2
▁reglar	2
idores	2
▁kech	2
▁quiquinaca	2
atzony	2
▁timotlac	2
cahque	2
▁oquinchololti	2
▁NONOTZALIZTLI	2
▁Kichijk	2
mopopolihuitiz	2
mopilo	2
ocelutl	2
▁kinejk	2
▁inyolloco	2
chtotonti	2
▁qujn	2
tlamacaz	2
▁chicuase	2
aquill	2
▁tont	2
▁huallato	2
huitzitzil	2
quimilhuia	2
▁toquich	2
▁nameh	2
▁Temachtil	2
▁Auitzontzin	2
▁hiei	2
htiaya	2
icue	2
▁Citlallat	2
▁ontzatzi	2
▁ichkat	2
empan	2
▁ymix	2
▁Achtotipa	2
▁mocahuayo	2
neci	2
▁capol	2
▁tlatoc	2
maxitiz	2
▁quiytztinen	2
toçozt	2
tlayxiptlayot	2
mexicatl	2
▁tlamatque	2
▁quintepehua	2
mohuani	2
hyocoya	2
chialoya	2
omotlananamiquil	2
tecpanchan	2
▁quitlaqual	2
▁yohuehue	2
▁quimahuiçoti	2
▁tonalhua	2
▁oquihuallan	2
peua	2
▁ouay	2
▁concallaqui	2
▁poerta	2
chca	2
▁ontemo	2
tecpac	2
▁Nichoca	2
▁tonahui	2
▁cent	2
▁oylhuilo	2
alhuian	2
▁tlatoqueh	2
▁axcahoa	2
hualmocueptzino	2
▁ytlacatiliz	2
elto	2
walantewa	2
ikini	2
▁xihpa	2
TI	2
poderoso	2
▁nimitzaxcati	2
▁tetlac	2
▁Ocpa	2
mocniuh	2
▁lpalnemohua	2
▁timitztemo	2
chichihua	2
▁concua	2
neapanal	2
▁Ima	2
htlacan	2
chaneque	2
mira	2
▁axkiajsi	2
▁motlachiel	2
▁icacall	2
▁ticmacazque	2
▁quititiz	2
calla	2
▁cuitlatepolli	2
▁necuepalo	2
▁yoquix	2
▁Quix	2
▁atekomitl	2
pepechtzin	2
cochque	2
▁ticelia	2
tzmolini	2
▁TAL	2
XOXO	2
▁XAL	2
K	2
▁tequiuhtilo	2
▁ixilla	2
▁titenantsi	2
▁onicnolhuili	2
▁ticmihtlani	2
moneltoc	2
ualnohuicquilili	2
itlachia	2
▁nicuicani	2
▁cléri	2
▁hualmotlah	2
ompopoliuh	2
tleyo	2
▁tlanonotzalo	2
ometztequiti	2
▁tamachti	2
▁tiezquia	2
▁quipo	2
▁Tequantepe	2
▁mopohuaz	2
▁notzaloz	2
tlatoltia	2
Tla	2
poyoncuica	2
izcatl	2
momayanalti	2
ixpantili	2
ehuazque	2
machiltiz	2
quimetzhuitec	2
▁nom	2
▁trae	2
▁tameua	2
▁tentlapi	2
čiwas	2
ITLA	2
XCO	2
TON	2
TEM	2
▁mopočina	2
icopal	2
uesalteka	2
peka	2
▁Xaltil	2
▁Cemacachiqui	2
▁Poya	2
▁icmatlactlo	2
▁oehanti	2
titlananquili	2
▁omitzchi	2
chihualti	2
▁noconn	2
▁Ixtlahua	2
▁intepallehuilli	2
▁titekiti	2
▁nictop	2
tlayectenehual	2
petani	2
▁xiti	2
▁Tecuichpu	2
▁quiquixtia	2
cocoxca	2
▁mokuetlani	2
monahnahuati	2
▁mixtecatl	2
▁Ycome	2
▁Tey	2
▁Tonall	2
arra	2
▁timotzotzona	2
machtilcal	2
kualtsi	2
▁chilar	2
▁quipepen	2
▁Kar	2
teutiz	2
▁oten	2
▁oquilcauhti	2
toquiliz	2
▁huitzitzilin	2
temoya	2
▁nimitztahtani	2
▁uentzi	2
▁ohtlica	2
▁namota	2
modesayun	2
awe	2
▁mački	2
▁ticma	2
tlahtocatlallit	2
zihuapil	2
quipiazquiah	2
tlapouh	2
▁quinyacanti	2
▁onechhuica	2
moquatequili	2
Martin	2
▁yhu	2
moquatequi	2
tlapouhti	2
▁quimopielili	2
hualmotlalili	2
▁neç	2
izquia	2
▁mopolihuilti	2
▁momets	2
▁Tlahtohuani	2
▁petl	2
tepotz	2
▁oconma	2
▁nokuñad	2
hilpitzahuac	2
nictecpan	2
tlachichihuiliz	2
▁onicte	2
tocac	2
▁techia	2
hcopecht	2
▁taceliya	2
▁ad	2
kimatis	2
▁sehca	2
▁tlacallaqui	2
izti	2
▁nemis	2
mopale	2
nemiliznehtolti	2
▁yoctacat	2
motlayancuilili	2
motlapahpatilli	2
ohti	2
▁tlahtohca	2
▁Vo	2
▁niš	2
kobrar	2
tu	2
kuwas	2
naran	2
guayaba	2
mandarina	2
titlamochya	2
ncahcahuazque	2
▁tohuen	2
▁candel	2
erotin	2
▁otechmozcaltili	2
▁ichp	2
▁kentsi	2
lehuiliztzin	2
▁techca	2
▁moxaxakualó	2
▁otimotla	2
geli	2
latol	2
cauaca	2
▁kokwi	2
ontequilia	2
lemañi	2
atza	2
▁necohui	2
▁Agur	2
▁kikonank	2
▁Kualtsi	2
▁tlatocamaca	2
▁hualtepehui	2
miquani	2
matitlan	2
tlayo	2
ldes	2
▁occam	2
▁opo	2
poliwk	2
▁oquicuaman	2
gua	2
nonelo	2
rimo	2
▁quimoyahua	2
empoual	2
▁wasi	2
▁yejyektsi	2
▁oquicuati	2
pox	2
▁gui	2
▁portal	2
▁yetinemi	2
▁exiuhtic	2
▁motlahtlat	2
▁conmac	2
tlatzonilpi	2
acicamatiz	2
šilia	2
▁ytlanauatilt	2
moquequetz	2
▁od	2
quiquani	2
▁omomiqui	2
▁totlaso	2
mahuis	2
▁Comsep	2
▁Tlalticpaque	2
▁soneu	2
▁cocolis	2
▁inmandamiento	2
▁poc	2
lanco	2
▁Pantlan	2
▁Xochtla	2
▁Amaxtla	2
▁Yauhtepe	2
hten	2
catepec	2
▁Teocuitla	2
▁Cueçal	2
▁Xolotla	2
▁Ui	2
▁tlacuepon	2
zouh	2
▁yacahui	2
dia	2
onicuilo	2
▁kieua	2
▁oceloti	2
▁niccentlami	2
▁yezquiah	2
▁teuit	2
▁Nest	2
▁Gal	2
▁cuacuauh	2
▁popocatepe	2
▁techmoma	2
▁tonalme	2
▁tlayocoyal	2
pupu	2
▁toncuetlahui	2
▁huellaz	2
empanahui	2
tonnameyot	2
▁pepetlac	2
▁itlanexyo	2
▁ayauhcozamalo	2
▁yonic	2
▁innetequipachol	2
▁netimalol	2
hualmonamiquilli	2
▁Toloca	2
tlauco	2
▁oçequi	2
▁uakt	2
mecan	2
▁tetlacualtia	2
▁mewa	2
pitsa	2
▁taçiti	2
▁onitlace	2
▁onicne	2
huetziti	2
▁comalo	2
tililo	2
▁isistat	2
▁koch	2
▁nimitzt	2
▁pohpo	2
▁Quipiaz	2
▁xiyot	2
IL	2
AKAY	2
▁Acamapi	2
quico	2
▁concauhtehua	2
▁serillo	2
▁moquichnene	2
onal	2
▁ber	2
antas	2
▁tinečendrogaro	2
kanaujk	2
▁kiixmatis	2
ualkui	2
lani	2
ahuaya	2
▁Miccacalcat	2
rosi	2
pit	2
overnador	2
▁techcahuillitia	2
▁kimapat	2
kilia	2
▁ahuacacua	2
quixtico	2
▁immohua	2
yolque	2
▁ochoca	2
▁otlaocox	2
▁mopampa	2
▁quincoco	2
▁tipanozque	2
▁quinoqui	2
▁mocacauhti	2
tenpan	2
tzitzicuehualton	2
▁Zaz	2
naoatili	2
ío	2
▁coneua	2
▁Moc	2
loapa	2
tlantiuitz	2
▁ohuehueti	2
mozeuhit	2
freseroti	2
▁Capoltitla	2
tlachilti	2
▁kiiluijke	2
▁quintequipacho	2
▁imix	2
▁imicniuh	2
▁melazti	2
▁tihualmo	2
▁tlahcotonal	2
xinech	2
mocencahuili	2
imochihuiliz	2
mihtilhui	2
tlamanahuili	2
▁tetlatzacuilti	2
ahuih	2
lifo	2
mechtahtanilihto	2
▁titlanamaca	2
▁oquinmamaca	2
ridad	2
▁quauhtincha	2
ntlaca	2
▁ope	2
▁Chicahuac	2
▁omocochit	2
▁tiquint	2
▁tiquetza	2
▁Yaui	2
▁otitotla	2
▁imono	2
▁cuicat	2
tlakuaka	2
▁omomanque	2
▁timotequipacho	2
tlaw	2
▁TENONOTZALL	2
▁timit	2
huexiuh	2
yolotli	2
mamatinemi	2
▁tlazoti	2
▁tlahtoaya	2
▁nentlamat	2
▁tlayhiyohui	2
▁tlauizcal	2
▁nikonana	2
xikose	2
▁otitlanamacaya	2
▁tlamia	2
mihtalhuit	2
▁mocenteca	2
tlahpaloqui	2
motlecuillan	2
▁quexquichca	2
lapaneca	2
▁mopilo	2
▁motlapaltili	2
▁Moquiuis	2
▁xiquinmoh	2
mouhti	2
▁italtqui	2
etlamachtil	2
▁anpopoli	2
atzitzinti	2
▁icoche	2
tlachia	2
▁tepozpitzqu	2
▁cotlatoctia	2
▁quauhxical	2
▁quinotz	2
▁iteuh	2
▁kipajti	2
papaquilti	2
tlachi	2
▁xitla	2
chiuas	2
pielo	2
▁tlacualizpa	2
▁concuili	2
▁ypilhua	2
▁quic	2
▁teochihualo	2
▁tzonpanqua	2
▁tequixquiçacatl	2
▁yequintzin	2
tečmantenero	2
▁tlaytlani	2
▁kuitlatsayantok	2
▁Acalcal	2
▁momallacacho	2
▁omocuecuep	2
mokaua	2
▁kipano	2
moneltoquitia	2
zinoa	2
▁axkin	2
▁opeh	2
▁otomite	2
▁zapoteca	2
▁oquiyol	2
▁asito	2
imitstlajtlanili	2
▁tlamamani	2
coyo	2
▁yztlacati	2
cipil	2
liuiz	2
▁monec	2
▁ahuiya	2
▁bentana	2
▁oyektok	2
▁mitstemoua	2
▁awel	2
▁titechpinauhti	2
▁vend	2
tsojtso	2
pek	2
maquilti	2
cacocui	2
quitquiz	2
▁icu	2
▁kiauil	2
tlatoz	2
pul	2
▁kimač	2
ochimilco	2
▁ohoala	2
▁quimotztili	2
▁xiquinpi	2
yectlalili	2
▁boli	2
machtihqueh	2
▁tolachno	2
▁tila	2
huicah	2
xcal	2
huicaznequi	2
quiquisti	2
▁oconqui	2
momiquiliz	2
motlamachititiuh	2
puchtecatl	2
▁Tiezquia	2
▁acica	2
▁tletlali	2
motlaehualhui	2
tlamelauh	2
▁tebpix	2
▁icalcohoal	2
tlantoca	2
▁provi	2
▁tequit	2
▁quiteyxpanhui	2
▁axiua	2
▁notlaço	2
ycniuh	2
.	2
ecato	2
atoc	2
▁cuelpachiu	2
cuecueyoca	2
miquania	2
▁cemp	2
▁iyoca	2
▁ichtilma	2
▁cahuallo	2
▁iksi	2
▁tohuanpo	2
▁teoxiuht	2
▁axkinejki	2
▁compatla	2
▁cioa	2
▁tatapa	2
▁quimocueti	2
telwi	2
▁onotzal	2
▁huelpeuh	2
tetlacamachiliz	2
▁tinahuati	2
▁tiquil	2
▁ticcuecuep	2
ilochtiz	2
▁ticmama	2
▁mixaya	2
uixtoc	2
▁onquiztiqui	2
omayana	2
petlahuiltihti	2
▁ixhui	2
▁oquinnamaquilti	2
pucht	2
▁Ajsit	2
▁inglestlahto	2
kauaski	2
▁tlayohuatiaz	2
▁chien	2
▁quipaleuia	2
▁onemauhtilo	2
▁Icniuh	2
popusteki	2
▁tlako	2
▁mochichihuaz	2
cuitlatl	2
çili	2
▁atotol	2
▁calquetza	2
▁nanquipa	2
▁nanquipiazqu	2
▁moixtlalihto	2
uecuex	2
tziv	2
epani	2
ecentlaliliz	2
tualmuica	2
rida	2
▁otlamachiyoti	2
▁otlatlal	2
▁porter	2
▁oyxp	2
▁tlatzintil	2
▁tocommati	2
▁Xiquintequi	2
▁ayi	2
pehpena	2
chicauac	2
▁coua	2
tetlaquehui	2
palehuiz	2
▁cost	2
odia	2
mihuiyoti	2
▁tonpapatlantine	2
▁timocehui	2
teyccauh	2
▁kalteno	2
huehuetzi	2
▁oquitliquechi	2
yolnonotza	2
▁machiz	2
cuauhtla	2
▁moceh	2
cemel	2
eoculhua	2
▁quitzatzac	2
▁quimotocayotili	2
▁Chiqu	2
palehuil	2
▁oquimotemaquili	2
▁Acoluaca	2
▁cahchi	2
htoton	2
▁quixtlahua	2
▁quicaht	2
▁onitetlahtlan	2
moyomahuil	2
andas	2
ujet	2
monequiltia	2
ilana	2
timitzita	2
ET	2
▁procurador	2
▁conmotlatquiti	2
yollocopa	2
ahuayotl	2
▁machoc	2
icos	2
tlatzacuiti	2
lloyan	2
▁nitlana	2
tetecui	2
chicahuaca	2
▁tam	2
otlacalaquil	2
tennonotz	2
opeuh	2
mahuiltiz	2
▁nitlapal	2
▁nitlaueliloc	2
▁tlamicti	2
▁tenami	2
▁tlamo	2
▁quihue	2
▁toconihta	2
▁mocihuauh	2
zonqui	2
▁axcam	2
▁dali	2
zinda	2
xochit	2
▁Mazatepet	2
▁Cacaloapa	2
▁catle	2
▁oquinexti	2
▁poxact	2
tetzonteco	2
▁nohuic	2
▁Vic	2
temmohui	2
▁hualmotztilito	2
▁quitzitz	2
▁kangani	2
▁kip	2
▁tlapoyau	2
iciuhca	2
otlanauati	2
▁quihualmopatil	2
▁nemini	2
tlachichihuili	2
tlacaxinacho	2
▁Canada	2
▁totoloti	2
aneci	2
▁tiot	2
▁prob	2
▁oquitlasocama	2
▁maquin	2
▁nopam	2
▁quimopouhilili	2
▁omictacic	2
▁otlanamacac	2
▁Ehecat	2
▁moyectlali	2
▁Tlali	2
motz	2
quili	2
huican	2
▁Xochiquetzal	2
▁otemo	2
▁nonotzalo	2
alajki	2
▁michihuauhtli	2
tzicuehualton	2
antlanamacazquia	2
▁Huitzillop	2
xilot	2
tlax	2
mecatzin	2
cxipetla	2
▁ymehuatilma	2
maxcatiliz	2
▁nitlanonotza	2
quich	2
huelita	2
moyaual	2
YOT	2
nechmopalehuili	2
▁ipilohtzin	2
▁xiquiht	2
chapol	2
▁cuauhtlato	2
▁icpal	2
▁concauhtia	2
hualicnotlamati	2
▁totlaxilacaltia	2
▁ijkat	2
▁cit	2
▁icchicue	2
miktia	2
▁ratito	2
cuicayeye	2
itohuaya	2
▁tlapachohua	2
▁tlahtocayo	2
motonalquechili	2
▁tlacace	2
▁Aztaca	2
▁malinti	2
▁quetzalxi	2
ontlamanixti	2
▁quinmottiliz	2
▁quaquamiminal	2
▁touelti	2
▁omocuecuepotza	2
▁Omoc	2
▁Quicen	2
cuitlalpia	2
chicpal	2
excan	2
▁anoquil	2
▁kisato	2
motlanaoatili	2
▁quiti	2
mokueso	2
▁Cholo	2
▁ahuehue	2
miactin	2
▁tecuecue	2
metzontequi	2
techpolo	2
▁tonnemi	2
ostin	2
▁quinyaotla	2
▁cavallotlatlal	2
▁tlakoyok	2
teyttiti	2
olchicahua	2
▁monepanti	2
▁mohueyi	2
▁kij	2
▁yewal	2
sewitiw	2
onmoquetz	2
alocan	2
▁mococoxca	2
▁quihualaha	2
▁omaltepetlali	2
▁camaquen	2
▁xiquim	2
hualhuiquili	2
▁oninemia	2
▁motlaxeal	2
▁moyohual	2
temohti	2
imoamapohu	2
▁Tecuic	2
▁MACUIL	2
▁XOCHITL	2
tlapa	2
pahpaqui	2
▁namehuan	2
▁namotlaque	2
pahcayohui	2
cticatca	2
cuecuetlaxo	2
▁Teuhct	2
lamacazqui	2
▁anyolque	2
roto	2
▁yiollo	2
ixto	2
▁mokam	2
tomaçehuitzinoca	2
kitiwa	2
▁quiuicaltia	2
▁quimocuepil	2
▁Tete	2
▁Tepu	2
cuacuil	2
▁Chontalco	2
▁Xilotepe	2
▁notio	2
▁oquitlanic	2
▁moteuhctitlan	2
▁icye	2
▁icchico	2
▁orna	2
▁quimotquilit	2
nelpa	2
lacua	2
▁conmitalhuia	2
cuecue	2
▁tzontec	2
▁ticalaqui	2
pew	2
motemaquili	2
▁tipactica	2
tlahpalhui	2
▁ninetlamati	2
▁nicnochi	2
▁nechtlapololti	2
▁notlaca	2
quihualcihuamaca	2
moititili	2
ilhuiti	2
čolo	2
nečmikti	2
▁kipanolti	2
▁totecuy	2
otollapan	2
▁Guil	2
ermo	2
opowtiw	2
▁tlaamahui	2
▁ualmoman	2
▁TI	2
▁omochihuili	2
▁atlauht	2
▁xahuen	2
lteuhc	2
▁momimi	2
▁hehe	2
quimotlaxill	2
▁piello	2
▁cocotz	2
▁tepitz	2
tlanamacazquia	2
tlaxtlahuili	2
▁kikualan	2
▁tonixm	2
▁ximakuitlaui	2
▁oquinchihuili	2
zaca	2
▁motzetzeloa	2
▁quincal	2
calton	2
rnan	2
calixpan	2
▁xochiyohua	2
tajtay	2
kipiš	2
blo	2
tlaneltoquilizt	2
▁mocuepti	2
echmomachtili	2
▁omahuiço	2
kolex	2
▁titomati	2
▁nequatequiliz	2
▁hualleuh	2
▁mixihui	2
motlaecolti	2
ihčiwa	2
▁oquimaxi	2
▁hecho	2
▁oquinamiqui	2
▁motlapachojkí	2
▁yacatiu	2
zacatlaca	2
▁bali	2
▁Ytztol	2
acoc	2
▁totlac	2
▁namoma	2
▁Vas	2
caquitilo	2
lnamictiz	2
▁yemocawa	2
▁chichileui	2
▁itsmolini	2
kuesojk	2
netlapololtiliz	2
▁oquimiztlaca	2
▁amoxtl	2
inio	2
▁oquicuillo	2
▁cenchihuall	2
▁tlacuillol	2
mantel	2
▁conmocaquiti	2
▁termi	2
▁otlanaquil	2
cenquiza	2
▁nikininauatí	2
malinal	2
▁yoquita	2
▁yekimaka	2
emaquixtiliz	2
▁momalhuia	2
▁bien	2
▁fiesta	2
▁adorar	2
▁ymeixti	2
▁miccailhuitl	2
▁imacaci	2
▁mantequi	2
calnamaca	2
ocnoteca	2
▁ihi	2
uiliztli	2
▁amiquiz	2
tzo	2
▁tohua	2
ltitlan	2
▁tzonizta	2
lacuilo	2
▁Corne	2
▁teixiptla	2
tlaxtlaui	2
▁hualmacallaqui	2
cniuhti	2
▁mimichti	2
alguacil	2
▁tlase	2
▁kowi	2
enz	2
amiento	2
▁tsojpi	2
kwitlapa	2
▁omotolini	2
cuiloua	2
▁contlec	2
▁ohuacall	2
▁mopatlas	2
▁mamop	2
lantli	2
▁moseli	2
▁oquimita	2
quichtacamicti	2
▁axtimokuitlaui	2
▁quipactia	2
▁oninoquetza	2
▁kits	2
▁teoaxochioct	2
colo	2
▁Xquin	2
▁Asupcio	2
piani	2
▁aoquic	2
▁kitaluia	2
▁onenen	2
onitztica	2
▁hualquixti	2
tlazoh	2
macuiltetl	2
▁Xitlachi	2
rá	2
▁Ib	2
america	2
ayekan	2
kauj	2
mixpan	2
▁tocahu	2
▁Zazoca	2
ihuin	2
onomat	2
xeliuh	2
▁moyahual	2
nauhtla	2
▁Teço	2
▁tekitini	2
▁tzopi	2
▁ooo	2
▁xiu	2
▁ajsit	2
mopahpaquiltil	2
quitica	2
conmotlapalhui	2
netetzanhuil	2
▁ohualtlathui	2
ximo	2
▁tiquit	2
▁Mé	2
▁tlatzehtzelol	2
▁tinechpi	2
tizqueh	2
mahuizihta	2
makak	2
ikintlapopowi	2
▁mose	2
▁nimitspaleuis	2
▁Amatla	2
nt	2
▁titehuanti	2
lloqu	2
quentilli	2
tlamanixti	2
▁ticnonqua	2
tlalizque	2
memoria	2
uauh	2
mocallaquilli	2
čoka	2
kičiwili	2
▁hualmotlahtocat	2
▁nankim	2
▁quetzaloco	2
▁philosoph	2
▁tlacohcolli	2
▁yotlacua	2
▁quiuallito	2
▁quauhtlahtol	2
▁Keman	2
▁tlamacehualiz	2
▁tlacotiz	2
▁tiyazque	2
▁nicán	2
uatili	2
itetlamamac	2
▁kitlachiltinemi	2
▁Huehca	2
▁uma	2
chihuiliaya	2
▁tlasesekayotl	2
notsk	2
▁kualank	2
▁Amantec	2
▁omocen	2
▁yoniki	2
▁nihpa	2
▁semintera	2
▁tempo	2
mas	2
masiso	2
▁tlatotonilo	2
ualquixtia	2
▁tlati	2
▁tijmakas	2
▁tlachipaht	2
▁Ximocalt	2
▁yatihuitz	2
▁quinhualmo	2
pantlaza	2
▁ticnexti	2
▁tixilot	2
cuitlatzayan	2
yolot	2
Cruz	2
▁quinenquixtia	2
echpactia	2
▁otinemia	2
cicuilli	2
okili	2
▁timuč	2
xixini	2
camapa	2
uhtihuitze	2
quechpozahua	2
▁quintzacuili	2
▁istaga	2
▁momacehui	2
▁otlayi	2
▁teoyoticat	2
ahtli	2
tlamahuichihchih	2
▁xochicuzca	2
▁quitetla	2
▁niquinnahuati	2
▁xochinca	2
yes	2
tacique	2
chachamahua	2
▁uejkapanti	2
espan	2
▁tlacenmati	2
mahuilti	2
ontra	2
▁yew	2
otemow	2
▁tlahuenchi	2
▁tlakonan	2
xolotl	2
otlač	2
tewak	2
▁seyo	2
vo	2
▁yanqui	2
▁quimone	2
ztotl	2
▁quinehuac	2
▁huihui	2
▁quimomahuiztil	2
▁quimololhui	2
▁ninoma	2
▁pachantok	2
▁xiuhquechol	2
▁yocoya	2
▁omotzauh	2
▁titlay	2
▁Muchi	2
▁chocatinem	2
▁oquimomoc	2
emasca	2
ltico	2
▁oquinmama	2
▁axkichi	2
kiš	2
▁coma	2
▁ihuicatl	2
cicihua	2
mohuaxca	2
▁vica	2
daso	2
▁oquitlatlani	2
▁xihualhuia	2
yocam	2
cocoxqu	2
▁toyecmati	2
▁Ver	2
▁Desp	2
vandera	2
▁Cualan	2
ilcahui	2
▁quinnexti	2
tlahuelilocamat	2
▁quallani	2
ictlazohtla	2
▁ohacic	2
izt	2
▁achka	2
eponi	2
▁teyomi	2
gob	2
ihuatzitzinti	2
▁Yompo	2
nexexelolo	2
tlaixmati	2
▁Bartha	2
▁Moch	2
pixauhtiuh	2
▁omiqui	2
temato	2
▁cualica	2
▁omotlatenehui	2
ahcicamati	2
mocetili	2
tecuyo	2
▁Jue	2
sfiguraci	2
▁Ezhuahuacatzin	2
▁otihualmo	2
[...]
