▁,	21948
▁de	16255
s	15111
▁.	14663
▁y	10623
▁	9377
▁que	8946
▁a	8814
▁la	7967
▁el	7587
▁se	7490
▁en	7441
▁los	6746
o	6042
n	4000
ó	3804
▁;	3212
1	3173
▁no	2652
a	2574
▁su	2544
▁las	2525
▁por	2475
▁lo	2446
on	2242
▁con	2108
es	2106
▁del	2089
i	1923
▁para	1862
▁al	1810
▁:	1746
▁Y	1574
▁un	1533
▁año	1429
▁es	1393
▁ya	1340
▁En	1315
▁A	1311
▁como	1206
2	1193
▁le	1185
▁años	1161
▁una	1161
do	1145
▁mi	1014
▁este	1009
▁San	997
▁cuando	966
▁El	962
▁sus	958
▁tierra	942
0	889
▁señor	868
6	864
▁si	862
▁?	860
▁fue	857
¿	856
3	852
4	835
5	824
▁don	806
ón	787
▁porque	784
▁donde	760
▁casa	746
▁nuestro	730
▁T	725
▁[	724
▁o	722
▁ha	715
▁]	709
▁me	707
tzin	702
▁así	701
▁México	692
os	692
e	674
mos	646
▁era	645
▁allá	644
ron	633
▁aquí	631
▁también	625
▁tu	619
▁dicho	615
▁yo	614
9	600
▁te	599
▁les	595
▁luego	594
se	591
ndo	590
▁Juan	590
▁Se	582
▁todos	574
▁está	567
▁dos	560
▁ciudad	559
ólo	558
▁muy	546
▁esta	543
8	542
r	531
▁mexicas	531
▁e	526
▁fueron	525
▁había	521
▁Francisc	513
que	513
▁tlatohuan	503
▁s	502
▁esto	502
▁vez	499
▁(	498
▁todo	492
▁nos	491
7	487
▁tiene	484
▁)	479
▁No	477
mente	477
nte	475
co	475
▁padre	475
▁agua	473
▁estaba	472
an	471
▁ante	466
▁dijo	465
▁bien	463
▁pero	460
▁Lo	459
▁pues	452
as	448
▁allí	440
▁sobre	433
▁quien	430
▁entonces	422
▁ahora	420
ieron	419
▁tiempo	407
▁ellos	404
▁llegar	402
ción	402
▁muri	398
sta	398
▁son	390
▁él	389
é	387
▁mes	385
▁toda	385
▁más	384
án	376
▁dura	375
▁español	375
▁dicha	373
▁mucho	372
“	367
▁casas	366
▁gente	365
▁desde	365
¡	364
▁uno	360
▁!	359
▁D	357
▁La	353
▁día	348
▁sin	344
▁mismo	344
▁eso	338
▁tres	334
▁hizo	334
▁habían	333
▁”	333
▁Por	331
ando	331
c	326
▁Pedro	325
▁otra	323
aron	321
catl	321
▁Cuan	320
▁da	316
te	316
z	314
▁hijos	312
▁peso	310
▁lugar	309
▁Té	307
y	306
▁nombre	306
▁Per	305
▁nuestra	301
l	299
▁gobern	296
▁ella	295
▁L	294
▁hacer	290
▁Dios	289
▁hay	288
▁flores	282
▁Miguel	282
▁señores	278
▁nada	277
cpatl	276
▁iglesia	276
▁alcalde	276
▁después	272
▁días	271
▁llamado	271
ambién	270
▁sabe	269
▁qué	267
▁lleg	265
▁cual	264
▁S	264
▁hace	262
emos	261
▁mis	259
uego	258
▁Tenochtitlan	258
▁C	256
▁Calli	252
▁verdad	252
▁hijo	251
▁Tochtl	249
▁Sant	248
can	248
▁cuatro	247
▁dios	247
ía	246
▁Dieg	246
▁va	244
▁Colhuaca	244
á	244
zin	243
▁otros	243
tonces	241
▁Al	241
▁tenía	241
▁t	241
▁nosotros	239
▁ni	239
▁Ya	239
▁ser	237
▁llama	237
▁religioso	237
eron	237
▁gran	236
▁otro	234
▁corazón	234
▁mayor	233
▁nadie	233
▁eran	227
▁chichimeca	225
▁fra	225
▁Maria	222
▁virrey	220
▁cómo	220
▁pueblo	219
▁barrio	218
▁tú	216
▁están	215
▁mano	214
▁ver	212
▁guerra	211
▁sal	211
▁España	210
▁mí	209
sí	209
▁junto	208
▁Martin	207
▁parte	206
▁testigo	205
▁hacía	204
en	203
cia	202
▁he	202
▁pone	202
▁Yo	202
▁sol	200
í	198
ún	197
▁iban	197
▁Le	195
amente	195
▁madre	195
-	193
▁comer	192
▁cinco	191
▁comenz	190
▁Marí	190
▁Acatl	189
▁mil	188
nes	188
▁Que	188
▁antiguo	187
▁poco	187
▁hacia	187
▁De	186
▁Señor	185
aban	183
▁rey	183
▁muchos	183
▁venía	183
▁camino	183
▁ir	181
▁tomar	180
▁primero	179
▁Es	179
lo	177
▁mucha	175
▁vinieron	175
▁llevaba	174
▁decir	174
ban	174
▁fuera	173
▁entre	173
gún	173
▁tlato	173
▁vino	172
da	172
▁justicia	172
los	171
▁Luis	169
▁orden	169
▁Pablo	169
▁procesi	168
▁pasado	167
▁sea	167
▁Mexic	167
me	167
▁llamaba	167
▁Amaqueme	167
▁quin	164
▁Huehue	163
▁Antoni	163
▁Este	163
▁fiesta	163
ientos	162
▁mujer	162
▁Si	162
▁enseñore	161
más	160
▁han	160
quí	159
▁dio	159
▁aun	159
▁asi	158
▁algunos	157
▁señora	157
iendo	157
▁fuego	157
▁arzobispo	156
▁dice	156
▁noche	155
espués	155
▁tal	154
▁Chalc	154
▁alguna	153
cada	153
▁arriba	153
▁ese	152
▁hub	152
mismo	152
▁Ana	151
▁hija	151
▁gobernador	151
▁tlaxilacall	151
ras	151
▁siete	150
▁braza	150
▁voy	150
▁usted	150
▁E	149
▁dar	149
▁dijer	149
▁puede	148
▁Sol	148
▁dicen	148
▁veces	147
▁todavía	147
▁niño	147
▁pusier	147
▁siempre	147
d	146
▁hecho	144
▁P	144
▁Qué	143
▁llamada	143
▁Santo	143
éste	141
▁juez	141
▁partes	141
latelolc	141
▁algo	140
▁iba	140
▁soy	140
▁llevar	140
▁sali	139
▁segundo	139
▁hombres	139
Á	137
tli	137
▁ti	136
▁nueva	135
ecas	134
▁tarde	134
▁Ha	133
▁qu	132
▁Cruz	132
▁van	132
▁maíz	131
▁mient	131
▁venido	129
▁ochenta	128
▁O	128
▁cosas	128
▁escrivano	127
▁c	127
▁dichos	127
▁domingo	127
▁sí	126
▁viene	126
lante	126
▁digo	126
▁hombre	125
▁Con	125
▁solo	125
▁teng	125
és	124
▁mujeres	124
▁d	123
▁dónde	123
—	123
▁frente	123
▁ocho	121
▁H	121
▁primera	121
▁chalca	121
ín	121
▁mand	120
▁cosa	120
▁dias	120
▁hermano	120
▁vecino	120
▁Hernandez	120
▁qual	120
▁santo	119
ado	119
▁grandes	119
seguida	119
▁cuales	118
▁Esto	118
▁V	118
▁será	118
▁hicieron	118
▁palabra	118
▁m	117
▁nuevo	117
▁haga	117
▁dieron	117
▁cerro	117
▁Garc	116
la	116
amos	115
▁vida	115
▁escribano	115
nos	114
▁negro	114
▁sitio	113
▁dix	113
▁sucedió	113
▁cielo	113
▁lado	112
▁medio	112
▁ésto	112
▁grande	111
dos	111
▁pus	111
▁quiere	110
▁seis	110
▁dejó	110
▁forma	109
is	109
dor	109
▁M	108
tl	108
▁persona	108
▁acá	107
▁cuerpo	107
▁piedra	107
▁presen	107
▁esposa	107
▁siembra	107
▁Todo	107
▁misa	107
▁cuanto	106
▁personas	106
ez	106
▁primer	106
ba	105
▁come	104
ones	104
▁I	104
▁mando	104
▁Doming	104
▁diez	104
▁mañana	103
▁llegado	103
Chichimecateuctl	103
▁habla	102
▁has	102
▁muerte	102
ían	102
embre	102
▁ello	101
huitl	101
▁Xuare	101
▁cruz	101
le	101
▁mundo	100
▁cabeza	100
or	100
estad	100
▁traficante	100
▁ve	99
▁manera	99
▁templo	99
ahí	99
▁asentar	99
▁presente	98
huatl	98
caso	97
▁mayo	97
▁mag	97
▁bueno	97
▁nombrado	96
▁naturale	96
acaso	96
arzo	96
▁vier	96
▁abril	96
▁caña	95
▁F	95
tin	95
▁haber	95
▁plumas	94
▁modo	94
▁muger	94
ste	93
▁Para	93
▁Tenanc	93
go	92
▁volunta	92
▁pie	91
▁Huitzil	91
miento	91
pan	91
▁nunca	91
▁águila	90
▁ten	90
épec	90
▁Aztl	90
▁Vi	89
▁dejar	89
▁tanto	89
▁largo	89
▁Ahor	89
▁tomó	89
▁Nueva	88
ero	88
▁Mi	88
titlan	88
É	88
chez	88
▁cuenta	87
io	87
▁Ante	87
▁estar	87
▁oro	87
▁dinero	87
▁re	86
ador	86
guien	86
▁estas	86
▁Santiago	86
na	86
ia	86
▁José	86
▁final	85
▁Hay	85
al	85
▁difunto	85
▁ninguna	85
▁clase	85
▁Pas	84
▁buena	84
▁Azcapotzal	84
▁vaya	84
▁comida	84
▁fuerte	84
▁Moteuczoma	84
▁monte	84
éis	84
▁vamos	84
▁Agust	84
res	84
▁muerto	83
jaron	83
▁papel	83
▁Angel	83
▁Te	82
▁puesto	82
▁hemo	82
▁vivir	82
▁sacerdote	82
▁Nuestro	82
▁hacen	82
▁llam	82
▁blanco	82
▁murieron	82
idad	82
aba	81
▁hoja	81
brero	81
remos	81
▁cuarto	81
▁venir	81
▁estuv	81
▁segund	80
▁fe	80
▁cargo	80
llí	80
▁gobernar	79
▁ca	79
▁Chicom	79
▁tuvo	79
▁Me	79
er	79
▁...	78
▁entrar	78
▁causa	78
▁gobierno	78
▁obispo	78
▁lune	78
▁daba	78
▁estuvier	78
lco	78
▁nació	78
▁mencionado	78
▁eres	78
ciones	77
▁contra	77
▁preciosa	77
▁dan	77
▁Huitzilopochtl	77
▁Esta	77
▁Pues	77
▁tenochca	77
▁vuestra	77
tepec	77
▁morir	77
▁adonde	76
▁haya	76
▁hora	76
▁Su	76
▁fin	76
ztoc	76
▁doctor	76
▁media	76
▁G	76
tonal	76
▁anda	76
▁Z	76
▁J	76
▁Re	76
▁sup	75
dentro	75
▁lleva	75
▁azteca	75
▁salió	75
▁natural	75
▁posesi	75
▁noble	75
▁tlatoan	75
▁mío	74
▁jefe	74
▁esa	74
otolimpan	74
	74
▁carga	74
de	74
oña	73
▁Testigo	73
▁llaman	73
dó	73
▁Atenc	73
▁partieron	73
claro	72
▁saber	72
▁chile	72
atro	72
▁ancho	72
▁vende	72
▁Cuahuitzat	71
▁principio	71
áhua	71
▁hermana	71
▁aquel	71
▁Tú	71
▁palabras	70
decían	70
▁tan	70
▁Mend	69
▁macehual	69
▁señal	69
▁jueve	69
llá	69
▁vuestro	69
▁decía	69
▁testamento	69
▁alguacil	69
▁quedaron	69
▁posesion	69
▁cantos	69
taron	69
ación	69
huatzin	69
▁governa	69
ta	69
▁habitante	69
▁mas	68
▁ofrenda	68
▁dado	68
▁principales	68
▁ajo	68
▁oidor	68
▁amigos	68
▁Cuauh	68
▁palacio	68
oza	67
▁Castill	67
▁tlatelolca	67
▁sábado	67
encia	67
▁costa	67
teuctl	67
▁perecier	67
▁merced	67
razón	67
▁quién	66
onso	66
▁debe	66
Tlailotlacteuctl	66
▁quales	66
▁traer	66
huacan	66
▁andaba	66
▁esos	66
▁pregon	65
▁carne	65
▁siguiente	65
▁alto	65
▁quier	65
▁favor	65
▁septi	65
▁trabajo	65
▁carta	65
el	64
asco	64
▁Martín	64
maquemeca	64
ubre	64
▁Gas	64
I	64
rez	64
▁matar	64
▁entr	64
▁sacar	63
▁derecho	63
▁verde	63
▁caballo	63
▁nueve	63
za	63
▁nieto	63
▁cerca	63
▁Xochimilc	63
▁quetzal	63
▁Vel	62
doy	62
▁real	62
▁oct	62
par	62
▁vive	62
▁habría	62
▁Tlil	62
ales	62
▁Balta	62
▁consig	62
▁llega	62
▁marido	62
▁toma	62
▁Com	61
ú	61
▁pleito	61
dad	61
▁echa	61
▁visto	61
▁mar	61
ani	61
▁veinte	61
▁traj	61
▁canto	61
zacualtitlan	61
▁quizá	61
▁asent	61
▁perro	61
▁cebolla	60
▁establecer	60
cas	60
▁flecha	60
▁Asi	60
▁poner	60
▁mejor	60
poco	60
▁príncipe	59
respondió	59
udiencia	59
ecuanipan	59
▁mandado	59
▁Joa	59
rtículo	59
▁semilla	58
▁ido	58
▁diga	58
les	58
▁pasar	58
▁monasterio	58
▁enfermedad	58
▁precio	58
▁sesenta	58
▁aquello	58
▁escudo	58
tecatzin	58
▁morada	58
▁muchacho	58
▁manta	57
▁vosotr	57
▁viejo	57
▁pena	57
ac	57
▁mart	57
▁ustedes	57
▁lengua	57
▁hongos	57
▁palo	57
▁tercero	57
▁agost	57
▁sé	57
▁papá	57
▁animal	57
oh	57
▁encontrar	57
▁cautivo	57
▁podrá	57
▁mira	56
▁Ximene	56
▁somo	56
ita	56
▁recibi	56
iembre	56
▁señorío	56
ina	56
ito	56
ocan	56
▁flor	56
▁libro	56
▁Jes	56
ús	56
eque	56
▁jun	55
▁calle	55
▁comprar	55
▁hará	55
▁Quién	55
▁vio	55
▁vey	55
▁rojo	55
lan	55
oy	55
▁maestro	55
atl	55
▁misma	55
▁tuvier	55
▁di	54
▁trabajar	54
▁parti	54
▁hab	54
▁Fe	54
coco	54
▁Bueno	54
▁tomi	54
▁igual	54
▁empezó	54
▁jade	54
▁tam	54
▁ju	54
▁mamá	54
▁muertos	53
▁regidor	53
▁buen	53
pil	53
▁firma	53
▁poder	53
venta	53
▁Real	53
▁cuyo	53
▁fruto	53
li	53
▁enviado	53
▁regres	53
▁com	53
▁Xoco	53
rse	53
▁marqu	52
val	52
▁sale	52
▁ponien	52
▁Eso	52
▁mal	52
iano	52
nado	52
▁Nuestra	52
▁clérigo	52
lip	52
▁parece	52
▁puerta	52
▁punto	52
▁madera	52
lli	52
erónim	52
rás	52
▁Tetz	52
▁árbol	51
▁estoy	51
▁ambos	51
▁patio	51
▁oficio	51
▁mexicanos	51
▁color	51
▁alguno	51
▁escuela	51
▁Don	51
tlaca	51
▁At	51
▁estado	51
▁Fue	51
▁naci	51
oles	50
▁juli	50
▁pregonero	50
▁abuelo	50
ómo	50
altar	50
ca	50
▁termin	50
▁propiedad	50
▁quinto	50
▁Bautista	50
▁marcha	50
▁conejo	50
▁obra	50
▁pequeño	50
▁colhua	50
▁amigo	50
▁regresar	49
▁mercado	49
ión	49
▁corta	49
▁aqui	49
▁cierto	49
▁milpa	49
▁menor	49
▁muchacha	49
acatzin	49
▁Tollan	49
▁hierve	49
▁frío	48
cxoteca	48
▁rostro	48
▁árboles	48
▁acerca	48
▁querido	48
▁monja	48
ónde	48
▁noticia	48
▁general	48
▁gusta	48
▁diablo	48
ro	48
▁aquella	48
▁licenciado	48
▁imagen	48
enes	48
▁quería	48
ra	47
▁Maldo	47
▁pasó	47
▁tlahto	47
edad	47
bal	47
▁aposento	47
▁doce	47
▁cuauhtlato	47
▁podía	47
▁co	47
▁Ud	47
▁menos	47
▁mexi	47
érc	46
▁tortillas	46
▁Alta	46
▁Un	46
▁levantar	46
renz	46
▁escuchar	46
▁Sebastian	46
▁propia	46
▁poblado	46
▁Nos	46
▁ning	46
▁vieron	46
▁Valer	45
▁brota	45
▁presidente	45
ces	45
▁planta	45
▁carrancista	45
▁nomás	45
quiera	45
ten	45
▁sola	45
▁Coyo	45
▁Padre	45
▁lejos	45
▁enfermo	45
▁Acamapichtl	45
ramento	45
▁relaci	45
▁tendrá	45
▁Lun	44
▁He	44
▁conocer	44
ar	44
▁Tlaco	44
▁cre	44
iento	44
▁dicie	44
▁hijas	44
▁novi	44
▁dará	44
én	44
trá	44
▁abajo	44
▁juntos	44
▁autoridad	44
▁camellon	44
▁dic	44
▁habrá	44
▁lava	43
▁centavo	43
▁lluvia	43
▁único	43
▁estaca	43
▁halla	43
▁ave	43
▁Una	43
▁varios	43
▁vas	43
▁blanca	43
▁haciend	43
▁gracias	43
▁veía	43
▁esté	42
▁Flore	42
▁fuimos	42
▁llevado	42
▁caliente	42
era	42
▁f	42
▁isla	42
▁terminar	42
▁ésta	42
▁tenga	42
▁sabía	42
▁momento	42
▁pedernal	42
▁orient	42
▁Itz	42
▁Hernando	42
▁preguntado	42
mitl	42
▁caso	42
▁Estado	42
▁habló	42
▁llev	42
▁bosque	42
▁Itzco	42
▁ánima	42
to	41
▁comienza	41
rá	41
▁Có	41
▁comen	41
▁venta	41
dez	41
▁reverendo	41
lena	41
▁hubiera	41
▁ribera	41
▁tercera	41
▁pintado	41
▁Está	41
▁capit	41
▁pájaro	41
ü	41
h	41
▁estará	41
▁leña	41
▁to	41
▁campo	41
▁Sebasti	41
▁kilo	41
medio	41
▁zapatista	41
▁ponía	40
▁muele	40
▁deja	40
▁Sal	40
▁seguía	40
apan	40
rían	40
▁bajar	40
zar	40
pez	40
▁Crist	40
▁ropa	40
▁suya	40
ido	40
▁verdadero	40
▁entrada	40
▁Tierra	40
▁ayuda	40
▁boca	39
▁cayó	39
▁Chapoltépe	39
▁asentado	39
▁Algun	39
▁acaba	39
▁Geronim	39
▁pulqu	39
▁nacido	39
▁trae	39
▁seguida	39
▁casi	39
sotros	39
▁ven	39
▁X	39
▁Cortés	39
▁Sí	39
▁pud	39
▁establecier	39
guna	39
gora	39
▁pan	39
capan	39
▁tener	38
▁tras	38
▁Huexotzin	38
lalmanalc	38
avel	38
▁collar	38
▁p	38
▁cocer	38
▁corte	38
errito	38
▁hag	38
▁apenas	38
▁principal	38
▁frijol	38
▁siendo	38
▁orilla	38
ojos	38
▁suplico	38
▁limpia	38
ga	38
▁Ella	38
▁present	38
lauhtecatlteuctl	38
sar	38
▁adelant	38
lcatl	38
▁vieja	38
huayan	38
▁dé	38
jo	38
▁conoce	38
pilla	38
▁vano	38
▁epazote	38
▁pariente	37
▁llamar	37
▁sacerdotes	37
ilpa	37
llos	37
▁Ja	37
▁lados	37
▁salud	37
▁hablar	37
▁estrella	37
las	37
▁cacao	37
▁florea	37
itl	37
▁Tziuhtlacauhqu	37
▁hambre	37
▁sirve	37
▁dirá	37
▁título	37
▁in	37
▁cuidado	37
▁campana	37
▁vendían	36
tor	36
▁ocelote	36
▁izquierd	36
▁niñito	36
chitl	36
▁nombra	36
▁emper	36
▁Fern	36
▁bienes	36
▁escrito	36
▁bandera	36
▁mie	36
▁cumplier	36
▁camin	36
▁Mate	36
▁antigua	36
▁Axayaca	36
▁interior	36
▁inmediat	36
▁hiciera	36
▁Nadie	36
▁baja	36
▁celebrar	36
órd	36
▁irá	36
▁rumbo	36
▁queda	35
▁vuelta	35
▁Segund	35
▁taba	35
▁camisa	35
luz	35
▁roja	35
▁b	35
ada	35
▁pro	35
▁arma	35
▁Santísim	35
▁hongo	35
▁salía	35
▁tercer	35
tzinco	35
▁pequeña	35
▁venimos	35
▁Axay	35
▁demanda	35
t	35
▁serpiente	35
▁pereci	35
▁sexto	35
▁Guerr	35
▁Compañ	35
▁sepultado	35
▁quieren	35
yotl	35
▁cueva	35
▁pasa	35
▁Popocat	35
ás	35
▁To	35
▁aya	34
spues	34
▁derrotad	34
▁pudiera	34
▁divina	34
▁llevan	34
ya	34
▁manteca	34
▁viento	34
▁rama	34
mitad	34
▁my	34
▁presentar	34
▁China	34
▁mía	34
▁falta	34
▁susodicho	34
náhua	34
iremos	34
▁verá	34
▁entierr	34
▁abri	34
atzin	34
tenta	34
▁pong	34
alá	34
▁encuentra	34
▁alegra	34
▁Ahuitzot	34
▁canoa	34
xó	34
▁tolteca	34
▁empieza	34
▁Ah	34
▁vender	34
▁inunda	34
▁sigue	34
▁pod	34
▁necesita	34
épet	34
▁vendrá	34
iablo	34
▁Tal	33
▁alegría	33
▁capa	33
tequihua	33
▁cantor	33
damos	33
▁entender	33
▁entera	33
cima	33
▁señorial	33
▁albacea	33
▁propio	33
▁espiritual	33
▁fina	33
ábamos	33
▁teo	33
▁pies	33
▁turquesa	33
▁xochimilca	33
▁difunt	33
noch	33
▁levant	33
▁nombran	33
▁soldado	33
▁suelo	33
▁Uni	33
▁cantar	33
▁terreno	33
▁Chichimeca	33
▁cuya	33
▁necesario	33
▁tomado	32
▁llanto	32
▁tío	32
▁agarra	32
huexotl	32
▁revestido	32
▁Jacob	32
▁cas	32
▁reunier	32
▁III	32
▁sacrificio	32
dió	32
▁pagar	32
▁frijoles	32
▁Di	32
▁triste	32
▁Col	32
▁anciana	32
▁Jesucristo	32
▁perdi	32
▁Joven	32
▁quieres	32
▁Tecu	32
achcauh	32
▁N	32
▁pens	32
▁santa	32
paz	32
▁gobernaba	32
▁espera	31
▁beber	31
▁estás	31
ejo	31
▁Cua	31
▁Tiene	31
▁Uno	31
lina	31
▁grit	31
▁pared	31
acramento	31
mono	31
▁esclavo	31
▁calzada	31
▁tlatocapi	31
temoc	31
▁Coxcoxtl	31
▁Dueñ	31
▁chinampa	31
▁Otro	31
▁empezar	31
▁cofradía	31
▁pid	31
▁viven	31
▁yndio	31
▁pali	31
▁tlatoc	31
ré	31
▁compañero	31
▁japon	31
⁄	31
▁Tia	31
tole	31
▁cualquier	31
▁ade	31
▁Teohuateuctl	31
ára	31
▁Anton	31
pón	30
▁caye	30
▁vi	30
▁teomama	30
▁Cuepopa	30
▁Za	30
▁ciento	30
▁inquisidor	30
▁Primer	30
▁entendido	30
▁cara	30
▁trasladar	30
eras	30
quez	30
▁joven	30
yan	30
▁Co	30
▁tallo	30
▁comi	30
▁hacerlo	30
itos	30
▁Cuánto	30
▁cabi	30
ldo	30
moc	30
cuauhtzin	30
▁abandonar	30
illo	30
▁suyo	30
▁quitar	30
▁Cuacuauhpitz	30
ubo	30
▁tepanecas	30
▁Marin	30
rio	30
▁Acolhua	30
▁Toteociteuctl	30
sión	30
▁Leon	30
scal	30
▁traía	30
▁florida	30
▁quiso	30
▁tlaxcalteca	29
▁declar	29
▁labio	29
▁lleve	29
▁Era	29
▁cortan	29
▁cal	29
▁suerte	29
▁sangre	29
▁pos	29
▁acuerdo	29
▁trabajan	29
▁Andr	29
▁acompañan	29
▁licencia	29
▁haz	29
▁fund	29
ura	29
▁Maxtlat	29
▁espalda	29
eses	29
▁masa	29
▁aver	29
▁dueño	29
▁Ve	29
iga	29
▁andan	29
▁mensajero	29
▁vengan	29
▁paso	29
calco	29
▁bajo	29
▁huye	29
▁Sus	29
▁fui	29
yao	29
▁Ma	29
▁precisa	29
▁pueda	29
▁recibir	29
▁quedado	28
▁pecho	28
▁fruta	28
▁Vin	28
▁Tezozomoc	28
▁venga	28
reinta	28
▁pregone	28
▁Chalchiuhmomoz	28
▁Otra	28
▁enferma	28
▁Malin	28
▁disposici	28
▁amarillo	28
▁precioso	28
▁comprador	28
▁pedazo	28
▁alrededor	28
▁calpul	28
▁Melch	28
▁tlalmantl	28
parte	28
▁región	28
▁tigre	28
▁cuart	28
lí	28
mo	28
▁gusto	28
▁tristeza	28
it	28
▁Des	28
▁sac	28
▁míos	28
▁cristiano	28
chtl	28
▁pronto	28
▁cab	28
▁abuela	28
▁pluma	28
▁celebr	28
▁var	28
▁país	28
▁mexica	28
▁movier	28
▁Quine	28
▁audiencia	28
▁Xochi	28
▁vivía	28
▁fi	28
▁Bartolom	28
▁dispus	28
zo	28
▁estén	28
▁gobernado	27
▁pobre	27
▁ocurri	27
auhtli	27
▁Termin	27
▁casado	27
▁olla	27
▁gana	27
.	27
ados	27
inas	27
ólito	27
▁aviendo	27
▁Yaotl	27
ete	27
▁dur	27
ándose	27
▁Nuev	27
▁tome	27
▁q	27
▁recuerd	27
▁llovi	27
▁hablaba	27
▁pudieron	27
▁verlo	27
▁escuch	27
tes	27
▁Mo	27
▁acabó	27
▁quisiere	27
▁descalzo	27
▁tenanc	27
volu	27
vió	27
▁apareció	27
▁llora	27
▁signo	27
▁junta	27
▁semana	27
▁Isabel	27
▁náhuatl	27
▁encuentro	27
▁ancianos	27
▁manda	27
ardo	27
▁bastante	27
▁caf	27
▁dije	27
▁Huehueteuctl	27
dizque	27
▁florido	27
▁regresa	26
▁amanecer	26
▁diversos	26
▁Madre	26
▁tarea	26
▁cumpli	26
‘	26
▁agrega	26
▁cár	26
lmeca	26
▁teocall	26
▁Teocal	26
▁escritura	26
▁hallaba	26
▁Marqu	26
▁trabajos	26
▁total	26
▁vendedor	26
▁servicio	26
▁cuaresma	26
▁sabroso	26
▁tamales	26
▁erigi	26
▁honor	26
▁guarda	26
ópol	26
▁Luca	26
úñ	26
▁venden	26
v	26
▁origina	26
zaro	26
xo	26
▁necesidad	26
qui	26
▁avia	26
▁río	26
catzin	26
▁Pé	26
▁comendador	26
▁Tlatilu	26
▁rico	26
▁tributo	26
▁anduvier	26
▁h	25
▁andar	25
▁pertenece	25
▁guardi	25
▁podría	25
▁Cata	25
cel	25
▁cocol	25
bispo	25
alco	25
▁Cer	25
ce	25
▁Mart	25
▁elote	25
▁Agua	25
▁Mexica	25
▁venado	25
▁Mad	25
▁Tepe	25
▁pued	25
▁estuviera	25
▁Guadal	25
▁corresponde	25
▁hera	25
llas	25
▁Chalchiuhtlat	25
pareció	25
▁reino	25
▁tla	25
▁lavar	25
▁sustent	25
▁número	25
valor	25
▁asunto	25
▁tempran	25
▁cáscara	25
j	25
▁ayate	25
▁vin	25
▁tía	25
▁cin	25
▁quede	25
▁alta	25
alan	25
▁Roma	25
▁Gerónim	24
▁Junto	24
▁vista	24
▁Chalma	24
▁viaje	24
▁caer	24
’	24
▁cald	24
▁raí	24
▁penitencia	24
cpac	24
▁Casa	24
cho	24
sabel	24
▁DE	24
▁último	24
▁cazuela	24
▁comerciante	24
rida	24
▁crece	24
▁Na	24
▁volvi	24
▁colocar	24
▁reci	24
▁Cuitlat	24
▁darle	24
▁cortar	24
njo	24
▁Toda	24
▁caudillo	24
▁acudier	24
▁derrota	24
▁Joseph	24
▁Aca	24
rey	24
▁Part	24
iéndo	24
▁anterior	24
lotzin	24
▁guardian	24
▁especial	24
arenta	24
▁Acolnahu	24
▁Gre	24
stos	24
▁Quetzalcó	24
▁respondie	24
▁ciertamente	24
▁Can	24
▁plaza	24
	24
▁ninguno	24
▁vestido	24
▁grupo	24
uca	24
▁traían	24
▁Tla	24
▁sembrar	24
▁pase	24
ocolhuaca	24
▁provis	24
anza	24
▁yerno	24
▁huexotzinca	23
▁Mucho	23
▁preocupa	23
▁sacrificado	23
lla	23
▁Carlo	23
▁Duran	23
▁aquél	23
▁dia	23
▁acequia	23
▁Guzm	23
▁barranca	23
x	23
gloria	23
▁canal	23
▁pris	23
▁ansi	23
▁Moy	23
▁placer	23
ospital	23
ines	23
▁nieta	23
▁enemigo	23
▁hoy	23
▁Nada	23
▁Cuauhc	23
uitzin	23
▁Mocel	23
▁quince	23
inos	23
han	23
▁veras	23
▁dello	23
▁tr	23
▁viendo	23
maron	23
▁Gran	23
residente	23
▁levanta	23
cio	23
yotzin	23
▁albarrad	23
▁zapat	23
bo	23
▁Capit	23
▁buscar	23
▁calma	23
▁administra	23
zatzin	23
sen	23
▁Ecatzin	23
▁séptimo	23
▁cascabel	23
▁quedar	23
▁hermosa	23
▁ordinario	23
tlan	23
▁Dij	23
▁Bartolome	23
▁yerba	22
fama	22
▁llena	22
▁Juare	22
▁falda	22
dónde	22
▁sacrificar	22
▁xocht	22
▁ayude	22
▁oy	22
▁solar	22
▁contento	22
▁quiera	22
▁Cada	22
▁cola	22
va	22
▁firme	22
▁sabios	22
▁cumple	22
▁dando	22
▁Dicen	22
▁Contr	22
▁conform	22
echo	22
spíritu	22
▁Tlacateot	22
▁echar	22
▁mexicano	22
▁estan	22
itlan	22
▁divers	22
▁autorizaci	22
▁Tu	22
▁entregar	22
no	22
ecec	22
▁descend	22
▁oreja	22
▁maguey	22
▁magnifico	22
▁Totolt	22
▁Tzompa	22
▁Iglesia	22
▁octavo	22
once	22
▁rodea	22
▁poquit	22
▁semillas	22
tztlacozauhca	22
▁Llega	22
▁espina	22
▁Hernán	22
▁criollo	22
▁humo	22
▁seguir	22
erca	22
▁ama	22
▁Ay	22
▁Tlacopan	22
▁pres	22
▁nubes	22
▁Cu	22
▁nace	22
▁Hip	22
▁perecer	22
ió	22
▁comía	22
▁canta	22
▁oscur	22
▁mill	22
▁refiere	22
xoch	22
▁tenido	22
▁casilla	22
▁impus	22
▁solicit	22
▁deseo	22
▁corona	22
▁tortilla	22
▁busca	22
▁Quetzalma	22
▁encomiend	22
▁Maza	22
▁federal	22
▁abad	22
▁Zapat	22
u	22
▁Bal	22
riano	22
▁Cuetz	22
pública	22
▁saludar	22
▁Tiza	22
▁iré	21
▁Ant	21
téotl	21
▁mori	21
▁Quetzalc	21
▁aire	21
▁hábito	21
▁mandato	21
▁certificar	21
iyahuizt	21
▁Concepci	21
▁Hace	21
▁Rodrig	21
▁pregunt	21
▁tlacochcalca	21
▁posible	21
▁Fech	21
▁mazorca	21
▁vezino	21
▁golpe	21
▁Chalchiuh	21
▁acompañar	21
▁mensaje	21
▁fiera	21
▁conde	21
▁caza	21
▁siguien	21
▁sentencia	21
▁desta	21
▁aparecie	21
▁Hasta	21
▁Mucha	21
▁ba	21
▁Topil	21
▁quelite	21
▁camote	21
▁refugiar	21
▁fuerza	21
▁alma	21
▁termina	21
▁Había	21
▁buscando	21
▁haré	21
▁encontraba	21
▁u	21
chichimeca	21
▁alguazil	21
▁comid	21
▁viniera	21
▁trata	21
▁niña	21
▁l	21
odavía	21
▁navío	21
ranscurrido	21
atzacualc	21
residencia	21
▁vivimos	21
▁Ayocuan	21
▁vayas	21
ate	21
▁pec	21
▁Mas	21
▁extiende	21
▁vivo	21
▁solicitar	21
▁honra	21
▁meter	21
▁predic	21
mi	20
▁amo	20
▁china	20
▁Día	20
▁cuarenta	20
▁Quizá	20
▁tapa	20
▁na	20
▁ocurr	20
▁Cuetlax	20
cohua	20
▁situada	20
ndia	20
▁dejado	20
nsí	20
▁alla	20
▁tacha	20
▁lindero	20
▁hierba	20
▁entraba	20
▁compra	20
▁Zacatla	20
▁esquina	20
▁piel	20
▁venda	20
▁bañado	20
▁teotenanc	20
ollan	20
▁tembl	20
▁traye	20
▁Tlaca	20
▁Tepo	20
ma	20
▁pertenecía	20
▁primeramente	20
▁bajó	20
ntes	20
Í	20
▁fa	20
quino	20
▁coche	20
▁razon	20
▁Cuitl	20
▁ma	20
▁bella	20
▁arco	20
▁firmaron	20
▁malo	20
▁dispersar	20
▁Tam	20
uani	20
▁niebla	20
▁cosecha	20
▁baño	20
▁llorar	20
▁edific	20
▁conozc	20
▁oj	20
▁Sa	20
▁mat	20
▁cafetal	20
▁dezi	20
▁Chimalpopoca	20
▁jardín	20
▁Tizoc	20
▁centr	20
ái	20
▁viviendo	20
▁mete	20
▁norte	20
▁pleyto	20
▁caja	20
L	20
▁escucha	20
▁tranquili	19
▁sueño	19
▁cumplir	19
adas	19
▁medida	19
tura	19
▁decimo	19
▁bonita	19
kat	19
▁cocina	19
▁querer	19
▁ador	19
nacio	19
▁march	19
▁preguntaron	19
▁treynt	19
▁pensamiento	19
▁nombr	19
▁cuello	19
▁sujeto	19
▁cabello	19
▁repart	19
▁ejote	19
▁veinti	19
▁cuece	19
az	19
▁Va	19
ario	19
▁construir	19
bamos	19
▁otorg	19
▁chilpo	19
▁pose	19
▁dispuesto	19
▁muro	19
▁Buen	19
▁cuesta	19
▁encendier	19
atlteuctl	19
▁Teuc	19
ngel	19
talla	19
▁efecto	19
▁quanto	19
▁suplicar	19
▁parecía	19
▁Sanct	19
▁Esc	19
htli	19
▁salvar	19
▁estera	19
▁castigado	19
▁cocido	19
▁sube	19
▁Tomas	19
▁combati	19
▁leónportilla	19
▁do	19
▁escapar	19
▁pinturas	19
▁Cohuatlic	19
▁mandon	19
gori	19
ztli	19
▁Carr	19
▁dueños	19
▁edificar	19
▁brujo	19
▁gallina	19
▁dava	19
▁Ten	19
▁compr	19
▁ley	19
▁rayo	19
▁Huexotla	19
▁bonito	19
▁tlacatéc	19
▁perder	19
icatzin	19
▁Tezozomoctl	19
▁Toribi	19
▁tomaba	19
▁cerrar	19
▁reunir	19
▁territori	19
▁anochecer	19
'	19
▁provincial	19
▁Nicol	19
▁enojo	19
▁Atlauht	19
▁pedi	19
▁Tepet	19
▁ordenado	19
▁burla	19
▁bezote	19
▁Aquel	19
▁pedir	19
▁Om	19
▁varon	18
▁creado	18
das	18
ándolo	18
poca	18
tas	18
▁Aguila	18
▁Tezcatzon	18
▁fundar	18
bían	18
▁alimento	18
▁litro	18
▁jitomate	18
▁Hue	18
▁volver	18
▁pide	18
gen	18
▁visitar	18
▁subi	18
bajo	18
▁sepultar	18
▁taza	18
▁bailar	18
▁hombro	18
▁recibido	18
▁Papa	18
▁daño	18
▁conquist	18
▁Ilhuicamina	18
▁per	18
▁nonohualca	18
▁prestar	18
zonte	18
▁be	18
▁vendan	18
▁lograr	18
einte	18
anohuayan	18
▁veng	18
▁Ba	18
▁jura	18
▁Mag	18
▁llor	18
▁cuidar	18
▁Oj	18
▁haba	18
▁quinta	18
▁huesos	18
▁permanec	18
▁danza	18
▁teuctlato	18
▁deje	18
▁salga	18
▁region	18
ara	18
▁saldrá	18
enza	18
ran	18
▁gobierna	18
pa	18
▁mencionada	18
vecina	18
▁Tenía	18
▁entra	18
▁varia	18
▁salida	18
▁anciano	18
K	18
panecas	18
migo	18
▁jacal	18
ixo	18
▁pura	18
▁Xocóyo	18
mas	18
▁ejemplo	18
qué	18
▁Cohua	18
oco	18
▁cultura	18
miran	18
▁volvier	18
tieron	18
▁arrojar	18
▁Bi	18
▁Alvar	18
▁questa	18
▁entreg	18
▁vendía	18
rna	18
▁Tezcatlipoca	18
ue	18
▁Mich	18
▁corazon	18
▁Tlá	18
▁tronco	18
▁Congreso	18
▁recordar	18
▁rega	18
altitlan	18
▁sobrina	18
▁nopal	18
▁recta	18
▁escond	18
▁U	18
▁mandamiento	18
▁dormir	17
▁gobernante	17
▁azcapotzalca	17
darse	17
▁viud	17
▁riqueza	17
ntli	17
▁dada	17
▁adentro	17
▁puesta	17
▁desea	17
▁enterrar	17
▁Coyoac	17
▁teje	17
▁visitado	17
iebre	17
pid	17
emia	17
▁decirle	17
▁ruego	17
▁teul	17
vante	17
▁Boni	17
▁inciens	17
▁pinta	17
▁quebr	17
▁guerreros	17
▁Lu	17
▁tule	17
▁agregan	17
▁produce	17
▁pensaba	17
▁española	17
▁atabal	17
▁tocan	17
▁tambor	17
▁cubierto	17
▁barr	17
▁familia	17
rigen	17
▁diera	17
▁divino	17
▁alcanza	17
▁hilo	17
▁Monter	17
▁cuánto	17
▁Cuauhtlehu	17
▁mu	17
▁toman	17
▁muestra	17
oz	17
▁sede	17
▁Cacamatzin	17
▁caballero	17
▁fecha	17
▁pago	17
▁grueso	17
▁Huitzilihuit	17
aca	17
▁creatura	17
▁dedic	17
▁mole	17
▁Cuauhtliquetzqu	17
obre	17
▁seca	17
▁responde	17
▁desapareció	17
vimos	17
▁mad	17
alpan	17
▁caía	17
onco	17
▁rumbos	17
▁embriaga	17
▁fuese	17
▁Jal	17
▁instrucci	17
▁Nauhyoteuctl	17
▁hume	17
ías	17
▁R	17
▁pelo	17
▁diario	17
▁Xalt	17
▁Cohuaz	17
▁metate	17
cuenta	17
▁toca	17
▁confirmar	17
▁Tepi	17
▁piens	17
▁ja	17
▁enseñar	17
▁fría	17
▁bautiz	17
▁leye	17
▁desembarcar	17
▁cumbre	17
torio	17
▁azotea	17
▁est	17
▁abrir	17
▁primavera	16
alia	16
▁descans	16
▁é	16
▁ceniza	16
▁reina	16
▁remedio	16
▁Quiere	16
tzqui	16
▁aprender	16
▁traído	16
▁xica	16
▁Vera	16
▁pas	16
▁Ig	16
▁tom	16
▁meti	16
▁apregon	16
▁v	16
▁cien	16
▁pequeños	16
nta	16
▁arc	16
▁asiento	16
▁bal	16
▁Pe	16
▁Atlixeliuhqui	16
▁guiaba	16
▁negocio	16
nas	16
▁Tecpayo	16
▁tecpan	16
▁hervid	16
▁destruye	16
▁solía	16
▁adobe	16
▁borreg	16
▁Acacitl	16
cción	16
lancu	16
▁llueve	16
▁labra	16
▁bejuco	16
▁sentar	16
▁Muñ	16
▁llover	16
▁limpiar	16
▁Moyotla	16
▁convento	16
▁inspec	16
▁regal	16
▁ocote	16
▁nopales	16
▁mostraba	16
▁Hijo	16
▁encontr	16
▁escribi	16
ímal	16
▁II	16
▁combatir	16
▁aparece	16
▁voce	16
▁Virg	16
▁historia	16
▁descubri	16
▁jóvenes	16
▁larga	16
▁carb	16
▁cuero	16
▁público	16
oyó	16
▁capita	16
▁Acxit	16
▁faldell	16
▁Rosa	16
▁merino	16
▁tren	16
▁partir	16
▁sobrino	16
▁tendré	16
▁llegue	16
chinan	16
▁esperar	16
▁hecha	16
▁tilma	16
▁temblor	16
▁ángel	16
▁moría	16
▁plata	16
▁brilla	16
abrie	16
▁vayamos	16
▁Atlix	16
▁fraile	16
▁delgado	16
▁ciri	16
▁derecha	16
▁traiga	16
▁Tra	16
▁engendrar	16
ltzin	16
ana	16
▁llegaba	16
▁caiga	16
▁tlacochc	16
▁Mie	16
▁enviar	16
teca	16
▁brote	16
▁voz	16
▁vara	16
▁Hu	16
▁Texcalco	16
▁fué	16
▁Xo	16
▁gui	16
▁recibirlo	16
▁petici	16
eros	16
▁enfrente	16
▁servidor	16
▁medicinal	16
▁comunidad	16
▁descansar	16
▁oír	15
▁vea	15
▁esper	15
▁mestizo	15
▁Ven	15
▁columna	15
▁importante	15
▁Cuauhtleque	15
▁tirar	15
▁pague	15
▁hazi	15
▁Marg	15
▁nari	15
calli	15
▁aten	15
▁Pasqual	15
▁eleva	15
▁cumpla	15
ediano	15
▁suceder	15
ros	15
S	15
▁otomí	15
▁caus	15
▁merecier	15
ANTO	15
▁encubierto	15
▁acaudill	15
antes	15
▁acolhua	15
▁patr	15
rdo	15
▁guía	15
▁sed	15
▁común	15
▁irse	15
▁Tlamaoc	15
▁medicina	15
▁pa	15
▁bautizar	15
▁aflijo	15
▁poseedor	15
▁costumbre	15
▁comenzar	15
sario	15
▁Ram	15
▁diferentes	15
▁ta	15
▁metían	15
ch	15
huac	15
▁Cuauhté	15
▁custodia	15
▁muchachas	15
▁plena	15
▁colegi	15
▁última	15
▁subir	15
▁llevarlo	15
▁Mon	15
▁edificada	15
▁Gobern	15
ble	15
▁invita	15
▁vivían	15
▁ponga	15
▁perdido	15
▁ces	15
▁bello	15
▁tenia	15
▁recto	15
▁establecido	15
▁representa	15
▁trá	15
▁cu	15
▁término	15
ravie	15
▁Xac	15
obo	15
▁Tlalyztacapa	15
▁existe	15
▁cuidand	15
▁servía	15
▁Muy	15
▁acept	15
▁Nauhyot	15
▁abandon	15
▁silla	15
▁Aun	15
▁arrastra	15
uh	15
▁Huixt	15
▁acabado	15
▁Iba	15
nario	15
ermo	15
má	15
▁terminad	15
▁Lleg	15
▁hambruna	15
▁Cuauhtitl	15
▁mandar	15
▁doncella	15
ntras	15
▁esas	15
▁ex	15
▁hermoso	15
rita	15
▁algun	15
▁calabaza	15
▁sabros	15
▁encerrar	15
▁plumajes	15
▁siglo	15
▁temor	15
▁pollo	15
▁firmo	15
▁conocimiento	15
▁cri	15
▁molesta	15
▁Hab	15
mí	15
▁mirar	15
mó	15
▁pintura	15
▁bendi	15
▁auto	15
▁subier	15
▁chalchihuite	15
▁sagrado	15
▁tanta	15
▁escribir	15
▁secreto	15
▁habido	15
▁direcci	15
▁insignia	15
▁Cámara	15
▁pescado	15
▁Tepozt	15
▁blancos	15
▁grama	15
▁sepa	14
▁piensa	14
cita	14
▁salen	14
▁limpiarl	14
▁cueza	14
▁so	14
▁servir	14
▁capturar	14
▁parcialidad	14
▁cuñado	14
▁hilera	14
lanca	14
▁Cristo	14
▁amaneci	14
▁arreci	14
▁Aztaxo	14
▁preg	14
▁admirar	14
ica	14
▁levantaba	14
▁tíos	14
▁pascua	14
▁Tizat	14
▁entrega	14
▁minuto	14
▁Ayotzin	14
▁fundador	14
▁brazo	14
▁deten	14
▁Itzt	14
▁mata	14
▁salvado	14
▁mulato	14
▁cierta	14
▁presentado	14
▁Eca	14
etzin	14
▁quitan	14
▁canónigo	14
▁provincia	14
▁pedazos	14
▁tosta	14
▁conprar	14
▁yglesia	14
▁bebida	14
▁Cas	14
▁ocasión	14
▁vasallo	14
▁Temil	14
▁encargo	14
po	14
▁firmó	14
▁mont	14
▁Oax	14
▁Nezahualcóyotl	14
O	14
▁mover	14
zquic	14
▁existen	14
▁estudiar	14
ojes	14
▁mide	14
▁guerrero	14
▁cihuacó	14
▁Niño	14
▁dexar	14
spuesta	14
rán	14
vido	14
ihui	14
▁Nezahualpilli	14
▁arregla	14
▁espacio	14
▁nahual	14
▁metal	14
▁traslad	14
▁peregrin	14
▁mediodía	14
▁haría	14
▁Quetzal	14
▁muchachit	14
▁orejera	14
rancisca	14
▁siervo	14
▁madura	14
▁vos	14
enta	14
▁vendemos	14
▁llanura	14
▁voto	14
▁vuelve	14
▁Estaba	14
▁Toma	14
▁linaje	14
▁echan	14
▁vendió	14
▁Cal	14
▁benda	14
{	14
}	14
▁pescados	14
▁embar	14
▁elegido	14
dán	14
dura	14
▁avanza	14
▁detuv	14
▁libre	14
▁regular	14
▁balazo	14
▁Canto	14
▁habl	14
▁nací	14
▁diputado	14
▁Cuá	14
▁Mat	14
▁Constitución	14
▁Marc	14
▁mostrar	14
▁oficial	14
▁toc	14
▁pag	14
▁vini	13
▁hirvie	13
▁garganta	13
▁Yohual	13
latón	13
▁vendo	13
▁segur	13
▁mostr	13
gantes	13
▁negra	13
▁tuesta	13
▁derriba	13
▁Tetzauh	13
sita	13
▁colocado	13
▁enfrentar	13
▁Aman	13
dito	13
▁remoja	13
▁vaca	13
▁rancho	13
olco	13
▁Son	13
▁Puede	13
▁conquista	13
▁ladr	13
▁sería	13
ría	13
lág	13
▁cebad	13
▁respeto	13
▁In	13
▁dirigir	13
▁Mora	13
▁llano	13
▁anima	13
▁contar	13
▁costado	13
▁cargar	13
▁mala	13
▁Citlal	13
bi	13
loc	13
▁siguie	13
▁azul	13
▁perez	13
ña	13
▁papa	13
▁Empez	13
▁disciplina	13
uror	13
▁guardar	13
▁aparecer	13
▁Xó	13
▁diente	13
▁separa	13
uma	13
ano	13
spacio	13
▁Xoloc	13
ándole	13
▁admira	13
ve	13
hule	13
▁tortuga	13
▁logró	13
▁religiosa	13
▁B	13
▁Mí	13
▁rato	13
▁Lá	13
arse	13
acán	13
ze	13
▁Valle	13
tigo	13
▁huir	13
▁pobla	13
▁barcas	13
emimilolc	13
▁espada	13
rugada	13
▁visita	13
▁Mexican	13
▁saliera	13
▁arena	13
▁sombrero	13
▁Pa	13
▁Moquihui	13
▁levánta	13
▁tocar	13
▁contesta	13
▁Tozcuecuextl	13
▁Sin	13
▁demasiad	13
capul	13
▁noven	13
▁Au	13
▁Guill	13
▁Teuhtl	13
▁carmelita	13
▁concluy	13
▁inicia	13
zco	13
iempre	13
▁tí	13
▁quita	13
▁comercia	13
▁nombramiento	13
▁Cuacuauhtzin	13
▁legítimo	13
unca	13
▁Iztact	13
▁colgar	13
ti	13
▁cuento	13
▁dí	13
▁sur	13
hiconcóhua	13
▁Macuex	13
▁Tri	13
nidad	13
▁hormiga	13
▁oraciones	13
▁destruir	13
▁enter	13
▁habita	13
▁Aqui	13
▁pierna	13
▁Ni	13
emáza	13
▁padrino	13
▁formado	13
aje	13
▁So	13
▁po	13
▁repartido	13
▁comprado	13
▁disgust	13
▁frito	13
▁entendi	13
▁ventana	13
▁merecimiento	13
andes	13
▁Ahu	13
▁Tezca	13
▁Cuáuh	13
▁Sot	13
▁Tenay	13
▁militar	13
▁excavar	13
▁pintada	13
▁Guerrer	13
▁lanza	13
▁capell	13
▁Chimalhuac	13
▁Tlaxcala	13
▁inventa	13
▁embajador	13
C	13
▁anhel	13
▁Mont	13
▁Llevaba	12
▁aderez	12
▁vestía	12
che	12
rió	12
▁prisionero	12
▁experiencia	12
gar	12
▁cha	12
▁cuál	12
▁tuyo	12
▁tierna	12
▁trece	12
▁Cec	12
ilia	12
▁bebe	12
bren	12
▁sabio	12
ombre	12
▁fríe	12
nto	12
tenanc	12
▁yendo	12
▁Quien	12
▁única	12
▁atavío	12
▁nave	12
▁tales	12
▁hel	12
▁espos	12
▁Tol	12
▁disfrazado	12
▁acaudillar	12
ior	12
▁Jo	12
▁vic	12
▁huevos	12
▁pes	12
▁Má	12
▁pux	12
rimas	12
tlixc	12
▁cobija	12
▁lloraba	12
▁san	12
▁muere	12
▁plantita	12
▁crecía	12
▁bi	12
▁dexa	12
▁compasi	12
▁pesca	12
▁Agustin	12
▁festejo	12
▁Gracia	12
▁Ju	12
▁pica	12
▁crea	12
▁valía	12
▁escritor	12
▁Corte	12
▁má	12
vedo	12
▁mang	12
arás	12
▁chiquito	12
▁Yopi	12
ancha	12
nrique	12
▁verg	12
▁Entre	12
▁prest	12
▁gar	12
▁capítulo	12
▁malvado	12
▁zopilote	12
ir	12
pre	12
▁Chiconqui	12
▁paga	12
▁pañete	12
▁mataba	12
▁vivió	12
▁temascal	12
▁saca	12
he	12
▁Tzo	12
pulc	12
▁arroj	12
rrey	12
▁Tepeyac	12
upe	12
▁ofrece	12
▁Tho	12
▁pila	12
añas	12
▁comprada	12
▁Ahuat	12
▁barrer	12
man	12
▁entran	12
▁Tochinteuctl	12
▁brotaba	12
▁lleno	12
▁semi	12
▁gan	12
bién	12
▁Xochiquen	12
▁pasaba	12
▁Tlazo	12
▁verdadera	12
tlix	12
▁cae	12
▁punta	12
▁Cuatlec	12
▁criada	12
▁décimo	12
▁desayun	12
▁demas	12
▁congrega	12
▁echado	12
cito	12
▁peticion	12
▁sos	12
▁aceite	12
▁Hacía	12
▁Tziuh	12
▁cinqu	12
▁Hernan	12
▁educa	12
ui	12
▁camar	12
▁dardo	12
▁nacer	12
huá	12
ambo	12
▁Respondi	12
▁ruido	12
▁expres	12
▁cuán	12
▁preciosos	12
▁Salom	12
ezontlalnamacoya	12
ielo	12
▁Xiuh	12
▁Tlailotlac	12
▁humilde	12
▁biejo	12
▁representante	12
▁derrumb	12
▁navega	12
▁paresci	12
▁construyer	12
▁Acxotla	12
▁Federal	12
glar	12
▁considera	12
▁magueyes	12
▁motivo	12
▁obsidiana	12
▁Tacuba	12
▁salvo	12
▁variad	12
▁recoger	12
▁amado	12
▁hila	12
LX	12
▁cucharada	12
▁conocía	12
▁indígenas	12
▁Vive	12
huehue	12
▁Senado	12
▁divisa	12
▁quitarle	12
▁ab	12
stedes	12
▁suele	12
▁Mal	12
▁apóstol	12
▁hospital	12
van	12
chin	12
▁Montes	11
▁debía	11
▁marchar	11
▁dale	11
panohuayan	11
▁fog	11
▁ho	11
▁estés	11
▁jugo	11
▁guardia	11
▁rosa	11
▁feliz	11
mió	11
vez	11
▁espejo	11
tinta	11
▁fatigado	11
▁kua	11
hí	11
▁nev	11
▁pre	11
gustin	11
torce	11
▁cient	11
▁respect	11
▁mayordomo	11
▁ocupar	11
▁Consejo	11
▁India	11
▁Viene	11
▁bate	11
▁cerr	11
ame	11
▁coman	11
eño	11
dimos	11
troni	11
▁quisiera	11
▁bist	11
dero	11
yáca	11
dores	11
▁solemne	11
mbros	11
▁estrado	11
▁sigui	11
ante	11
▁solicitud	11
▁cantidad	11
▁pedía	11
itzin	11
▁sufr	11
▁Opochhua	11
▁Dami	11
▁Maximilian	11
▁merecido	11
zacate	11
▁extend	11
▁comprende	11
▁acompañado	11
▁rig	11
▁Vá	11
▁lavan	11
▁fila	11
▁baile	11
▁candela	11
▁Torre	11
▁Tecucizteca	11
▁res	11
ad	11
▁Franci	11
▁azules	11
guel	11
▁publica	11
▁méxico	11
▁universal	11
N	11
▁firm	11
▁Mej	11
▁bara	11
▁chica	11
U	11
iztli	11
▁huy	11
▁bienaventurad	11
▁Ro	11
OS	11
▁limpio	11
▁afligía	11
▁posey	11
▁Están	11
▁estava	11
pedes	11
ración	11
▁estableci	11
réis	11
▁abuelito	11
xokoyoli	11
▁Mira	11
fico	11
▁obliga	11
▁coloca	11
▁sienta	11
curso	11
▁informa	11
▁duda	11
▁ofrecer	11
▁flauta	11
▁Escucha	11
▁Malinalc	11
▁Chalchiuht	11
▁toros	11
▁mariposa	11
▁campesino	11
▁Nezahualc	11
▁Cuauhtlato	11
▁cambio	11
acas	11
onati	11
▁compraba	11
▁sentado	11
▁yunta	11
▁pregunta	11
▁divid	11
isco	11
prést	11
▁Apa	11
▁vol	11
pol	11
▁digno	11
▁acompañaba	11
▁luna	11
▁trabaja	11
▁corregidor	11
▁crecer	11
▁Fi	11
il	11
▁matrimoni	11
▁regresaba	11
poce	11
▁arte	11
▁instal	11
▁destino	11
▁guajillo	11
▁hu	11
tenco	11
▁Matlal	11
▁reunido	11
▁facultad	11
▁castig	11
▁berdad	11
sto	11
▁descendiente	11
▁abia	11
▁suave	11
▁enseñanza	11
▁enojados	11
▁Federa	11
▁helada	11
tquic	11
▁músic	11
eopan	11
ntzin	11
cillo	11
ujer	11
▁cuidador	11
▁Cilcu	11
▁Ozoma	11
▁Oy	11
xochitzin	11
▁menesteroso	11
▁ag	11
otl	11
▁esmeralda	11
▁desnudo	11
ua	11
▁Nec	11
▁abr	11
▁repicar	11
▁vis	11
▁tomate	11
▁llegan	11
▁artículo	11
▁alzar	11
▁platic	11
▁diciéndole	11
▁informar	11
▁Ley	11
▁tra	11
▁plegaria	11
▁acus	11
▁electo	11
▁desempeñar	11
▁Chapul	11
orita	11
▁Tehuac	11
▁Ciudad	11
lán	11
▁aparecerá	11
▁teat	11
▁Teotenan	11
▁importa	11
▁inform	11
▁mercader	11
▁fogata	11
ino	11
▁instalar	11
▁civil	10
▁sand	10
▁defender	10
▁comiendo	10
▁hiciste	10
▁satisfecho	10
▁espantoso	10
▁burle	10
▁maldad	10
luvi	10
▁sagrada	10
▁conversa	10
▁intent	10
▁cer	10
▁amarg	10
vo	10
enitencia	10
▁encerrado	10
▁oyamel	10
▁dejando	10
▁fuente	10
▁Rodr	10
guez	10
▁dolor	10
esía	10
▁bende	10
▁domini	10
▁médico	10
▁decidi	10
▁guarde	10
▁cofrad	10
▁breve	10
▁combate	10
▁codorni	10
éndolo	10
▁pagará	10
▁esfuerz	10
▁edificio	10
▁hici	10
▁levantado	10
▁engaño	10
▁poeta	10
▁consagrado	10
▁algodón	10
▁Jim	10
▁Bárb	10
xic	10
▁bendij	10
▁estren	10
▁Chol	10
▁Teng	10
manza	10
▁Nonohu	10
▁atraves	10
▁subido	10
pesar	10
▁sacaba	10
▁xiu	10
▁comun	10
▁delito	10
euctl	10
▁envuelto	10
ohua	10
▁lim	10
▁mirad	10
▁ocasione	10
tlac	10
eresa	10
cameca	10
▁lu	10
▁ami	10
stad	10
▁contest	10
▁enseñ	10
▁Mani	10
altzin	10
▁declarad	10
▁descubrir	10
▁corr	10
deras	10
▁Toch	10
ocho	10
ctez	10
▁acto	10
▁curar	10
alvado	10
▁cant	10
▁alzaba	10
▁Tamo	10
▁Milla	10
tos	10
metl	10
▁conquistas	10
▁pidi	10
▁Toyaot	10
▁vasija	10
tech	10
▁conpr	10
▁ro	10
eríodo	10
▁susodicha	10
icue	10
▁sombra	10
echó	10
▁Atoto	10
▁tambi	10
▁Tlotli	10
▁envía	10
▁respetable	10
▁terrena	10
▁pipi	10
ixco	10
▁etc	10
▁Noche	10
▁apoderar	10
▁tira	10
▁morirá	10
▁concha	10
▁mueve	10
▁darme	10
▁cambiar	10
▁Tlalocan	10
▁Xic	10
▁capital	10
▁dejan	10
▁contrario	10
▁venid	10
▁codo	10
▁tendría	10
▁alza	10
▁hiciere	10
▁atri	10
▁resto	10
ahualtzin	10
fa	10
oltitlan	10
▁uso	10
▁veré	10
▁clav	10
▁madero	10
▁regala	10
eltzin	10
▁ut	10
▁desempeñ	10
▁empezaba	10
▁Gonzal	10
uatro	10
tando	10
▁limpian	10
▁crezca	10
▁callej	10
▁hechura	10
▁bol	10
▁moyo	10
▁cuartillo	10
▁depositar	10
▁Coatla	10
tiene	10
▁median	10
▁dirigi	10
▁mandan	10
▁brasas	10
▁reunión	10
▁Jer	10
lonia	10
tras	10
▁Huitzilopoch	10
▁tanbi	10
▁sab	10
▁Muri	10
▁tierno	10
fecho	10
popoca	10
▁Dig	10
quen	10
▁deste	10
▁Tlatil	10
▁Del	10
▁rebelar	10
▁consejo	10
▁bajaba	10
eza	10
▁conducido	10
▁diese	10
▁vapor	10
▁azúcar	10
▁sementeras	10
▁encino	10
▁echaba	10
▁semejante	10
▁embriagado	10
▁ancha	10
lotépe	10
ierra	10
▁perteneciente	10
▁Blanca	10
ias	10
▁Dej	10
▁pretende	10
ntro	10
▁bast	10
▁Quauhtli	10
▁Ocelotl	10
▁conduc	10
▁és	10
▁acudi	10
▁surgi	10
ray	10
▁manifestar	10
firi	10
tar	10
kil	10
▁polvo	10
▁coyo	10
iles	10
▁espanta	10
▁parec	10
▁amb	10
▁resulta	10
▁duro	10
▁Tote	10
▁merecer	10
▁destruy	10
mago	10
▁Xicomoy	10
cuchill	10
ál	10
▁siente	10
▁tienda	10
▁par	10
▁cohet	10
▁atender	10
▁Rey	10
ecatl	10
▁fuere	10
▁atlauhteca	10
▁ynformacion	10
▁usa	10
▁conocido	10
▁primogénit	10
tento	10
▁nueb	10
▁Mot	10
▁rocí	10
▁justo	10
▁Tula	10
▁intens	10
▁necesitaba	10
bido	10
▁paño	9
▁cuetlaxteca	9
▁excremento	9
▁tradici	9
▁calen	9
▁capturado	9
▁inund	9
▁Mazorca	9
til	9
▁vean	9
▁definitiva	9
▁Aco	9
▁Mex	9
▁corola	9
▁horadad	9
▁có	9
▁sacramento	9
▁arzobisp	9
▁jurisdicci	9
tó	9
▁retirar	9
▁vivido	9
▁quedan	9
rofesa	9
ur	9
▁daré	9
▁contado	9
bida	9
▁preocupe	9
▁compran	9
▁humano	9
▁descarnad	9
▁pertenencia	9
ilco	9
▁form	9
▁construido	9
▁amarillas	9
▁reverencia	9
▁Matlaccó	9
tonc	9
▁ofrecía	9
▁Villa	9
▁culhuacan	9
▁juga	9
▁embriagan	9
▁construcción	9
▁confirma	9
▁hall	9
▁partido	9
▁asesinado	9
▁conduj	9
▁zacat	9
▁discurso	9
▁completamente	9
fortuna	9
▁convertid	9
▁chapul	9
▁Pá	9
caron	9
▁enoj	9
forzado	9
uebla	9
▁plátano	9
▁Xochitecutl	9
▁dispone	9
▁quedaba	9
▁cobra	9
▁segun	9
▁ci	9
▁conquistador	9
▁Po	9
▁resonar	9
▁EN	9
A	9
▁lograd	9
▁vendia	9
▁predicador	9
▁Zum	9
▁metros	9
▁determina	9
▁gust	9
▁Comi	9
▁id	9
▁Temizt	9
▁Xiuht	9
▁superior	9
▁seguido	9
▁Ace	9
▁continu	9
▁lloviendo	9
▁cama	9
▁Mis	9
▁matlatzinca	9
entes	9
▁Tlaxilacall	9
▁Sim	9
▁ahorcar	9
▁papas	9
▁g	9
▁ayer	9
▁pondrá	9
▁Tonalli	9
tlatla	9
▁escuche	9
▁atacar	9
▁Ayotla	9
▁Escoba	9
▁juego	9
tañed	9
▁herede	9
▁escondido	9
▁Ben	9
cé	9
▁Tezcacohu	9
▁PRES	9
AG	9
NEST	9
▁obsta	9
▁querella	9
▁techo	9
▁separado	9
▁canela	9
▁oía	9
omb	9
ligo	9
▁Aten	9
▁venc	9
▁padecie	9
tzompa	9
▁maravillosa	9
▁tuya	9
▁Chalchiuhtl	9
▁Motelchiuh	9
▁demandan	9
▁quisier	9
▁viniere	9
raje	9
▁fallecid	9
▁Gua	9
▁tarda	9
E	9
▁simple	9
▁]:	9
poderoso	9
▁olvid	9
▁Zoqui	9
▁permanece	9
guas	9
▁corrien	9
▁cansan	9
▁sufrimiento	9
▁contradiga	9
▁actual	9
▁manantial	9
▁lavado	9
▁construy	9
▁poca	9
ci	9
▁aflic	9
▁pensa	9
▁emprende	9
▁ciment	9
▁endulza	9
▁reparti	9
▁diá	9
▁caro	9
▁Cuauhtzin	9
▁guajolotes	9
▁colocaba	9
▁Atzacual	9
▁disponía	9
amo	9
tálo	9
bio	9
memoria	9
▁corría	9
▁ajorca	9
▁palma	9
▁chico	9
▁dize	9
▁Epcoat	9
▁Ade	9
▁diferente	9
▁nahuatlato	9
ohuatzin	9
▁cuida	9
▁brotan	9
ovar	9
▁rápid	9
▁Guatemala	9
▁averigu	9
cedió	9
iones	9
▁eclips	9
▁camina	9
▁quite	9
▁Totol	9
▁Amo	9
▁molido	9
▁):	9
▁Motecuhzoma	9
▁Vaya	9
▁Tlaqui	9
▁pecado	9
imac	9
▁constante	9
lara	9
▁quedará	9
▁asistie	9
▁tocaba	9
▁fiel	9
▁copal	9
▁necesaria	9
▁lumbre	9
▁Resurrecci	9
ejas	9
▁olvide	9
▁..	9
huani	9
▁recibe	9
▁dominio	9
▁nacional	9
entin	9
▁Atezcapa	9
tuvo	9
▁gato	9
▁limpi	9
▁Tuv	9
▁jaguar	9
cuex	9
osotros	9
▁podrido	9
▁horno	9
▁gracia	9
▁viva	9
mez	9
oj	9
▁devoci	9
imos	9
▁maduro	9
▁esperaba	9
late	9
▁estima	9
alabras	9
▁caracol	9
▁coral	9
▁Parec	9
▁venerado	9
▁hacerle	9
▁Oso	9
▁habré	9
▁Qui	9
▁humana	9
▁replic	9
▁insisten	9
▁césped	9
illa	9
▁petate	9
▁Nanahuat	9
▁exhorta	9
▁espinoso	9
▁Estuv	9
▁estaría	9
▁aber	9
tecatl	9
mora	9
▁aflij	9
uitzo	9
▁viejit	9
▁patriarca	9
peuh	9
▁negras	9
tada	9
m	9
▁senador	9
▁ejerci	9
▁Diputa	9
▁ahuehuete	9
▁necesit	9
▁dies	9
▁piso	9
▁despid	9
▁tratado	9
▁convirti	9
▁Eh	9
▁oído	9
nia	9
▁macho	9
eme	9
▁Acall	9
▁bend	9
▁tendido	9
▁Paul	9
tria	9
▁trig	9
▁cofre	9
▁Il	9
▁Acxocu	9
movido	9
▁lentamente	9
▁perece	9
▁ande	9
▁comunicar	9
latl	9
áca	9
▁falsa	9
▁enseña	9
citos	9
▁falt	9
afa	9
▁torn	9
▁cost	9
alta	9
laga	9
▁Hueim	9
ficio	9
▁Bernardino	9
▁Huitznáhua	9
nquisi	9
irve	9
▁nieve	9
▁ciudadano	9
▁Tlacaté	9
pico	8
▁canasta	8
▁significa	8
▁ocurrir	8
▁angustia	8
▁cuanta	8
▁gira	8
jugar	8
usan	8
▁escoba	8
▁sonaja	8
▁teniente	8
grado	8
▁part	8
▁hijito	8
▁beberá	8
▁extranjero	8
▁difícil	8
▁gruesa	8
▁numeros	8
▁enredad	8
▁hervir	8
jas	8
▁roca	8
pósito	8
▁Yao	8
peli	8
▁edificado	8
endo	8
▁perfecta	8
▁solos	8
▁cobre	8
▁Ayot	8
▁Ip	8
▁declara	8
▁sentir	8
▁parecer	8
▁beni	8
▁mojonera	8
▁pegaba	8
▁ofreci	8
▁firmas	8
▁set	8
▁CON	8
gate	8
▁indu	8
▁pipián	8
▁pasta	8
▁magnífico	8
▁niñit	8
▁chicos	8
▁Tenoch	8
▁conducía	8
▁alegrar	8
▁jovencito	8
▁agri	8
▁contiene	8
▁vendiera	8
▁dormí	8
▁descuartizado	8
tlap	8
ictin	8
▁acuerd	8
bas	8
▁naranja	8
▁Eu	8
▁borde	8
▁jilote	8
▁her	8
▁Cre	8
▁ata	8
▁Itzcahua	8
▁traig	8
▁estancia	8
▁acostumbraba	8
▁opini	8
▁Tzon	8
cha	8
▁revuelve	8
▁rog	8
▁Vengan	8
▁Xochitl	8
▁familiar	8
▁sentía	8
▁deb	8
▁consta	8
▁estandarte	8
▁empeñ	8
necas	8
▁pasad	8
▁Pascua	8
▁criatura	8
alli	8
▁exhibi	8
AT	8
▁sabiduría	8
árra	8
▁petaca	8
▁volvía	8
ólat	8
zopi	8
rtir	8
▁calentar	8
▁trabajas	8
▁Er	8
nesto	8
▁clara	8
moloc	8
▁criado	8
▁Val	8
▁tomará	8
teko	8
▁envío	8
▁sorprendi	8
▁Prepara	8
▁hizie	8
▁circund	8
▁crecido	8
TE	8
▁quau	8
▁macana	8
▁Achit	8
IO	8
▁inicio	8
p	8
▁sacan	8
▁amarra	8
▁azote	8
▁Ocelopan	8
cerrado	8
cosa	8
▁choc	8
▁Atla	8
▁bes	8
▁envuelve	8
▁tlaco	8
▁Yacapi	8
chtlan	8
▁Tolteca	8
▁persiguie	8
▁vacante	8
▁ningun	8
▁travies	8
▁coloc	8
▁mudar	8
ible	8
▁Atlacu	8
▁letra	8
▁correr	8
▁indio	8
xi	8
▁Tecayehuatzin	8
▁hene	8
▁Haz	8
▁Mixcó	8
▁admirable	8
▁otorgamiento	8
▁condici	8
▁golpear	8
▁fu	8
ólotl	8
▁tetzcoca	8
et	8
▁permiso	8
culto	8
conos	8
▁dal	8
mática	8
▁amor	8
▁hallar	8
▁preguntar	8
▁caminar	8
▁amaranto	8
▁necesitar	8
▁sext	8
▁ilumina	8
▁canasto	8
▁vale	8
▁Ozto	8
▁cámara	8
otzin	8
▁aparta	8
ráct	8
▁dejaba	8
quita	8
cateuctl	8
▁sala	8
▁enojar	8
▁ce	8
▁horca	8
▁supr	8
irme	8
▁ahorcado	8
▁morador	8
▁apoder	8
▁impuest	8
▁univers	8
▁apoyo	8
▁cort	8
año	8
▁tratar	8
▁perdonar	8
▁realiza	8
untad	8
▁traerlo	8
▁gastar	8
adora	8
▁espes	8
▁mol	8
nieto	8
▁encuentran	8
armen	8
▁gusano	8
us	8
▁duerme	8
struido	8
loya	8
▁sometie	8
▁sa	8
▁desgrana	8
▁limosna	8
▁Thori	8
tema	8
▁vivieron	8
▁Tlachc	8
▁plática	8
▁preparado	8
▁doscientos	8
▁Has	8
▁dedica	8
hueitlato	8
je	8
▁extensi	8
▁fija	8
▁establezca	8
▁ortiga	8
▁participar	8
▁design	8
▁huerta	8
▁altura	8
hicomoztoc	8
▁diariamente	8
eocolhua	8
▁Chiapa	8
▁viste	8
cocolc	8
▁divide	8
▁guardado	8
▁ardía	8
re	8
quecholl	8
▁bon	8
▁regla	8
▁cuauhnahuaca	8
▁aviéndol	8
RI	8
▁Ocelotlteuc	8
▁dibuj	8
▁tributar	8
▁Pobre	8
▁bautizado	8
▁estudi	8
▁repartía	8
▁pein	8
▁altepetl	8
zón	8
▁montículo	8
▁Moquihuix	8
▁hablan	8
hua	8
▁envol	8
acto	8
▁lucha	8
▁midieron	8
▁Poste	8
▁objeto	8
▁especie	8
ria	8
▁pretendía	8
▁cansado	8
▁profet	8
▁judío	8
▁bord	8
▁pirámide	8
ctor	8
▁actividad	8
▁escobeta	8
▁certifica	8
▁nahuas	8
▁muera	8
▁corrida	8
▁mencionar	8
llan	8
▁pur	8
ega	8
▁vencido	8
▁car	8
▁Faustin	8
▁buscaba	8
in	8
▁cominos	8
▁Ej	8
rate	8
▁tamal	8
▁ayudar	8
for	8
▁pelear	8
etas	8
▁rodead	8
▁secó	8
▁sucede	8
▁montañas	8
▁cerrada	8
▁llevada	8
▁aument	8
▁guirnalda	8
▁arbol	8
tocan	8
▁bañarse	8
▁Tequic	8
▁regir	8
iquipil	8
▁estorb	8
▁hinca	8
▁hier	8
▁Buena	8
▁puxa	8
▁ard	8
▁Xí	8
tillo	8
▁Ca	8
▁maya	8
▁Vizca	8
▁castellano	8
▁juntaba	8
▁elevado	8
▁vete	8
▁víspera	8
▁Coco	8
▁parado	8
▁incensador	8
erna	8
vaca	8
llo	8
izo	8
▁penacho	8
▁mur	8
▁prueba	8
rtista	8
ES	8
▁llevará	8
▁vencer	8
▁Iztacal	8
▁alcanzar	7
▁puercos	7
▁femoral	7
▁chololteca	7
▁Yu	7
▁serranos	7
▁contaba	7
quinto	7
pasado	7
ngl	7
sistía	7
▁ésa	7
▁comerá	7
▁vientre	7
▁asu	7
oluca	7
▁claro	7
sentimiento	7
▁abandona	7
cruz	7
▁Justi	7
olito	7
▁sangr	7
▁cala	7
▁ciua	7
ogía	7
▁arrodill	7
▁entristeci	7
▁semill	7
stre	7
▁designado	7
▁seguirá	7
▁deber	7
▁Jhoa	7
▁Ningun	7
▁entré	7
▁peg	7
tenía	7
gencia	7
▁recipiente	7
▁tomarlo	7
▁felicidad	7
▁nombrar	7
▁busc	7
▁Igual	7
▁azulejo	7
▁tiza	7
▁tañe	7
biendo	7
▁Sería	7
▁danzar	7
mento	7
▁DIALOGO	7
nete	7
▁hi	7
ázar	7
▁avanzaba	7
▁red	7
«	7
»	7
erable	7
ix	7
▁descarg	7
▁guisado	7
▁estuviese	7
acatl	7
▁lic	7
▁línea	7
▁séptim	7
▁prestado	7
mada	7
▁Merc	7
ntaron	7
▁cortado	7
▁trozo	7
rian	7
▁amare	7
▁goza	7
▁gentil	7
eynos	7
▁correo	7
▁captur	7
▁Tonaca	7
▁Ayopocht	7
▁explica	7
fon	7
▁prosigu	7
▁degoll	7
▁Fui	7
▁encuentre	7
▁derrot	7
▁Acatla	7
▁gustaba	7
taba	7
▁Pres	7
▁juntaron	7
▁hon	7
▁máscara	7
▁falso	7
▁ocurrido	7
▁Dan	7
ay	7
▁valeroso	7
▁disparar	7
▁reparar	7
▁temp	7
▁enfrent	7
sentada	7
▁baba	7
▁linde	7
▁nonbrado	7
▁desaparecer	7
▁cacahuate	7
▁morado	7
▁Huehuetla	7
▁correspondiente	7
▁merecedor	7
▁caíd	7
noche	7
▁arreglar	7
▁tuviese	7
eda	7
▁ánimo	7
▁rajita	7
▁moler	7
▁vigilan	7
▁sépt	7
uple	7
▁tranquilo	7
JOL	7
▁intern	7
▁Asunci	7
▁trux	7
cadena	7
▁Tlaxcal	7
ber	7
▁pondr	7
▁Llevar	7
▁Toltecat	7
▁patria	7
bles	7
▁tiernos	7
▁portal	7
▁aconteci	7
▁venerad	7
manera	7
ula	7
▁Nanal	7
rég	7
redo	7
▁Totomihua	7
▁desgarra	7
▁tri	7
creció	7
ancal	7
▁inter	7
▁llen	7
▁bas	7
▁provey	7
ólogo	7
▁amenaza	7
▁excava	7
▁muchísimo	7
▁comience	7
▁dejará	7
▁huérfano	7
éramos	7
▁acabara	7
▁tendr	7
▁elev	7
▁majest	7
▁Map	7
▁Universi	7
edes	7
▁Esa	7
lté	7
▁barat	7
▁pastor	7
▁pato	7
▁confirm	7
▁soport	7
ajara	7
▁nombrada	7
rlo	7
▁monument	7
▁soi	7
▁hundi	7
▁propietario	7
▁escondi	7
▁pequeñas	7
▁diz	7
lle	7
▁virgen	7
▁avis	7
faci	7
▁Sabe	7
▁olor	7
▁cabell	7
▁Berna	7
bé	7
▁aprehendi	7
▁suficiente	7
▁Ingl	7
▁denominada	7
▁bajan	7
▁apesta	7
▁plumaje	7
▁afana	7
▁convocar	7
▁hechicero	7
mág	7
▁bailaba	7
iana	7
▁cumplido	7
▁valiente	7
▁Año	7
▁cabecera	7
▁puro	7
▁narra	7
▁hoyo	7
polla	7
igno	7
▁pasan	7
▁alegre	7
▁venas	7
▁cuela	7
▁agarrar	7
▁Habla	7
alén	7
jamos	7
▁reconocer	7
▁Coatlic	7
▁ejecut	7
ida	7
ridad	7
▁Regres	7
▁Nace	7
▁perturbe	7
▁invocar	7
▁Tepan	7
▁afligi	7
▁della	7
▁ratific	7
▁nonbre	7
▁viviría	7
▁Tzompahuaca	7
▁Tzihuac	7
▁tezcaco	7
iente	7
▁Metzt	7
aventura	7
▁molesto	7
▁Tzompan	7
▁sufre	7
forma	7
▁sub	7
▁situad	7
▁madrina	7
▁Decía	7
▁Brota	7
tado	7
tadas	7
uhtli	7
▁Ama	7
▁escalera	7
▁Ce	7
tonil	7
▁oscurecer	7
▁confesar	7
▁sustituy	7
▁trabajadores	7
tuvieran	7
▁buscan	7
▁aguel	7
▁ultim	7
▁cría	7
▁viruela	7
▁Chic	7
▁erguid	7
▁ataviar	7
▁vestidura	7
mpa	7
▁tiró	7
quieta	7
redi	7
cordia	7
▁ataviado	7
▁fibr	7
idos	7
lva	7
▁medi	7
▁ayuno	7
▁pobres	7
cántar	7
▁afligir	7
▁preguntaba	7
`	7
▁aflige	7
▁saluda	7
▁corregi	7
▁crecie	7
chon	7
▁avía	7
▁estimaba	7
▁dedicado	7
▁cuidados	7
▁cristal	7
▁cuartel	7
▁obedecían	7
▁trataba	7
▁escrita	7
▁cuadra	7
▁Suchi	7
▁preocupaba	7
▁cena	7
▁celest	7
▁Beat	7
▁Azta	7
▁asediado	7
▁Empieza	7
▁estrenar	7
▁Tan	7
▁dirige	7
almente	7
▁raspa	7
rrito	7
▁Teotihuacan	7
▁Favor	7
▁sano	7
▁directa	7
▁descarga	7
▁Tico	7
▁Huitznec	7
ton	7
▁chil	7
▁propus	7
▁solemn	7
▁respondi	7
▁esforzado	7
▁Tozcu	7
ería	7
▁bib	7
Serpiente	7
▁conserva	7
▁genera	7
▁Acol	7
▁enseñaba	7
▁Matlatzinc	7
▁círculo	7
▁conjunto	7
▁list	7
▁pajarito	7
▁juntar	7
▁puerto	7
▁realizar	7
▁idioma	7
▁Yaca	7
▁ocult	7
▁resplandor	7
▁Alf	7
▁utiliza	7
▁elecci	7
cuil	7
gatorio	7
▁guardaba	7
▁mama	7
▁Acuec	7
▁yergue	7
▁robar	7
▁inclin	7
▁completa	7
▁cacto	7
▁reside	7
▁Cast	7
▁Aquella	7
tablo	7
▁gasta	7
ecutivo	7
xayaca	7
▁compus	7
▁arde	7
ama	7
▁Quiero	7
▁alegr	7
chi	7
▁afrenta	7
▁dorada	7
▁deliberar	7
dario	7
té	7
eiba	7
▁espíritu	7
▁maravill	7
▁cuexteca	7
▁obligado	7
zonco	7
▁aparecía	7
▁faltaba	7
▁mercancía	7
chada	7
laman	7
▁Palacio	7
▁afirman	7
latzin	7
▁caminaba	7
▁seré	7
▁cos	7
▁rebel	7
▁arreglo	7
▁endereza	7
▁Cruci	7
▁originario	7
▁espiritu	7
▁col	7
▁sufri	7
▁expresado	7
▁It	7
▁arcabuce	7
▁Cuetlaxtl	7
máx	7
▁colocan	7
▁recatado	7
▁tlacotenc	7
LO	7
▁juicio	7
▁Mazatl	7
▁Tequixquipan	7
▁listo	7
▁preparar	7
mbar	7
▁duele	7
▁Coru	7
▁personal	7
▁agriet	7
bre	7
▁Topant	7
▁hazlo	7
atican	7
▁entrara	7
▁pintor	7
▁acostar	7
▁ejerce	7
▁gritos	7
▁requería	7
▁duodécim	7
▁tepixque	7
asilio	7
▁humear	7
▁trabajaba	7
▁Xihuiton	7
auhtzin	7
▁zacu	7
▁Ap	7
▁enterrado	7
otel	6
▁tlaxilacale	6
lló	6
▁dificultad	6
▁enju	6
▁leche	6
▁afán	6
▁vuelto	6
▁renovar	6
▁afligirá	6
▁peligro	6
▁sementera	6
sin	6
▁valen	6
▁sabor	6
▁seno	6
▁oí	6
tra	6
rmó	6
▁Orden	6
▁ganar	6
▁adornar	6
dula	6
▁contempl	6
▁habi	6
▁vestir	6
▁nuera	6
▁marquesa	6
▁du	6
azar	6
icos	6
▁fronter	6
▁consulta	6
▁anb	6
▁contenido	6
▁fo	6
▁ajena	6
▁preparaba	6
▁gru	6
▁fatiga	6
▁Cop	6
uez	6
ola	6
▁pegar	6
▁pelot	6
▁túmulo	6
▁responso	6
▁Tlacahuepan	6
▁político	6
▁viviremos	6
▁acompañante	6
ropa	6
fri	6
▁herba	6
▁pesada	6
izque	6
▁desnuda	6
▁tiende	6
▁veintena	6
▁abras	6
▁llov	6
cando	6
▁sembr	6
emente	6
▁oscurec	6
▁Baz	6
▁Chiucnauht	6
▁cajón	6
ahua	6
▁silencio	6
▁guiar	6
ahui	6
yerba	6
▁florece	6
▁Amilc	6
di	6
▁Gali	6
▁Llama	6
▁sirv	6
▁Justo	6
▁fundado	6
orque	6
▁mande	6
AL	6
▁cubrier	6
▁espiga	6
▁concluid	6
▁colgado	6
▁instalado	6
▁reconocie	6
▁Tecuicho	6
gente	6
▁parroquia	6
▁fall	6
▁levantan	6
nile	6
lé	6
▁atravesa	6
▁curaba	6
▁aguja	6
rgant	6
▁Huitzilla	6
uras	6
guito	6
▁partida	6
▁escaramuza	6
iel	6
▁educado	6
▁timbre	6
▁paró	6
▁Tzapotla	6
▁próxim	6
▁);	6
icalanc	6
▁sopla	6
▁enton	6
▁pruden	6
▁dá	6
▁suceda	6
yo	6
▁arrib	6
himallaxoch	6
▁introduj	6
▁privilegio	6
cili	6
coc	6
▁Teo	6
▁Cuitlahua	6
▁molino	6
▁pata	6
antí	6
▁cerc	6
▁acantilado	6
▁enterar	6
▁perverso	6
▁flechar	6
▁Noch	6
▁Quauhtepe	6
▁Quauhtzetzel	6
▁sufrie	6
▁responden	6
▁probab	6
▁germin	6
▁Totoquihua	6
▁Chikomexochitl	6
▁cañada	6
▁tepaneca	6
▁Pro	6
ingo	6
▁escuchen	6
▁conquistad	6
imen	6
▁trabajen	6
▁pu	6
▁turb	6
▁vendieron	6
▁crear	6
▁reunía	6
mentos	6
▁víctima	6
▁timbal	6
▁vigila	6
&	6
ovimiento	6
▁cree	6
▁obedece	6
▁cambia	6
▁afirma	6
▁instancia	6
sistir	6
▁deshace	6
▁trabajaban	6
▁obedecer	6
eli	6
▁vela	6
arios	6
▁Xihuit	6
▁haciéndo	6
▁vendría	6
▁distinta	6
▁Apepe	6
der	6
▁comunic	6
▁ceñido	6
▁Chá	6
▁aprovecha	6
▁pí	6
fensa	6
▁cazoleta	6
▁Tenga	6
▁reza	6
▁humill	6
▁asustado	6
▁cansa	6
▁Ocuil	6
▁tlacatecpan	6
▁cuna	6
▁destruya	6
tal	6
▁Acolm	6
▁enojaron	6
▁prohibi	6
▁chi	6
▁científico	6
ér	6
▁ape	6
▁arruin	6
▁platicar	6
▁Estamos	6
▁Cuetzpal	6
▁serio	6
▁pensar	6
▁quit	6
▁Regin	6
▁rasura	6
▁pen	6
aterra	6
del	6
▁corredor	6
▁Yacatecu	6
▁coge	6
▁Christo	6
▁rogar	6
▁cierre	6
▁malinalca	6
▁Car	6
▁desperdicia	6
▁oscureci	6
TL	6
▁destruirá	6
▁cru	6
comuni	6
▁desayunar	6
▁ech	6
▁pieza	6
eta	6
astre	6
▁secarse	6
▁engañar	6
▁nosotr	6
▁ataca	6
▁Huá	6
ámac	6
▁espantosa	6
▁portentos	6
▁verla	6
▁arbusto	6
licu	6
cajete	6
tzca	6
eca	6
tienden	6
▁bola	6
▁devorado	6
▁descansaba	6
▁astr	6
▁Ne	6
▁superfici	6
▁recibí	6
▁quieras	6
▁documento	6
▁castigar	6
▁cometa	6
▁creer	6
▁Tepetla	6
▁provoca	6
▁Mari	6
eciente	6
rú	6
brica	6
▁trab	6
▁deshierba	6
▁Escuche	6
manceb	6
zó	6
▁Cinc	6
▁regocija	6
▁gast	6
▁tien	6
▁becin	6
▁erguir	6
▁Pil	6
lxoch	6
▁Cohuatzin	6
▁permiti	6
▁ah	6
▁intest	6
méri	6
▁ingles	6
▁integra	6
▁fresco	6
▁dorad	6
▁Yacahuetz	6
▁topar	6
hinampa	6
▁conquistado	6
▁volverá	6
ará	6
▁Crece	6
nmediata	6
▁rode	6
▁repartir	6
ahogado	6
▁dirigía	6
▁buscó	6
▁die	6
ja	6
▁diferencia	6
▁nivel	6
▁ynformaci	6
▁sabia	6
▁arenga	6
▁compara	6
▁tomarla	6
W	6
▁Yaotzi	6
oyan	6
▁penado	6
hice	6
▁nombraba	6
▁Tlacatec	6
▁rapad	6
▁Huacal	6
▁Tzihuactl	6
huix	6
▁opin	6
▁indígena	6
▁movió	6
▁Zaca	6
▁mozo	6
▁sustentar	6
▁comunal	6
▁cesar	6
▁amarga	6
▁embriaguez	6
viene	6
▁remat	6
▁Florid	6
▁padece	6
▁contradicci	6
▁Ent	6
▁mencion	6
▁Venía	6
▁Poder	6
▁respectiva	6
istrito	6
▁envidia	6
▁escog	6
▁teuhctl	6
▁virtud	6
▁Cohuatla	6
pu	6
ercole	6
▁desdichado	6
▁florecita	6
usar	6
▁cambi	6
▁ayudaba	6
▁pronuncia	6
▁tomates	6
vil	6
▁temporal	6
▁acontecimiento	6
▁tropa	6
▁man	6
▁ch	6
acalo	6
▁redondo	6
▁quiebra	6
▁váya	6
milco	6
▁Secretario	6
▁abandonad	6
▁señorita	6
▁procurar	6
▁hueso	6
▁volviera	6
▁pequeñita	6
toria	6
▁abati	6
▁dign	6
▁labr	6
▁inspecciona	6
▁pul	6
▁Jusep	6
▁sacarla	6
▁Atezca	6
▁retroced	6
▁decimos	6
maban	6
▁confes	6
uch	6
bino	6
ice	6
▁católic	6
▁señalar	6
tus	6
▁Chap	6
tud	6
▁Mamalhuaz	6
enid	6
▁ordenar	6
▁enoja	6
▁sentaba	6
▁cubre	6
▁cántaro	6
▁Mix	6
▁desarrolla	6
xotl	6
▁determinará	6
▁Oye	6
cui	6
▁deberá	6
▁desampar	6
▁manojo	6
tépe	6
▁hervirl	6
▁torcido	6
quil	6
▁práctica	6
▁gra	6
▁jueces	6
▁calidad	6
▁prosigui	6
▁regalar	6
▁Cihua	6
▁maseual	6
▁vendiese	6
▁prima	6
▁colm	6
▁cura	6
▁asignar	6
▁Acxo	6
▁Orti	6
▁envia	6
▁cord	6
▁bolsa	6
▁confi	6
uéx	6
▁Comenz	6
▁arroz	6
nuevo	6
▁Gonz	6
▁Cuauhcó	6
▁Chimalma	6
▁amaría	6
▁pé	6
▁cualquiera	6
▁Cuitlahuac	6
▁cuchar	6
▁estimado	6
▁cita	6
▁guardan	6
con	6
▁Rein	6
ducto	6
izca	6
▁obsequiar	6
▁manto	6
▁tocado	6
▁empuña	6
▁Tecuan	6
▁encomend	6
▁Mimich	6
III	6
▁falte	6
▁Tlacochc	6
▁luminaria	6
▁creada	6
▁tuviera	6
▁inclina	6
▁padeci	6
▁célebre	6
▁Cali	6
umbre	6
▁juzgado	6
▁requiere	6
▁corn	6
mundo	6
uchitl	6
▁pedregal	6
▁figura	6
▁apropiar	6
▁individuo	6
▁Tet	6
▁pequeñito	6
▁adorno	6
▁complet	6
isa	6
▁Chi	6
▁pertenezca	6
▁oydo	6
▁oportunidad	6
▁Uta	6
▁falleci	6
▁Tlapan	6
▁acaban	6
▁bulto	6
▁poyauhteca	6
▁paraje	6
▁Tecoco	6
▁duque	6
▁acerc	6
▁Tomatl	6
▁contradi	6
▁derrib	6
fijo	6
tiva	6
▁desarrolle	6
irán	6
▁esparce	6
matlá	6
▁Dioni	6
▁cauda	6
▁sucio	6
▁beatifica	6
▁continua	6
▁sacado	6
eco	6
▁disponer	6
▁Iztacc	6
▁impid	6
leite	6
oyohuaca	6
▁mora	6
piña	6
▁tabla	6
▁acostumbra	6
▁milagros	6
▁oculto	6
TU	6
▁Amigo	6
cente	6
▁estuvieran	6
▁suma	6
▁herida	6
▁muer	6
▁nob	6
▁conforta	6
▁Axol	6
▁distrito	6
úb	6
▁inútil	6
▁unoaconej	6
▁abeto	6
▁Tech	6
▁mor	6
▁dul	6
▁contestar	6
▁dijera	6
itlán	6
▁maestr	6
escuela	6
▁satisfechos	6
cimientos	6
▁Bernald	6
▁requisito	6
▁indica	6
▁futuro	6
▁lego	6
vino	6
▁desatin	6
▁cuartill	6
décimo	6
▁Temilotzin	6
dijo	6
▁preocup	6
▁sucedi	6
▁elevar	6
▁jú	6
xtli	6
▁hiel	6
▁virreina	6
▁asediar	6
▁Cerro	6
hueyo	6
emoc	6
tzotl	6
▁Teopan	6
▁colibrí	6
áramos	6
▁volte	6
▁caudill	6
▁Cuitlach	6
▁inundar	6
▁tirado	6
poc	6
▁tlenam	6
▁vendido	6
▁far	6
▁excepci	6
▁ordenada	6
▁afuera	6
▁escuchado	6
lteuctl	6
▁abundante	6
▁escudilla	6
▁desciende	6
▁famoso	6
▁enojes	6
▁cami	5
quila	5
▁aguanta	5
▁estéis	5
▁Mand	5
▁encarga	5
▁trecho	5
▁logr	5
▁recogía	5
iste	5
▁frag	5
cicl	5
▁rue	5
▁comerci	5
▁sufrir	5
▁cuída	5
▁esparcir	5
jada	5
▁apoyad	5
▁auxiliar	5
▁desean	5
▁compadeci	5
▁obsequi	5
▁alivi	5
▁Será	5
▁Juanito	5
áculo	5
▁llenan	5
▁arrancan	5
▁Tercer	5
ortuga	5
▁abandonarla	5
ju	5
uso	5
ieren	5
▁riñer	5
▁ple	5
▁cumpl	5
▁bendía	5
▁Diga	5
▁haberle	5
ochtlan	5
iro	5
▁binie	5
▁Cuauhte	5
▁contó	5
capitza	5
▁aprendía	5
▁absol	5
uto	5
▁cuñad	5
▁venderá	5
udas	5
▁ajeno	5
▁desapareci	5
▁puerco	5
▁Poco	5
▁movie	5
▁evitar	5
▁Tzinacant	5
▁vendré	5
▁vives	5
itzca	5
▁peñasco	5
▁cañaveral	5
tanto	5
▁r	5
tam	5
▁descansa	5
rí	5
▁Mund	5
▁magueyal	5
▁pasear	5
▁tro	5
▁apedrea	5
▁Atli	5
tlalac	5
▁ardi	5
quía	5
▁encender	5
▁proyecto	5
seguir	5
▁movía	5
tlacozauhca	5
▁conci	5
▁prendier	5
▁franc	5
▁famosa	5
idas	5
▁sabido	5
▁xokoyoli	5
▁pedacitos	5
▁Maz	5
▁palom	5
▁Queda	5
▁poema	5
▁desató	5
▁europeo	5
▁itzcuauht	5
▁grandeza	5
▁chale	5
▁labrador	5
▁mentiroso	5
▁octav	5
▁acercaba	5
▁detenido	5
▁peniten	5
▁chapolear	5
zohu	5
▁Piens	5
▁escurre	5
▁presagio	5
▁desconoce	5
▁Van	5
colnahu	5
▁visible	5
▁Velá	5
pantzin	5
▁institu	5
▁oydor	5
▁saludarlo	5
▁liber	5
▁Toton	5
▁Xipe	5
▁contin	5
▁entroniza	5
▁oscurece	5
▁quemado	5
▁hervía	5
▁ponerle	5
▁enterraba	5
▁perdón	5
añana	5
▁Pino	5
▁Ta	5
palcate	5
▁preparan	5
▁trescientos	5
▁estuvi	5
▁IV	5
▁Teat	5
▁suspendi	5
▁atreve	5
mol	5
▁firmado	5
▁quemar	5
▁gote	5
ochpan	5
▁empeza	5
yce	5
cientos	5
▁ofendi	5
▁exigía	5
iuhcan	5
coali	5
apia	5
▁Tecpa	5
▁Vini	5
▁peones	5
▁horadar	5
▁trajera	5
▁conservar	5
▁cosquillas	5
▁taz	5
▁interesad	5
jón	5
himalhuaca	5
▁viviese	5
▁Cohuat	5
▁tem	5
▁rogaba	5
▁clausula	5
▁ymagen	5
▁dirig	5
▁apret	5
▁permaneci	5
▁doble	5
▁oscurecid	5
▁Acudi	5
▁estricta	5
▁Esper	5
▁entienden	5
▁atrevía	5
▁corporal	5
▁disip	5
▁dej	5
▁escap	5
titula	5
▁víbora	5
legio	5
yahual	5
▁Conc	5
dele	5
▁arrebata	5
▁receb	5
▁mosca	5
▁hoj	5
▁dispersa	5
▁acababa	5
▁almacen	5
igo	5
▁adquirir	5
▁redond	5
▁tamboril	5
▁prendido	5
huipile	5
▁mastle	5
▁movimiento	5
▁Techichiquil	5
▁lastimera	5
▁matas	5
▁ladrar	5
vir	5
▁aguacero	5
ísima	5
costé	5
▁adjudic	5
▁bebé	5
RO	5
▁defini	5
ense	5
▁realiz	5
▁pretend	5
▁despierta	5
▁tela	5
siete	5
donde	5
▁Ur	5
▁abandonado	5
▁Reden	5
▁gustara	5
▁pil	5
▁huacales	5
tzpan	5
▁Bel	5
▁trai	5
▁pá	5
▁promet	5
▁Quería	5
▁acabar	5
▁guajolote	5
gico	5
▁flo	5
▁invit	5
▁Qu	5
▁itacate	5
▁podré	5
▁pasto	5
▁ahorc	5
▁Nezahualpil	5
ores	5
íz	5
▁conseguía	5
esen	5
▁Tepanquiz	5
▁azotar	5
▁pública	5
▁Cuauhtlatohua	5
▁impedir	5
▁entrevista	5
jer	5
grama	5
sej	5
▁Tecuani	5
▁Tzoni	5
▁logra	5
▁lá	5
stima	5
▁oírl	5
▁acaudilla	5
▁registr	5
▁pudre	5
lac	5
cordó	5
írsel	5
▁compañera	5
▁Riber	5
▁particular	5
▁quejar	5
nahuaca	5
▁alem	5
ico	5
petlatzin	5
ríamos	5
▁matado	5
▁conflicto	5
▁labrada	5
▁voltea	5
▁inflama	5
▁secar	5
▁alca	5
▁pimienta	5
▁Tepaneca	5
▁enterado	5
▁viviera	5
▁medianos	5
▁Hermos	5
▁obtuv	5
▁Lic	5
cohuatzin	5
▁resucit	5
▁suplicaba	5
rnes	5
uhquil	5
aría	5
	5
▁perdura	5
▁angustie	5
▁trasladado	5
▁adornado	5
▁abre	5
▁alumbrar	5
dro	5
▁consum	5
▁dispers	5
▁Aya	5
panco	5
▁corriente	5
▁precipita	5
▁ben	5
▁deshech	5
▁asan	5
▁tapan	5
▁mercadería	5
▁frita	5
liuhqui	5
huetzqui	5
▁bis	5
▁chiltep	5
▁corre	5
▁encin	5
yauhtzin	5
▁Itztlotzin	5
▁perecerá	5
▁Otompa	5
dando	5
mbrado	5
▁verdolagas	5
▁descuid	5
▁coger	5
ramp	5
▁Nav	5
un	5
rve	5
▁fastidi	5
▁retra	5
▁antel	5
▁dormida	5
▁profes	5
▁amaba	5
ecu	5
▁llevaré	5
▁notorio	5
▁grave	5
▁ov	5
▁Chacha	5
▁Xaquin	5
▁ixtl	5
▁conquistar	5
▁enojado	5
▁vayá	5
▁cautivado	5
▁Anda	5
▁cad	5
▁débil	5
▁Quauh	5
fes	5
▁cay	5
▁ad	5
marino	5
▁territorial	5
▁VI	5
alidad	5
▁avisar	5
pitza	5
▁sepultada	5
▁despliega	5
ño	5
▁Huitz	5
▁Tz	5
▁mandaba	5
▁estim	5
▁primo	5
▁suel	5
▁pez	5
▁cere	5
▁juntan	5
▁salv	5
▁hijit	5
▁llevarle	5
▁inten	5
tizo	5
▁jala	5
▁bordado	5
▁guacamaya	5
▁regía	5
▁Amar	5
▁Xayaca	5
soma	5
▁cuitlahuaca	5
▁agobiado	5
xochitl	5
uró	5
▁just	5
zad	5
▁encamin	5
▁pint	5
hcan	5
▁extendid	5
▁dañar	5
jército	5
ecitos	5
▁montaña	5
▁Eva	5
▁Mar	5
▁raja	5
▁armado	5
▁funcion	5
▁pare	5
▁vestimenta	5
▁sirvi	5
▁rana	5
enero	5
▁Aztasuchi	5
▁muriera	5
▁xoconostles	5
▁coloqu	5
▁Busca	5
▁retumb	5
▁apodera	5
▁adueña	5
▁Siembra	5
parentes	5
▁vuela	5
▁Gra	5
▁pe	5
▁director	5
▁vivirá	5
▁Cuauhtli	5
▁tristes	5
▁Ixco	5
▁Telle	5
▁orna	5
ntifica	5
braba	5
▁Ixcuecu	5
firmó	5
▁Huax	5
▁olvida	5
lar	5
▁vivirás	5
guete	5
ulgar	5
▁tort	5
▁pasará	5
▁agradable	5
▁cera	5
▁barbech	5
▁Cuau	5
▁hordinario	5
▁mezquite	5
▁pudi	5
pich	5
▁concert	5
▁vendería	5
▁extra	5
▁mire	5
▁Tzompahua	5
▁proceden	5
▁abrig	5
zaqualc	5
▁Acuezcóma	5
▁huv	5
▁Josepe	5
▁responder	5
uet	5
nda	5
▁honr	5
▁destroza	5
▁depósito	5
▁esperanza	5
▁olvidar	5
yahua	5
▁Tendría	5
▁trueno	5
▁pesado	5
▁Baltha	5
▁oiga	5
auak	5
▁Bernard	5
ision	5
uame	5
▁nixtamal	5
▁aposent	5
▁referid	5
▁bland	5
▁acabe	5
▁cuchara	5
cáte	5
▁película	5
uatl	5
▁pelean	5
▁Tendrá	5
▁recogi	5
▁huele	5
▁acordar	5
▁iniciar	5
▁sentid	5
▁mexicana	5
▁Ramir	5
▁Ix	5
▁Ga	5
egó	5
▁tiangue	5
▁favorec	5
▁apresar	5
▁Q	5
▁engañe	5
▁imposi	5
▁pela	5
▁electoral	5
eando	5
▁consigna	5
spas	5
▁revolver	5
▁residen	5
▁li	5
▁menester	5
▁atrevi	5
efe	5
▁expone	5
▁erija	5
lpit	5
▁Dese	5
▁cihua	5
tlatohuan	5
▁Teocuitla	5
▁clarea	5
▁Hazlo	5
▁Tlilté	5
rdida	5
▁dijiste	5
▁abundan	5
ísimo	5
▁Celestial	5
lvaro	5
▁iría	5
▁desto	5
▁cog	5
lotl	5
▁acue	5
▁amonesta	5
ismo	5
▁Quetzaltépe	5
▁mujercita	5
▁Acolmi	5
olote	5
▁bordada	5
▁lienzo	5
▁compre	5
bía	5
▁correspondía	5
▁espum	5
▁sucesi	5
▁atribu	5
▁invent	5
▁Tecuil	5
▁aplica	5
▁Rie	5
jes	5
▁compadre	5
▁aprenda	5
amb	5
▁corregido	5
▁causaba	5
▁defecto	5
▁escuchad	5
tlatépe	5
▁dieci	5
rios	5
▁cuatrocient	5
▁Veng	5
▁cultivan	5
▁reforma	5
▁subiendo	5
ución	5
▁calz	5
▁retoño	5
▁juega	5
▁Hic	5
▁Suprem	5
▁xalto	5
ol	5
mador	5
▁Call	5
▁vivan	5
▁herido	5
▁ora	5
xotzin	5
▁trazar	5
▁unta	5
▁instruye	5
▁puente	5
▁pagan	5
▁torna	5
▁desp	5
▁conoc	5
▁notific	5
ot	5
▁banquete	5
▁hierbita	5
▁hubiere	5
▁Toteoci	5
▁invento	5
▁parecido	5
▁Mizquitl	5
▁trasuntado	5
▁Gutierre	5
cto	5
▁Bar	5
▁amarillear	5
▁tribunal	5
▁permite	5
▁obscur	5
parecido	5
▁tlailotlaca	5
quitl	5
▁medido	5
▁alquil	5
▁circunvecin	5
▁QUE	5
▁desdeñ	5
cargado	5
▁Silv	5
▁profesor	5
▁profund	5
▁aliment	5
▁Cuí	5
xcoc	5
▁bula	5
tán	5
ynte	5
▁traerla	5
▁género	5
▁dedicad	5
▁supie	5
▁cuidaba	5
▁Huítz	5
▁otorgar	5
diencia	5
▁dispara	5
▁XI	5
emani	5
▁fresca	5
▁abierta	5
prés	5
▁tronó	5
elo	5
yó	5
Tenochtitlan	5
tón	5
▁Permanente	5
tu	5
▁investiga	5
ndi	5
ZO	5
rubia	5
▁cuauh	5
malinal	5
▁castillo	5
▁reún	5
▁presidencia	5
▁exclam	5
lera	5
▁Cuex	5
▁acostado	5
▁bañaba	5
illas	5
▁jubileo	5
▁Cuauhtlat	5
cóhua	5
seguirlo	5
▁cierra	5
tín	5
▁pantal	5
▁secretari	5
▁tocaron	5
▁acer	5
▁Oco	5
▁Cuauhtenco	5
▁Next	5
iéndole	5
bilo	5
▁cazado	5
▁lec	5
▁Painal	5
▁aparezca	5
▁invocado	5
▁parada	5
▁estudios	5
verar	5
ído	5
olin	5
▁propone	5
▁Coanaco	5
▁Tetlepanquetza	5
▁nube	5
▁hacedor	5
▁terminan	5
▁saque	5
▁Du	5
▁sinti	5
ngo	5
far	5
▁retir	5
▁pelea	5
▁maravilloso	5
▁Nativi	5
▁Nenci	5
▁Magn	5
ILIT	5
▁savia	5
▁adivino	5
▁Xalti	5
▁ondula	5
▁abon	5
▁oíd	5
▁oirá	5
▁traves	5
▁baña	5
▁torpe	5
pe	5
▁engañado	5
huizcalpotonqui	5
▁compone	5
yendo	5
▁aborrece	5
▁cuidará	5
▁amortaja	5
▁Coatlayau	5
▁fortaleza	5
ic	5
cifica	5
▁irrita	5
▁Tzin	5
inqui	5
▁mosco	5
cedía	5
▁prefect	5
▁rellenar	5
▁crey	5
▁entrará	5
▁respondía	5
▁oblig	5
▁xal	5
alla	5
▁arrecia	5
▁vigilar	5
▁montad	5
▁legua	5
▁distan	5
▁Ixcozauh	5
▁Citlaltépe	5
tlán	5
▁tablilla	5
ntér	5
prete	5
▁Chimal	5
▁benefici	5
▁confirmado	5
▁siga	5
itud	5
▁Cierta	5
▁tecpatl	5
▁save	5
▁allegado	5
lega	5
▁cor	5
▁posee	5
▁aplaque	5
totl	5
▁gremio	5
▁doquier	5
▁ardor	5
rados	5
▁sopa	4
stituto	4
▁deud	4
▁prehispánico	4
▁distinto	4
stimado	4
▁orina	4
▁percibi	4
▁espí	4
▁ligera	4
▁Ibar	4
▁renov	4
éce	4
▁busque	4
▁montar	4
guer	4
▁Ti	4
epetzinco	4
dice	4
▁coci	4
▁Huey	4
▁apresado	4
▁peligrosa	4
▁cé	4
tla	4
▁dedican	4
▁educar	4
▁escripto	4
riente	4
▁consol	4
▁gotean	4
▁postr	4
▁Totec	4
▁boz	4
▁útil	4
▁cunpli	4
▁Culhuaca	4
▁Atococ	4
▁trat	4
▁viviente	4
▁sacrificaba	4
Cisne	4
▁inc	4
▁cua	4
▁mantenía	4
alca	4
▁Tlacatecc	4
▁Polo	4
▁añade	4
▁lavada	4
▁Cuauhqui	4
fianza	4
cuatro	4
▁encabeza	4
▁procur	4
▁abuelit	4
▁tlauhquechol	4
▁viviere	4
▁preced	4
▁Estaría	4
hcho	4
▁convertir	4
como	4
▁mantiene	4
▁Trae	4
▁recaud	4
ian	4
▁esperan	4
▁exclusiva	4
▁Bu	4
▁hága	4
tlapalla	4
▁cact	4
▁rod	4
▁tecomate	4
ver	4
tara	4
▁cabalga	4
▁acomoda	4
▁transporta	4
▁agujero	4
▁vend	4
▁rogamos	4
▁ignominiosa	4
raza	4
▁Ami	4
cogía	4
uce	4
▁gue	4
anco	4
▁dixe	4
▁hor	4
▁frijolito	4
cuic	4
▁Tepal	4
▁Vie	4
rado	4
▁Cotztemex	4
▁culpa	4
cimiento	4
▁marchit	4
▁perderá	4
▁broma	4
▁precis	4
SA	4
▁VERDE	4
▁cilantro	4
▁muñec	4
▁atado	4
ig	4
▁quitado	4
▁garra	4
tzim	4
▁gir	4
▁excelente	4
▁doctrina	4
▁Tlahui	4
tomá	4
chimale	4
▁gim	4
▁Totoli	4
▁tronar	4
▁rebañ	4
▁espantado	4
▁muert	4
cinco	4
hui	4
▁frecuen	4
▁pozo	4
f	4
OL	4
lifo	4
▁asesin	4
▁paje	4
▁encabezan	4
▁repentina	4
▁escogido	4
▁educada	4
▁acercar	4
▁Tex	4
itan	4
▁social	4
▁revista	4
maría	4
▁moneda	4
▁jícara	4
bilidad	4
▁conprador	4
▁clar	4
▁compren	4
▁doctrinar	4
▁Tlacoten	4
▁repet	4
▁injuri	4
▁Espina	4
estos	4
▁espant	4
▁adverti	4
▁desgracia	4
amparado	4
at	4
▁Cimat	4
▁matarlo	4
▁marca	4
▁mantuv	4
▁pregonar	4
▁excursi	4
▁Yaoc	4
▁interrumpi	4
▁cestecillo	4
oncillo	4
▁arroja	4
▁Texo	4
▁ant	4
▁dejé	4
▁molestia	4
▁riber	4
eños	4
▁cuest	4
▁acostad	4
uvo	4
▁vana	4
▁afligido	4
▁derrama	4
▁trabajamos	4
ANA	4
▁rasga	4
▁Debe	4
▁despedaz	4
▁raya	4
▁viniste	4
▁Oqui	4
▁curarse	4
▁Calm	4
▁Xala	4
▁alega	4
▁enseñorear	4
▁proced	4
ego	4
padeci	4
▁Da	4
▁observa	4
ncia	4
▁comestible	4
alc	4
LE	4
▁creyer	4
toloc	4
▁supe	4
eu	4
▁met	4
▁Niña	4
▁zaca	4
ncas	4
▁sauce	4
puesto	4
adra	4
▁Mixcoatl	4
▁tañ	4
▁espejito	4
▁hiere	4
▁amonton	4
▁borrach	4
▁llegará	4
▁escribe	4
▁Mé	4
▁atar	4
▁encantado	4
▁saludable	4
▁atemoriza	4
risco	4
▁Tziuht	4
▁repent	4
▁enseñan	4
ilio	4
▁Quau	4
▁Camp	4
▁cantaba	4
▁envolvía	4
▁enriquec	4
▁próspero	4
▁novedad	4
▁penos	4
▁vistos	4
pié	4
uco	4
ándola	4
▁estrena	4
ven	4
▁agradeci	4
▁inquieto	4
▁catedr	4
átic	4
autivo	4
▁bendecir	4
▁hir	4
▁maltratar	4
▁saldría	4
▁huid	4
▁descompon	4
orre	4
▁Manuel	4
▁periódico	4
▁Xal	4
▁culmina	4
▁divertir	4
▁estremece	4
▁Huitzíla	4
▁Azca	4
▁embarca	4
▁Hermano	4
ztacmixcohuatzin	4
▁humea	4
▁Teuhtlehua	4
ónica	4
▁amil	4
ctavo	4
▁Serpiente	4
▁sirva	4
▁cometi	4
▁ayudamos	4
toto	4
▁impone	4
aller	4
terna	4
▁apres	4
▁encontra	4
▁llave	4
▁Xiuhcoyol	4
▁Cuauht	4
▁tomara	4
▁mentir	4
isteis	4
▁querrá	4
▁llovizna	4
▁transforma	4
ente	4
▁comenzaba	4
▁cubría	4
▁rodeaba	4
▁aprehender	4
ronto	4
▁collera	4
▁ayudara	4
▁cortada	4
▁viera	4
▁anduv	4
▁bastone	4
▁abatido	4
▁Tendr	4
▁funcionario	4
continente	4
▁brillo	4
▁cómoda	4
▁dise	4
▁existía	4
▁adquiría	4
▁Teyo	4
▁deporte	4
▁Conoce	4
▁milagro	4
ló	4
▁ago	4
▁hizi	4
▁Cotolco	4
▁pelu	4
chan	4
▁Entr	4
▁braguero	4
▁Itzcó	4
▁invad	4
ndero	4
▁decreto	4
▁abanico	4
▁revistier	4
▁pectoral	4
▁Tlahu	4
▁biznaga	4
▁Canta	4
▁conprado	4
▁sabidor	4
▁pega	4
▁declaraci	4
▁temazcal	4
▁colocada	4
▁calient	4
▁suplica	4
▁explora	4
▁huitznahu	4
▁asustaba	4
▁Arm	4
▁invitaba	4
▁desbaratar	4
▁renombr	4
▁pon	4
▁rincon	4
▁Barb	4
▁prepara	4
parti	4
▁alcanz	4
▁sazona	4
▁trato	4
▁asiente	4
▁aceptar	4
▁atac	4
▁bebid	4
▁cubrir	4
▁Huixacht	4
▁conveni	4
▁ayud	4
▁problema	4
uelas	4
▁Pin	4
▁gigantes	4
▁Levánt	4
▁conval	4
▁Quin	4
▁jam	4
▁jur	4
▁recio	4
▁acudía	4
▁apresarlo	4
▁confí	4
▁Momau	4
▁encerraba	4
▁repar	4
▁máquina	4
▁Ocelo	4
▁amara	4
▁Ypolit	4
▁concertado	4
▁graniz	4
rme	4
▁Atlixuca	4
▁considerará	4
▁avergonza	4
▁enreda	4
▁vá	4
▁persist	4
▁cansar	4
▁miseria	4
▁acuesta	4
▁Arena	4
▁Vuestr	4
▁emoci	4
▁discípulo	4
produj	4
▁reverdece	4
▁Xalli	4
uéstrame	4
rranos	4
▁impidier	4
▁Baj	4
▁desgranado	4
▁sirvienta	4
▁despertar	4
▁Est	4
▁espi	4
▁probar	4
▁resfria	4
▁enfermaba	4
▁Tepotzotl	4
▁Tonal	4
ventu	4
▁Macuil	4
▁pico	4
zcué	4
atóna	4
▁quitaba	4
▁avergonzado	4
▁desata	4
▁am	4
rte	4
acional	4
Z	4
▁Dur	4
▁Macue	4
▁amase	4
▁encendía	4
▁apaga	4
▁descuartiza	4
▁promov	4
▁norma	4
▁penca	4
▁destinado	4
▁importan	4
▁Mago	4
▁advirti	4
▁rinc	4
▁apropiad	4
▁extraordinaria	4
▁sujeta	4
▁agradecer	4
icial	4
▁controversia	4
▁competen	4
EL	4
▁monj	4
suegro	4
▁conoci	4
él	4
uced	4
▁pierde	4
▁pis	4
▁descansan	4
▁desagradables	4
catli	4
▁goz	4
▁zapote	4
▁repic	4
▁acompañ	4
▁Camin	4
▁preso	4
▁pape	4
▁exacta	4
▁sobrepasa	4
▁aventaja	4
tan	4
▁Bla	4
▁agu	4
mecatl	4
ímit	4
▁amiga	4
▁Tlacate	4
▁gata	4
▁deseaba	4
▁sabrá	4
▁figuras	4
▁semejan	4
vieron	4
▁got	4
▁vendiere	4
▁capulines	4
▁rec	4
▁Alegraos	4
▁traje	4
▁boleto	4
▁Constan	4
▁Opoch	4
uhca	4
▁ataba	4
▁Roch	4
▁acusa	4
▁invocaba	4
▁nana	4
▁raspar	4
▁iztacc	4
▁descubierto	4
▁acrecientan	4
▁rodear	4
▁arder	4
▁perd	4
▁aborrecía	4
▁derrotar	4
▁aventó	4
oliente	4
▁Tle	4
▁ballesta	4
▁Chimalpah	4
▁Mexicatl	4
ncho	4
▁manojito	4
▁cultiva	4
▁gordo	4
ku	4
tú	4
men	4
dar	4
▁pretenda	4
▁vendiesen	4
▁uauj	4
▁pech	4
▁intentaba	4
gan	4
▁llevara	4
▁tepi	4
▁plat	4
▁Tlacochcalcatl	4
stá	4
▁Ch	4
hilito	4
▁relámpago	4
▁extremo	4
▁ayunar	4
▁molestar	4
▁exclusiv	4
cauh	4
▁Moise	4
▁distribu	4
mamos	4
▁recev	4
oyon	4
▁regañ	4
▁matlact	4
▁kil	4
▁favorable	4
▁manifesta	4
▁encontrarlo	4
▁invoc	4
▁vendida	4
▁Occetépe	4
▁Tlappan	4
▁local	4
▁impres	4
▁cultural	4
zca	4
▁sesion	4
▁ocupará	4
▁estudio	4
▁discusi	4
▁resoluci	4
▁lista	4
▁siembre	4
▁Amax	4
▁honrado	4
▁rebanadas	4
▁traido	4
▁tortillita	4
▁desocupada	4
▁desiert	4
▁apostar	4
▁tema	4
▁ne	4
▁denomina	4
▁amarrándo	4
vos	4
▁mya	4
▁nudo	4
▁compañ	4
▁arrieras	4
tones	4
col	4
tzincas	4
▁efigie	4
▁ins	4
conehua	4
yacan	4
▁plan	4
pane	4
▁Apan	4
▁germinar	4
▁previa	4
▁ocupa	4
▁suplente	4
clinar	4
▁instituy	4
table	4
▁apresurada	4
cula	4
▁agarr	4
▁mo	4
▁continente	4
▁Lobo	4
adena	4
premiará	4
pré	4
▁grita	4
▁marc	4
▁producto	4
▁Nex	4
coatl	4
▁entidad	4
▁dobla	4
▁xiuh	4
▁lombri	4
gendrar	4
▁curandero	4
▁alumbre	4
▁Pone	4
ohuayan	4
▁desplega	4
▁Epcó	4
panteuctl	4
▁esparc	4
▁simient	4
▁resultado	4
tica	4
▁desear	4
▁Tell	4
▁pira	4
▁mantienen	4
▁hembra	4
▁tormento	4
▁borregu	4
▁chirimía	4
anos	4
Casa	4
▁menciona	4
dias	4
▁recordaba	4
▁pú	4
úch	4
rastra	4
carn	4
ativo	4
Ó	4
cihuatl	4
▁amen	4
▁grip	4
▁traduc	4
▁invierno	4
▁Popotla	4
▁revol	4
▁frondoso	4
nterior	4
▁viga	4
▁chiquita	4
▁parecida	4
▁huehuet	4
▁recomenda	4
▁fijo	4
▁circunda	4
▁doblar	4
▁Pasado	4
▁liebre	4
▁rescibi	4
▁señalada	4
▁derech	4
▁aspecto	4
▁oriund	4
▁recordará	4
▁tor	4
des	4
▁Tlaltecatzin	4
▁existi	4
▁incensario	4
▁Mayor	4
▁Acolmiztl	4
▁ric	4
▁organiza	4
itario	4
nuncia	4
▁arrastrado	4
ere	4
gado	4
▁delgadas	4
▁Tecpan	4
▁canoniza	4
▁Ray	4
gamos	4
▁conduci	4
▁siti	4
pach	4
▁ausent	4
▁ingl	4
via	4
ge	4
▁chí	4
▁quedara	4
▁fuero	4
▁engaña	4
▁amonestado	4
▁riego	4
▁mixcólotl	4
uate	4
▁empuj	4
petu	4
▁diadema	4
rmela	4
▁causado	4
▁conden	4
▁Tlalt	4
V	4
DO	4
quetz	4
▁molió	4
▁Díga	4
mana	4
▁Ed	4
uauhtinchan	4
▁Tzinaca	4
k	4
▁convi	4
▁popular	4
▁confundi	4
ntre	4
▁caminante	4
▁Sur	4
idalgo	4
	4
am	4
▁recorrier	4
dido	4
▁olvidad	4
▁alba	4
▁maicito	4
▁ochocient	4
▁chin	4
anja	4
▁Fal	4
▁continuaba	4
▁Legislativo	4
▁Poderes	4
▁Popoyot	4
▁asisti	4
▁Isla	4
▁congreg	4
▁Cierv	4
▁Ceo	4
▁quelites	4
▁suplic	4
▁Hágan	4
▁escondidas	4
▁oloros	4
▁indigna	4
▁bailan	4
▁aérea	4
▁machete	4
▁morral	4
▁mortal	4
tamal	4
▁Mor	4
▁dirij	4
cantado	4
casita	4
▁devor	4
▁muriere	4
▁ausencia	4
▁orégano	4
▁desig	4
uales	4
▁Pepe	4
CI	4
▁Cuaut	4
▁pinto	4
▁combat	4
▁derr	4
etido	4
▁bivier	4
▁esparcida	4
▁llenaba	4
▁obedecido	4
▁confus	4
pondrá	4
▁mantequi	4
▁rompi	4
abi	4
▁ampli	4
▁provoque	4
▁decidir	4
▁cociner	4
▁permitiera	4
suelo	4
▁agasaj	4
▁fino	4
▁pino	4
▁Arranca	4
▁dividida	4
rico	4
riz	4
▁llevándose	4
▁propon	4
▁Pus	4
▁Atl	4
▁pegada	4
▁sembraba	4
▁eligie	4
▁honce	4
▁paresc	4
▁discut	4
ciado	4
ex	4
▁Ueue	4
▁acudir	4
▁idea	4
▁bebía	4
▁Axo	4
uaca	4
▁resu	4
▁conveniente	4
▁Oztot	4
▁regalaba	4
stia	4
ierre	4
▁comp	4
▁humeante	4
lmuerz	4
▁proclama	4
reciente	4
guero	4
▁unidos	4
▁chícharos	4
▁prencipal	4
▁j	4
ezca	4
▁tomas	4
▁ofrec	4
▁adquier	4
▁reanudar	4
▁significar	4
▁encendido	4
▁rodean	4
▁amistos	4
deros	4
▁instrumento	4
▁verdura	4
tzontl	4
▁zona	4
▁peligroso	4
serra	4
▁descubr	4
▁enferm	4
▁pacífica	4
▁goce	4
▁enfrentamiento	4
▁gematista	4
▁asust	4
▁desecha	4
▁arca	4
▁frutal	4
XO	4
▁termine	4
▁sufren	4
▁Esfuér	4
▁interrogar	4
ech	4
▁despidi	4
vi	4
tlatl	4
ños	4
▁quej	4
▁mandarlo	4
▁celestial	4
▁cataplasma	4
▁sustitui	4
▁uña	4
▁Tenuch	4
▁Cipac	4
▁reunió	4
▁relato	4
▁consigue	4
▁expresará	4
cle	4
▁Cozcacuauhtenan	4
▁Tlacot	4
▁ber	4
▁repican	4
▁dig	4
▁orgulloso	4
▁Tenan	4
▁resplandec	4
▁Tenantzin	4
▁qui	4
▁jiote	4
ículo	4
▁Xiuhte	4
▁endemoniado	4
▁engendrado	4
▁asombr	4
izar	4
cuech	4
gre	4
▁salitros	4
▁entrelaza	4
▁lis	4
elas	4
matl	4
▁construyera	4
▁agita	4
parejas	4
▁cont	4
▁permanente	4
▁pujar	4
▁deleit	4
▁procurador	4
▁contendía	4
▁hiri	4
▁Nahualteuctl	4
▁rap	4
idez	4
▁soñar	4
▁confiri	4
daron	4
▁raspaba	4
▁usaba	4
▁temía	4
▁rat	4
▁at	4
▁evangeli	4
▁Char	4
lit	4
seis	4
▁adqui	4
▁tlalhu	4
▁racion	4
▁ofend	4
▁Tlahto	4
illos	4
▁devolv	4
▁Cor	4
▁adicion	4
▁Bandera	4
▁victoria	4
▁déjalo	4
▁ejecu	4
▁festejar	4
otlam	4
▁manifiesta	4
izac	4
inició	4
▁desaparezca	4
▁retractar	4
▁equip	4
▁acabará	4
▁permane	4
▁proporciona	4
▁desprecia	4
▁Cohuatl	4
▁recado	4
AS	4
▁Cacamat	4
▁esfera	4
▁duel	4
▁protesta	4
▁Nació	4
▁alabado	4
▁sart	4
▁Ixtlil	4
▁curv	4
carcel	4
▁brevemente	4
▁reservad	4
▁conservad	4
▁remov	4
bozo	4
▁decimotercer	4
▁carpa	4
▁Temazcal	4
▁inicial	4
▁popot	4
▁carpintero	4
▁situa	4
▁hábil	4
▁calzado	3
stitución	3
▁transfi	3
▁estufa	3
▁chilito	3
▁pregunté	3
iza	3
▁extraordinario	3
▁limita	3
lejado	3
▁recompensa	3
▁priva	3
▁temi	3
▁apacible	3
▁derramar	3
▁grat	3
▁prob	3
▁moderada	3
ndas	3
ouat	3
▁Inven	3
▁sujet	3
▁deshaga	3
▁pulid	3
▁administrar	3
▁casu	3
▁voluntari	3
▁acusado	3
fo	3
▁desee	3
▁Bo	3
▁encerrada	3
▁criar	3
▁ent	3
ento	3
▁hered	3
▁Pregunt	3
▁Decid	3
▁custodiaba	3
tlamacazqu	3
▁compro	3
▁reclamar	3
tróp	3
▁gene	3
▁convocado	3
▁acongoja	3
▁cunpl	3
▁Ribe	3
be	3
olócat	3
▁arro	3
▁firmar	3
▁meta	3
htin	3
▁planeta	3
▁bocado	3
▁mét	3
▁fatigas	3
emana	3
epeyacac	3
▁Tráigannos	3
▁Tlacochcalc	3
▁ceboll	3
▁rojiza	3
▁encarcela	3
▁comienz	3
chique	3
▁mantenimiento	3
▁verlos	3
▁tular	3
▁Zacap	3
▁Xocoyol	3
▁rito	3
▁adúltero	3
▁into	3
▁recat	3
▁Tecui	3
▁colgaba	3
▁deposita	3
▁urgen	3
▁detener	3
▁abrazar	3
▁patrona	3
▁Sub	3
▁lastim	3
▁desbarat	3
▁tern	3
▁delgadita	3
▁hueite	3
cuí	3
▁arrastraba	3
▁despedí	3
▁arrugada	3
▁prendi	3
▁aparent	3
▁individual	3
rnos	3
▁Icno	3
▁Cocol	3
▁sentenciado	3
▁ejército	3
▁Zara	3
▁vence	3
▁obi	3
▁teñ	3
▁desprende	3
tlapalte	3
▁Oztoc	3
▁Segu	3
ramente	3
▁Tecal	3
chco	3
▁polac	3
rcos	3
▁Vien	3
▁perdía	3
orme	3
▁platito	3
mé	3
toc	3
lohua	3
▁villa	3
▁Gu	3
▁condes	3
puesta	3
▁Chil	3
▁investigar	3
▁hijitos	3
liztaca	3
▁desazolvar	3
▁cañ	3
▁paresca	3
▁band	3
▁revolv	3
▁implor	3
ongos	3
▁Ome	3
▁punzan	3
hue	3
▁SE	3
▁ocultar	3
▁estruendo	3
▁brillan	3
petzinco	3
▁huitzillihuit	3
ence	3
huitztl	3
▁tiraba	3
diz	3
▁teporingo	3
▁zorrillo	3
▁Chile	3
ende	3
▁vivas	3
olocan	3
▁entristece	3
▁Siénte	3
▁bisi	3
▁Xoxo	3
▁precipitad	3
▁organ	3
▁Ycnotl	3
▁anocheci	3
▁Tehua	3
▁cantan	3
▁deposit	3
▁hinch	3
▁hablen	3
▁Toca	3
usa	3
iba	3
▁dividía	3
▁entretej	3
▁rem	3
AMO	3
▁Tete	3
▁fusil	3
▁prepare	3
▁anunciar	3
ER	3
▁mereci	3
ipe	3
▁Ab	3
oliui	3
aíz	3
▁trepa	3
▁gr	3
▁jard	3
▁adjuntos	3
tapalapa	3
▁tezontle	3
▁apiada	3
▁tlama	3
▁amparado	3
zoma	3
▁azotaba	3
▁festej	3
▁MA	3
▁engalana	3
▁metía	3
▁ribete	3
▁Acallo	3
▁huía	3
gue	3
axal	3
▁Xiloxoch	3
▁presid	3
▁concedier	3
▁fúnebre	3
▁vigil	3
▁refi	3
▁disputan	3
▁Heca	3
▁tribu	3
▁xi	3
▁Macpalxochit	3
ed	3
▁contemplar	3
▁reconocid	3
▁escupi	3
NI	3
▁relata	3
cierto	3
▁soberan	3
▁respetaba	3
▁Pipitla	3
▁terr	3
▁atajar	3
▁emborracha	3
tiza	3
▁Tul	3
▁fallesciere	3
▁contentaron	3
▁cocid	3
▁super	3
▁tajo	3
▁acometi	3
▁rebana	3
▁tard	3
▁cordel	3
▁laguner	3
▁filósofo	3
▁traspasa	3
decer	3
▁repercut	3
▁Quint	3
▁Caña	3
▁existir	3
orosa	3
▁declarada	3
▁ladra	3
▁amarrado	3
▁ahuyenta	3
▁sembradío	3
▁Tráiganla	3
▁identifica	3
▁antropólog	3
▁comerciaba	3
▁retorna	3
rge	3
▁desliza	3
▁pedacito	3
▁tiangui	3
▁pronunciaba	3
▁divertirse	3
▁Cité	3
ADE	3
▁Cant	3
▁cautiv	3
▁acomóda	3
▁instruir	3
▁excavaba	3
▁anegar	3
▁hac	3
▁introduc	3
▁introduci	3
▁reflexiona	3
neral	3
▁intentar	3
▁pilot	3
▁obedecier	3
ho	3
▁preocupado	3
▁inundad	3
▁prójimo	3
▁prior	3
▁Tecó	3
▁mezcla	3
▁cimarron	3
▁reuni	3
▁Antoñ	3
▁Hé	3
ñas	3
▁reconocerl	3
▁jor	3
ztoticpac	3
una	3
rrafo	3
▁Oiga	3
ydo	3
balga	3
▁cocerlo	3
▁Servía	3
▁mizquica	3
ierto	3
▁anunci	3
iencia	3
▁interesa	3
omienza	3
▁ren	3
▁dispuesta	3
omín	3
▁colgad	3
▁Miyahuatoto	3
▁Man	3
▁Quiyauh	3
▁har	3
▁Cuachi	3
▁vej	3
▁castigaba	3
▁culebra	3
▁espinos	3
▁equi	3
▁Masa	3
▁sacudi	3
▁escrib	3
iésemos	3
▁Oton	3
▁gor	3
▁reclu	3
▁tax	3
quihuit	3
▁soltaba	3
▁tronaba	3
ocemos	3
▁abrazo	3
ial	3
▁Tráiganl	3
▁Lib	3
enlo	3
▁arranca	3
maqu	3
▁Quech	3
▁hablarle	3
▁hable	3
rum	3
▁uva	3
▁reluci	3
uerto	3
▁escribiera	3
▁composi	3
▁Feder	3
▁portugu	3
▁Xaltepe	3
▁revient	3
▁cercena	3
rias	3
▁alcanc	3
▁joy	3
áve	3
ide	3
▁atadero	3
▁gorda	3
▁pendiente	3
▁Pantitl	3
▁quebrar	3
▁pastorcit	3
▁deci	3
uiz	3
▁sahumador	3
▁llame	3
▁descansé	3
▁mediano	3
▁Iztacx	3
▁sazon	3
nada	3
▁equivocad	3
▁escal	3
eves	3
gueta	3
▁amenazaba	3
▁Capol	3
▁dixere	3
redes	3
▁fleco	3
▁ampara	3
▁poquita	3
▁sábe	3
▁Sup	3
▁retornar	3
eloc	3
▁roza	3
▁esclarece	3
▁pudr	3
▁Oroz	3
▁sobrenatural	3
▁ayudan	3
▁nonbra	3
canto	3
▁materia	3
emite	3
▁sonido	3
▁seren	3
▁kuou	3
▁lector	3
▁desembarc	3
▁caballeriza	3
▁tabl	3
▁yopi	3
ihuatecpan	3
▁encontrará	3
▁xoch	3
ipilt	3
▁burlaba	3
▁boludo	3
▁hiz	3
▁lazo	3
▁calli	3
El	3
stro	3
▁padecer	3
▁profunda	3
▁comprobar	3
▁asignara	3
▁topile	3
▁secundario	3
▁Xocoyolt	3
▁socorr	3
▁conmo	3
▁acava	3
▁movi	3
conocida	3
▁Coatepe	3
▁mostra	3
▁Xancopinca	3
▁Coa	3
▁saborea	3
▁Fu	3
▁renta	3
▁resolver	3
▁etapa	3
▁asocia	3
▁Tlalcoz	3
éxi	3
▁reinar	3
▁xokoyol	3
stando	3
▁consign	3
▁esparcido	3
▁Aran	3
▁except	3
▁condenado	3
tró	3
▁correct	3
▁mode	3
▁cosechar	3
▁dormido	3
▁compras	3
ruj	3
odría	3
▁Habr	3
▁enhiest	3
▁proveer	3
▁supier	3
▁tratan	3
cuch	3
iuhqui	3
▁Chikometepetl	3
▁ampar	3
▁protec	3
▁averg	3
ILL	3
▁suena	3
tsilin	3
ndad	3
▁indigen	3
▁enviaba	3
yacente	3
ócalo	3
▁Derech	3
▁ametralladora	3
▁tumbar	3
▁apachurra	3
▁correspondió	3
▁dispondr	3
▁cercan	3
▁repit	3
▁Nono	3
▁Dé	3
▁soñ	3
▁cat	3
▁Chimalp	3
hin	3
▁apla	3
ude	3
▁Amilpa	3
quelite	3
▁vendiste	3
▁curiosa	3
,	3
▁diaria	3
▁fácilmente	3
▁Ayaxca	3
▁alivie	3
huel	3
▁invitado	3
▁gratifica	3
▁Xochiaya	3
▁Moteuc	3
▁andrajos	3
▁embizm	3
▁Cuitlacht	3
▁empre	3
▁opaca	3
▁construye	3
▁escucharlo	3
▁ajustan	3
layo	3
ista	3
▁patrimoni	3
▁prohibid	3
▁Subi	3
meca	3
▁hacha	3
dieron	3
▁bastardo	3
nquiz	3
▁tipo	3
▁abierto	3
▁prender	3
▁bautism	3
tera	3
▁apellida	3
▁lastimero	3
▁suceso	3
▁barre	3
▁escena	3
▁dialogan	3
▁arroga	3
▁observar	3
ierro	3
bad	3
▁fortalecer	3
▁miseri	3
▁metido	3
▁ceremonia	3
▁religi	3
aria	3
▁Yaut	3
▁turn	3
▁bañador	3
▁Puchtla	3
▁distinguido	3
▁favorece	3
minar	3
▁ocupada	3
▁revelar	3
▁Jud	3
▁CHIL	3
▁Qua	3
cen	3
huan	3
▁platicamos	3
yauhca	3
▁respondo	3
edas	3
▁revestí	3
▁prescrib	3
moto	3
yacac	3
▁apoyaba	3
▁referen	3
▁solicitaba	3
▁suscit	3
▁joya	3
▁Cib	3
▁disgustado	3
▁emb	3
▁ennegrec	3
▁vivieras	3
▁ensucia	3
cuauhtla	3
▁distingue	3
darme	3
able	3
▁pervierte	3
▁Huitzilte	3
eré	3
amaco	3
▁escuchas	3
▁amanecía	3
▁quebrada	3
▁desaloja	3
▁carc	3
ajes	3
▁gros	3
▁labrado	3
▁violencia	3
auh	3
▁apunta	3
▁premio	3
▁regalaron	3
▁aprobada	3
▁diploma	3
▁Tráiga	3
▁botella	3
▁presta	3
▁Salía	3
▁rapado	3
itiv	3
▁obrar	3
▁hereder	3
▁arrastr	3
▁codici	3
zúcar	3
▁denota	3
▁encarg	3
▁convoc	3
nacaz	3
▁posea	3
lalocan	3
dera	3
matzin	3
▁Xochitecuitl	3
▁Huicol	3
▁Chalchi	3
▁Queza	3
▁ocup	3
cic	3
bien	3
▁pretender	3
▁revel	3
▁intel	3
ual	3
▁restante	3
▁rezaba	3
▁colinda	3
▁abund	3
uauhtli	3
▁imp	3
mbre	3
▁rescat	3
▁Totoz	3
▁mir	3
rdido	3
▁desarrollar	3
azón	3
qua	3
▁atas	3
▁fábula	3
▁tened	3
▁tomad	3
▁auxili	3
ohuaixtlahuaca	3
▁materna	3
▁paterna	3
▁cubierta	3
▁Palo	3
▁ansia	3
ues	3
▁muestr	3
▁enrojec	3
▁humild	3
▁turbe	3
▁aced	3
▁perturbar	3
▁acomodado	3
rrible	3
stable	3
▁esponjad	3
elegido	3
▁Tloc	3
▁otorgue	3
▁entregue	3
▁muchísima	3
▁contada	3
cac	3
▁diria	3
▁diría	3
▁interesante	3
▁ra	3
american	3
opí	3
▁arri	3
▁harto	3
▁domina	3
▁requerirá	3
▁Xicohténcatl	3
▁inclus	3
▁atarlo	3
▁vuelva	3
▁convidado	3
▁tlaxillacall	3
▁Tío	3
▁reposa	3
▁aguacate	3
▁vendieren	3
▁crucificado	3
▁tamalayo	3
acahuaca	3
▁pirú	3
Mon	3
▁tequihua	3
▁extendi	3
▁salva	3
▁consecu	3
▁ambici	3
▁escase	3
có	3
▁Ecat	3
▁mango	3
▁coincid	3
▁ordinaria	3
▁vot	3
▁corresponda	3
ntó	3
	3
hu	3
▁Vender	3
▁Llora	3
▁Estará	3
yacapa	3
▁dispon	3
▁carro	3
▁tir	3
vía	3
▁boscos	3
▁apretad	3
rie	3
▁Pue	3
▁afeit	3
▁chapea	3
▁and	3
▁Salud	3
caxoc	3
▁tzompantle	3
pul	3
▁Dispénse	3
▁Hola	3
▁Matla	3
▁renuncia	3
▁Tezcatlami	3
▁afirmar	3
▁mintie	3
▁venera	3
▁administr	3
▁entendía	3
nima	3
fundada	3
▁pertenecie	3
▁Cohuatzontl	3
▁Pastor	3
pote	3
▁infl	3
uixtoc	3
iño	3
ala	3
▁Tetl	3
▁Zacua	3
ndez	3
▁elegir	3
▁nacid	3
queda	3
▁doncell	3
▁expus	3
▁nokta	3
▁alterar	3
▁crucifi	3
▁desconocid	3
▁go	3
▁Legislat	3
▁iniciativa	3
cuez	3
▁escud	3
▁cultiba	3
ñe	3
▁beneficia	3
tok	3
ojo	3
laza	3
▁imaginaba	3
▁milpita	3
▁informe	3
▁Volv	3
▁bote	3
▁choca	3
▁Bem	3
▁Matlalc	3
ebre	3
▁referir	3
▁adorna	3
g	3
▁carab	3
▁paraestatal	3
▁base	3
▁interven	3
Ñ	3
▁empacho	3
chura	3
▁tecpayo	3
▁fungie	3
▁cuauht	3
lahtol	3
▁Quahuit	3
▁quema	3
▁aliviar	3
▁flan	3
▁insta	3
▁Necesit	3
▁Español	3
=	3
rid	3
▁súplica	3
▁gustoso	3
▁Atlac	3
▁metro	3
metro	3
▁Cí	3
jan	3
▁correc	3
▁candelero	3
▁dom	3
ést	3
▁mene	3
▁Pasad	3
por	3
▁abra	3
▁neg	3
mortaja	3
auhtépe	3
▁enfada	3
▁exhibía	3
QUI	3
▁conserv	3
▁empuja	3
▁sustituir	3
▁cuánt	3
mpico	3
▁Baja	3
▁AR	3
J	3
uz	3
ecatzin	3
▁x	3
▁heredad	3
▁grab	3
▁imita	3
▁atiende	3
uayan	3
▁Bri	3
▁reconocí	3
▁lanzar	3
▁oprimi	3
▁sepulta	3
mecac	3
▁herir	3
▁Nan	3
goro	3
bordó	3
▁Ahui	3
cequi	3
▁amará	3
tecutl	3
tecpan	3
▁acercará	3
▁recorda	3
▁nariguera	3
áb	3
side	3
▁impedi	3
eran	3
▁element	3
▁exhibid	3
▁búsque	3
▁rendir	3
anto	3
▁Tlatzotzon	3
▁techar	3
▁veteran	3
tible	3
atedral	3
▁merecie	3
▁boscoso	3
▁consolar	3
▁perteneciera	3
▁mulata	3
▁cohuixca	3
▁Tlacoy	3
▁baúl	3
▁reconoce	3
▁estrech	3
▁Acacit	3
▁fundido	3
▁refrigera	3
▁transcur	3
▁ingre	3
▁aprende	3
▁Poch	3
▁patrimonial	3
och	3
▁molía	3
emplo	3
▁ka	3
▁apariencia	3
morteci	3
▁Dice	3
ul	3
▁Norte	3
▁Xochtla	3
▁jovenzuelo	3
▁convers	3
▁pr	3
ivas	3
▁otorgado	3
QUE	3
▁PR	3
▁lejana	3
▁Mosc	3
▁tendida	3
▁place	3
nteras	3
▁celebrado	3
▁chiquitit	3
▁gaj	3
▁brot	3
▁buz	3
mando	3
▁cansé	3
▁tantit	3
daré	3
gas	3
▁disco	3
▁huida	3
▁Levanta	3
▁atuendo	3
▁Cit	3
▁gozar	3
▁complicad	3
rienta	3
cipac	3
▁legu	3
mbres	3
pi	3
▁estemos	3
▁ri	3
▁riega	3
apúr	3
tlato	3
teucti	3
▁contradixe	3
▁zur	3
cotzontl	3
▁Pong	3
▁cima	3
▁trayecto	3
▁recorr	3
▁error	3
▁pilli	3
▁alfarero	3
▁Quetzalcoat	3
ube	3
▁Tlam	3
▁dañada	3
▁arrastrándol	3
▁aprendi	3
LA	3
TO	3
▁ESTA	3
ON	3
▁GUA	3
▁abogad	3
zteco	3
▁Cuate	3
▁cobrar	3
oyola	3
▁depus	3
▁rodilla	3
▁acata	3
▁aclara	3
▁asist	3
▁Miccac	3
▁investigador	3
▁expresar	3
▁pacien	3
kuitaxkol	3
▁martaja	3
▁moderno	3
▁quarta	3
imiento	3
▁ritual	3
▁sincer	3
▁modest	3
▁desgaj	3
▁Ihui	3
▁Zacanc	3
▁silb	3
▁oyen	3
▁suspiran	3
▁reí	3
▁Ning	3
▁Vol	3
▁Ber	3
▁volvería	3
▁Campe	3
huahua	3
▁Guana	3
▁Morel	3
▁enrolla	3
▁Tozan	3
▁dirigido	3
▁alcanzaba	3
▁servid	3
▁manten	3
penderá	3
tuviéramos	3
quiyauh	3
▁promesa	3
▁debería	3
poch	3
▁compadezca	3
▁obedezca	3
▁Cuy	3
▁irlo	3
rezar	3
▁barranco	3
utl	3
▁agota	3
▁expulsar	3
AP	3
usada	3
▁Jacobi	3
▁alborotar	3
▁aplac	3
▁ciruela	3
▁delicios	3
▁mixtec	3
▁Obr	3
▁manifestad	3
▁subía	3
▁ilu	3
▁vuelo	3
▁oc	3
dillo	3
ramos	3
▁trav	3
oteca	3
ogó	3
uosa	3
▁causas	3
▁Chico	3
agan	3
▁celebrad	3
▁gatea	3
▁enemi	3
homa	3
elpochcal	3
▁manita	3
▁cabe	3
▁hicieras	3
hombre	3
▁construí	3
▁choz	3
uela	3
cogido	3
▁midiendo	3
▁Pre	3
▁jugos	3
▁acostumbrado	3
▁entrelazad	3
▁emplumado	3
▁regido	3
▁envuelt	3
▁Cihuatla	3
▁encontramos	3
ctli	3
▁calm	3
impan	3
▁bañar	3
▁pedí	3
▁rompa	3
▁conocedor	3
ha	3
▁bañan	3
VO	3
B	3
ena	3
▁alivia	3
▁borra	3
▁refrescar	3
calca	3
ey	3
▁correctament	3
▁huacal	3
▁acost	3
▁Rocíen	3
iva	3
▁peleen	3
▁potr	3
▁reglamento	3
articipar	3
tumban	3
▁extrañ	3
▁teponazt	3
▁agradezc	3
▁trompeta	3
▁adornad	3
▁venderé	3
spérame	3
▁insistía	3
▁HONGO	3
entos	3
tro	3
etzcatoca	3
▁Tlapal	3
▁vegeta	3
▁respetuosa	3
▁Sube	3
▁trono	3
▁tej	3
▁tráiga	3
uenle	3
▁Agarr	3
nal	3
▁reg	3
▁Mader	3
lizar	3
cido	3
▁forjado	3
▁punt	3
▁ramita	3
▁originaria	3
rép	3
▁hondo	3
▁machacado	3
▁inmundicia	3
▁dividi	3
▁Tetza	3
huiton	3
acall	3
▁sacude	3
▁XOCHI	3
rillas	3
▁escre	3
▁multa	3
▁palomita	3
▁verificar	3
idente	3
istas	3
▁ter	3
▁teme	3
▁true	3
estamento	3
▁Suced	3
ólic	3
▁agreg	3
▁rela	3
▁desagradable	3
noc	3
▁Arbol	3
▁levántense	3
aliza	3
▁Preci	3
quier	3
▁plen	3
▁amenaz	3
aya	3
▁Yaote	3
▁multiplic	3
▁acu	3
▁conten	3
imalpa	3
▁cabra	3
irr	3
mpida	3
▁honrar	3
▁inaugura	3
▁Trad	3
▁Or	3
▁Bea	3
adá	3
uc	3
ársela	3
▁expuest	3
▁siémbr	3
▁digne	3
zot	3
hueco	3
▁Jil	3
reto	3
▁acarre	3
▁bastimento	3
▁mantener	3
▁chisporrotea	3
▁exhibida	3
▁determin	3
tienen	3
▁fingier	3
▁desherbar	3
▁Tlacoc	3
▁nazca	3
▁Nuñ	3
▁embi	3
▁revent	3
venció	3
▁céntric	3
▁lagartija	3
▁robuste	3
▁descalza	3
▁tau	3
▁convoca	3
pilli	3
▁corretea	3
▁balacea	3
uél	3
▁desprecie	3
▁buscas	3
▁Tlacotz	3
▁díga	3
cendiente	3
▁angusti	3
▁durazno	3
▁viví	3
▁decapita	3
▁comunica	3
▁hosped	3
▁recib	3
▁angost	3
yáhua	3
▁experimentado	3
▁coti	3
diano	3
▁azotado	3
▁atavía	3
▁Resuena	3
▁despelleja	3
orear	3
▁guajillos	3
▁bendec	3
▁Cam	3
afet	3
▁arrojado	3
MPE	3
TI	3
▁asign	3
▁aclar	3
▁amain	3
achado	3
▁Plat	3
▁beata	3
strucción	3
▁incorpora	3
▁br	3
▁Tecuant	3
▁inconvenien	3
huilizapan	3
▁carda	3
cachi	3
▁Tolnahu	3
▁Tianquiz	3
rderá	3
▁vejez	3
mixco	3
tecuht	3
▁espante	3
puerta	3
▁aconseja	3
▁venderían	3
▁Atempan	3
▁disfrutar	3
▁Texoc	3
crimina	3
▁Trat	3
▁Treinta	3
guaya	3
veras	3
▁hada	3
▁inspir	3
petlac	3
▁pasilla	3
▁Agu	3
▁estir	3
ares	3
▁basta	3
▁expresó	3
▁Habl	3
▁descabeza	3
▁trabaj	3
▁prefier	3
ég	3
▁emp	3
▁Xicochimal	3
▁Atoc	3
▁Ometocht	3
▁apocento	3
ilacall	3
▁infierno	3
▁cubeta	3
▁expedi	3
▁apoya	3
▁resplandeciente	3
ejand	3
▁Tototl	3
▁vuel	3
fé	3
rtil	3
▁procedi	3
▁endroga	3
▁discre	3
iling	3
▁fácil	3
▁acces	3
▁texto	3
▁respet	3
▁importuna	3
▁informado	3
▁viajar	3
▁Sali	3
▁encendi	3
▁Atlauh	3
▁amarilla	3
▁hagá	3
▁Monte	3
▁romp	3
▁interced	3
zate	3
▁prosper	3
▁acogi	3
▁suprimi	3
empoa	3
rvá	3
hi	3
▁equivoca	3
machan	3
▁reforza	3
▁dañe	3
▁unió	3
▁produc	3
▁carriz	3
▁escoge	3
▁escuchará	3
▁Itztlo	3
▁cubrirá	3
▁Tenu	3
lotes	3
jos	3
▁supiera	3
donda	3
▁Regi	3
travies	3
▁Chiquito	3
▁despiert	3
catlteuctl	3
▁estudiaba	3
▁Teco	3
▁Prefier	3
▁despens	3
pitl	3
▁Mole	3
tepet	3
▁Cacal	3
▁cacastle	3
ictoria	3
▁bruj	3
▁durmie	3
imo	3
quix	3
rós	3
▁constituir	3
▁federa	3
▁Xochiquetzal	3
▁Tzonpan	3
▁Achitom	3
▁enpiez	3
oja	3
▁pi	3
▁Yyaca	3
▁humareda	3
uac	3
antisim	3
▁centímetro	3
▁fuga	3
▁arrancaba	3
eneral	3
▁erigir	3
tecó	3
▁felicit	3
▁restaurant	3
vuelve	3
▁chane	3
▁cambie	3
RA	3
▁Us	3
cuacuil	3
pos	3
▁fun	3
▁escapad	3
▁termino	3
▁tlaxi	3
▁burlara	3
busc	3
▁cuide	3
▁Cuetl	3
▁separar	3
▁retoña	3
▁punz	3
dependencia	3
▁Moc	3
▁Tey	3
ztac	3
rías	3
▁respondier	3
vio	3
▁menud	3
▁elabora	3
▁asola	3
quito	3
▁ji	3
cuarto	3
▁mue	3
▁asistíamos	3
▁aper	3
plica	3
▁pastel	3
▁tomada	3
scribano	3
▁gall	3
▁aguard	3
▁cens	3
▁Disp	3
▁rob	3
iréis	3
▁romper	3
lhuacan	3
▁Temalaca	3
ayoca	3
amiento	3
zqui	3
hechiz	3
▁emprendí	3
iseri	3
▁Julian	3
▁residía	3
ult	3
muestra	3
▁estepa	3
▁Tumba	3
▁burro	3
itzi	3
▁apur	3
zum	3
▁envidie	3
▁ahuyentar	3
▁convenci	3
▁garant	3
▁sacrist	3
▁FR	3
guerr	3
▁tetecu	3
▁cruce	3
▁muslo	3
▁amada	3
▁casarme	3
ali	3
▁dándole	3
▁bendecido	3
trán	3
manen	3
▁creí	3
▁aqueja	3
obierno	3
▁Cuánta	3
▁destap	3
▁déjen	3
rcio	3
▁corteza	3
▁estudioso	3
uixtl	3
▁expo	3
▁buque	3
nteayer	3
▁Calte	3
HUA	3
▁servido	3
▁je	3
dic	3
tenencia	3
▁imperi	3
▁desgarrado	3
▁biud	3
▁prelado	3
▁reverenciado	3
▁recordé	3
▁perfume	3
tóto	3
uando	3
▁cana	3
esti	3
▁asentaro	3
▁Quienes	3
▁labore	3
xacal	3
▁aprobaci	3
▁aventar	3
▁lavamano	3
▁hoje	3
▁respetará	3
▁niñ	3
▁Colhua	3
▁gris	3
▁Orgullo	3
inominal	3
▁circunscripci	3
▁quemaba	3
tlác	3
▁amanece	3
▁provee	3
NA	3
tlic	3
▁provision	3
tino	3
▁rumor	3
río	3
▁Teocalhu	3
▁totonac	3
▁atotonac	3
▁repartida	3
▁ropaje	3
▁polilla	3
▁pele	3
▁faci	3
▁pintar	3
▁perseguir	3
▁rematar	3
▁penetra	3
▁apropia	3
▁rellena	3
▁luc	3
lce	3
▁cobr	3
▁vomitó	3
▁contenida	3
▁manchad	3
▁sacrificad	3
▁prenda	3
▁ensanch	3
▁arranc	3
▁peinar	3
▁dolía	3
▁biólog	3
▁adornaba	2
▁valios	2
áselo	2
víste	2
▁remit	2
buelta	2
▁evit	2
▁ob	2
▁reclama	2
▁impre	2
▁velas	2
ndios	2
▁confía	2
▁ensaya	2
▁detendrá	2
▁anot	2
cíclica	2
▁parta	2
▁vergonzos	2
▁escudriña	2
cruci	2
▁machaca	2
▁viole	2
▁dán	2
▁Regálales	2
ltic	2
▁ahúma	2
▁vendiér	2
ztla	2
▁sopl	2
▁retira	2
▁Seguía	2
▁perspectiva	2
▁conta	2
▁Preg	2
Yo	2
▁recoge	2
▁Compr	2
▁leyer	2
▁comulg	2
▁hemorragia	2
▁pregona	2
og	2
▁ajusta	2
gradecimiento	2
▁llevare	2
ime	2
▁mirarla	2
ceda	2
▁Sil	2
▁ynstituy	2
ntonces	2
▁prontamente	2
▁Cuapp	2
cólotl	2
gnate	2
▁asienta	2
▁XOCONOSTLE	2
cua	2
▁deuda	2
▁endur	2
tero	2
▁CHI	2
COME	2
COAT	2
▁Calp	2
▁arbitrari	2
▁precipitaba	2
▁Perdón	2
pital	2
▁Sev	2
astian	2
▁respo	2
▁senor	2
enez	2
reció	2
▁mandas	2
▁aprov	2
ava	2
▁bale	2
axtla	2
lazado	2
▁patol	2
▁enterr	2
▁descuartiz	2
▁pudri	2
▁capellan	2
▁diligencia	2
▁Bus	2
▁sobra	2
▁infinita	2
dispensa	2
▁hinc	2
▁opus	2
aballero	2
▁Tij	2
▁denominad	2
▁PRI	2
▁Llam	2
▁tropezar	2
▁buscado	2
vidad	2
▁robust	2
▁angarilla	2
▁resguard	2
▁sostenid	2
▁felic	2
zonpan	2
▁Tezcac	2
▁incen	2
diaron	2
▁fabrican	2
ompa	2
▁pantanos	2
▁espontánea	2
▁doloroso	2
▁organizado	2
▁ubica	2
▁ol	2
▁vagabundo	2
▁lucid	2
goza	2
▁central	2
iz	2
▁preci	2
ehua	2
▁Chichicuepon	2
hicon	2
▁Sob	2
eski	2
enochtitlan	2
▁múltiple	2
▁lápi	2
▁Meca	2
▁Tlail	2
▁Tep	2
calidad	2
paricio	2
óyotl	2
▁Tlatohu	2
▁Acap	2
pí	2
▁Invita	2
▁vist	2
▁Xiuhc	2
ayunaba	2
▁Cuída	2
▁divertía	2
▁conozca	2
▁cast	2
▁consagrar	2
him	2
▁cuadr	2
▁Top	2
▁REL	2
▁Esp	2
▁aceta	2
zgo	2
▁húmedo	2
▁ahor	2
▁enlaza	2
▁decí	2
▁Encontr	2
▁afilado	2
actancio	2
▁catedral	2
▁apod	2
erraba	2
▁brinca	2
obraba	2
▁cenicient	2
▁amad	2
▁adve	2
picaba	2
▁pellejo	2
▁All	2
▁Treintai	2
▁regresan	2
esto	2
ltitlan	2
▁rajad	2
▁bañando	2
▁rebo	2
▁Jose	2
latlauhquitepec	2
marillas	2
▁constituy	2
▁separ	2
▁plebeyo	2
▁Pantla	2
▁ampu	2
▁irreflexiva	2
eminencia	2
▁paternidad	2
▁incurri	2
▁acontec	2
jko	2
esma	2
▁dirigid	2
▁NO	2
CAB	2
▁MI	2
▁FLORES	2
"	2
portar	2
xtiende	2
▁dier	2
▁demostrar	2
ija	2
▁riñ	2
▁ofen	2
▁apalea	2
▁chiquill	2
kakau	2
▁captura	2
▁PRIM	2
▁flecharlo	2
hual	2
▁carret	2
ivi	2
▁vigesimo	2
tlatlauhqui	2
▁aman	2
▁humean	2
▁zafar	2
▁históric	2
▁extienda	2
ibu	2
rón	2
▁certificaci	2
▁Comandan	2
senal	2
EGR	2
máza	2
▁jacta	2
▁Tlalco	2
JON	2
▁Comp	2
adéce	2
▁desprendi	2
OJ	2
▁XIP	2
▁amarillar	2
▁cuelga	2
▁Chichilcu	2
▁rever	2
▁Cece	2
▁calentarl	2
▁conocí	2
▁pronunci	2
▁admir	2
▁Atlixel	2
▁vomit	2
numera	2
▁pares	2
teco	2
sigui	2
itz	2
▁nono	2
▁procura	2
▁mofa	2
▁beb	2
▁ofenda	2
▁subsiste	2
ztapalapa	2
▁QUINTO	2
▁ESPINOSO	2
▁practicaba	2
TEC	2
▁Leyes	2
▁rabia	2
▁adivina	2
▁mestiza	2
yma	2
▁emparej	2
azos	2
▁sapo	2
▁sospechan	2
ontaña	2
érg	2
▁alancea	2
negará	2
▁dársela	2
uit	2
▁liso	2
ato	2
rtes	2
▁ayun	2
▁creía	2
▁atol	2
▁maleta	2
▁anoche	2
Ú	2
▁VERD	2
▁Lim	2
▁Inocen	2
▁definir	2
▁siéntate	2
▁adopt	2
▁bolita	2
▁convida	2
▁axa	2
▁exalta	2
tio	2
▁Tzonpanteuctl	2
ntarnos	2
zcapotzalc	2
▁Yp	2
▁derrui	2
▁efectiv	2
▁tetzc	2
▁empedr	2
w	2
car	2
▁copita	2
▁perjudicar	2
▁Acompaña	2
▁Migue	2
▁resolvier	2
▁postre	2
▁responsabilidad	2
▁barri	2
▁apac	2
entado	2
▁lloras	2
ongo	2
zteca	2
]	2
▁poblad	2
▁baldí	2
▁Píde	2
▁hui	2
▁caminata	2
vento	2
▁Ville	2
▁Cozcacuauh	2
urna	2
▁barca	2
▁gal	2
▁apresuraba	2
fuerza	2
▁consisti	2
pazo	2
▁Tecc	2
▁robaba	2
▁variedad	2
iesen	2
rir	2
▁relacion	2
▁afrentar	2
ímetro	2
▁servi	2
▁transcribi	2
ordinado	2
mbient	2
▁Aut	2
oma	2
▁proporcion	2
▁enriquecer	2
Qué	2
▁haced	2
▁Matlaccal	2
▁acostumbrad	2
▁suplicarle	2
▁construyen	2
▁Cent	2
▁Rico	2
marró	2
ical	2
▁recámara	2
▁permíta	2
▁invitar	2
▁tecolote	2
▁Bra	2
▁atropella	2
▁faja	2
▁Bajar	2
▁Deb	2
▁amar	2
▁traga	2
▁delgada	2
▁recatada	2
▁sembra	2
▁Citlalc	2
vaja	2
▁Oct	2
▁Dic	2
▁convirtiera	2
oria	2
▁mantenerl	2
▁sobresal	2
▁ofuscad	2
MIMI	2
▁despojar	2
▁aví	2
ortilla	2
▁Caca	2
▁mecate	2
zada	2
▁Sába	2
▁sitiar	2
graciada	2
▁Tehuehueltzin	2
▁entretejid	2
▁morr	2
▁metier	2
▁Hága	2
uauhquil	2
▁Sufre	2
▁expid	2
calteca	2
erío	2
▁frai	2
▁tranquiliza	2
▁batid	2
▁pepita	2
▁rabi	2
▁enterra	2
▁Tlailotla	2
▁Siguie	2
UR	2
▁pane	2
▁determinada	2
▁naveg	2
izquit	2
▁valida	2
jtik	2
▁guard	2
agnífico	2
▁chilacayot	2
AF	2
AFA	2
▁compart	2
talo	2
▁descubiert	2
▁Herna	2
▁reúno	2
barca	2
yente	2
uitztlan	2
▁tuerce	2
▁Pareci	2
▁mandase	2
▁llamé	2
▁desperta	2
▁afloja	2
rta	2
▁limpien	2
▁testament	2
▁proviene	2
MAN	2
M	2
▁gramal	2
▁abus	2
huaste	2
▁atrapad	2
▁culpable	2
▁mensual	2
▁efe	2
cencia	2
▁agitad	2
▁altera	2
▁atoli	2
▁proclam	2
▁ynquiet	2
▁hierv	2
▁inmensa	2
▁roto	2
▁honrarlo	2
▁pusie	2
nica	2
uillo	2
▁partícipe	2
▁adul	2
adores	2
▁afirm	2
▁aprendiera	2
rtido	2
OC	2
▁Azt	2
oxochitl	2
▁aviéndo	2
▁Jac	2
into	2
▁llevándol	2
▁bu	2
eyes	2
▁habitan	2
▁considerar	2
▁rueg	2
erse	2
repú	2
culo	2
buela	2
▁funestos	2
▁Atzaqualc	2
▁Tec	2
▁agradece	2
▁XOCOYOL	2
▁aprehendido	2
▁mastica	2
▁or	2
apos	2
▁despellejado	2
ándosele	2
▁estime	2
▁Mixcohuat	2
▁incluyen	2
▁Revillagigedo	2
▁Océ	2
▁continent	2
▁Inter	2
nacional	2
ítima	2
provisiona	2
prendido	2
▁cantá	2
terio	2
▁reduci	2
bra	2
▁simula	2
▁huerfanit	2
está	2
▁amár	2
▁ynform	2
▁azot	2
▁siguier	2
▁Xicó	2
spiritu	2
▁enfri	2
▁Ayauhcal	2
▁mojar	2
▁revuelta	2
▁nutri	2
▁call	2
▁encomendad	2
▁detenga	2
▁recupera	2
▁absten	2
ernos	2
▁diverti	2
▁homicid	2
▁norteñ	2
▁cobraba	2
▁Regala	2
▁comiera	2
▁atravesar	2
xa	2
▁Hagámo	2
▁fuma	2
▁lanzad	2
▁presenta	2
lima	2
▁compon	2
ITA	2
▁envolv	2
▁emociona	2
▁brillaba	2
▁pañuelo	2
olf	2
gang	2
▁Cuic	2
▁Tozma	2
cale	2
lít	2
cuitla	2
timo	2
▁vendamos	2
quia	2
▁Conquist	2
▁ataví	2
▁Coatlayu	2
▁gozaba	2
▁precedi	2
▁perderme	2
▁ajuste	2
▁supera	2
▁alabanza	2
▁cuidan	2
▁realizan	2
▁arrodilla	2
pal	2
▁Llev	2
pagaba	2
▁prende	2
▁Defen	2
zhuahuacatzin	2
▁post	2
rimera	2
▁mula	2
▁aceda	2
▁ajolote	2
▁anuncia	2
▁infa	2
lvar	2
▁Aba	2
unza	2
▁sostene	2
▁soporta	2
▁beba	2
catlan	2
abell	2
sula	2
▁Mictla	2
▁Huitztla	2
ífic	2
▁proceder	2
▁Conde	2
uper	2
▁puñado	2
▁cata	2
▁practica	2
▁respectivo	2
▁regrese	2
▁gritar	2
▁barb	2
color	2
▁apreciar	2
▁aposentar	2
alada	2
▁lechu	2
▁rallad	2
▁hom	2
alicia	2
▁suscite	2
▁desfallezc	2
CAS	2
▁ayudaría	2
▁induc	2
▁inf	2
▁Teci	2
▁tojmi	2
▁biv	2
▁metiéndo	2
▁obediente	2
▁XXX	2
▁Beb	2
quiz	2
▁Cuauhtzi	2
▁Quetzalcuauh	2
▁istak	2
tsapot	2
uro	2
▁señalado	2
▁terre	2
criado	2
valua	2
▁consumi	2
▁consecutivo	2
R	2
ED	2
ADOR	2
▁señalan	2
▁embri	2
▁ofusca	2
▁recibirá	2
▁desesperación	2
▁permanecerá	2
▁labor	2
ioso	2
▁trabaje	2
▁cargador	2
▁Respond	2
pida	2
sequia	2
▁quart	2
▁Zima	2
▁Macuilxochitzin	2
tleco	2
patl	2
▁acanalad	2
▁Tene	2
duc	2
arit	2
▁lechuza	2
▁Precio	2
▁Algo	2
▁alia	2
▁gu	2
▁Tocuilteca	2
yau	2
egoría	2
▁bin	2
MORA	2
ICO	2
▁feneci	2
▁anpara	2
▁destribuy	2
uen	2
▁quisiese	2
▁discurría	2
edazo	2
poyo	2
▁Cuauhtl	2
▁Deja	2
urland	2
lti	2
macuex	2
poli	2
▁haze	2
▁autor	2
ect	2
▁asesinato	2
ortar	2
▁golpeado	2
aguar	2
urco	2
▁despert	2
▁desvel	2
mbr	2
▁diestra	2
gular	2
ive	2
uitl	2
▁ducient	2
▁apacig	2
▁instruy	2
▁obtenga	2
▁observ	2
▁Xacalpa	2
▁curan	2
▁mito	2
chic	2
▁extingui	2
▁negligen	2
▁altere	2
▁cultibaba	2
▁sonaba	2
▁riqu	2
▁pida	2
▁reciba	2
▁aprecia	2
▁mezcl	2
▁llámalo	2
▁puñ	2
▁envíe	2
▁agoniza	2
▁desasosiegue	2
▁contraiga	2
▁andará	2
▁Abre	2
entid	2
▁apagar	2
enardec	2
▁realizará	2
▁generos	2
▁amorosa	2
▁guant	2
▁Primera	2
▁aberigu	2
▁determine	2
ventura	2
▁despedida	2
▁Xiúh	2
▁Cuauhtliyolqu	2
▁daria	2
▁decid	2
uita	2
▁enorgullezca	2
▁hombr	2
▁requerir	2
xouh	2
▁yace	2
▁propi	2
▁imponerle	2
▁tost	2
▁Toztecaci	2
▁temeroso	2
▁ordenarle	2
taro	2
▁Mac	2
bed	2
uaochpa	2
▁volar	2
imá	2
▁amaciz	2
▁deterior	2
▁catarro	2
▁ofrend	2
▁incrusta	2
zacuá	2
▁Epcohuat	2
▁pidiéndole	2
auro	2
▁cudicia	2
▁hurta	2
zcac	2
xico	2
tlapech	2
▁Yancu	2
▁Veinti	2
cind	2
▁ig	2
▁enveje	2
▁espanto	2
▁Período	2
rgánica	2
▁inclui	2
▁Conchit	2
▁hicie	2
▁Descansa	2
zac	2
cimos	2
▁remedia	2
rla	2
▁sostenía	2
derno	2
▁advert	2
▁bienvenid	2
▁exhibir	2
▁revesti	2
▁traíd	2
▁llévate	2
▁gane	2
▁Tzinancantla	2
▁tlatelo	2
▁Cihuac	2
mpl	2
niebla	2
huaca	2
▁preparati	2
▁gustar	2
ificar	2
rador	2
▁fastidiaron	2
▁rentar	2
▁llenando	2
quietud	2
rod	2
▁alimentar	2
▁acompaña	2
zcatl	2
▁notifi	2
lor	2
▁heredera	2
▁pochtlan	2
▁impong	2
▁dificult	2
▁cardenal	2
▁apaciguar	2
▁orin	2
ezcatzon	2
▁engrandecer	2
tiérr	2
años	2
lico	2
▁válid	2
▁hosti	2
▁bandereta	2
caer	2
ijo	2
▁conduce	2
▁Cris	2
pina	2
▁empleo	2
▁disfrut	2
▁representativa	2
▁observará	2
▁infra	2
▁oir	2
dio	2
tre	2
▁mérito	2
▁otorgad	2
kuouj	2
ptimo	2
equihua	2
▁caxa	2
▁incon	2
bos	2
▁presentada	2
mite	2
▁marchaba	2
▁excelent	2
omo	2
▁ki	2
chiu	2
scondida	2
▁infie	2
onimo	2
▁ge	2
▁atrapa	2
▁redes	2
▁grulla	2
egro	2
▁inconformar	2
▁QUI	2
BR	2
APL	2
▁Xiu	2
▁Cel	2
▁zanahorias	2
▁Alej	2
▁fortalece	2
ak	2
▁Acozac	2
aye	2
▁dialoga	2
▁fenes	2
▁salier	2
ubier	2
▁paradas	2
▁distribuir	2
▁Secretaría	2
▁ciñe	2
huitzo	2
▁Despu	2
epí	2
▁satisfac	2
▁xiuhc	2
▁sacra	2
▁pareci	2
▁Tulan	2
icana	2
encatl	2
lici	2
oyol	2
▁Coat	2
▁rellenándo	2
▁bras	2
▁greca	2
▁encerrarlo	2
▁interi	2
▁removi	2
▁vendí	2
▁Apóstol	2
trech	2
▁forj	2
▁ruégale	2
▁tlaxilacal	2
prueba	2
▁travesaño	2
endía	2
▁Parti	2
▁Cuitlachc	2
pac	2
▁mant	2
▁posi	2
▁anduviera	2
▁agacha	2
▁Villag	2
▁Galile	2
▁retirada	2
pero	2
▁Serra	2
▁volve	2
▁granje	2
▁acosa	2
▁hostiga	2
▁muerde	2
▁libertad	2
▁desistier	2
▁proces	2
▁xili	2
órgano	2
▁estam	2
▁cap	2
▁llorará	2
▁neblin	2
▁bru	2
▁mictlan	2
ple	2
▁chamus	2
quina	2
▁Laz	2
ndón	2
▁Esposa	2
hualco	2
▁enojaba	2
▁MAZOR	2
TA	2
yos	2
▁chiapan	2
▁tejamanile	2
▁Almo	2
IX	2
▁Imper	2
maxtl	2
nahuac	2
▁Tlama	2
▁Momo	2
▁picad	2
htleque	2
ACATE	2
▁nac	2
▁cuetlax	2
imatilulc	2
ublado	2
▁acuátic	2
▁enojan	2
▁recogiera	2
▁Trabajan	2
▁concurr	2
▁conce	2
▁codicia	2
zcal	2
auhtitlan	2
▁violen	2
colhuaca	2
tito	2
▁revuelto	2
▁Gar	2
▁molest	2
abeza	2
bió	2
▁achac	2
eren	2
▁hubie	2
rcole	2
iéntate	2
▁recrea	2
ec	2
ADOS	2
▁fres	2
▁tiesa	2
▁cá	2
liz	2
▁costal	2
▁golpean	2
▁sacudir	2
▁huitzilopoch	2
▁comportar	2
▁forjador	2
▁relat	2
lhuicamina	2
▁admit	2
▁manifestará	2
▁narr	2
▁Tlatz	2
def	2
Ante	2
▁Tepiltz	2
otzom	2
▁divirt	2
icle	2
▁murmura	2
▁inquietud	2
▁Uitz	2
▁Tecamachal	2
gra	2
▁sumergi	2
▁sahum	2
▁teuc	2
▁obscurecer	2
enedict	2
▁XV	2
▁coma	2
▁jarro	2
▁merece	2
cible	2
▁orea	2
▁arrepient	2
▁gobe	2
ahualco	2
▁rigiera	2
▁multiplicar	2
oc	2
sol	2
▁perforad	2
párense	2
▁limitaba	2
olorado	2
▁causar	2
▁cogi	2
▁desolada	2
▁restituye	2
▁xocoyol	2
▁tapar	2
▁vigor	2
▁restablecer	2
▁Escrib	2
▁provoc	2
▁Huejo	2
▁fau	2
ualip	2
ox	2
▁fier	2
▁miran	2
itli	2
▁Pipi	2
▁produzca	2
▁Muerto	2
iedad	2
▁asustad	2
▁Iz	2
▁Cuauhtzon	2
▁Atlan	2
▁calenta	2
errogat	2
UN	2
EGUN	2
▁Ycnotlacat	2
ció	2
▁devoto	2
▁dormitorio	2
▁unida	2
▁Duque	2
▁camot	2
▁rábano	2
▁marques	2
rededor	2
salió	2
apítulo	2
▁reprendía	2
▁encumbrar	2
▁ofrendador	2
▁Reconoc	2
▁Aquél	2
▁Gén	2
▁menudo	2
▁Papalo	2
▁gri	2
culpado	2
▁corpora	2
▁compensa	2
▁fijado	2
▁extender	2
▁paisano	2
▁cargan	2
endas	2
▁Nana	2
divina	2
▁adivinan	2
sediad	2
▁odiada	2
▁alarm	2
▁malacate	2
ticpac	2
nía	2
▁robustez	2
▁sexual	2
▁suplicarte	2
tima	2
▁provenía	2
▁jal	2
ím	2
▁Aviendo	2
guacat	2
▁hacerla	2
▁apropi	2
▁recubrimiento	2
▁Gobernador	2
▁quitara	2
▁anillo	2
icu	2
▁Ixmatlat	2
réi	2
zaga	2
▁estudia	2
▁YO	2
▁POR	2
FI	2
IDEN	2
▁PA	2
TRI	2
EPA	2
CA	2
DI	2
▁Pluma	2
▁reliquia	2
▁moldea	2
masa	2
▁honrará	2
▁ataviará	2
▁Viv	2
▁andrajoso	2
▁tar	2
jeta	2
st	2
▁xa	2
▁poniéndole	2
▁reblandec	2
▁Atep	2
▁rece	2
▁vent	2
arrón	2
tojmi	2
▁Tzonmol	2
▁progres	2
erdader	2
▁muchach	2
▁beneficiado	2
▁obten	2
▁prestad	2
▁perdiera	2
nde	2
▁increment	2
ámo	2
ora	2
uli	2
▁Zacat	2
▁Déja	2
▁vendimos	2
▁lejan	2
▁locura	2
sion	2
rlos	2
▁arredr	2
▁machac	2
▁graznar	2
▁esclareci	2
mat	2
▁cultiv	2
▁identificad	2
ecto	2
▁top	2
▁abd	2
omen	2
▁recorri	2
▁alzan	2
▁libr	2
▁perdon	2
▁reanim	2
lchiuh	2
uacan	2
▁aj	2
▁atan	2
deremos	2
▁Cin	2
▁envenena	2
▁gritan	2
▁leí	2
▁Teuhcho	2
▁galan	2
stado	2
lexan	2
▁Pan	2
cequia	2
▁Ipalnemoan	2
rmas	2
▁engendr	2
▁discordia	2
▁Chiauh	2
▁Tlachqu	2
posicion	2
▁llevár	2
▁escarba	2
▁recit	2
capacidad	2
ini	2
▁Corre	2
jab	2
acxo	2
considerad	2
▁excav	2
▁extravia	2
▁cuer	2
▁rescatar	2
▁tz	2
iuh	2
▁grandecitos	2
▁ped	2
rada	2
Y	2
XTO	2
aciones	2
▁lléven	2
▁tibio	2
▁tibi	2
▁acab	2
▁defendier	2
▁entorpece	2
azareno	2
▁saldr	2
▁culturas	2
▁precolombino	2
▁pasajero	2
▁pegado	2
bajos	2
▁michhua	2
▁rep	2
otor	2
▁manej	2
▁Tor	2
▁Nexpa	2
▁Techinan	2
▁Larg	2
bes	2
▁tormenta	2
▁compadece	2
Esta	2
▁aletea	2
home	2
tanos	2
pado	2
▁aile	2
▁toga	2
cib	2
▁Tlax	2
dalgo	2
▁puré	2
zahua	2
▁Tlaximaloya	2
▁Tha	2
ecían	2
▁bue	2
▁Xiuhnel	2
▁seiscient	2
▁concentra	2
quihui	2
▁Ycquixochit	2
idan	2
▁trastorna	2
▁etnia	2
cuy	2
▁Xalapa	2
▁bautiza	2
▁Xochitecu	2
▁asegura	2
▁Toz	2
▁Xoc	2
gest	2
▁burlado	2
▁Tecpantla	2
▁madroño	2
▁aprieta	2
LAHUA	2
▁hablá	2
▁teji	2
▁subiera	2
ógrafo	2
▁instruía	2
▁marinero	2
▁excesiv	2
▁engrandec	2
▁ayúda	2
OMO	2
▁ES	2
EMP	2
TIG	2
▁TRA	2
▁Tuvi	2
▁Tecuict	2
▁colorado	2
ollo	2
pantlac	2
▁capul	2
epan	2
▁Xoconoch	2
▁luci	2
▁orinar	2
▁relampaguea	2
▁amarrar	2
enayoca	2
▁adjudicad	2
estar	2
▁punza	2
▁humanidad	2
▁Descans	2
▁afe	2
▁limit	2
▁tabern	2
▁benepl	2
convenido	2
▁constitu	2
cional	2
ilidad	2
▁inquiet	2
gu	2
▁cargado	2
▁vel	2
▁Fuiste	2
LOP	2
EDI	2
ollantzinc	2
▁condimentos	2
▁cerillos	2
▁concedida	2
tec	2
lub	2
▁Cuextecat	2
ayan	2
▁uits	2
▁adorn	2
▁Ech	2
▁Guad	2
▁imputa	2
▁cumplí	2
lejo	2
▁horr	2
▁crim	2
▁Macuilx	2
▁acusar	2
▁BLANCO	2
▁Portento	2
jus	2
cí	2
▁estab	2
▁Cárde	2
▁decreta	2
▁cubri	2
▁Cuauhpoyahua	2
▁Nentlamati	2
▁Zanat	2
▁Ue	2
▁pollito	2
cuá	2
gaba	2
▁sent	2
▁Chapol	2
acaltzin	2
▁argumento	2
▁endul	2
▁daría	2
bandonar	2
ibro	2
▁benévol	2
usia	2
lya	2
▁torcida	2
▁CALABA	2
▁transmiti	2
▁Docto	2
pég	2
▁magno	2
lia	2
▁ánade	2
▁inyec	2
proxim	2
▁empare	2
▁lustr	2
▁atributo	2
▁Medi	2
lantla	2
anitzi	2
▁Tlalteca	2
▁reflexion	2
▁Tzi	2
lotea	2
▁caig	2
▁term	2
avid	2
ren	2
▁forjar	2
▁admite	2
▁asistía	2
▁Sá	2
▁bie	2
uhtla	2
acat	2
▁comezó	2
▁prole	2
▁mosaico	2
▁sangramiento	2
cavaba	2
▁divierte	2
▁residir	2
▁convenga	2
▁trasla	2
▁terminará	2
▁ynforma	2
▁agrada	2
▁vestid	2
▁aprovech	2
▁disculpa	2
finita	2
▁midi	2
articula	2
ntiguo	2
dora	2
▁rechaza	2
▁alcoh	2
▁duerma	2
▁prendiere	2
▁encenderá	2
▁comandante	2
▁labrava	2
▁amenazada	2
esgraciad	2
▁Pí	2
atólic	2
suso	2
uar	2
venga	2
▁Oí	2
▁lav	2
▁Tecuich	2
▁Cap	2
maya	2
▁Oztoma	2
▁Xocot	2
▁Matlatl	2
▁Cuezcomatliy	2
▁merec	2
▁pervers	2
▁consuegro	2
tepixque	2
▁Merino	2
xoxo	2
mpe	2
▁remontar	2
mul	2
▁recostad	2
▁conmin	2
▁apresuró	2
▁Cuauhx	2
▁Chiapan	2
óx	2
▁Alva	2
▁revis	2
▁actua	2
▁jugaba	2
izado	2
▁rebosa	2
séptimo	2
▁bar	2
▁enci	2
▁soltar	2
reparaba	2
▁apari	2
nadie	2
epartamento	2
▁labrar	2
▁predi	2
asado	2
▁solter	2
▁sacada	2
▁crónica	2
quillo	2
▁concib	2
icón	2
▁sane	2
mera	2
▁tapado	2
▁Toto	2
▁cen	2
▁Llegar	2
▁campamento	2
▁rellen	2
▁castellan	2
▁tradicion	2
▁manifi	2
▁Medita	2
fríe	2
mac	2
▁Tezcat	2
▁Amantla	2
dr	2
entó	2
▁carr	2
▁cultivaba	2
xalt	2
▁capi	2
rotes	2
▁repos	2
▁cercana	2
▁desforest	2
▁sospecha	2
▁Guerrera	2
▁corri	2
scen	2
▁contradic	2
▁rema	2
niente	2
iere	2
▁distintiv	2
▁engañ	2
teme	2
ombra	2
▁Delgad	2
▁disfruta	2
▁kekexi	2
pit	2
▁Tigre	2
▁arrepi	2
▁preparados	2
▁abrier	2
Pas	2
▁consagr	2
▁coro	2
▁moment	2
En	2
▁trafica	2
tlal	2
▁Xilo	2
▁Coyol	2
coche	2
▁comis	2
mandaba	2
▁venderán	2
▁infama	2
▁despe	2
▁tope	2
▁bebed	2
cama	2
fu	2
bert	2
cam	2
terre	2
▁roll	2
▁despoja	2
▁festivo	2
▁tejida	2
▁ajustar	2
UE	2
▁miraba	2
íri	2
▁patron	2
▁sacándol	2
ducción	2
ncio	2
▁segui	2
tad	2
▁infeli	2
▁viril	2
ár	2
uhy	2
▁teucpil	2
▁mauiztla	2
▁consist	2
▁ind	2
eden	2
▁Quiyeuhtzin	2
titl	2
▁iz	2
▁hueit	2
▁estimada	2
▁partirá	2
▁venderíamos	2
▁Icpa	2
▁Cuahuix	2
▁desaparec	2
▁Nu	2
tomó	2
▁ocurriera	2
▁décim	2
▁amaste	2
▁Tot	2
▁docto	2
▁desvena	2
▁Lloraba	2
▁sant	2
▁Sem	2
▁navaji	2
rar	2
▁invas	2
▁inocen	2
íralo	2
▁persigue	2
▁resiste	2
▁marchita	2
▁XAL	2
▁resuel	2
cese	2
entan	2
▁recolecta	2
▁asistente	2
izna	2
▁Pod	2
▁escapa	2
▁afecta	2
▁conferi	2
▁recibirla	2
▁sentenci	2
▁fundamento	2
▁derruid	2
PA	2
sangren	2
▁cimarrón	2
▁Cem	2
oyáhu	2
▁jud	2
age	2
ñ	2
▁zapoteca	2
▁tropie	2
inteuctl	2
▁inclinada	2
▁tremen	2
▁grandecit	2
▁flech	2
achquiauhc	2
▁morta	2
▁causada	2
▁val	2
▁ascens	2
▁descen	2
▁afanos	2
▁Pura	2
▁comanda	2
avor	2
▁roman	2
▁anul	2
▁muc	2
▁desasosega	2
▁prohibida	2
▁escuchan	2
▁Conta	2
duría	2
▁papalo	2
▁lanz	2
▁devolvi	2
▁candelera	2
▁Uet	2
▁mejilla	2
▁talla	2
rto	2
▁Ceb	2
▁buscará	2
▁lavará	2
zan	2
▁Atiza	2
▁Apena	2
▁agregado	2
▁disminu	2
▁Otorg	2
azah	2
▁esmeraba	2
▁Cuauhpilo	2
▁muda	2
▁magna	2
▁traduci	2
▁Molan	2
▁Totot	2
▁Coz	2
▁Coy	2
▁Acat	2
▁Cuezal	2
cuitlap	2
▁Izhua	2
▁Xolo	2
egue	2
hco	2
▁anochec	2
uda	2
aste	2
lat	2
▁Príncipe	2
▁andá	2
urría	2
atlauh	2
▁distrae	2
rregla	2
▁Cipactl	2
AC	2
AYOTE	2
cept	2
nueve	2
álo	2
▁Informa	2
▁sojuzga	2
▁bombear	2
bu	2
cual	2
▁trabajador	2
▁salí	2
cuñado	2
ale	2
▁sepár	2
▁subordinado	2
▁inmi	2
▁Tepapa	2
nahui	2
▁tenerlo	2
ecundari	2
▁poderoso	2
▁caerá	2
▁ignoran	2
▁añad	2
▁visite	2
zozo	2
lteca	2
▁Corrier	2
▁decretad	2
tlacuilo	2
▁adviert	2
▁complacid	2
▁herrero	2
▁establecida	2
▁Huizi	2
teuhc	2
cuecue	2
▁Acalcal	2
▁result	2
▁satisfa	2
▁zapoteco	2
íamos	2
▁apresa	2
▁Iztaccoyot	2
ijitos	2
▁bolbie	2
▁int	2
tiago	2
potonqui	2
▁aterrar	2
▁usurpa	2
▁glorios	2
▁distin	2
▁resguarda	2
▁trabajado	2
▁refinad	2
úsquenlo	2
▁corpulento	2
▁genuina	2
▁apoderan	2
▁trigueñ	2
ila	2
chas	2
▁Cacá	2
rgu	2
▁enpie	2
mura	2
▁atribulad	2
▁borrachera	2
▁circunstancia	2
pitz	2
rva	2
▁gavi	2
▁pelícano	2
sionado	2
jtsi	2
comprendido	2
▁posterior	2
uecuex	2
mulo	2
brí	2
▁Susténta	2
▁conclu	2
▁pican	2
_	2
tik	2
▁temporada	2
▁maestra	2
▁sirvier	2
▁revolotea	2
sosieg	2
chol	2
▁conceder	2
▁encontrara	2
▁vendas	2
▁contenta	2
▁causan	2
▁Yancuic	2
▁Tlalpa	2
▁desdeña	2
▁conviert	2
▁construid	2
▁Mazatepetl	2
▁andubie	2
petate	2
forme	2
▁desaparecía	2
▁prometi	2
▁preguntada	2
tenerlo	2
▁morisca	2
▁abusa	2
▁germinan	2
htzin	2
▁asesor	2
▁consejero	2
▁fundament	2
▁particip	2
lpan	2
tlá	2
▁Xiuhca	2
UIT	2
▁correspondi	2
▁plati	2
▁vivieran	2
▁vendiése	2
▁secundari	2
▁ensay	2
▁bo	2
▁dejaré	2
dij	2
moxc	2
▁Yeca	2
▁Sale	2
▁Trabajas	2
▁estrag	2
▁señoria	2
▁mate	2
▁morisc	2
▁cano	2
▁pretexto	2
▁Tlal	2
▁sencilla	2
hon	2
UIL	2
▁baj	2
ierne	2
▁cogerá	2
▁Telpo	2
ivisteis	2
ixto	2
▁Llegado	2
▁trasquila	2
▁Ji	2
axco	2
auti	2
▁Chontalco	2
▁Izc	2
▁Tlapa	2
▁Hua	2
▁sangrar	2
icas	2
pel	2
▁tafet	2
▁exist	2
excal	2
▁tejo	2
▁Cuauhpopocat	2
bel	2
▁defendía	2
▁Tuviste	2
▁náhuat	2
ibe	2
▁jag	2
▁trague	2
PE	2
▁tendía	2
▁florezca	2
▁represent	2
▁Chu	2
ru	2
▁tapó	2
▁acuerde	2
ahuit	2
roga	2
▁estuve	2
nio	2
▁mantel	2
▁refuerz	2
▁adorarl	2
▁merca	2
▁estudian	2
▁cortarla	2
▁resta	2
▁chistoso	2
▁deshonr	2
▁trans	2
jki	2
▁tirarlo	2
▁chamusc	2
▁permanecía	2
▁legislatura	2
▁encendida	2
▁aterra	2
▁pisotear	2
▁misterio	2
ráfic	2
UH	2
efensor	2
▁nervios	2
▁roda	2
▁puer	2
▁haziend	2
▁amontona	2
▁levanten	2
ltoton	2
riamente	2
▁litigan	2
oportuna	2
▁educativo	2
tlil	2
▁estropea	2
▁ruega	2
▁recordó	2
▁marcharo	2
▁mon	2
arca	2
▁friazo	2
▁protector	2
ayacámach	2
▁divida	2
▁escribí	2
▁maciz	2
▁Venga	2
onstruid	2
▁acuchill	2
riesg	2
▁funda	2
▁percibí	2
memor	2
▁desayunaba	2
▁bendic	2
ZA	2
▁Sala	2
▁dechado	2
onaba	2
tetl	2
▁acompañarlo	2
▁broten	2
▁acrecent	2
▁temiendo	2
▁Motec	2
▁Tepant	2
rando	2
▁disputa	2
▁sufría	2
▁colec	2
▁Jua	2
▁aqu	2
▁avanz	2
ransfiguraci	2
▁Zapot	2
tur	2
▁Tepech	2
noble	2
lmorza	2
▁Ytzc	2
envolvía	2
▁litera	2
buena	2
estregándolo	2
▁dividid	2
▁brasa	2
▁alborot	2
▁Franc	2
▁Otum	2
▁Tez	2
▁publicado	2
▁económico	2
mbl	2
▁refin	2
cesaria	2
ilvestre	2
éntamelo	2
▁temas	2
▁llevándole	2
▁ocupan	2
▁dotarte	2
▁pront	2
▁incorpor	2
erio	2
▁cultib	2
▁Perf	2
▁piados	2
▁invoque	2
▁cur	2
▁fierro	2
▁nue	2
▁Tehuan	2
▁atada	2
▁obedecerá	2
voluntarios	2
▁Osoma	2
▁tlacuilo	2
▁consagrad	2
locan	2
▁fug	2
llado	2
▁ocasion	2
omei	2
▁autoriza	2
▁afrent	2
▁oya	2
▁contradicion	2
▁investigara	2
▁obligar	2
▁guerrera	2
emej	2
▁trax	2
▁lancha	2
▁borbo	2
▁rompe	2
▁bendig	2
▁revalora	2
vive	2
staba	2
▁sacarlo	2
▁compasiv	2
▁diseña	2
▁pule	2
▁Cuauhtep	2
lática	2
▁viviste	2
▁apiadara	2
▁servirlo	2
P	2
oral	2
▁kam	2
▁disgustar	2
▁castigaría	2
▁elegante	2
▁vendiendo	2
truy	2
▁Max	2
quecho	2
▁CI	2
QUELITE	2
▁someter	2
▁inmu	2
▁departamento	2
▁pág	2
▁alumbr	2
▁Compañer	2
▁Tranquil	2
íces	2
▁domin	2
ueva	2
▁demand	2
°	2
▁dis	2
▁profier	2
▁obligarla	2
▁Yzquixochiqu	2
▁persigna	2
▁habiéndo	2
▁sostuv	2
▁sosten	2
dilla	2
▁Xico	2
téncatl	2
▁aguarda	2
diente	2
turbi	2
▁Pónga	2
▁mejora	2
▁votad	2
uardia	2
stía	2
▁chism	2
▁manifest	2
▁menosprecia	2
itla	2
▁Establec	2
▁potencia	2
▁inm	2
▁demora	2
rriba	2
tí	2
becilla	2
▁Fuer	2
ilitar	2
▁volu	2
▁lind	2
▁entendid	2
▁ynquieta	2
▁Xochpoyo	2
▁protegerá	2
▁guardará	2
▁paladea	2
bata	2
▁Texcal	2
▁Cuauhtenampa	2
qu	2
cahualtzin	2
ladar	2
▁amas	2
▁manchada	2
▁imponen	2
▁besar	2
▁juzg	2
▁xono	2
▁Rum	2
▁colga	2
▁Tetzmol	2
▁envilece	2
▁compuesto	2
▁enojen	2
tico	2
▁Ver	2
▁benef	2
▁persuadir	2
▁bultito	2
▁Cha	2
▁peña	2
▁Xip	2
▁teoc	2
▁viviér	2
uat	2
▁chapole	2
▁Tened	2
▁Xilot	2
▁veh	2
▁discreto	2
▁SOYO	2
▁vig	2
▁sacrifiqué	2
▁hubiér	2
▁cuidaste	2
úda	2
▁calpixqu	2
▁costeño	2
▁Johan	2
chos	2
▁compadec	2
▁perdone	2
▁diab	2
kan	2
▁Tajchi	2
▁viniese	2
▁vellac	2
▁cortarlo	2
▁cesado	2
ERBA	2
▁entristecía	2
▁crí	2
▁eduque	2
▁resolverá	2
▁fragan	2
▁Ing	2
▁Tlecuil	2
▁Atizap	2
▁vacío	2
cieron	2
▁ná	2
▁actuar	2
▁concedid	2
▁aromática	2
▁armon	2
▁confesaba	2
▁reverenciar	2
▁perseguirlo	2
alixtlahuaca	2
▁empleado	2
▁polític	2
▁kik	2
▁salve	2
▁vendiéndo	2
ámoslo	2
▁yerg	2
▁esconde	2
▁Rica	2
▁plane	2
▁Toc	2
▁Basti	2
marc	2
▁plurinominal	2
▁Estuvi	2
▁unir	2
▁acerqu	2
▁escarn	2
▁contribuye	2
▁Uicoltepe	2
▁vain	2
bus	2
▁Mixcoa	2
▁Azcap	2
tzalco	2
guen	2
▁chaquetilla	2
partir	2
▁Tlacoco	2
oya	2
▁mazorquita	2
▁agujerito	2
▁exaltado	2
▁obedeci	2
▁recorrie	2
▁ros	2
ihuapilli	2
▁k	2
quechol	2
luvia	2
▁ayudarme	2
rejas	2
▁certific	2
toman	2
▁TO	2
ecan	2
mit	2
▁reflexionar	2
fra	2
▁Chacal	2
▁turba	2
arlos	2
▁sofoc	2
▁encarn	2
▁enriquece	2
▁defi	2
▁Ezt	2
celopan	2
hiauht	2
▁cargaba	2
sij	2
▁difu	2
▁crecid	2
eyacan	2
egando	2
▁comprend	2
▁refugiado	2
▁satisfacer	2
▁promulga	2
▁colhuaca	2
▁extiéndete	2
▁Muchísim	2
▁maravilla	2
▁constar	2
durará	2
▁dirigen	2
▁desmay	2
lleg	2
chpuch	2
▁Tozp	2
▁proteg	2
▁Mois	2
▁remuneraci	2
▁Bell	2
▁desag	2
▁Quice	2
▁recurri	2
▁defendi	2
▁izcahuit	2
▁recordarle	2
▁cabal	2
▁salpicado	2
▁continuar	2
▁culebr	2
▁Coza	2
quizqui	2
▁acechan	2
▁coyol	2
▁inventado	2
▁delgadit	2
▁primoros	2
▁vivamos	2
▁Tlacochint	2
▁platica	2
▁enumera	2
▁Tecuic	2
▁berdader	2
▁bald	2
▁glorificado	2
▁envidi	2
▁viviréis	2
▁precipit	2
▁escop	2
▁embarc	2
moler	2
▁húmed	2
argado	2
TOMATE	2
▁bl	2
▁novici	2
▁acamaya	2
▁traza	2
▁Chiqui	2
▁gas	2
▁arrend	2
▁horada	2
▁calentaba	2
▁Tozpan	2
▁TERCER	2
pone	2
▁mínim	2
▁adereza	2
▁hechicería	2
▁vul	2
▁gateando	2
ápida	2
telpoch	2
▁Xilom	2
nunciaba	2
orden	2
▁estimab	2
▁Lleva	2
▁Cipact	2
▁ray	2
▁Cab	2
erbita	2
aiko	2
▁NOPAL	2
▁desarroll	2
pán	2
▁Culhuac	2
chca	2
▁multipli	2
▁despacha	2
▁expen	2
aj	2
sak	2
▁cambiará	2
▁desalient	2
▁proteger	2
▁gordita	2
▁maiz	2
▁Oli	2
lotlac	2
▁Ayop	2
▁sostener	2
▁regente	2
▁cerradura	2
▁TSOJPI	2
▁ofrezc	2
▁mer	2
idiana	2
▁divis	2
▁Poyauh	2
▁tron	2
▁establece	2
▁eléctric	2
euc	2
▁Alc	2
rguen	2
ochteca	2
semilla	1
▁llevaro	1
vias	1
entamente	1
▁cria	1
▁cabece	1
▁arru	1
llaba	1
visto	1
▁escurr	1
î	1
peyac	1
▁acércala	1
▁golpea	1
▁Agrad	1
ocupaba	1
tener	1
▁oua	1
▁chupa	1
rden	1
▁Cotz	1
oló	1
jole	1
giosa	1
rbol	1
edim	1
▁sangra	1
▁agrav	1
nero	1
▁decapitar	1
▁encargar	1
suadir	1
▁asignad	1
sciende	1
▁Dí	1
▁Avi	1
▁interpret	1
nito	1
rijol	1
evol	1
mentaba	1
venida	1
diésemos	1
zuelo	1
var	1
caña	1
camapichtl	1
halchiuhtlatona	1
chitome	1
oxcoxt	1
▁contrata	1
▁ebri	1
▁pasill	1
▁entraría	1
zatl	1
ug	1
▁Texca	1
tzon	1
▁cuant	1
iosos	1
uana	1
aldo	1
bandera	1
oponía	1
▁berd	1
▁sop	1
▁regula	1
olpe	1
▁selecci	1
madura	1
▁obstáculo	1
▁diver	1
▁molestad	1
▁ll	1
stillo	1
▁Th	1
emilot	1
mita	1
ien	1
▁Cuep	1
tíc	1
amé	1
nombre	1
▁Tecp	1
yol	1
florido	1
▁indign	1
▁solicitad	1
▁Ixcui	1
uatec	1
▁Xochit	1
▁hil	1
ianza	1
▁disfrazad	1
▁grac	1
ejos	1
▁sepá	1
poblado	1
ígal	1
▁menudit	1
▁funesto	1
▁AQU	1
arza	1
▁brill	1
▁obst	1
inado	1
▁ochen	1
▁aborrecer	1
▁muel	1
▁tlatelolc	1
auhtliquetzqu	1
irm	1
▁relativ	1
gener	1
huicamina	1
tana	1
▁mante	1
adura	1
▁desesper	1
atender	1
▁fest	1
leccion	1
andaba	1
spañol	1
cebolla	1
nunci	1
uelve	1
derrama	1
▁instrui	1
▁oye	1
uito	1
ekat	1
xaca	1
AR	1
hacía	1
▁cosechan	1
▁profi	1
uevo	1
▁revuelv	1
▁sobrepuest	1
UL	1
CE	1
▁Tlacax	1
eniza	1
▁plant	1
▁obedecie	1
▁clave	1
primero	1
▁Cuext	1
chenta	1
▁Cual	1
iris	1
▁tiz	1
▁antece	1
dente	1
suprimi	1
mon	1
▁Motecu	1
▁ejerc	1
▁Ar	1
Tlaca	1
lumbran	1
▁prolonga	1
epult	1
varios	1
XIP	1
▁empie	1
▁material	1
mujer	1
▁quiz	1
tuoso	1
amachan	1
▁podr	1
▁cator	1
▁Joh	1
ger	1
ald	1
▁nahua	1
ski	1
▁inmedia	1
levado	1
pare	1
▁moriré	1
ñet	1
▁perfora	1
▁introdu	1
▁acuchilla	1
▁angustiado	1
▁Desca	1
iscurso	1
todo	1
lució	1
▁Ol	1
▁ahuyent	1
cutor	1
▁dádiva	1
sexto	1
▁incorporar	1
barg	1
igesimo	1
segundo	1
tlayáca	1
▁cit	1
RES	1
▁Peni	1
úz	1
▁lle	1
▁hablará	1
guisado	1
▁podrid	1
hizo	1
suficiente	1
uoso	1
▁Be	1
▁afanar	1
huacatzin	1
rabajaba	1
▁volvie	1
▁IX	1
▁apris	1
conten	1
ubiese	1
eis	1
entencia	1
▁Só	1
foc	1
▁sombr	1
chill	1
ími	1
▁Huet	1
cor	1
▁procedier	1
lc	1
putado	1
iero	1
▁circular	1
valía	1
▁almendra	1
▁asir	1
▁transform	1
▁Tlacaca	1
libr	1
▁cihuatl	1
▁exhibier	1
▁tradu	1
▁sobrin	1
▁discret	1
activo	1
▁Mese	1
ral	1
▁balacear	1
▁arra	1
▁vuest	1
quite	1
diendo	1
quién	1
▁Tlac	1
omihua	1
▁origin	1
▁engañan	1
▁opac	1
sale	1
▁ministro	1
ñido	1
sivo	1
pod	1
adito	1
▁ponerlo	1
madera	1
aís	1
▁fuer	1
facto	1
▁derro	1
▁efectua	1
cal	1
▁elect	1
icidad	1
uestra	1
▁med	1
presad	1
▁conpra	1
oblacion	1
Canta	1
▁Micc	1
▁desaparece	1
▁dulz	1
▁inferior	1
Anda	1
▁calaba	1
▁BLANC	1
▁demol	1
auta	1
ng	1
▁espaci	1
▁Rep	1
▁hizier	1
▁Totolimpa	1
▁llamam	1
▁ganado	1
RIM	1
▁past	1
amac	1
▁regid	1
tzotz	1
tzcuin	1
▁compl	1
fanos	1
▁consegui	1
▁recur	1
▁antela	1
cretaría	1
Este	1
▁trasunt	1
▁contiend	1
brillo	1
▁yacen	1
▁enrojeci	1
▁guerre	1
borre	1
▁emprendi	1
▁utili	1
▁inve	1
posesione	1
▁afloj	1
▁amaran	1
▁llamaré	1
▁may	1
▁entromet	1
▁clá	1
usula	1
▁Dueña	1
▁padecim	1
otomihuaca	1
▁presto	1
▁asusta	1
▁acrecienta	1
▁escapan	1
▁vís	1
▁nuest	1
▁gobie	1
recuerd	1
engua	1
órico	1
ífico	1
▁mod	1
▁Arroja	1
▁bomb	1
▁soldad	1
ánica	1
alegría	1
▁Tequixqu	1
▁poseya	1
▁derrumbe	1
cotl	1
▁enfad	1
▁dient	1
▁pertenezc	1
ncillo	1
rín	1
▁dedique	1
▁entere	1
ejó	1
▁depositan	1
▁acortar	1
▁debid	1
▁extran	1
▁incompren	1
sible	1
tros	1
porada	1
▁cobi	1
▁florean	1
▁opone	1
ponen	1
▁regi	1
▁precios	1
▁tetec	1
tomara	1
garo	1
▁Quimicht	1
▁Cuahui	1
ticinco	1
▁Ahue	1
▁teu	1
nti	1
▁lluev	1
▁concu	1
▁Niñ	1
▁lanzá	1
vinieron	1
▁pegan	1
rchar	1
▁Conf	1
eración	1
rros	1
▁regresad	1
ába	1
▁Bauti	1
▁indíge	1
▁parescier	1
cioso	1
▁espere	1
corola	1
rosa	1
▁pobl	1
▁Forma	1
▁trini	1
tarios	1
usto	1
venir	1
▁Lava	1
▁requis	1
ueyo	1
▁Fr	1
▁Org	1
glesia	1
▁Matlac	1
▁rel	1
▁agrade	1
▁dictar	1
▁ordinari	1
▁reglament	1
▁gener	1
siempre	1
quemado	1
▁dij	1
panxo	1
▁zanahoria	1
pinos	1
yer	1
▁sumar	1
▁participan	1
conocimiento	1
cados	1
▁contemp	1
▁cí	1
udad	1
orresponde	1
▁diri	1
mir	1
ribunal	1
nimo	1
▁contentar	1
lam	1
terrar	1
▁esp	1
tula	1
▁mace	1
▁Dam	1
undir	1
▁permit	1
▁habé	1
rsela	1
ixe	1
▁proc	1
rear	1
bús	1
▁activo	1
▁adic	1
cería	1
·	1
lvidar	1
▁verifica	1
chmacue	1
▁suspens	1
uta	1
▁Maxi	1
▁Art	1
▁fij	1
▁reb	1
asar	1
▁prolong	1
▁Tozcuecue	1
▁sost	1
▁cade	1
▁Regresa	1
radic	1
▁raspo	1
▁alf	1
abeto	1
▁Tlaxi	1
cultura	1
▁empi	1
tendrá	1
eres	1
▁devuelv	1
▁tartamud	1
▁calmar	1
▁amé	1
viendo	1
▁devo	1
▁tesoro	1
▁aceit	1
aquí	1
tiempo	1
cochcalcatl	1
ailotlac	1
▁Ez	1
uau	1
paneca	1
▁Tezcaco	1
DA	1
▁dud	1
▁prim	1
▁SOY	1
▁difun	1
▁popo	1
loca	1
figura	1
▁verifi	1
▁Mil	1
▁anpar	1
▁herv	1
▁desayu	1
ab	1
▁quauhtli	1
teza	1
▁Capo	1
huiz	1
uebe	1
illado	1
azgo	1
abuelo	1
▁prosegu	1
▁Ra	1
úl	1
▁ventan	1
▁Diré	1
Su	1
fi	1
▁somet	1
▁pronu	1
uci	1
▁amanecier	1
▁prec	1
▁pleit	1
and	1
turna	1
▁estatu	1
vina	1
▁notori	1
raiga	1
para	1
▁decl	1
amaxtl	1
▁tlal	1
▁Gilot	1
▁protege	1
▁confir	1
▁enaltec	1
▁aplicar	1
cu	1
lizará	1
opondrá	1
▁repara	1
mares	1
▁desplieg	1
solo	1
▁conviv	1
▁háb	1
▁bur	1
▁derru	1
▁fatigará	1
▁estropead	1
▁dejarlo	1
▁Tzonp	1
uga	1
▁fla	1
▁trei	1
▁desdicha	1
▁eche	1
▁aguantar	1
▁carg	1
▁gala	1
▁Cuauhxo	1
fíci	1
▁sacrific	1
ciar	1
▁xochite	1
▁contiende	1
▁regale	1
ézca	1
▁celebre	1
▁tepoz	1
▁multiplica	1
rig	1
ht	1
plano	1
Ca	1
▁Ayauhc	1
▁interce	1
▁aprendí	1
▁Tecua	1
illan	1
apach	1
exochitl	1
▁ram	1
▁excelen	1
▁hermos	1
▁desplegar	1
▁reunirá	1
▁Iniciativa	1
rdinaria	1
ferente	1
▁señale	1
iltec	1
▁compadezc	1
establezca	1
limento	1
▁prefi	1
▁censura	1
riquez	1
▁cuev	1
▁conej	1
▁Cah	1
▁situ	1
▁ahorcad	1
▁aplic	1
ocuilteca	1
▁pisotea	1
▁disponga	1
▁acepta	1
rido	1
tzcua	1
cuent	1
▁Hi	1
venera	1
Com	1
ígn	1
▁disper	1
▁Tepoz	1
▁dispong	1
▁atrap	1
ayote	1
zque	1
▁palaci	1
▁embajad	1
ormigui	1
ofecía	1
▁Ministro	1
om	1
▁Ri	1
▁desfalle	1
ípi	1
chado	1
ezco	1
▁Apres	1
ermit	1
▁Sab	1
jemplo	1
cuauh	1
lmente	1
▁aprend	1
▁bot	1
tlapal	1
▁acced	1
ò	1
▁castigad	1
▁Tenochti	1
dicen	1
domin	1
pie	1
▁anim	1
▁compete	1
eglamento	1
▁Deba	1
▁dejá	1
▁arr	1
▁lej	1
▁milco	1
▁Levant	1
ámosl	1
lanura	1
▁cier	1
cían	1
dam	1
▁Ir	1
▁solí	1
dministra	1
ública	1
alizada	1
▁administrativ	1
▁opera	1
▁comercian	1
▁Hazl	1
▁arregl	1
ozcuecuex	1
uitzilihuit	1
▁tenan	1
proclama	1
lt	1
▁oyer	1
▁Tort	1
olita	1
áquenl	1
pr	1
abló	1
▁mandare	1
catado	1
ág	1
▁inv	1
▁poqu	1
▁gigante	1
▁Cuitlac	1
▁Dad	1
▁dadle	1
▁cau	1
ruina	1
▁asisten	1
▁fortalec	1
jura	1
Dicen	1
▁here	1
▁predica	1
▁Jun	1
estro	1
▁emiti	1
▁revuel	1
vado	1
▁cárg	1
rtillas	1
▁sacab	1
▁diestro	1
Flor	1
▁gat	1
rólogo	1
▁esconda	1
▁Tolp	1
epopo	1
onduce	1
vestidura	1
▁muéstra	1
▁Itzmi	1
▁Sena	1
▁platican	1
tículo	1
▁Chim	1
▁Yoh	1
▁comino	1
IT	1
ABA	1
VE	1
▁chapoltepec	1
acohua	1
chcuauhtli	1
auhyo	1
▁tol	1
▁añ	1
▁acomodad	1
ienta	1
elada	1
ustodi	1
▁desgran	1
xcallo	1
▁embriag	1
▁efect	1
▁abso	1
▁inmund	1
ART	1
AJ	1
QUINT	1
▁sumerg	1
cter	1
fí	1
mero	1
▁itzc	1
otecuhzoma	1
huey	1
érse	1
clar	1
▁manifieste	1
▁levante	1
▁Rodri	1
xiste	1
otolco	1
▁tlacatec	1
opoch	1
cehual	1
▁provocad	1
untémosl	1
▁desnud	1
▁retro	1
▁investig	1
▁interrog	1
▁avanzad	1
▁negoci	1
movió	1
▁almen	1
▁Vend	1
▁examinar	1
▁fac	1
▁tripa	1
▁Trans	1
dios	1
quitec	1
yunta	1
mbo	1
ld	1
▁valeros	1
▁inven	1
▁guisa	1
▁Mizqui	1
▁vivirán	1
▁atavia	1
yac	1
▁toro	1
jet	1
isponga	1
arían	1
evada	1
rizon	1
stuviera	1
▁vendi	1
▁vací	1
▁Moli	1
▁conmov	1
▁diversi	1
▁cubr	1
b	1
▁interrump	1
▁trastorn	1
▁sancion	1
▁recobr	1
▁expedid	1
perado	1
iré	1
▁pereciera	1
▁Xochiteu	1
▁Temilot	1
▁espec	1
táculo	1
▁conv	1
▁deshie	1
▁concederá	1
TAS	1
ablar	1
hqui	1
▁Rec	1
▁aparej	1
▁llenad	1
▁entrevistar	1
▁blanc	1
▁bolud	1
uauhtle	1
levar	1
visible	1
▁impa	1
lpable	1
▁levánten	1
▁Cui	1
ervi	1
▁Establ	1
cue	1
▁hermanita	1
ojan	1
▁escaramuzar	1
totoztl	1
▁perdí	1
umento	1
ubsiste	1
▁conocerá	1
▁sabi	1
sería	1
▁acorda	1
momoz	1
▁emprendier	1
▁espe	1
▁desenv	1
inaba	1
▁refle	1
erte	1
▁Cau	1
huit	1
▁enviará	1
▁estu	1
▁funcionar	1
catépe	1
▁agre	1
itecu	1
yehua	1
▁Xaltépe	1
apotzal	1
▁Tequixqui	1
▁despaci	1
AZ	1
X	1
OM	1
ALLA	1
IC	1
RDE	1
▁ME	1
MOR	1
IA	1
▁LO	1
AN	1
PRE	1
EN	1
▁Huixa	1
▁Ipalnemo	1
▁Josep	1
▁suplicará	1
endiente	1
alcalde	1
palito	1
exotzin	1
omici	1
fina	1
vivi	1
icia	1
molino	1
▁estuviere	1
▁arrep	1
▁encar	1
ñado	1
scribir	1
▁molde	1
nuestra	1
primía	1
▁xoko	1
▁Toman	1
flores	1
▁compañer	1
▁desapar	1
ultiv	1
esquina	1
GO	1
RDO	1
ztl	1
ángel	1
caliente	1
ima	1
pas	1
amante	1
▁Vende	1
▁Seré	1
▁Estaré	1
árden	1
ndieron	1
secó	1
▁Tlach	1
▁abarc	1
fer	1
mia	1
unicip	1
▁sustitu	1
▁Teca	1
▁Trá	1
▁obl	1
abiduría	1
eligió	1
▁ochoci	1
ntas	1
yohual	1
uahuit	1
cuerda	1
teotl	1
▁Eshuahua	1
▁herre	1
rde	1
ctl	1
▁lament	1
▁bailado	1
▁saborear	1
▁condu	1
▁legisla	1
patadas	1
▁conju	1
▁xon	1
ted	1
▁Lav	1
ejote	1
▁envolvi	1
▁apen	1
vivió	1
esteros	1
stó	1
▁persuadi	1
zapoteca	1
▁tlap	1
▁Huitzilopoc	1
▁ordenad	1
comandante	1
▁Yollo	1
cuani	1
ngría	1
ruega	1
▁Fl	1
Si	1
▁oto	1
cali	1
▁alfar	1
▁dolo	1
▁construcci	1
fundido	1
▁curios	1
exot	1
ismos	1
▁básic	1
isla	1
electo	1
▁Supl	1
▁Mu	1
onasterio	1
mesa	1
▁Tlah	1
▁llant	1
tá	1
▁defect	1
prar	1
licen	1
yantla	1
▁jue	1
▁danzan	1
▁cuidad	1
▁obscurec	1
ejar	1
crecer	1
▁embarnecer	1
▁embarnec	1
▁impe	1
trar	1
▁rop	1
ochini	1
▁arras	1
convocado	1
tale	1
hablar	1
▁perteneci	1
▁añadi	1
▁viol	1
▁Acac	1
▁Tlachinol	1
taz	1
▁entierre	1
ije	1
▁toch	1
▁Olhuatecatl	1
▁puebl	1
▁divin	1
▁platiqu	1
días	1
uahu	1
▁enorgulle	1
cer	1
drecita	1
▁edificara	1
▁Ocui	1
amacoy	1
▁ofrecier	1
CAR	1
▁MO	1
uhtzin	1
▁cosechaba	1
▁vencid	1
▁zaf	1
▁Invo	1
ntegra	1
ihuacan	1
▁marchan	1
▁chist	1
▁Nombr	1
ezahualcóyotl	1
▁cohe	1
rentes	1
▁consider	1
hiucnauht	1
amaban	1
▁adjudica	1
▁penosa	1
▁faltar	1
míll	1
▁camell	1
▁Pala	1
onat	1
út	1
bol	1
visteis	1
cantar	1
▁Tlaltec	1
dello	1
mal	1
▁More	1
▁Temaz	1
▁propuesta	1
entativa	1
caban	1
▁inviolable	1
▁inviolab	1
sesionar	1
▁expulsa	1
muy	1
produce	1
▁escon	1
▁perecie	1
▁Pedr	1
azo	1
ever	1
▁nove	1
▁imper	1
▁dejándo	1
▁doscient	1
evo	1
OTE	1
▁exc	1
▁chic	1
fiesta	1
propia	1
▁omit	1
irse	1
▁platillo	1
auhtenco	1
oxiuh	1
ecci	1
trabajadores	1
iaré	1
▁incl	1
▁temeros	1
▁desd	1
vara	1
▁princ	1
felic	1
▁hablara	1
sideras	1
▁orej	1
▁separada	1
▁apartad	1
estía	1
parece	1
▁consignado	1
cerro	1
max	1
ll	1
▁Mizquit	1
onecuil	1
▁incul	1
carte	1
▁mercade	1
▁encendiera	1
▁demostra	1
ah	1
▁cause	1
TZ	1
▁Siembr	1
▁Pu	1
rifica	1
▁Cuauhxi	1
▁malinal	1
▁bañ	1
xil	1
▁dif	1
▁suspender	1
▁vill	1
érsel	1
ernida	1
arga	1
elol	1
qual	1
ipan	1
uhpan	1
ocado	1
▁aboga	1
pacatl	1
▁escá	1
▁moj	1
▁incensar	1
▁disciplinar	1
▁impon	1
▁sorprendier	1
cial	1
▁confort	1
▁emplum	1
▁Xi	1
amino	1
▁hormig	1
▁consult	1
▁dixer	1
▁aporta	1
amuza	1
varon	1
▁Tecama	1
▁Acue	1
ulhuac	1
▁Xochiaca	1
inacant	1
epec	1
▁Ocuila	1
acac	1
▁Ori	1
zaba	1
▁Tlaol	1
ompo	1
mace	1
▁Tehue	1
nezca	1
▁derra	1
paje	1
▁Itztla	1
arme	1
spereza	1
▁espér	1
▁Fed	1
▁viviré	1
▁asentad	1
▁oportun	1
▁comí	1
▁reclam	1
▁incluye	1
cortar	1
▁Ixtlilx	1
▁resolvi	1
▁estudiara	1
▁excede	1
▁perturba	1
▁prog	1
enito	1
▁Huitzilop	1
ué	1
▁Luc	1
avía	1
día	1
berg	1
▁consagra	1
erren	1
▁clare	1
▁velan	1
▁topil	1
tapa	1
acue	1
▁Hij	1
▁reprend	1
labora	1
bec	1
▁Mach	1
end	1
ró	1
▁tall	1
▁Teote	1
formalidad	1
▁moja	1
tecatépe	1
ñó	1
▁claus	1
▁pal	1
oyo	1
spir	1
ocote	1
▁oracion	1
grand	1
ponder	1
uía	1
lpopoca	1
▁Cuappan	1
▁escriba	1
▁esforz	1
▁interpretad	1
▁expl	1
anada	1
enco	1
chalc	1
▁prófugo	1
▁aflig	1
caiga	1
▁Vendr	1
▁XII	1
celli	1
endido	1
▁quié	1
▁llene	1
▁reali	1
prenderá	1
▁reparta	1
rzobispo	1
ienzo	1
vid	1
▁difer	1
tendré	1
ceb	1
▁Embri	1
▁Regál	1
▁Espér	1
émoslo	1
▁presentara	1
▁entendí	1
▁arrojan	1
▁permanecer	1
rcada	1
ves	1
▁Cár	1
▁torc	1
enroll	1
▁Mata	1
IE	1
RV	1
▁mage	1
▁menti	1
▁puja	1
ilita	1
▁tigr	1
▁cla	1
quini	1
vicio	1
mentado	1
nvocaba	1
▁templ	1
udable	1
▁comprob	1
▁Chichicuepo	1
▁bell	1
descrip	1
penetra	1
▁esc	1
panquetzal	1
▁atemo	1
cahua	1
▁tlaca	1
tozozt	1
▁Gil	1
justicia	1
estimar	1
vuestra	1
▁Llor	1
bia	1
▁abis	1
inios	1
▁Expe	1
cta	1
LTO	1
MAR	1
cpayoca	1
azada	1
mira	1
tép	1
▁destroz	1
rándolo	1
yahuaca	1
egla	1
▁aguj	1
▁encendie	1
▁lléva	1
▁arbitr	1
▁reverdec	1
ieras	1
▁TAL	1
TOMAT	1
IJ	1
OYO	1
KK	1
rezca	1
▁judí	1
▁pastora	1
colombi	1
diesen	1
icieron	1
embriagan	1
▁sacará	1
▁Tenoc	1
▁rompier	1
▁impu	1
NOS	1
Ľ	1
SO	1
uetzaltec	1
cuauhtli	1
▁Iztacmi	1
▁corresponder	1
▁defin	1
padec	1
▁pereceré	1
▁Herman	1
ki	1
ujk	1
enk	1
cámara	1
▁nonbrad	1
éntes	1
pecha	1
zpan	1
ztlaco	1
▁reun	1
uitzca	1
▁Dejar	1
alméca	1
▁parient	1
igen	1
media	1
altecuht	1
▁recibiría	1
▁mayoral	1
▁vie	1
▁Sanche	1
rrán	1
▁cava	1
tete	1
tedra	1
▁tempo	1
▁bauti	1
rtilla	1
zahuat	1
▁hij	1
▁Méxi	1
▁cuy	1
dado	1
▁despl	1
azaba	1
▁acc	1
tlapil	1
▁Teyu	1
tísima	1
▁multi	1
▁Calixt	1
▁adv	1
▁satisface	1
aturale	1
suelva	1
▁tribut	1
▁refier	1
lustr	1
est	1
▁despreciar	1
▁Cesa	1
rea	1
▁restaur	1
▁Ag	1
▁Viz	1
guiar	1
rieta	1
▁TOMAT	1
▁crecí	1
ándo	1
ocotes	1
huate	1
ment	1
▁Cien	1
▁colg	1
▁dejad	1
▁convo	1
▁encabez	1
▁capulin	1
▁espar	1
▁transf	1
erido	1
eotenanc	1
namacoya	1
▁Cahualt	1
tomat	1
itzilopoch	1
▁congregar	1
▁naranj	1
▁ergu	1
▁Huit	1
ilí	1
▁objet	1
iercol	1
▁metí	1
uey	1
Antoni	1
aldi	1
obra	1
adron	1
▁sintie	1
andamiento	1
oct	1
▁Met	1
▁Yauht	1
ixtlahuaca	1
▁Huexolotla	1
▁Tecpat	1
▁Nac	1
▁Cahual	1
▁Hui	1
▁Avien	1
ntiag	1
▁Yzquixoch	1
▁ataja	1
▁tlaxc	1
iese	1
▁Nopalt	1
popocat	1
▁lumin	1
▁Comunicar	1
▁Salí	1
▁cose	1
▁fortalezc	1
niz	1
▁fatig	1
cuece	1
dia	1
▁escas	1
▁carn	1
▁huérfan	1
▁teni	1
arde	1
Coco	1
▁anc	1
lada	1
stituir	1
▁vo	1
cabul	1
▁princip	1
xquipan	1
▁destina	1
▁chichimec	1
barata	1
▁Frí	1
▁ult	1
ramar	1
porte	1
▁administrativa	1
▁imponga	1
mig	1
ub	1
nicio	1
▁Xacal	1
▁bendid	1
XCO	1
grada	1
▁emplead	1
▁estremec	1
oncella	1
▁arrier	1
▁emba	1
dur	1
inita	1
▁Pon	1
▁bra	1
itual	1
▁Ixtl	1
áhu	1
▁padecía	1
▁inscribi	1
gándole	1
ine	1
sfuér	1
▁degollar	1
▁inclinar	1
▁Quauhtl	1
▁soberbi	1
▁busqu	1
specto	1
▁profetiza	1
zcu	1
▁devora	1
▁pusi	1
ramient	1
ztlan	1
▁Ll	1
▁avergonzar	1
▁trafican	1
▁desech	1
▁colindan	1
dale	1
▁agra	1
▁Crey	1
oce	1
vestid	1
▁paneci	1
▁liger	1
▁dife	1
rencia	1
▁Sanc	1
viera	1
▁Quienquie	1
▁murmurar	1
▁hué	1
huetl	1
scrito	1
elebrar	1
▁redonde	1
▁aleja	1
▁tray	1
▁asemeja	1
▁interc	1
ambi	1
cacahua	1
chpan	1
ohuaca	1
obe	1
aire	1
ésta	1
▁blan	1
cino	1
▁tend	1
lá	1
▁apart	1
▁enrosca	1
▁Consu	1
etzal	1
bito	1
▁encumbra	1
▁futur	1
▁costeñ	1
malayo	1
▁oprim	1
▁esclaviza	1
▁huev	1
ecillo	1
▁chichi	1
▁obse	1
▁insist	1
rina	1
resupuesto	1
▁determinad	1
▁Zu	1
molió	1
▁preten	1
▁comple	1
▁limitado	1
ltepec	1
▁mej	1
mek	1
posa	1
bsidiana	1
lados	1
com	1
▁lastima	1
▁Atzca	1
cotiza	1
ntífic	1
▁tizo	1
bedecían	1
▁semen	1
elotzin	1
▁Tlacoch	1
▁imagina	1
▁relig	1
▁amontonan	1
▁antig	1
▁recome	1
▁gé	1
lida	1
▁Ato	1
lixtl	1
▁aberigua	1
▁Moyo	1
▁ranch	1
▁Tlalte	1
tecui	1
cahuaca	1
▁due	1
▁insup	1
iten	1
pazote	1
hará	1
▁siembr	1
▁Xochiteuct	1
paltepec	1
cxochitl	1
▁Huico	1
üü	1
▁Ocotepetl	1
scrivano	1
▁Xilote	1
jó	1
onstru	1
▁aband	1
▁agarran	1
▁alegrá	1
▁restablec	1
▁desolad	1
▁obedien	1
▁descanse	1
▁Je	1
▁Tlailotl	1
ática	1
▁compuest	1
▁soberano	1
▁concer	1
bri	1
gruesa	1
xquitl	1
mani	1
▁desayuna	1
▁derrotada	1
▁CH	1
STI	1
▁solita	1
▁mundanas	1
▁desgarr	1
teponaz	1
zaca	1
▁Aztac	1
▁Tlacac	1
ocht	1
▁señ	1
ále	1
rancaba	1
▁Pare	1
▁disfraz	1
▁Tamp	1
atza	1
▁Xime	1
▁Tepotz	1
▁pl	1
▁daña	1
chime	1
▁Conce	1
rtémo	1
▁resti	1
acha	1
▁poderos	1
ynos	1
▁desayunan	1
áre	1
▁chapolea	1
cemos	1
▁Tzonpa	1
xiuh	1
panto	1
▁otom	1
rten	1
▁fallesc	1
▁encanta	1
£	1
▁isl	1
▁despa	1
olgar	1
tercer	1
▁obscurece	1
▁Aztax	1
▁plei	1
▁Ad	1
ehuatzin	1
aixtlahuaca	1
▁Chiconc	1
▁Yau	1
▁Tepalc	1
xtla	1
▁Quiyauht	1
▁Huei	1
ixitl	1
▁toto	1
▁exclaman	1
▁construi	1
▁magnífic	1
▁raspad	1
▁empiez	1
▁morad	1
▁visit	1
Lo	1
▁gloriosa	1
rgen	1
nterces	1
remio	1
hace	1
▁satis	1
ALA	1
▁prego	1
▁estorbar	1
cava	1
▁tapaba	1
▁Tole	1
▁consent	1
▁cucharad	1
gir	1
▁abnegad	1
▁orgullo	1
▁tocara	1
diana	1
▁atiend	1
ecatec	1
quitli	1
▁Zo	1
evántense	1
▁administraci	1
quitepec	1
violencia	1
▁Rod	1
igi	1
▁ajust	1
▁Desgra	1
▁afila	1
▁navaj	1
▁pintan	1
lores	1
▁apocent	1
lman	1
▁Go	1
▁resbal	1
ducir	1
gres	1
▁extens	1
▁intr	1
igantes	1
▁cac	1
▁veni	1
▁Sufri	1
iti	1
▁cóm	1
ENO	1
▁arrebat	1
▁suplican	1
blado	1
▁conser	1
lecha	1
▁libert	1
▁amante	1
mojada	1
canta	1
▁recuerda	1
ordina	1
ervicio	1
oamerican	1
rre	1
ecen	1
▁mam	1
▁colorad	1
person	1
arlo	1
yzt	1
▁obe	1
▁derribar	1
▁extraordina	1
traves	1
▁tie	1
▁litiga	1
OPE	1
CH	1
tribuir	1
▁interesar	1
rafi	1
bla	1
▁persi	1
lanc	1
alqui	1
lista	1
esencia	1
uauhquechol	1
semejaba	1
▁abraza	1
▁cam	1
naja	1
▁anochece	1
▁algua	1
gil	1
ministro	1
▁sirvien	1
▁valer	1
dándose	1
manteca	1
olía	1
▁lavaba	1
▁Xóc	1
tabl	1
▁Tlatlauhqui	1
▁Cahuetz	1
▁jub	1
▁encaj	1
curría	1
▁precipitar	1
▁Permane	1
▁imped	1
▁cuid	1
▁sang	1
celotl	1
▁pláta	1
▁Rom	1
IXCO	1
▁Ax	1
▁compraría	1
▁arruga	1
▁hurt	1
▁pagaría	1
▁andrajo	1
▁comete	1
usted	1
▁Comen	1
▁Fran	1
▁enfrenta	1
abían	1
bija	1
yot	1
▁Luci	1
chacho	1
▁Xiloxochc	1
▁Tlaz	1
ut	1
edimiento	1
▁ceniz	1
▁tomat	1
▁conced	1
▁leyend	1
▁requiri	1
vac	1
▁enumer	1
▁desperdi	1
nopal	1
hiuc	1
fisca	1
ayo	1
▁cás	1
▁Izta	1
secar	1
tlatzin	1
huahuacatzin	1
huito	1
▁expon	1
▁Tiz	1
▁declare	1
▁oido	1
▁tesor	1
▁entregara	1
▁apreci	1
▁esmera	1
marte	1
tenedor	1
▁avecinda	1
▁adjunto	1
gía	1
ernácul	1
▁plazo	1
▁Gi	1
▁desciend	1
▁junt	1
uitlachcohu	1
▁golpeándo	1
cándo	1
▁chisp	1
▁Cá	1
▁Domin	1
atohuan	1
ificada	1
emá	1
▁compu	1
gido	1
▁decret	1
▁Macuilmal	1
rectament	1
hacen	1
nueva	1
publicar	1
▁public	1
ernando	1
mén	1
▁barra	1
zuela	1
hacer	1
▁destin	1
toma	1
▁arrastrándo	1
▁depende	1
argaba	1
rrump	1
▁huyen	1
▁corred	1
ocupado	1
respond	1
▁Tr	1
cum	1
recido	1
▁maltrat	1
▁import	1
▁agres	1
▁cerillo	1
UAR	1
zú	1
rota	1
▁limpie	1
▁cans	1
▁refresc	1
▁atra	1
nuestro	1
▁fung	1
▁berda	1
▁dipu	1
▁respetuoso	1
▁vuelv	1
atrav	1
▁bez	1
▁alum	1
incuent	1
maro	1
tona	1
▁inqui	1
▁explic	1
▁reverenciad	1
▁dispar	1
▁apellid	1
▁traz	1
ánde	1
▁germina	1
▁insi	1
tornaba	1
▁Tem	1
blaba	1
▁nieg	1
mire	1
onacaz	1
tales	1
cendido	1
ave	1
tcpet	1
zcuecuextl	1
▁volv	1
coyá	1
zt	1
caltzin	1
▁descubrimiento	1
▁sometida	1
▁incur	1
▁despreci	1
aternidad	1
▁maza	1
▁incu	1
ixochitl	1
zapa	1
rrilla	1
tará	1
nyan	1
▁gobernaré	1
▁repi	1
▁suspira	1
uñe	1
▁xam	1
sie	1
▁tejid	1
▁encend	1
edor	1
extla	1
▁ayote	1
▁destruyer	1
MO	1
muchos	1
▁cuidadosa	1
▁testi	1
monio	1
▁rasg	1
▁provecho	1
▁arroyo	1
▁recaudi	1
▁rojiz	1
solucion	1
ontempla	1
▁Teh	1
▁sacerdo	1
Tigre	1
legaba	1
OCH	1
NCO	1
▁Tezt	1
ític	1
▁accede	1
▁Miyahua	1
if	1
▁receso	1
olític	1
artar	1
uelta	1
imi	1
nemigo	1
▁empujar	1
▁leva	1
uno	1
▁descendi	1
arnos	1
solada	1
▁embo	1
scados	1
▁ahoga	1
▁Dispéns	1
▁aliar	1
ochitzin	1
portaba	1
▁satisfech	1
oatzin	1
▁Tran	1
▁Ciert	1
▁aca	1
▁vay	1
erme	1
▁Vo	1
▁Tomar	1
ercer	1
quería	1
maste	1
▁imponer	1
▁contribu	1
▁extranjer	1
inente	1
▁inmediata	1
▁jar	1
abe	1
ueye	1
▁Axi	1
tuyo	1
▁ocasiona	1
léven	1
uzan	1
néc	1
▁bienaventura	1
nza	1
▁Aní	1
▁Iztac	1
▁Raspa	1
▁depend	1
tencia	1
▁vivid	1
jaban	1
ecatecu	1
enc	1
▁manch	1
cuerdo	1
noven	1
orios	1
ema	1
uczoma	1
▁confortar	1
▁fatigar	1
asen	1
▁gover	1
▁Cuáuhque	1
recí	1
▁frí	1
jol	1
▁regulará	1
ctin	1
emil	1
huite	1
servicio	1
▁Quah	1
nchan	1
acuátic	1
▁desisti	1
▁concede	1
▁cultu	1
▁Oro	1
▁partid	1
argo	1
▁yerb	1
sign	1
▁volví	1
▁espo	1
▁sobrepon	1
▁cato	1
lica	1
trae	1
▁Patria	1
rcas	1
▁epi	1
copal	1
▁reparte	1
▁emit	1
▁Ru	1
▁Presid	1
IPI	1
▁otorga	1
ítulo	1
▁previ	1
cija	1
▁Traj	1
▁comet	1
írve	1
siguiente	1
▁Reco	1
rro	1
▁narrad	1
▁turques	1
▁plum	1
grandez	1
▁hospeda	1
danza	1
▁cualesquier	1
gol	1
fier	1
▁glo	1
alles	1
prision	1
▁esparci	1
▁prisione	1
iltzin	1
▁domi	1
▁legítim	1
érea	1
▁Ac	1
uazaca	1
▁Mixcoatlail	1
▁Tecay	1
▁entende	1
▁ballest	1
alnamacoya	1
ji	1
▁Guer	1
▁bombea	1
▁desagu	1
kua	1
▁poniéndo	1
▁Ayo	1
▁perr	1
▁encamina	1
▁diviert	1
irás	1
▁detesta	1
omin	1
▁humilla	1
rieras	1
▁brom	1
▁menospreciar	1
*	1
▁Eg	1
ipto	1
raz	1
púr	1
puña	1
laban	1
▁Gal	1
pin	1
▁Cuat	1
apel	1
▁Estad	1
▁espantos	1
▁Mixco	1
pet	1
frío	1
▁constitui	1
▁sobrepas	1
llita	1
arla	1
▁rect	1
▁calpix	1
▁tumba	1
firmo	1
▁suegr	1
venía	1
▁Pav	1
▁pidier	1
▁volvere	1
ribano	1
▁tap	1
▁agujer	1
▁comporta	1
▁calentará	1
▁entibiará	1
▁reprodu	1
▁expresa	1
▁Cholo	1
▁cumpliera	1
▁codorn	1
tenimiento	1
▁respetado	1
mbriagado	1
▁TOMA	1
▁oscura	1
▁distingui	1
cederá	1
▁perjudica	1
unda	1
álida	1
▁extiend	1
menor	1
▁afilia	1
▁Cruza	1
▁hum	1
▁nu	1
▁chal	1
alizan	1
▁mane	1
huacue	1
abrá	1
▁repa	1
▁desazolv	1
▁trein	1
▁algui	1
▁escue	1
▁reconoc	1
mu	1
igan	1
atacab	1
riva	1
▁dam	1
▁símbolo	1
tlachinoll	1
▁ceñid	1
▁argu	1
▁mari	1
digo	1
▁falsedad	1
▁refer	1
▁poseci	1
▁justic	1
naka	1
viésemos	1
▁casaba	1
▁repr	1
oche	1
▁endere	1
amara	1
antado	1
noci	1
▁Teto	1
▁someti	1
▁cart	1
ucho	1
▁matan	1
▁pierda	1
ule	1
vaya	1
▁vid	1
aré	1
▁dándo	1
▁permita	1
▁retorn	1
▁madur	1
▁Coc	1
▁preferencia	1
▁Quier	1
▁ventur	1
▁acudie	1
▁celebra	1
▁novie	1
▁conmover	1
▁sorpre	1
▁apriet	1
▁Nezahual	1
auhtla	1
▁estable	1
▁respond	1
▁dividir	1
▁borla	1
▁denotan	1
▁considerad	1
▁Haced	1
teniente	1
enda	1
▁pequeñ	1
hermosa	1
▁suspir	1
contento	1
▁almendras	1
▁matará	1
▁sospech	1
>	1
menes	1
▁aproba	1
amen	1
cumbre	1
ipi	1
orado	1
▁restaura	1
madre	1
▁descubrier	1
▁arrogan	1
▁cuext	1
▁afect	1
▁Cuauhtit	1
▁rendi	1
ok	1
petz	1
rincipal	1
▁Regála	1
▁hermo	1
tristez	1
ntercede	1
allará	1
▁abor	1
▁educan	1
ilagros	1
denándol	1
▁nacier	1
ebido	1
▁Ger	1
undio	1
▁voltean	1
▁falles	1
▁Xim	1
▁Quetzalm	1
▁kuouj	1
elot	1
lhua	1
rdón	1
▁Xay	1
▁keke	1
▁ocot	1
▁Julia	1
bril	1
▁Mayo	1
▁Juli	1
▁Sep	1
▁escu	1
inc	1
quan	1
alegra	1
▁Tezontlal	1
▁Gr	1
fil	1
▁Olo	1
pantz	1
▁Ató	1
yauht	1
▁Cuaté	1
▁Teucxo	1
omi	1
▁Tól	1
▁huitz	1
itzil	1
uítz	1
▁aveci	1
▁emple	1
cat	1
▁Yacat	1
holul	1
laj	1
poton	1
▁Mom	1
etzco	1
éxic	1
▁edifi	1
▁piedr	1
▁hirvi	1
▁respe	1
ndiese	1
▁viviend	1
quien	1
▁Tlacahuepa	1
▁contestaba	1
viviente	1
▁cometido	1
meterá	1
▁Tepey	1
▁Atlic	1
alocan	1
chichi	1
ecuil	1
▁Marti	1
rolog	1
▁señala	1
nite	1
▁xochimilc	1
▁colibr	1
pieza	1
▁escar	1
ncha	1
érti	1
cuña	1
fuerte	1
▁patada	1
▁confund	1
▁modern	1
acerdote	1
▁perversa	1
náhuatl	1
▁Nahu	1
izó	1
▁retu	1
▁empuñar	1
INTO	1
hcalca	1
▁heroic	1
capa	1
recient	1
spinosa	1
nció	1
iban	1
▁malaca	1
arc	1
▁AC	1
▁doran	1
▁molid	1
▁cuec	1
▁Cuacuauh	1
tlahtoa	1
▁cazuel	1
iego	1
▁interpreta	1
▁publicar	1
▁esencial	1
▁instituye	1
▁beneficio	1
alien	1
dificar	1
estaba	1
▁Flor	1
▁duraz	1
sigu	1
trataría	1
▁ruég	1
malin	1
▁Chichimecat	1
bil	1
radi	1
▁Corri	1
yotes	1
▁defens	1
uila	1
ikua	1
ercio	1
▁Indi	1
▁sustente	1
zompahuaca	1
▁titul	1
▁restri	1
▁alegraba	1
▁apropiada	1
apít	1
▁Cuauhn	1
▁My	1
▁secret	1
vuestro	1
olvido	1
▁aprehend	1
▁encerr	1
ball	1
▁Ahua	1
chtecatl	1
▁Cort	1
óge	1
mixcohua	1
mich	1
▁avecindad	1
▁comenzara	1
scripci	1
▁ceder	1
▁mentiros	1
ham	1
ája	1
enviado	1
D	1
▁desat	1
▁alegré	1
▁besa	1
ecito	1
rmen	1
equeña	1
▁custodi	1
hé	1
decir	1
errama	1
▁tequi	1
IN	1
▁ór	1
▁dista	1
▁Nauh	1
tene	1
▁persegui	1
▁conclui	1
▁Contz	1
hora	1
chitecutl	1
xayacat	1
lido	1
chixc	1
▁complac	1
ust	1
▁quar	1
iene	1
▁pajar	1
▁descarna	1
conquist	1
rgar	1
▁lastimar	1
▁Gus	1
▁bebi	1
verdad	1
sepult	1
nseñaba	1
▁enseñara	1
cañ	1
▁devolve	1
▁aborrec	1
▁robad	1
quetzal	1
De	1
manda	1
▁Cuitla	1
usurpa	1
▁derribe	1
▁trabajará	1
▁ot	1
icha	1
uida	1
Es	1
▁desga	1
▁camp	1
estre	1
▁em	1
pobrez	1
▁tex	1
▁calent	1
llev	1
▁emprend	1
referencia	1
▁procederá	1
iér	1
Estan	1
▁Jaco	1
▁tratad	1
▁festiv	1
▁baje	1
▁favo	1
uy	1
▁infam	1
cérca	1
▁reforz	1
▁retract	1
▁Astax	1
▁ilumin	1
▁habit	1
▁prove	1
▁centa	1
congoja	1
viva	1
▁despu	1
ntar	1
▁pla	1
▁despleg	1
;	1
▁dibujar	1
cultará	1
forza	1
▁cent	1
laliz	1
▁tumb	1
seminar	1
rame	1
soberb	1
pudi	1
designa	1
xhorta	1
▁Az	1
▁detenid	1
pic	1
uirnalda	1
▁Enton	1
▁Em	1
▁Argue	1
▁entiende	1
ka	1
uaj	1
▁Francis	1
▁av	1
sobre	1
▁inventar	1
▁soci	1
alizará	1
pués	1
▁embriagar	1
amacoya	1
ofrenda	1
ALL	1
ORA	1
▁vestiment	1
ntan	1
▁empe	1
▁Tendré	1
ieran	1
▁Cil	1
tlaltépe	1
▁paja	1
evemente	1
▁pretendier	1
Huitzilopochtl	1
▁Xua	1
T	1
▁UNA	1
▁FLOR	1
▁piz	1
▁itztlacozau	1
acito	1
ivió	1
genas	1
nportilla	1
▁llan	1
sido	1
▁sintier	1
▁Enséñ	1
▁repren	1
▁humillar	1
▁perseguido	1
uhtepe	1
▁fingie	1
uelit	1
oloc	1
▁Nahuali	1
▁maca	1
▁esfu	1
fl	1
▁Chiauht	1
ermano	1
eb	1
im	1
ler	1
▁exigi	1
uplico	1
descubrimiento	1
tóma	1
▁informaci	1
▁demor	1
ucharada	1
Huitzíla	1
unido	1
VER	1
▁labran	1
ACA	1
lome	1
▁much	1
▁banquet	1
ualquiera	1
▁human	1
EB	1
LI	1
JA	1
▁aren	1
▁disciplin	1
hing	1
nglo	1
jts	1
lix	1
excalco	1
▁hues	1
teoc	1
hitl	1
/	1
ósto	1
▁Ros	1
▁entibiar	1
ilaba	1
▁reñ	1
▁inconform	1
elampague	1
teuc	1
acochc	1
xot	1
▁AJO	1
pagará	1
▁reanud	1
▁ordena	1
▁DU	1
▁senta	1
quedado	1
JO	1
bios	1
▁respeta	1
pulsa	1
ayauh	1
Sol	1
SCA	1
experiencia	1
▁capar	1
nandez	1
ced	1
ben	1
anda	1
▁Opa	1
hina	1
cibimiento	1
▁corrid	1
▁rabo	1
diestra	1
bería	1
rueco	1
nez	1
▁Tre	1
mec	1
tió	1
lu	1
▁atavi	1
▁bala	1
stoy	1
maje	1
▁iztac	1
atzotzo	1
lado	1
▁gua	1
▁endulz	1
▁Ayocua	1
▁alquila	1
antzin	1
▁Tepete	1
descan	1
▁Quetzalp	1
▁Sufr	1
▁fallesci	1
▁obrará	1
▁perfec	1
ciona	1
▁muertede	1
▁sonri	1
▁algu	1
desma	1
▁Arzo	1
alvo	1
▁determinar	1
▁Busc	1
▁comport	1
▁reu	1
▁perfum	1
▁Tlato	1
témosl	1
yu	1
nturas	1
morado	1
▁agit	1
▁Xochip	1
apa	1
emp	1
Axay	1
▁revisti	1
▁disgusta	1
▁restrin	1
lacatzi	1
uhqui	1
esnuda	1
▁exprim	1
▁asombrar	1
speranza	1
boca	1
ecer	1
▁conc	1
▁aliado	1
▁abraz	1
tame	1
cabell	1
▁fingi	1
▁senten	1
▁aconsej	1
▁predicado	1
lnahua	1
tilli	1
▁clásic	1
▁excu	1
torna	1
▁Chimallaxo	1
zol	1
▁balle	1
▁compusier	1
músico	1
▁Pi	1
otr	1
sk	1
▁pedreg	1
▁tepam	1
▁Vuel	1
▁reque	1
▁asustar	1
lgan	1
▁reflexi	1
▁étnico	1
cultural	1
iéndolo	1
equia	1
chiquen	1
mujeres	1
ľ	1
▁Constituci	1
idó	1
▁Inst	1
▁relatar	1
ardino	1
▁informara	1
tifica	1
Tomas	1
▁llevá	1
▁Volvi	1
▁asol	1
▁contestara	1
use	1
▁ung	1
tlapan	1
▁confirme	1
▁acud	1
▁refugi	1
▁brotad	1
▁obedecía	1
▁crucifica	1
▁destruid	1
nejo	1
México	1
onalli	1
amal	1
▁descar	1
▁envuelv	1
▁concluye	1
cion	1
▁relativa	1
anadas	1
▁votar	1
▁Bon	1
▁indi	1
amarg	1
vario	1
▁interes	1
▁huí	1
▁Trabaj	1
▁atent	1
conozca	1
ece	1
▁desempeña	1
▁revist	1
sali	1
uj	1
uak	1
ilit	1
▁rí	1
llará	1
yztacapa	1
▁adquiri	1
▁perfect	1
▁callar	1
▁percib	1
▁torce	1
uerza	1
▁adelga	1
▁abrasad	1
inada	1
ich	1
erior	1
▁obsequia	1
chil	1
▁cape	1
▁huevo	1
cuicho	1
▁Motelchiu	1
▁derrumba	1
tzitz	1
adicional	1
▁exact	1
▁buscara	1
ezcomaixtlahuaca	1
déja	1
▁xok	1
▁creci	1
▁floreci	1
▁desemp	1
▁rechazad	1
pueblo	1
▁poll	1
uelo	1
chita	1
oltépe	1
▁resp	1
hctl	1
pertur	1
▁Come	1
▁Azcax	1
▁osado	1
liza	1
▁inver	1
▁exhib	1
icho	1
cerá	1
▁Ezhuahuacat	1
soportab	1
▁insuf	1
rible	1
▁Yzquixochi	1
▁Teyc	1
▁Ycno	1
platic	1
escolar	1
▁Tecoz	1
iroso	1
▁interroga	1
rle	1
▁Blanc	1
▁Xacalc	1
lechero	1
adero	1
▁Matlacc	1
▁Desempeña	1
▁adora	1
▁fórmula	1
▁MOR	1
TAL	1
▁Tezozomoct	1
izn	1
▁Tocuilt	1
litro	1
▁Hici	1
onga	1
▁sacrifica	1
xel	1
loquec	1
vier	1
chcalcatl	1
▁tezca	1
▁Univers	1
▁presiden	1
giado	1
udi	1
▁supli	1
▁acuest	1
▁Lope	1
zquierd	1
▁forja	1
zquixochiquauhti	1
dan	1
▁Acom	1
tecatli	1
zompan	1
ñando	1
lgada	1
▁Ecatzi	1
tzí	1
tentoso	1
▁chia	1
ñada	1
▁Mox	1
ohuaz	1
tzco	1
acion	1
nhelo	1
ltima	1
▁hund	1
▁nom	1
Matlatzinc	1
▁Tequ	1
aloya	1
egu	1
▁huehuetla	1
acan	1
entiende	1
▁impusier	1
▁horn	1
ear	1
▁invocan	1
▁huel	1
príncipe	1
OME	1
▁teotl	1
zando	1
▁Rev	1
veme	1
▁déje	1
eycito	1
▁VII	1
▁abstuv	1
iacatl	1
robada	1
maxtla	1
▁danz	1
▁regocij	1
▁quant	1
imas	1
ogra	1
▁heri	1
▁poni	1
capturar	1
yahui	1
▁alb	1
maco	1
▁tub	1
▁declina	1
xotla	1
cajó	1
▁Inicia	1
▁herman	1
acó	1
uria	1
rcado	1
▁Ixhu	1
endí	1
villa	1
▁navegar	1
ndió	1
▁apartar	1
▁xoconostle	1
ueme	1
hem	1
filiac	1
raga	1
F	1
AGA	1
utilizab	1
▁alcanzan	1
▁necesitará	1
▁anu	1
▁formar	1
dista	1
▁vended	1
▁lib	1
hibido	1
▁Agradec	1
▁económica	1
traído	1
llegar	1
▁diligen	1
dados	1
▁pertene	1
▁defec	1
bir	1
▁celebraba	1
▁cihuac	1
▁sobera	1
▁sobr	1
▁Coatlayauc	1
pió	1
▁identific	1
▁Her	1
minio	1
erv	1
ertid	1
compuesto	1
rra	1
cri	1
cep	1
necesario	1
volvía	1
▁golpeaba	1
ígue	1
▁Adiv	1
▁Marques	1
auhqui	1
matliya	1
▁Tepecua	1
pílca	1
▁Tepep	1
ontitlan	1
▁Cuappa	1
▁Coatli	1
Chalchiuhmomoztl	1
flor	1
erías	1
▁Abrah	1
silio	1
rtific	1
orte	1
stantin	1
▁apropiarse	1
▁reserva	1
▁enredan	1
▁Chichi	1
▁Ahuitz	1
▁tepan	1
▁Itzcuint	1
ign	1
um	1
htitlan	1
▁comision	1
▁herm	1
