▁,	21150
▁de	15793
s	14559
▁.	14333
▁y	10330
▁	9141
▁que	8655
▁a	8501
▁la	7677
▁el	7344
▁se	7250
▁en	7231
▁los	6580
o	5871
n	3860
ó	3722
1	3153
▁;	3075
a	2516
▁no	2506
▁su	2462
▁las	2431
▁por	2414
▁lo	2332
on	2210
es	2046
▁del	2031
▁con	2002
i	1880
▁para	1804
▁al	1731
▁:	1713
▁Y	1525
▁un	1476
▁año	1418
▁es	1331
▁En	1294
▁ya	1283
▁A	1282
2	1180
▁como	1166
▁años	1146
▁una	1131
▁le	1129
do	1112
▁mi	994
▁este	992
▁San	981
▁El	951
▁sus	928
▁tierra	920
▁cuando	917
0	874
▁señor	859
6	853
3	844
▁fue	836
▁?	834
¿	830
4	826
▁si	820
5	814
▁don	793
ón	766
▁porque	750
▁donde	737
▁nuestro	716
▁T	715
▁casa	714
▁[	696
▁o	689
▁me	689
tzin	688
▁ha	687
▁México	684
▁]	681
os	680
▁así	651
e	650
▁era	634
mos	632
ron	621
▁allá	621
▁también	614
▁dicho	601
▁yo	597
9	595
▁aquí	594
▁les	583
se	576
▁Se	575
ndo	574
▁Juan	574
▁luego	568
▁todos	566
▁tu	564
▁ciudad	549
▁está	544
8	537
▁dos	535
▁muy	534
▁te	533
▁esta	531
▁mexicas	523
r	511
▁había	511
▁fueron	508
ólo	505
▁Francisc	504
▁e	499
que	492
▁esto	489
▁tlatohuan	487
7	483
▁vez	482
▁(	480
▁nos	477
▁estaba	475
▁tiene	473
▁todo	473
co	470
nte	469
mente	467
▁padre	466
▁)	462
▁No	461
▁agua	457
▁dijo	457
▁s	452
an	450
▁pues	450
▁pero	448
▁Lo	447
▁ante	447
▁bien	437
as	432
▁allí	431
▁sobre	422
▁quien	415
▁ahora	413
▁entonces	411
ieron	409
▁tiempo	402
▁llegar	397
▁ellos	390
sta	390
▁muri	388
ción	384
▁son	380
▁más	378
▁toda	376
▁mes	373
▁dura	372
é	371
▁español	366
▁casas	365
▁él	364
▁mucho	363
án	362
▁dicha	361
▁desde	358
▁D	356
¡	353
▁uno	352
▁!	348
▁mismo	344
▁gente	344
“	342
▁día	341
▁La	339
▁sin	331
▁hizo	330
▁habían	328
ando	326
▁Pedro	323
▁tres	323
▁eso	320
▁Por	318
▁otra	317
c	316
catl	313
▁Cuan	313
aron	310
▁”	309
▁Té	306
z	305
▁da	303
▁lugar	301
te	301
y	300
▁peso	298
▁Per	298
▁nuestra	297
▁nombre	296
▁gobern	294
▁hijos	293
l	285
▁hay	282
▁Dios	278
▁hacer	278
▁Miguel	277
▁iglesia	277
▁L	276
cpatl	276
▁ella	273
▁flores	272
▁señores	272
▁después	271
▁nada	269
ambién	269
▁llamado	266
▁qué	264
▁sabe	261
▁cual	261
emos	259
▁lleg	258
▁alcalde	258
▁días	258
▁S	256
▁Tenochtitlan	255
▁C	251
▁Calli	251
▁mis	250
▁Tochtl	249
▁hace	248
▁hijo	246
▁Sant	243
▁dios	242
can	242
uego	241
▁Al	241
▁Colhuaca	240
▁cuatro	239
▁religioso	239
ía	237
▁otros	237
▁nosotros	236
▁tenía	234
tonces	234
á	234
▁va	234
▁Dieg	234
▁ni	234
▁verdad	234
▁t	234
▁gran	232
zin	232
▁Ya	231
▁llama	231
▁mayor	230
eron	230
▁ser	229
▁nadie	228
▁otro	226
▁eran	225
▁chichimeca	223
▁corazón	221
▁fra	220
▁virrey	219
▁Maria	217
▁barrio	217
▁están	213
▁pueblo	212
▁cómo	212
▁mano	212
▁tú	211
▁España	210
▁guerra	209
▁ver	204
▁mí	204
▁sal	201
▁Martin	200
sí	200
▁Yo	200
▁testigo	198
▁he	197
▁parte	197
▁hacía	197
cia	197
en	195
▁junto	192
▁Le	192
▁iban	191
▁comer	190
í	189
▁sol	189
▁Acatl	189
▁pone	187
▁comenz	187
▁Que	186
▁rey	186
▁madre	186
▁cinco	185
▁De	185
▁Marí	185
nes	185
amente	183
▁muchos	183
▁antiguo	182
▁venía	181
▁hacia	180
▁poco	180
ún	180
aban	179
▁ir	179
▁mil	179
▁Es	177
▁camino	175
▁tomar	175
▁Señor	174
-	172
▁justicia	171
▁vinieron	171
lo	171
▁entre	169
gún	169
▁primero	169
▁tlato	169
▁mucha	168
ban	168
▁fuera	167
▁llevaba	166
▁procesi	166
▁orden	165
da	165
▁Pablo	164
▁Amaqueme	164
▁Mexic	164
▁pasado	163
▁fiesta	163
los	162
▁Antoni	162
▁decir	162
me	161
▁llamaba	161
quí	160
▁Este	160
▁enseñore	160
▁vino	159
▁dio	157
▁señora	157
▁sea	157
▁Luis	157
▁Huehue	156
▁mujer	156
▁arzobispo	156
más	156
▁algunos	155
▁Si	155
espués	155
▁quin	155
▁han	154
▁fuego	154
ientos	154
▁aun	153
▁hub	152
▁asi	152
▁Chalc	152
▁noche	152
▁dice	152
▁arriba	151
cada	151
▁hija	150
▁E	150
▁voy	150
▁usted	150
▁siete	150
ras	150
iendo	149
▁tlaxilacall	149
▁Ana	148
mismo	148
▁Sol	148
▁todavía	147
▁dijer	146
▁tal	146
▁dicen	145
▁ese	145
▁pusier	145
▁siempre	144
▁dar	144
▁gobernador	143
▁Qué	143
▁P	143
▁Santo	143
▁niño	142
▁alguna	141
▁braza	140
▁llamada	140
latelolc	137
▁puede	137
▁partes	137
▁soy	136
▁llevar	136
d	136
▁juez	136
Á	135
▁algo	135
▁nueva	135
▁segundo	135
▁sali	135
▁hecho	134
ecas	134
▁hombres	134
▁iba	133
▁Ha	132
▁tarde	132
▁veces	131
tli	129
▁mient	129
▁venido	129
éste	128
▁van	128
▁qu	127
▁O	127
▁Cruz	127
▁maíz	126
▁ochenta	126
▁escrivano	125
▁digo	125
▁domingo	125
▁sí	123
▁ti	123
▁cosas	122
▁d	122
▁hombre	122
▁viene	122
▁dichos	122
▁teng	121
—	121
▁chalca	121
lante	121
▁Con	121
▁c	120
▁H	120
▁solo	119
▁mand	119
ín	119
▁ocho	119
▁santo	118
seguida	118
▁primera	118
▁mujeres	118
▁qual	117
▁hermano	117
▁dónde	117
▁Esto	117
▁cielo	116
▁nuevo	116
▁grandes	116
▁dias	116
▁cuales	116
▁Hernandez	116
és	115
▁hicieron	115
▁m	115
▁cerro	114
▁negro	114
▁cosa	114
▁dieron	114
▁sucedió	113
▁V	113
▁sitio	113
▁Garc	113
▁frente	112
▁escribano	112
▁vida	111
ado	111
amos	111
▁palabra	111
nos	111
▁vecino	111
▁haga	110
▁pus	110
▁medio	110
▁dejó	109
▁dix	109
▁grande	108
la	108
▁ésto	108
▁cuanto	107
▁acá	107
▁M	107
▁siembra	107
▁primer	106
tl	106
▁misa	106
▁esposa	106
▁cuerpo	106
▁presen	106
▁Todo	106
▁quiere	105
dos	105
is	105
dor	105
▁seis	104
▁Doming	104
▁llegado	103
Chichimecateuctl	103
▁diez	102
▁piedra	102
▁será	102
▁mando	102
▁habla	101
▁muerte	101
ba	101
▁I	101
ones	101
▁lado	101
▁forma	101
ez	101
▁come	101
embre	101
ían	100
▁persona	100
▁traficante	100
▁Xuare	100
▁mañana	99
estad	98
▁mundo	98
▁cruz	98
huatl	97
▁templo	97
huitl	97
▁mag	97
▁cabeza	97
▁manera	96
▁ve	96
arzo	96
▁asentar	96
acaso	95
or	95
▁abril	95
▁haber	95
▁naturale	95
▁has	95
▁nombrado	94
▁caña	94
▁personas	94
▁vier	94
▁ello	93
le	93
▁presente	93
▁mayo	93
tin	93
▁plumas	93
▁bueno	92
▁F	92
épec	90
▁Para	90
▁Tenanc	90
go	90
ste	90
pan	90
miento	89
▁muger	89
▁Vi	89
caso	89
▁Ahor	89
▁tomó	89
ahí	89
▁Aztl	88
▁pie	88
▁modo	88
▁oro	88
▁largo	87
▁Mi	87
▁tanto	87
▁dinero	87
▁Huitzil	87
▁dejar	87
chez	87
▁ten	86
ador	86
▁Nueva	86
ero	86
▁Ante	86
▁estas	85
▁volunta	85
titlan	85
▁nunca	85
▁final	85
▁José	84
▁clase	84
▁Santiago	84
▁vaya	84
éis	84
▁estar	83
▁Azcapotzal	83
▁difunto	83
▁Hay	83
▁muerto	83
na	83
▁vamos	83
▁cuenta	83
▁comida	83
▁Angel	82
▁fuerte	82
▁Agust	82
▁Pas	82
▁re	82
É	82
brero	82
▁murieron	82
▁monte	82
jaron	82
io	82
▁hemo	81
▁hoja	81
guien	81
▁Te	81
remos	81
▁fe	81
▁blanco	81
ia	81
▁llam	80
▁buena	80
▁papel	80
al	80
▁nació	80
▁sacerdote	80
▁vivir	80
▁hacen	80
▁Moteuczoma	80
▁estuv	80
▁...	79
▁venir	79
res	79
er	79
▁Me	79
▁Chicom	79
▁tuvo	78
llí	78
▁puesto	78
▁preciosa	78
▁ninguna	78
▁segund	78
▁cuarto	78
▁cargo	78
▁obispo	78
▁mencionado	78
▁vuestra	77
▁Huitzilopochtl	77
aba	77
▁lune	77
tepec	77
▁estuvier	77
▁morir	77
▁dan	77
lco	77
▁G	76
ciones	76
▁tenochca	76
▁águila	76
▁hora	76
▁entrar	76
▁Re	76
ztoc	76
▁gobierno	76
tonal	76
idad	76
▁adonde	75
▁Esta	75
▁gobernar	75
▁anda	75
▁ca	75
▁causa	75
▁azteca	75
▁salió	75
▁posesi	75
▁daba	75
▁doctor	75
	74
▁tlatoan	74
▁sup	74
▁natural	74
otolimpan	74
▁Pues	74
▁noble	74
▁jefe	74
▁contra	74
dentro	73
▁Z	73
▁Su	73
dó	73
▁J	73
▁Atenc	73
▁partieron	73
▁vende	72
▁Nuestro	72
▁fin	72
▁llaman	72
oña	72
▁ancho	71
▁lleva	71
▁esa	71
de	71
▁Cuahuitzat	71
claro	70
▁Mend	70
▁haya	70
▁media	70
▁Tú	70
▁Testigo	70
▁saber	70
áhua	69
▁mas	69
▁carga	69
huatzin	69
▁cantos	69
▁jueve	69
▁hermana	69
▁vuestro	69
▁principio	69
atro	69
▁quedaron	68
▁alguacil	68
▁mío	68
oza	68
▁amigos	68
▁palacio	68
llá	68
taron	68
▁habitante	68
▁governa	68
▁aquel	68
▁eres	68
▁tan	67
▁merced	67
▁oidor	67
▁perecier	67
decían	67
▁Cuauh	67
▁ofrenda	67
▁tlatelolca	67
▁chile	67
▁principales	67
▁andaba	66
ta	66
▁sábado	66
▁posesion	66
▁Castill	66
▁macehual	66
▁palabras	65
▁siguiente	65
▁Martín	65
▁costa	65
teuctl	65
Tlailotlacteuctl	65
▁decía	65
onso	65
▁carta	65
▁señal	65
▁traer	65
razón	64
▁alto	64
▁cerca	64
▁dado	64
I	64
maquemeca	64
ubre	64
▁quién	64
asco	64
▁septi	64
▁favor	64
▁verde	63
▁debe	63
▁pregon	63
▁habría	63
ación	63
▁Gas	63
huacan	63
▁carne	63
▁entr	63
el	63
▁quales	63
▁quier	63
▁caballo	63
▁ajo	62
▁Tlil	62
ales	62
encia	62
▁oct	62
▁Vel	62
▁real	62
▁nieto	62
▁matar	62
▁testamento	62
▁consig	62
▁nueve	61
▁esos	61
▁canto	61
ú	61
▁Balta	61
par	61
▁trabajo	61
zacualtitlan	61
▁marido	61
▁pleito	61
▁quetzal	61
doy	60
▁toma	60
▁veinte	60
▁sacar	60
za	60
▁mandado	59
▁visto	59
▁Xochimilc	59
ecuanipan	59
▁morada	59
respondió	59
▁Joa	59
▁poner	59
▁llega	59
udiencia	59
ito	58
ani	58
cas	58
▁diga	58
▁flecha	58
tecatzin	58
rez	58
▁Asi	58
▁Com	58
▁establecer	58
▁escudo	58
▁ido	58
▁sesenta	58
▁mejor	58
▁monasterio	58
les	58
▁enfermedad	57
poco	57
▁papá	57
▁sé	57
▁echa	57
▁cebolla	57
▁vosotr	57
▁vive	56
▁príncipe	56
▁traj	56
▁cautivo	56
▁ustedes	56
ac	56
▁manta	56
iembre	56
▁viejo	56
▁semilla	56
▁Jes	56
ús	56
▁quizá	56
▁mart	56
▁precio	56
▁pasar	56
▁hongos	56
eque	56
ina	56
▁libro	55
▁Ximene	55
oh	55
▁recibi	55
▁podrá	55
▁mira	55
rtículo	55
▁derecho	55
▁igual	55
▁Nuestra	55
▁muchacho	55
▁encontrar	55
dad	55
▁tuvier	55
oy	54
▁calle	54
▁parti	54
▁Quién	54
▁trabajar	54
▁pena	54
▁flor	54
▁mamá	54
▁palo	54
▁somo	54
▁empezó	54
▁Bueno	54
▁señorío	54
▁mar	54
lan	54
▁agost	54
▁lengua	54
▁vio	53
coco	53
▁maestro	53
▁animal	53
▁muertos	53
ocan	53
▁poder	53
▁Fe	53
▁rojo	53
▁Real	53
▁vey	53
▁tercero	53
▁Xoco	53
▁jun	53
▁ju	53
▁fruto	53
ita	52
▁ponien	52
▁mal	52
▁tam	52
nado	52
▁regidor	52
▁asent	52
▁misma	52
▁hab	52
▁clérigo	52
▁puerta	52
▁enviado	52
▁tomi	52
▁estado	51
pil	51
▁Tetz	51
lli	51
▁firma	51
▁regres	51
▁oficio	51
tlaca	51
▁cuyo	51
lip	51
▁parece	51
▁aquello	51
▁Fue	51
▁ambos	51
▁buen	51
▁naci	50
atl	50
▁sale	50
▁estoy	50
▁termin	50
▁marcha	50
▁comprar	50
▁alguno	50
▁colhua	50
▁di	50
oles	50
▁Don	50
altar	50
rse	50
▁punto	50
▁mexicanos	50
▁madera	50
▁Eso	50
li	49
▁aqui	49
▁patio	49
▁com	49
▁cierto	49
▁hierve	49
iano	49
▁propiedad	49
▁obra	49
erónim	49
val	49
▁At	49
▁pequeño	49
▁jade	49
▁juli	49
▁Tollan	49
▁muchacha	49
▁árbol	48
▁regresar	48
acatzin	48
▁corta	48
▁abuelo	48
▁menor	48
▁amigo	48
▁licenciado	48
▁árboles	48
▁aquella	48
ómo	48
▁noticia	48
▁monja	48
▁quinto	48
cxoteca	48
▁diablo	48
▁Bautista	48
ca	47
▁quería	47
▁escuela	47
▁milpa	47
▁marqu	47
▁querido	47
▁general	47
▁mercado	47
▁imagen	47
▁Maldo	47
ro	47
▁mexi	47
ión	47
▁menos	47
venta	47
enes	47
▁perro	47
▁Ud	47
▁color	47
ónde	47
▁frío	47
▁podía	46
▁poblado	46
▁levantar	46
▁gusta	46
▁propia	46
érc	46
▁juntos	46
▁lejos	46
▁tortillas	46
edad	46
▁escuchar	46
▁pregonero	46
▁pasó	46
▁planta	46
▁aposento	46
▁co	46
▁Un	46
▁Nos	46
▁acerca	45
▁tlahto	45
ra	45
quiera	45
bal	45
renz	45
▁Sebastian	45
▁Valer	45
▁Alta	45
▁abajo	45
▁doce	45
▁presidente	45
▁carrancista	45
▁nomás	45
▁rostro	45
▁brota	45
▁hijas	44
▁cuauhtlato	44
ten	44
▁dicie	44
▁dic	44
▁Coyo	44
▁orient	44
▁cre	44
▁Tlaco	44
ramento	44
▁novi	44
▁camellon	43
▁estaca	43
iento	43
▁Lun	43
▁blanca	43
▁hará	43
▁veía	43
▁Acamapichtl	43
▁enfermo	43
▁He	43
▁sola	43
ces	43
▁centavo	43
▁halla	43
▁vieron	43
▁pedernal	42
▁conocer	42
▁estrella	42
▁autoridad	42
▁Flore	42
▁ánima	42
▁Itzco	42
▁ning	42
trá	42
▁habrá	42
▁único	42
▁preguntado	42
▁lava	42
én	42
▁vas	42
ar	42
▁momento	42
▁relaci	42
▁ave	41
▁f	41
▁campo	41
▁haciend	41
▁terminar	41
▁leña	41
▁dará	41
rá	41
▁Padre	41
▁kilo	41
▁conejo	41
▁Una	41
▁comienza	41
h	41
▁pintado	41
▁reverendo	41
▁zapatista	41
▁Está	41
▁venta	41
▁llev	41
▁habló	41
lena	41
▁tendrá	41
▁lluvia	41
▁ribera	41
▁suya	40
▁nacido	40
dez	40
medio	40
▁caliente	40
era	40
▁gracias	40
▁Tierra	40
▁varios	40
▁Sal	40
▁Itz	40
▁Hernando	40
▁sabía	40
to	40
▁Estado	40
▁bajar	39
▁Có	39
gora	39
▁entrada	39
▁Sebasti	39
▁pájaro	39
▁capit	39
▁Sí	39
▁to	39
guna	39
▁cayó	39
▁asentado	39
▁X	39
▁ayuda	39
▁establecier	39
▁fuimos	39
▁Chapoltépe	39
▁trae	39
▁ésta	39
▁caso	39
▁seguida	39
▁pulqu	39
▁bosque	39
sotros	39
zar	39
rían	39
▁comen	39
▁ven	39
▁estará	39
mitl	39
▁pud	38
▁tras	38
▁suplico	38
▁tener	38
▁tenga	38
las	38
▁p	38
▁Crist	38
sar	38
capan	38
▁corte	38
▁verdadero	38
lauhtecatlteuctl	38
▁pan	38
errito	38
▁hag	38
▁vano	38
▁ponía	38
jo	38
▁present	38
apan	38
avel	38
▁seguía	38
lalmanalc	38
huayan	38
▁tercera	38
▁isla	38
pez	38
▁Tziuhtlacauhqu	37
▁apenas	37
▁Ella	37
▁título	37
▁Algun	37
▁muele	37
▁principal	37
▁Ja	37
▁Huexotzin	37
▁Geronim	37
▁cacao	37
▁campana	37
▁orilla	37
▁dé	37
▁Cortés	37
▁collar	37
▁sirve	37
▁vieja	37
t	37
▁adelant	37
▁epazote	37
▁acaba	37
▁esté	37
▁ropa	37
▁frijol	37
ido	36
▁rumbo	36
▁hubiera	36
ga	36
▁mie	36
▁emper	36
▁llamar	36
itl	36
ilpa	36
▁To	36
▁baja	36
ojos	36
▁b	36
chitl	36
▁cumplier	36
▁hambre	36
▁vendían	36
▁lados	36
▁Mate	36
órd	36
▁Axayaca	36
▁florea	36
▁escrito	36
▁limpia	36
▁celebrar	36
yotl	35
▁siendo	35
▁demanda	35
▁casi	35
▁Nadie	35
▁pariente	35
▁Santísim	35
tor	35
▁hiciera	35
▁Guerr	35
▁Segund	35
▁roja	35
▁nombra	35
rás	35
▁camin	35
▁Popocat	35
▁pasa	35
▁tercer	35
▁Compañ	35
pilla	35
▁salía	35
▁sacerdotes	35
▁cueva	35
▁taba	35
▁conoce	35
▁bienes	35
▁pereci	35
tzinco	35
▁arma	35
▁quieren	35
▁venimos	35
▁hongo	35
▁Fern	35
▁Axay	35
▁in	35
▁sepultado	35
▁bandera	35
▁salud	35
▁boca	35
▁nombran	34
▁inunda	34
ya	34
▁my	34
lcatl	34
▁llevan	34
▁dirá	34
▁verá	34
▁interior	34
▁teo	34
▁hablar	34
épet	34
▁vender	34
iablo	34
xó	34
▁niñito	34
▁antigua	34
iremos	34
▁entierr	34
llos	34
▁tolteca	34
spues	34
▁pudiera	34
▁cocer	34
▁abri	34
▁derrotad	34
▁China	34
▁pequeña	33
▁pod	33
▁aya	33
cima	33
▁rama	33
náhua	33
▁revestido	33
▁entera	33
▁falta	33
ü	33
▁inmediat	33
luz	33
▁mía	33
▁izquierd	33
▁cantor	33
▁levant	33
▁necesario	33
▁viento	33
▁encuentra	33
atzin	33
▁pies	33
▁capa	33
▁soldado	33
tenta	33
▁difunt	33
▁pro	33
▁señorial	33
▁Chichimeca	33
tequihua	33
▁sexto	33
▁queda	33
▁llevado	33
▁xochimilca	33
▁espiritual	33
▁canoa	33
ada	33
▁pong	33
▁Ahuitzot	33
▁susodicho	32
▁tomado	32
▁vuelta	32
▁frijoles	32
▁santa	32
damos	32
▁gobernaba	32
▁Jesucristo	32
▁divina	32
▁fina	32
▁camisa	32
▁llanto	32
▁N	32
ábamos	32
huexotl	32
▁Tal	32
▁deja	32
▁Tecu	32
achcauh	32
▁cas	32
▁terreno	32
▁Joven	32
▁empieza	32
▁albacea	32
▁Di	32
▁necesita	32
dió	32
▁cuidado	32
▁pens	32
▁serpiente	32
▁propio	32
▁agarra	32
▁cuya	32
▁Col	32
noch	32
▁presentar	32
▁Cua	31
▁tío	31
▁tlatoc	31
mono	31
▁Coxcoxtl	31
▁pid	31
▁Jacob	31
▁pali	31
▁beber	31
acramento	31
▁cantar	31
▁cofradía	31
ejo	31
▁empezar	31
▁compañero	31
▁ade	31
lina	31
▁Uno	31
▁quieres	31
ás	31
▁alegra	31
▁sacrificio	31
▁estás	31
▁perdi	31
▁triste	31
▁Uni	31
▁III	31
paz	31
▁japon	31
⁄	31
▁reunier	31
▁espera	31
temoc	31
▁turquesa	31
▁manteca	31
▁Otro	31
▁chinampa	31
▁calzada	30
▁joven	30
▁quitar	30
▁Tia	30
▁anciana	30
▁viven	30
▁caye	30
▁Primer	30
pón	30
▁comi	30
▁Leon	30
▁abandonar	30
tole	30
▁entendido	30
▁trasladar	30
▁Sus	30
▁quiso	30
yan	30
▁pagar	30
scal	30
▁tepanecas	30
▁sigue	30
▁cabi	30
ldo	30
moc	30
▁Toteociteuctl	30
▁suyo	30
▁Marin	30
▁Cuacuauhpitz	30
alá	30
▁traía	30
▁Tiene	30
▁entender	30
▁Teohuateuctl	30
ubo	30
▁Acolhua	29
▁cara	29
▁florida	29
▁grit	29
▁Ah	29
▁Cuánto	29
▁tallo	29
▁bajo	29
▁fund	29
▁tlaxcalteca	29
▁yndio	29
▁suerte	29
▁recibir	29
▁inquisidor	29
▁vi	29
▁Dueñ	29
▁Co	29
yao	29
eses	29
cuauhtzin	29
▁Era	29
▁esclavo	29
ura	29
▁precisa	29
▁huye	29
▁trabajan	29
▁tlatocapi	29
itos	29
▁alegría	29
rio	29
▁mensajero	29
▁Maxtlat	29
▁aver	29
▁teomama	28
▁tlalmantl	28
▁haz	28
▁paso	28
▁sangre	28
▁sac	28
▁disposici	28
▁fruta	28
▁pronto	28
▁mexica	28
ára	28
▁cortan	28
▁Chalchiuhmomoz	28
▁quedado	28
iga	28
▁Tezozomoc	28
▁pared	28
▁Des	28
▁rico	28
eras	28
▁Quine	28
▁cualquier	28
▁Malin	28
sión	28
▁dueño	28
▁declar	28
▁pluma	28
▁apareció	28
▁pecho	28
▁ciento	28
▁Bartolom	28
ete	28
▁movier	28
ré	28
calco	28
▁celebr	28
▁suelo	28
chtl	28
▁calpul	28
▁tigre	28
▁comprador	28
▁enferma	28
parte	28
▁acompañan	28
▁Anton	28
▁q	27
it	27
▁Za	27
▁Cuepopa	27
▁cab	27
▁hacerlo	27
▁gobernado	27
▁llovi	27
vió	27
▁Andr	27
lí	27
▁alrededor	27
▁semana	27
▁descalzo	27
mitad	27
▁acuerdo	27
▁pregone	27
▁var	27
▁acabó	27
▁vengan	27
ardo	27
▁pobre	27
▁Termin	27
▁tenanc	27
▁dur	27
reinta	27
▁junta	27
▁fui	27
▁ancianos	27
▁venga	27
▁gusto	27
▁gana	27
auhtli	27
▁caf	27
▁Huehueteuctl	27
▁fi	27
ándose	27
▁cal	27
mo	27
▁lleve	27
▁labio	27
▁comendador	27
illo	27
tes	27
▁estén	27
▁Isabel	27
▁Xochi	27
▁dispus	27
▁masa	27
▁vendrá	27
▁llora	27
▁cuart	27
▁Mo	27
inas	27
▁tristeza	27
▁amarillo	27
▁signo	27
▁ocurri	27
dizque	27
▁licencia	27
▁escuch	27
▁audiencia	27
▁vivía	27
▁casado	27
▁región	27
▁pudieron	27
▁Vin	27
volu	27
ópol	26
▁espalda	26
▁náhuatl	26
▁pedazo	26
▁pos	26
▁anduvier	26
▁verlo	26
▁bastante	26
▁Marqu	26
▁pueda	26
▁tome	26
lmeca	26
▁hablaba	26
.	26
▁Luca	26
▁erigi	26
▁tamales	26
xo	26
▁míos	26
▁honor	26
úñ	26
▁Tlatilu	26
▁Ma	26
▁hallaba	26
▁abuela	26
▁diversos	26
▁cár	26
▁Yaotl	26
▁necesidad	26
▁vendedor	26
▁Melch	26
quez	26
▁Otra	26
▁tarea	26
▁irá	26
▁amanecer	26
▁Nuev	26
▁regresa	26
‘	26
▁escritura	26
▁guarda	26
▁venden	26
▁aviendo	26
▁cáscara	26
▁avia	26
▁teocall	26
▁trabajos	26
pareció	25
▁Mart	25
▁encuentro	25
▁precioso	25
catzin	25
▁recuerd	25
▁elote	25
zo	25
▁sabroso	25
▁servicio	25
▁andar	25
▁cumpli	25
▁Chalchiuhtlat	25
▁Madre	25
▁guardi	25
zaro	25
ólito	25
alco	25
▁Agua	25
▁asunto	25
▁dije	25
▁ocelote	25
▁Cata	25
▁Cer	25
▁pertenece	25
▁podría	25
▁Ve	25
▁lavar	25
▁tributo	25
▁hera	25
▁vista	25
sen	25
▁tía	25
▁ayate	25
j	25
▁cuaresma	25
cel	25
▁país	25
ados	25
▁total	25
▁quisiere	25
▁Mad	25
▁Guadal	25
v	25
▁pued	25
▁Mexica	25
▁Roma	25
▁olla	25
▁manda	25
rida	24
▁crece	24
’	24
▁Na	24
▁acudier	24
▁viaje	24
bispo	24
▁tla	24
▁Aca	24
uca	24
▁cristiano	24
anza	24
sabel	24
▁Gre	24
▁Part	24
▁Bal	24
▁origina	24
▁cortar	24
▁reino	24
▁alta	24
▁comerciante	24
▁guardian	24
▁reci	24
▁Gerónim	24
valor	24
▁colocar	24
▁sustent	24
▁Casa	24
▁Teocal	24
▁número	24
▁Can	24
▁caudillo	24
▁plaza	24
▁Tla	24
ocolhuaca	24
▁corresponde	24
▁especial	24
▁raí	24
cpac	24
▁tempran	24
▁pase	24
▁derrota	24
▁DE	24
▁Quetzalcó	24
▁yerno	24
▁Joseph	24
▁grupo	24
▁Cuitlat	24
▁ciertamente	24
alan	24
▁sembrar	24
▁río	24
	24
▁cocol	24
▁penitencia	24
▁respondie	24
▁Pé	24
▁acequia	23
arenta	23
▁ninguno	23
▁nieta	23
▁sabios	23
llas	23
▁florido	23
▁hermosa	23
▁Acolnahu	23
ines	23
▁quede	23
njo	23
qui	23
▁traían	23
▁vin	23
▁cin	23
▁Guzm	23
▁aquél	23
▁dia	23
▁darle	23
residente	23
▁huexotzinca	23
▁levanta	23
once	23
▁Mucho	23
lla	23
▁Duran	23
▁tr	23
cho	23
▁veras	23
▁último	23
ospital	23
▁preocupa	23
▁buscar	23
▁Moy	23
▁dello	23
gloria	23
ce	23
▁quedar	23
▁estuviera	23
▁Ecatzin	23
▁Carlo	23
▁enemigo	23
▁Tepe	23
zatzin	23
▁andan	23
x	23
▁cald	23
cio	23
▁Capit	23
▁anterior	23
▁Nada	23
▁Gran	23
▁hoy	23
▁canal	23
stos	23
▁administra	23
▁albarrad	23
▁pris	22
▁firme	22
dónde	22
▁estan	22
▁Juare	22
▁divers	22
▁espina	22
▁Toda	22
bo	22
▁Iglesia	22
▁refiere	22
▁barranca	22
maron	22
▁Ay	22
▁zapat	22
▁Tiza	22
▁Cu	22
▁placer	22
▁Tu	22
▁provis	22
▁caer	22
riano	22
▁volvi	22
▁Chalma	22
▁cumple	22
pública	22
▁ordinario	22
residencia	22
▁Llega	22
▁Dicen	22
▁ayude	22
▁solar	22
▁Cuauhc	22
▁mill	22
▁sacrificado	22
uitzin	22
▁comía	22
▁casilla	22
▁Contr	22
▁hábito	22
▁criollo	22
▁h	22
▁magnifico	22
▁Hernán	22
▁Junto	22
▁sacrificar	22
▁quiera	22
no	22
▁Quetzalma	22
▁dando	22
lotzin	22
iéndo	22
▁abad	22
▁ansi	22
▁vestido	22
▁Cuetz	22
▁nubes	22
▁perecer	22
▁federal	22
▁Tlacateot	22
▁xocht	22
▁quince	22
▁Totolt	22
▁Tzompa	22
▁semillas	22
▁oscur	22
▁cazuela	22
▁Zapat	22
▁Mocel	22
▁pres	22
▁Cada	22
▁Dij	22
▁mexicano	22
tztlacozauhca	22
tlan	22
▁contento	22
▁pec	21
▁refugiar	21
▁Chalchiuh	21
itlan	21
▁camote	21
▁yerba	21
▁cascabel	21
▁navío	21
▁humo	21
fama	21
▁Hip	21
inos	21
▁tlacochcalca	21
chichimeca	21
▁Mucha	21
quino	21
odavía	21
ranscurrido	21
▁impus	21
ió	21
▁encomiend	21
▁Mas	21
xoch	21
▁alguazil	21
▁llena	21
▁acompañar	21
▁conde	21
▁Quetzalc	21
▁Concepci	21
téotl	21
▁canta	21
ecec	21
▁sentencia	21
atzacualc	21
▁aparecie	21
▁Ayocuan	21
▁busca	21
▁séptimo	21
▁viendo	21
▁conform	21
▁rodea	21
▁nace	21
▁tenido	21
echo	21
▁mori	21
▁viniera	21
▁maguey	21
yotzin	21
▁vivimos	21
spíritu	21
▁venado	21
▁cola	21
▁iré	21
▁predic	21
iyahuizt	21
▁aire	21
▁Había	21
▁u	21
▁agrega	21
▁descend	21
▁Tlacopan	21
▁vezino	21
▁mazorca	21
▁Maza	21
▁entregar	21
va	21
▁encontraba	21
▁Hasta	21
▁Rodrig	21
▁Ant	21
▁trata	21
▁quelite	21
▁comid	21
han	20
▁alma	20
▁pleyto	20
▁bajó	20
ái	20
▁ba	20
▁primeramente	20
▁na	20
▁deseo	20
▁pertenecía	20
▁jardín	20
▁alla	20
▁esquina	20
▁niebla	20
▁cafetal	20
▁posible	20
▁vivo	20
▁mete	20
▁autorizaci	20
▁Día	20
▁corona	20
ate	20
▁mensaje	20
▁meter	20
▁traye	20
▁razon	20
▁seguir	20
▁dispersar	20
▁Hace	20
u	20
▁tacha	20
▁dezi	20
▁conozc	20
▁compra	20
erca	20
ollan	20
▁vayas	20
▁china	20
▁octavo	20
▁tembl	20
▁cuarenta	20
▁dispuesto	20
▁bañado	20
▁viviendo	20
▁baño	20
▁teotenanc	20
ndia	20
▁Zacatla	20
ma	20
▁poquit	20
▁echar	20
L	20
▁Chimalpopoca	20
▁centr	20
▁edific	20
▁Fech	20
▁venda	20
▁caza	20
▁extiende	20
▁Bartolome	20
▁caja	20
uani	20
▁fa	20
▁desta	20
▁Tlaca	20
▁fiera	20
▁solicit	20
▁solicitar	20
▁cosecha	20
▁entraba	20
▁coche	20
▁Tizoc	20
▁Cuetlax	20
cohua	20
▁mat	20
▁mandato	20
▁brujo	19
▁sube	19
▁pensamiento	19
▁parecía	19
htli	19
▁escucha	19
▁suplicar	19
▁castigado	19
▁sujeto	19
das	19
az	19
▁encendier	19
▁bonita	19
▁ordenado	19
▁chilpo	19
▁buscando	19
▁quanto	19
▁Om	19
▁pregunt	19
▁pedi	19
'	19
▁Bi	19
▁compr	19
▁niña	19
ztli	19
▁escapar	19
▁construir	19
▁repart	19
▁Tomas	19
▁dava	19
▁decimo	19
▁anochecer	19
▁salvar	19
▁calma	19
▁varia	19
▁muro	19
▁dueños	19
▁combati	19
▁arco	19
▁edificar	19
ario	19
▁fuese	19
▁reunir	19
rey	19
▁preguntaron	19
▁Teuc	19
▁Huexotla	19
▁Tam	19
▁Ten	19
atlteuctl	19
▁certificar	19
▁pinturas	19
▁cerrar	19
▁Tezozomoctl	19
▁do	19
▁ley	19
▁ador	19
▁pedir	19
▁otorg	19
▁Nicol	19
▁Buen	19
▁siguien	19
▁Topil	19
▁Toribi	19
▁march	19
▁termina	19
▁lindero	19
gori	19
▁provincial	19
▁ama	19
▁gallina	19
▁piel	19
▁per	19
▁fuerza	19
▁Sa	19
▁Sanct	19
▁Esc	19
▁medida	19
▁hierba	19
nsí	19
▁perder	19
rna	19
▁tomaba	19
nacio	19
icatzin	19
▁cocina	19
kat	19
▁malo	19
▁mandon	19
▁Carr	19
▁bezote	19
ran	18
ixo	18
▁Tezcatlipoca	18
▁tapa	18
▁deje	18
talla	18
▁alimento	18
qué	18
mas	18
▁Alvar	18
▁l	18
▁cabello	18
▁prestar	18
▁escond	18
▁nombr	18
▁veng	18
bajo	18
K	18
▁falda	18
▁nonohualca	18
▁saludar	18
bamos	18
▁nopal	18
▁instrucci	18
▁Tezcatzon	18
▁Tenía	18
▁arrojar	18
▁llor	18
▁firmaron	18
▁volver	18
▁U	18
▁sepultar	18
▁vendía	18
▁rayo	18
tieron	18
▁oreja	18
▁jura	18
▁corazon	18
▁treynt	18
▁hombro	18
oco	18
▁pura	18
▁be	18
▁caballero	18
▁cuello	18
▁cuece	18
▁Mich	18
▁recibido	18
▁burla	18
▁ejemplo	18
▁gobierna	18
adas	18
▁Atlauht	18
▁fundar	18
▁norte	18
▁Va	18
einte	18
migo	18
zonte	18
▁llorar	18
▁Mag	18
▁leónportilla	18
▁hilo	18
panecas	18
▁Hue	18
▁danza	18
▁entreg	18
▁ma	18
▁bella	18
▁sueño	18
▁tortilla	18
ándolo	18
▁volvier	18
▁Xocóyo	18
▁Tepo	18
tas	18
▁varon	18
▁taza	18
▁subi	18
▁permanec	18
▁creatura	18
▁Aguila	18
▁estera	18
▁teuctlato	18
▁bonito	18
miran	18
vecina	18
▁region	18
▁haré	18
▁cumplir	18
▁golpe	18
▁oy	18
▁sobrina	18
▁conquist	18
▁quinta	18
▁Cuitl	18
▁Ba	18
▁mencionada	18
▁salida	18
▁cuidar	18
▁veinti	18
▁efecto	18
▁Oj	18
▁Papa	18
▁Huitzilihuit	17
▁desapareció	17
▁cultura	17
tura	17
pid	17
emia	17
iebre	17
▁questa	17
▁toca	17
▁jacal	17
▁inciens	17
▁rega	17
▁honra	17
▁Virg	17
torio	17
anohuayan	17
▁dejado	17
rigen	17
▁saldrá	17
▁enterrar	17
darse	17
▁confirmar	17
▁Lu	17
▁tule	17
▁pensaba	17
▁pinta	17
▁cuánto	17
▁puesta	17
vante	17
▁cumbre	17
▁Coyoac	17
▁ruego	17
▁decirle	17
▁R	17
▁embriaga	17
▁pose	17
oz	17
mi	17
▁pago	17
alpan	17
aca	17
▁entra	17
onco	17
▁Cohuaz	17
▁jitomate	17
▁leye	17
▁cocido	17
▁ja	17
▁piens	17
ntli	17
bían	17
▁territori	17
▁est	17
▁tocan	17
▁tronco	17
▁creado	17
▁toman	17
▁pelo	17
▁mandamiento	17
▁vendan	17
▁sede	17
altitlan	17
▁Tlá	17
▁lograr	17
ue	17
▁teul	17
▁ángel	17
▁Cuauhtliquetzqu	17
ara	17
▁española	17
▁responde	17
ías	17
▁Nauhyoteuctl	17
▁hume	17
▁visitado	17
Í	17
▁dedic	17
▁guerreros	17
▁quebr	17
ana	17
▁viud	17
▁mole	17
ngel	17
▁haba	17
vimos	17
▁situada	17
▁azcapotzalca	17
▁bautiz	17
▁Boni	17
poca	17
▁caía	17
▁riqueza	17
▁fecha	17
▁Jal	17
▁alcanza	17
▁produce	17
▁tambor	17
tzqui	16
▁Cohuatlic	16
▁hervid	16
▁Pe	16
▁vayamos	16
▁tren	16
▁borreg	16
▁tlacochc	16
▁seca	16
▁traiga	16
▁nopales	16
▁servidor	16
▁diario	16
▁Texcalco	16
▁aparece	16
▁pide	16
▁partir	16
lancu	16
▁descubri	16
▁tecpan	16
enza	16
▁cuesta	16
▁Cohua	16
▁grueso	16
▁delgado	16
▁Cuauhtlehu	16
▁faldell	16
▁atabal	16
▁adobe	16
▁asiento	16
▁fué	16
▁arc	16
▁familia	16
▁fría	16
▁anciano	16
▁sobrino	16
alia	16
▁pequeños	16
▁Vera	16
▁jóvenes	16
▁vara	16
▁guiaba	16
ntes	16
▁enseñar	16
▁Congreso	16
▁capita	16
chinan	16
▁labra	16
▁temblor	16
▁merino	16
▁desembarcar	16
▁primavera	16
▁tilma	16
▁Muñ	16
▁bal	16
▁cuero	16
▁querer	16
▁azotea	16
▁descans	16
gen	16
▁Atlix	16
▁negocio	16
▁derecha	16
▁Tepi	16
▁amo	16
▁combatir	16
▁tom	16
▁larga	16
▁ejote	16
▁adentro	16
▁sentar	16
eros	16
▁Acxit	16
▁Tecpayo	16
▁Aquel	16
▁Xo	16
▁Xalt	16
▁caiga	16
▁Ilhuicamina	16
▁oj	16
▁metate	16
▁reina	16
▁bejuco	16
▁meti	16
▁divino	16
▁carb	16
▁tendré	16
oyó	16
▁historia	16
▁xica	16
▁esperar	16
ltzin	16
▁litro	16
▁traído	16
▁Hu	16
▁descansar	16
▁agregan	16
▁Cacamatzin	16
▁Atlixeliuhqui	16
▁rumbos	16
▁moría	16
▁recordar	16
▁llover	16
▁recta	16
▁voz	16
▁recibirlo	16
▁Ig	16
▁barr	16
▁abrir	16
▁regal	16
▁visitar	16
▁cubierto	16
▁limpiar	16
▁aprender	16
▁Tra	16
▁gobernante	16
▁engendrar	16
▁é	16
ímal	16
pa	16
▁sabros	15
▁hazi	15
▁acolhua	15
ravie	15
▁irse	15
▁bello	15
▁edificada	15
▁hermoso	15
▁habido	15
▁eleva	15
▁mu	15
▁encontr	15
▁inspec	15
▁llegaba	15
▁sagrado	15
▁vivían	15
▁huesos	15
▁pague	15
ch	15
▁Mont	15
▁trá	15
▁insignia	15
▁Tepozt	15
cuenta	15
▁nari	15
ANTO	15
▁direcci	15
sario	15
▁cri	15
▁existe	15
▁colegi	15
▁algun	15
▁Acacitl	15
▁Quiere	15
mó	15
ble	15
▁esas	15
▁perdido	15
▁ciri	15
▁Rosa	15
ediano	15
▁brilla	15
▁diera	15
▁sed	15
▁encubierto	15
ros	15
▁oír	15
▁llegue	15
▁doncella	15
▁mad	15
▁II	15
▁pescado	15
▁establecido	15
▁Tlamaoc	15
▁plena	15
▁Huixt	15
calli	15
▁importante	15
▁llueve	15
▁Xac	15
obo	15
▁ces	15
▁subier	15
▁medicina	15
▁convento	15
▁Cuauhtleque	15
▁escribi	15
▁cien	15
▁metían	15
▁terminad	15
▁silla	15
▁Hab	15
▁ta	15
▁enviar	15
▁medicinal	15
▁comenzar	15
S	15
▁aflijo	15
▁tanta	15
abrie	15
▁diferentes	15
▁ocurr	15
▁otomí	15
huac	15
▁cu	15
▁chalchihuite	15
▁salga	15
▁Lleg	15
▁Iba	15
▁mirar	15
▁fraile	15
▁Ven	15
▁servía	15
▁bendi	15
▁invita	15
▁esper	15
nas	15
nta	15
▁custodia	15
▁desea	15
▁llevarlo	15
▁muchachas	15
▁pollo	15
▁ceniza	15
▁Tlalyztacapa	15
▁dada	15
obre	15
▁plumajes	15
▁muestra	15
▁común	15
cción	15
▁patr	15
▁Nauhyot	15
▁Gobern	15
▁pintura	15
▁secreto	15
▁auto	15
▁pa	15
▁remedio	15
▁gui	15
má	15
▁Cuauhté	15
▁ocote	15
▁apregon	15
▁plata	15
▁subir	15
▁Muy	15
▁mostraba	15
▁tenia	15
▁poseedor	15
▁Cuauhtitl	15
▁merecier	15
▁tirar	15
mí	15
▁siglo	15
▁calabaza	15
▁columna	15
▁encerrar	15
▁hambruna	15
nario	14
▁po	14
▁parcialidad	14
▁Moyotla	14
▁caus	14
▁costumbre	14
▁levantaba	14
▁Mon	14
▁provincia	14
▁Eca	14
▁arregla	14
▁voce	14
▁Cas	14
▁preg	14
▁embar	14
▁pescados	14
▁traslad	14
▁brote	14
▁encargo	14
▁tíos	14
▁mediodía	14
▁Cristo	14
▁firmó	14
▁arrastra	14
▁vos	14
▁salen	14
▁echan	14
▁escribir	14
ermo	14
▁vea	14
▁ponga	14
rán	14
▁temor	14
▁presentado	14
ojes	14
rita	14
▁hecha	14
▁blancos	14
▁yglesia	14
po	14
▁bebida	14
▁Aun	14
▁Cuá	14
▁Mat	14
▁Marc	14
▁mont	14
▁Oax	14
▁acept	14
▁libre	14
▁petici	14
▁fundador	14
▁Cal	14
▁Temil	14
enta	14
rdo	14
▁mulato	14
▁minuto	14
▁acabado	14
▁contar	14
▁muchachit	14
▁conocimiento	14
dán	14
▁Estaba	14
▁Nezahualcóyotl	14
▁enfrente	14
▁Ayotzin	14
ihui	14
▁servir	14
▁daño	14
▁pedazos	14
▁Nezahualpilli	14
▁Hijo	14
▁suceder	14
▁amaneci	14
▁Quizá	14
▁abandon	14
▁balazo	14
▁tlacatéc	14
▁Itzt	14
▁Tizat	14
▁mover	14
▁capturar	14
▁tosta	14
cita	14
uh	14
▁limpiarl	14
▁dexar	14
▁cihuacó	14
▁Canto	14
▁pas	14
▁existen	14
▁avanza	14
▁Aztaxo	14
▁canónigo	14
▁Mie	14
antes	14
▁vendió	14
▁siervo	14
▁Mora	14
▁mata	14
▁Niño	14
teca	14
▁cierta	14
▁salvado	14
▁benda	14
rancisca	14
▁deten	14
▁elegido	14
▁mide	14
▁quitan	14
▁regular	14
▁teje	14
▁pag	14
▁cumpla	14
▁vendemos	14
▁habl	14
▁piensa	14
vido	14
etzin	14
spuesta	14
▁mestizo	14
▁orejera	14
▁destruye	14
▁Pasqual	14
▁guía	14
O	14
▁mostrar	14
▁nací	14
▁última	14
▁comprado	13
▁lanza	13
▁mandar	13
▁admirar	13
▁firmo	13
▁Son	13
▁colocado	13
▁nombramiento	13
▁pascua	13
emáza	13
▁haría	13
▁Lá	13
▁aparecer	13
▁llano	13
aje	13
▁Tozcuecuextl	13
▁Cuáuh	13
▁contesta	13
▁Teuhtl	13
▁vuelve	13
▁respeto	13
▁capell	13
C	13
▁Yohual	13
latón	13
▁Chimalhuac	13
▁entrega	13
▁madura	13
▁vendo	13
▁barcas	13
hiconcóhua	13
▁peregrin	13
▁rancho	13
▁linaje	13
▁Moquihui	13
unca	13
▁legítimo	13
iempre	13
▁Valle	13
▁azul	13
▁dirigir	13
▁disgust	13
▁siguie	13
▁negra	13
▁Ram	13
ría	13
▁tortuga	13
▁separa	13
▁sombrero	13
▁ventana	13
▁vini	13
▁arena	13
acán	13
▁conquista	13
▁Iztact	13
▁conprar	13
▁Aman	13
zco	13
▁anima	13
▁término	13
▁In	13
▁cebad	13
▁hormiga	13
▁concluy	13
▁ladr	13
▁Toma	13
hule	13
▁estudiar	13
▁militar	13
▁bailar	13
▁visita	13
▁B	13
▁voto	13
▁frito	13
▁enter	13
▁Xoloc	13
▁Guerrer	13
▁solía	13
▁So	13
▁religiosa	13
▁detuv	13
emimilolc	13
▁Tetzauh	13
▁Marg	13
▁Au	13
▁mala	13
▁padrino	13
▁carmelita	13
▁enojo	13
▁dormir	13
lanca	13
ica	13
▁espacio	13
▁Cuacuauhtzin	13
capul	13
▁Xó	13
▁Macuex	13
▁espada	13
▁cuento	13
▁tí	13
ntras	13
▁oraciones	13
▁Quetzal	13
▁embajador	13
▁aten	13
▁pintada	13
▁Citlal	13
▁excavar	13
▁acaudill	13
▁tranquili	13
▁inventa	13
ándole	13
▁comercia	13
▁Tenay	13
▁Sin	13
▁guerrero	13
▁merecimiento	13
▁público	13
▁Ni	13
▁vasallo	13
spacio	13
▁comunidad	13
▁repartido	13
▁papa	13
▁Tri	13
▁bautizar	13
▁oficial	13
zquic	13
▁Mexican	13
▁segur	13
▁Empez	13
▁vaca	13
▁Tezca	13
uma	13
▁cuñado	13
▁derriba	13
uror	13
▁semejante	13
▁ocasión	13
▁v	13
▁levánta	13
▁semi	12
▁perez	12
▁pesca	12
che	12
▁formado	12
▁anhel	12
▁hila	12
▁tierna	12
▁grama	12
▁verdadera	12
ve	12
dura	12
▁pila	12
▁hel	12
ior	12
▁capítulo	12
ambo	12
ielo	12
▁admira	12
▁gan	12
▁Acxotla	12
tlixc	12
▁Tlazo	12
▁acaudillar	12
tlix	12
▁Tziuh	12
▁sabio	12
ir	12
▁habita	12
▁Yopi	12
▁Hernan	12
▁tales	12
▁ex	12
▁preciosos	12
▁molesta	12
▁dexa	12
▁zopilote	12
▁motivo	12
▁variad	12
▁Guill	12
▁suele	12
▁sagrada	12
▁Cámara	12
▁tuyo	12
lág	12
rimas	12
▁vic	12
▁Tlaxcala	12
▁pasaba	12
▁única	12
vedo	12
▁Monter	12
▁criada	12
rugada	12
▁representante	12
▁Tochinteuctl	12
▁festejo	12
loc	12
▁enfrentar	12
▁mang	12
▁huevos	12
▁vestía	12
▁cargar	12
▁Gracia	12
▁Jo	12
▁Puede	12
glar	12
olco	12
▁mataba	12
chin	12
▁Ahuat	12
▁dí	12
▁toc	12
▁lleno	12
▁tocar	12
▁entendi	12
▁nacer	12
ancha	12
▁disciplina	12
▁Tol	12
▁colgar	12
▁entran	12
bién	12
▁Xochiquen	12
▁Mí	12
stedes	12
▁divisa	12
▁cinqu	12
▁valía	12
▁chiquito	12
▁atavío	12
▁Ju	12
▁Tho	12
▁malvado	12
▁nahual	12
▁plantita	12
▁compasi	12
▁yendo	12
▁construyer	12
▁quita	12
▁pañete	12
▁crea	12
LX	12
▁destino	12
▁cuidand	12
▁Tzo	12
▁educa	12
▁recoger	12
▁Aqui	12
▁disfrazado	12
▁Hacía	12
▁demas	12
▁bi	12
▁san	12
▁destruir	12
▁Cuatlec	12
▁cuán	12
▁demasiad	12
▁espos	12
▁metal	12
▁dardo	12
▁sur	12
▁sería	12
▁Pa	12
▁escritor	12
▁má	12
▁Chiconqui	12
▁Agustin	12
▁apóstol	12
pulc	12
▁lloraba	12
▁arreci	12
▁cuál	12
▁cueza	12
huehue	12
▁biejo	12
▁hospital	12
▁guardar	12
rrey	12
▁Má	12
▁Sot	12
▁sos	12
ña	12
▁brazo	12
▁rato	12
upe	12
man	12
huá	12
▁diputado	12
▁pierna	12
▁paga	12
▁barrer	12
▁inicia	12
▁pux	12
▁punta	12
▁arroj	12
▁magueyes	12
▁peticion	12
▁Vive	12
▁temascal	12
▁Ahu	12
▁cha	12
▁pica	12
▁brotaba	12
▁derrumb	12
▁conocía	12
▁Cec	12
ilia	12
ui	12
nidad	12
tenanc	12
▁experiencia	12
bi	12
▁Entre	12
▁so	12
tigo	12
▁cobija	12
he	12
▁nave	12
▁salvo	12
▁mostr	12
▁Federal	12
▁paresci	12
▁obsidiana	12
▁trece	12
▁crecía	12
nto	12
nrique	12
▁llanura	12
▁Tacuba	12
▁llegan	11
▁indígenas	11
▁considera	11
orita	11
troni	11
▁Salom	11
prést	11
▁Montes	11
▁marchar	11
rió	11
▁fila	11
▁fogata	11
ujer	11
mbros	11
▁Mej	11
▁Mal	11
arse	11
ración	11
fico	11
▁verg	11
▁Llevaba	11
▁instal	11
ntzin	11
dito	11
▁Matlal	11
lán	11
▁Quien	11
▁abuelito	11
▁aderez	11
▁Corte	11
▁tuesta	11
ierra	11
▁universal	11
▁repicar	11
▁noven	11
▁cerr	11
▁duda	11
▁teat	11
tenco	11
▁dale	11
▁electo	11
▁desempeñar	11
gantes	11
▁importa	11
▁hilera	11
{	11
}	11
▁pregunta	11
vez	11
▁bist	11
▁cantidad	11
tinta	11
▁Ben	11
xokoyoli	11
▁solemne	11
▁corregidor	11
ua	11
cillo	11
▁sepa	11
▁recto	11
▁divid	11
pedes	11
▁castig	11
▁Consejo	11
▁India	11
▁fatigado	11
otl	11
▁Opochhua	11
▁Torre	11
▁acus	11
▁alzar	11
▁estava	11
▁Apa	11
▁instalar	11
▁Tepet	11
mió	11
▁Están	11
▁huir	11
▁echado	11
▁Ciudad	11
▁respect	11
▁ocupar	11
▁navega	11
▁Malinalc	11
▁compraba	11
▁guardia	11
▁Chapul	11
▁plegaria	11
▁toros	11
itzin	11
ze	11
▁camar	11
▁coman	11
▁bienaventurad	11
▁representa	11
▁regresaba	11
▁baile	11
réis	11
van	11
▁tomate	11
▁feliz	11
N	11
▁congrega	11
ante	11
▁chica	11
▁Nec	11
cito	11
▁huy	11
▁Viene	11
▁reunido	11
▁arte	11
▁esmeralda	11
curso	11
▁cuidador	11
▁muere	11
▁azules	11
▁menesteroso	11
▁Maximilian	11
▁fog	11
ombre	11
▁diciéndole	11
▁Mira	11
▁Tecucizteca	11
▁platic	11
▁limpio	11
▁ho	11
▁remoja	11
▁sufr	11
▁lavan	11
▁enseñanza	11
▁Constitución	11
▁acompañado	11
▁saca	11
▁crecer	11
▁nev	11
▁cae	11
▁espejo	11
▁saliera	11
▁yunta	11
▁extend	11
xochitzin	11
sita	11
zacate	11
pol	11
▁bate	11
▁inform	11
▁acompañaba	11
▁quisiera	11
gustin	11
▁pedía	11
▁quitarle	11
▁hirvie	11
▁rosa	11
pre	11
▁Ro	11
▁Tlailotlac	11
▁berdad	11
ad	11
bren	11
▁Chalchiuht	11
▁comprada	11
▁fuente	11
torce	11
▁pobla	11
▁desnudo	11
▁sentado	11
sto	11
▁costado	11
▁publica	11
▁kua	11
▁candela	11
▁Fi	11
▁vivió	11
▁sigui	11
▁firm	11
▁Teotenan	11
▁ruido	11
▁facultad	11
panohuayan	11
ano	11
▁aparecerá	11
yáca	11
▁prisionero	11
gar	11
▁Tepeyac	11
▁enojados	11
▁Cuauhtlato	11
▁desayun	11
▁informa	11
acas	11
▁Xiuh	11
▁Cilcu	11
pesar	11
iztli	11
▁bebe	11
isco	11
dores	11
▁Franci	11
guel	11
▁gar	11
▁campesino	11
▁luna	11
il	11
▁Respondi	11
eño	11
▁abia	11
OS	11
U	11
▁jugo	11
▁solicitud	11
▁ofrece	11
▁ab	10
▁bendij	10
▁Xicomoy	10
▁cer	10
ame	10
▁engaño	10
esía	10
▁xiu	10
▁parec	10
▁rig	10
▁merecido	10
▁depositar	10
cameca	10
▁Coatla	10
▁intent	10
▁ofrecer	10
▁vis	10
alvado	10
▁estableci	10
▁cucharada	10
▁Nonohu	10
▁atraves	10
popoca	10
▁levantado	10
▁hiciere	10
▁Dig	10
▁Bernardino	10
luvi	10
▁capital	10
▁pes	10
iles	10
▁afligía	10
▁poeta	10
▁suave	10
añas	10
▁Rey	10
▁Xic	10
▁reunión	10
▁amb	10
▁hiciste	10
▁diente	10
▁sand	10
tos	10
▁dejando	10
▁limpian	10
▁crezca	10
▁mayordomo	10
tálo	10
tras	10
▁brasas	10
▁bara	10
ray	10
▁tendido	10
▁estrado	10
▁civil	10
▁tra	10
▁bast	10
▁concha	10
▁azúcar	10
▁comun	10
▁espantoso	10
▁edificio	10
▁pastor	10
▁delito	10
▁Oy	10
▁Blanca	10
▁Huitzilopoch	10
▁primogénit	10
▁mercader	10
▁lim	10
▁pipi	10
▁Chol	10
▁Tamo	10
▁terrena	10
▁patriarca	10
▁resto	10
▁embriagado	10
▁atlauhteca	10
▁corr	10
▁ag	10
▁atri	10
▁estren	10
▁clav	10
▁Dej	10
▁encino	10
▁darme	10
ixco	10
▁cambio	10
enitencia	10
firi	10
▁cuartillo	10
▁Nezahualc	10
euctl	10
tlac	10
▁digno	10
▁Tula	10
▁informar	10
echó	10
▁ut	10
▁acto	10
▁mandan	10
▁Gonzal	10
▁duro	10
ntro	10
▁atender	10
▁garganta	10
▁Tlotli	10
tquic	10
▁Noche	10
▁vapor	10
▁tira	10
▁ancha	10
▁flauta	10
▁Escucha	10
▁etc	10
lonia	10
▁cohet	10
▁uso	10
▁amarg	10
▁median	10
▁médico	10
▁decidi	10
onati	10
▁Teng	10
▁Muri	10
▁posey	10
▁lu	10
eltzin	10
▁sacaba	10
▁dolor	10
mago	10
cuchill	10
▁coloca	10
bido	10
▁sementeras	10
ál	10
▁alzaba	10
▁acudi	10
▁fríe	10
nia	10
▁domini	10
ti	10
▁logró	10
▁Bárb	10
▁oyamel	10
▁resulta	10
tiene	10
▁dejan	10
▁subido	10
uebla	10
▁mariposa	10
▁polvo	10
▁alza	10
▁desempeñ	10
▁hici	10
▁curar	10
▁fuere	10
ecatl	10
▁codorni	10
▁callej	10
▁conducido	10
lotépe	10
metl	10
▁tienda	10
▁deste	10
▁músic	10
▁Ozoma	10
▁Tlatil	10
▁envía	10
▁algodón	10
▁expres	10
▁consagrado	10
▁breve	10
▁cient	10
▁guarde	10
▁id	10
ias	10
▁Mot	10
▁dirigi	10
▁apoderar	10
▁pagará	10
▁susodicha	10
▁madero	10
▁trabaja	10
▁Atoto	10
▁hechura	10
kil	10
▁diese	10
▁merecer	10
▁Milla	10
▁amado	10
ezontlalnamacoya	10
▁tierno	10
▁ami	10
eresa	10
▁décimo	10
tando	10
▁estés	10
tento	10
▁necesitaba	10
▁Tote	10
▁prest	10
▁conduc	10
▁venid	10
▁Jim	10
▁Ley	10
▁conquistas	10
▁conversa	10
▁aceite	10
▁echaba	10
stad	10
▁Mani	10
▁contrario	10
▁rebelar	10
▁combate	10
ocho	10
▁contest	10
▁manifestar	10
dimos	10
eríodo	10
▁Ocelotl	10
▁artículo	10
▁respetable	10
▁Federa	10
oltitlan	10
▁ynformacion	10
▁mueve	10
▁matrimoni	10
▁cofrad	10
▁satisfecho	10
quen	10
▁humilde	10
ctez	10
▁bajaba	10
▁ro	10
altzin	10
▁Tlalocan	10
▁Del	10
▁coyo	10
▁intens	10
▁Toch	10
▁tambi	10
deras	10
▁tanbi	10
▁vol	9
▁res	9
hí	9
▁techo	9
▁Vá	9
▁herede	9
amo	9
▁ajorca	9
ur	9
tar	9
▁juga	9
▁debía	9
▁Estuv	9
huani	9
guas	9
▁diferente	9
▁matlatzinca	9
ino	9
▁Nanahuat	9
laga	9
▁quedan	9
▁chapul	9
▁Resurrecci	9
▁oía	9
▁corría	9
▁quite	9
▁mirad	9
▁Quauhtli	9
▁fallecid	9
tañed	9
poce	9
▁hacerle	9
▁maravillosa	9
▁Il	9
▁obliga	9
uitzo	9
▁zacat	9
▁pre	9
▁petate	9
▁ahorcar	9
▁Aten	9
tech	9
ohua	9
▁sufrimiento	9
▁retirar	9
▁Tlaqui	9
▁venc	9
▁dispone	9
▁Rodr	9
guez	9
éndolo	9
irve	9
▁vendia	9
▁Motecuhzoma	9
▁reparti	9
▁Tuv	9
▁construcción	9
▁ciudadano	9
▁sienta	9
▁endulza	9
arás	9
▁dominio	9
▁caracol	9
▁resonar	9
▁viva	9
▁perece	9
m	9
▁..	9
▁ci	9
▁Ace	9
▁Temizt	9
▁enseñ	9
▁predicador	9
▁Paul	9
▁és	9
▁palma	9
▁Gua	9
▁sacramento	9
▁arzobisp	9
▁jurisdicci	9
tuvo	9
▁diá	9
▁determina	9
▁significa	9
▁judío	9
▁gentil	9
▁pobres	9
▁Cuauhtzin	9
▁justo	9
▁quisier	9
▁canela	9
▁Guatemala	9
▁negras	9
tada	9
▁ayer	9
ovar	9
mez	9
▁quedaba	9
▁dies	9
▁podrido	9
▁nueb	9
▁aber	9
▁profet	9
bio	9
▁compran	9
▁esfuerz	9
▁hall	9
▁preocupe	9
cuex	9
alabras	9
▁exhorta	9
latl	9
▁cuida	9
▁par	9
entin	9
▁Chalchiuhtl	9
icue	9
▁Zum	9
poderoso	9
▁regla	9
▁ciment	9
▁form	9
▁paño	9
▁camina	9
▁capturado	9
fortuna	9
xic	9
▁Mex	9
▁gust	9
▁burle	9
▁pensa	9
▁coral	9
▁caro	9
▁conocido	9
▁asesinado	9
tria	9
▁pertenencia	9
▁regir	9
▁amarillas	9
mora	9
▁contradiga	9
ega	9
vo	9
▁Totol	9
ejas	9
▁Tonalli	9
tlatla	9
▁horadad	9
tzompa	9
movido	9
▁quedará	9
▁Sim	9
▁comiendo	9
▁conquistador	9
▁manantial	9
▁):	9
alta	9
▁necesaria	9
▁pecado	9
andes	9
▁continu	9
▁constante	9
▁Huitznáhua	9
▁escondido	9
▁eclips	9
▁necesit	9
▁permanece	9
cé	9
▁metros	9
▁horno	9
imac	9
▁lentamente	9
▁gracia	9
▁torn	9
▁usa	9
tó	9
▁despid	9
▁segun	9
caron	9
▁Ayotla	9
▁ande	9
eme	9
▁asistie	9
▁separado	9
▁EN	9
▁descubrir	9
▁confirma	9
E	9
▁Epcoat	9
▁piso	9
▁inund	9
▁viejit	9
▁espinoso	9
cedió	9
▁lloviendo	9
▁Tehuac	9
▁estima	9
áca	9
▁encerrado	9
▁Parec	9
entes	9
▁Tlaxilacall	9
▁corola	9
▁Oso	9
rofesa	9
fa	9
▁conduj	9
oj	9
▁lograd	9
forzado	9
▁defender	9
lara	9
▁convirti	9
▁construy	9
▁enoj	9
▁Ca	9
ogía	9
▁cansan	9
▁moyo	9
fecho	9
▁gato	9
▁juego	9
bida	9
▁habré	9
▁Eh	9
▁Aco	9
▁humana	9
▁codo	9
▁tradici	9
omb	9
ligo	9
▁Villa	9
▁disponía	9
▁Mazorca	9
▁partido	9
▁enseña	9
▁macho	9
▁cobra	9
▁falt	9
▁abr	9
NEST	9
iones	9
▁lumbre	9
ólat	9
▁Hueim	9
▁completamente	9
▁Escoba	9
▁cama	9
▁helada	9
afa	9
▁Acxocu	9
▁comprende	9
▁dize	9
A	9
ilco	9
▁cost	9
▁venerado	9
▁descarnad	9
▁insisten	9
▁demandan	9
▁averigu	9
▁maduro	9
▁falsa	9
peuh	9
▁cambiar	9
▁oído	9
▁escuche	9
▁Xiuht	9
▁hallar	9
late	9
▁Matlaccó	9
▁comunicar	9
▁regala	9
▁méxico	9
eza	9
▁construido	9
▁morirá	9
▁chico	9
▁calen	9
▁Acall	9
▁querella	9
▁superior	9
▁tuya	9
ficio	9
nquisi	9
citos	9
▁pretende	9
ahualtzin	9
▁nahuatlato	9
▁Po	9
▁viniere	9
▁sab	9
▁bon	9
▁senador	9
▁corrien	9
▁declarad	9
▁Toyaot	9
▁ejerci	9
▁PRES	9
AG	9
▁]:	9
▁cuetlaxteca	9
▁nieve	9
manza	9
▁padecie	9
▁surgi	9
▁replic	9
raje	9
▁rápid	9
▁jaguar	9
▁Amo	9
▁estaría	9
▁humano	9
▁discurso	9
▁simple	9
▁culhuacan	9
▁Pá	9
▁Diputa	9
▁embriagan	9
uatro	9
ci	9
▁Motelchiuh	9
▁niñit	8
▁Mixcó	8
acto	8
illa	8
▁Vengan	8
▁gira	8
▁Atzacual	8
▁preparado	8
▁emprende	8
redo	8
▁hene	8
▁Vaya	8
▁pur	8
in	8
▁papas	8
ólotl	8
▁criado	8
cateuctl	8
▁solos	8
cerrado	8
▁vacante	8
rtista	8
▁envuelto	8
▁ataviado	8
▁especie	8
erna	8
vaca	8
▁Yacapi	8
chtlan	8
▁familiar	8
▁ahorcado	8
▁gusano	8
▁jovencito	8
▁cerrada	8
▁limosna	8
▁vivieron	8
ráct	8
▁Ade	8
▁rocí	8
▁plática	8
▁design	8
▁Ej	8
▁Er	8
nesto	8
▁mudar	8
▁circund	8
▁guirnalda	8
je	8
▁acostumbraba	8
jugar	8
▁tendría	8
endo	8
▁perfecta	8
▁aflic	8
▁estudi	8
▁rog	8
▁descendiente	8
▁coloc	8
▁jilote	8
▁Has	8
struido	8
▁bañarse	8
▁pein	8
▁incensador	8
▁numeros	8
otzin	8
▁alegrar	8
conos	8
▁dal	8
mática	8
▁ardía	8
tonc	8
▁difícil	8
▁Poste	8
▁conpr	8
▁pasad	8
▁arbol	8
▁envío	8
▁Coco	8
▁Eu	8
jas	8
▁guajolotes	8
▁realiza	8
▁actual	8
▁maya	8
▁Ayot	8
▁declara	8
▁tratar	8
▁duerme	8
▁reverencia	8
▁definitiva	8
armen	8
▁bes	8
▁Tezcacohu	8
▁limpi	8
▁descuartizado	8
p	8
▁trig	8
▁Moquihuix	8
pico	8
▁devoci	8
árra	8
▁sabiduría	8
▁hablan	8
▁roca	8
RI	8
▁Alf	8
▁perteneciente	8
cántar	8
re	8
▁travies	8
usan	8
▁deb	8
▁teniente	8
▁empeñ	8
▁indu	8
▁contado	8
▁Comi	8
▁sometie	8
▁atacar	8
▁convertid	8
▁extranjero	8
▁impuest	8
▁daré	8
cocolc	8
▁pidi	8
hicomoztoc	8
▁veré	8
▁hier	8
año	8
▁Tzon	8
▁bautizado	8
▁Val	8
ólogo	8
▁sucede	8
▁calentar	8
▁olvid	8
irme	8
▁Prepara	8
▁vete	8
tecatl	8
▁g	8
teko	8
▁Qui	8
▁vendiera	8
▁permiso	8
▁Yao	8
tlap	8
ictin	8
▁supr	8
▁Ozto	8
▁midieron	8
TE	8
▁beni	8
imos	8
▁tamal	8
▁pipián	8
▁sala	8
▁encuentran	8
▁Buena	8
▁dedica	8
quecholl	8
▁Tecayehuatzin	8
▁hu	8
▁envuelve	8
▁bol	8
▁Itzcahua	8
▁Cre	8
ria	8
▁tlaco	8
▁parecer	8
▁césped	8
▁admirable	8
▁sentir	8
llo	8
▁golpear	8
▁tocaba	8
▁edificado	8
▁esperaba	8
▁tetzcoca	8
▁bord	8
▁maldad	8
▁tratado	8
▁obsta	8
▁inicio	8
▁sentía	8
▁olvide	8
iquipil	8
▁corrida	8
rtir	8
▁opini	8
▁vale	8
▁secó	8
▁traig	8
ible	8
▁bende	8
▁Atla	8
alli	8
▁Faustin	8
▁cámara	8
▁guardado	8
▁vasija	8
tillo	8
nieto	8
▁seguido	8
etas	8
▁chicos	8
▁traerlo	8
▁elevado	8
▁estancia	8
▁letra	8
▁ofreci	8
▁borde	8
▁CON	8
tocan	8
tema	8
▁intern	8
▁utiliza	8
▁hervir	8
▁doscientos	8
▁Vizca	8
▁contiene	8
▁cuanta	8
▁Jer	8
▁consejo	8
▁copal	8
peli	8
▁ard	8
▁ilumina	8
et	8
▁aflij	8
▁juntaba	8
▁colocaba	8
▁recibe	8
for	8
llan	8
▁desgrana	8
▁escobeta	8
▁Achit	8
▁firmas	8
▁divide	8
▁Xí	8
▁Tolteca	8
▁bend	8
▁Zoqui	8
▁volvía	8
▁nahuas	8
▁víspera	8
▁Haz	8
▁gastar	8
▁puxa	8
▁perdonar	8
▁cuauhnahuaca	8
▁hizie	8
▁conducía	8
▁pretendía	8
ohuatzin	8
▁acuerd	8
▁Thori	8
▁aviéndol	8
▁Atezcapa	8
eocolhua	8
moloc	8
▁parado	8
▁agri	8
▁montículo	8
ES	8
▁set	8
▁pirámide	8
▁certifica	8
▁ahuehuete	8
▁excremento	8
▁buscaba	8
▁viste	8
▁escoba	8
▁macana	8
▁dejaba	8
▁participar	8
▁fiel	8
loya	8
▁choc	8
til	8
hueitlato	8
▁mojonera	8
adora	8
▁magnífico	8
▁cort	8
▁hijito	8
▁huerta	8
▁empezaba	8
▁clara	8
▁naranja	8
▁Ocelotlteuc	8
▁part	8
▁hinca	8
▁beberá	8
▁Pobre	8
▁Senado	8
▁sombra	8
▁morador	8
quita	8
▁Tequixquipan	8
▁pegaba	8
▁sext	8
▁ningun	8
▁indio	8
▁tarda	8
rate	8
▁univers	8
▁cobre	8
▁lucha	8
▁vivido	8
▁amarra	8
▁apoder	8
▁cansado	8
pósito	8
▁Tlachc	8
zón	8
osotros	8
IO	8
▁espanta	8
▁canasta	8
▁ofrecía	8
▁Dami	8
cosa	8
▁Iztacal	8
▁correr	8
▁enredad	8
▁dorada	8
▁angustia	8
▁Mis	8
zopi	8
▁Atlacu	8
▁Ocelopan	8
▁plátano	8
▁amaranto	8
▁repartía	8
▁ayudar	8
▁consta	8
▁muera	8
▁diariamente	8
▁dibuj	8
▁envol	8
xi	8
AT	8
hua	8
▁sa	8
▁Chiapa	8
izo	8
necas	8
▁necesitar	8
▁Tenoch	8
▁crecie	7
▁ocasione	7
▁moler	7
▁DIALOGO	7
ctor	7
▁Llevar	7
acatl	7
▁elev	7
▁Ama	7
▁arrodill	7
▁entristeci	7
▁gasta	7
▁hundi	7
▁tezcaco	7
tadas	7
gatorio	7
ton	7
ix	7
▁espes	7
▁Sabe	7
▁entrara	7
▁cuadra	7
▁olor	7
▁chil	7
▁reparar	7
▁realizar	7
▁descarga	7
ancal	7
▁enterrado	7
almente	7
mento	7
▁venerad	7
▁saluda	7
▁vean	7
▁pondrá	7
▁avanzaba	7
▁ataviar	7
▁cabell	7
▁deliberar	7
▁enfrent	7
jamos	7
▁buscan	7
ntaron	7
rrito	7
▁azote	7
▁indica	7
▁Ce	7
▁altura	7
▁respondi	7
quinto	7
▁Cast	7
▁cría	7
▁arde	7
▁agriet	7
▁pequeñas	7
▁cumplido	7
▁hazlo	7
▁provey	7
▁Huitznec	7
cuil	7
▁aument	7
▁inter	7
▁chololteca	7
▁sépt	7
uple	7
▁oscurecer	7
▁propus	7
▁colocan	7
▁guajillo	7
▁ortiga	7
ecutivo	7
▁Ningun	7
sentimiento	7
▁estorb	7
▁Acol	7
▁cortado	7
▁castellano	7
biendo	7
▁tlacotenc	7
▁gustaba	7
▁caminar	7
▁abandona	7
cruz	7
sentada	7
▁maravill	7
▁tendr	7
▁portal	7
▁requería	7
▁brotan	7
▁gruesa	7
▁conjunto	7
▁puerto	7
▁obedecían	7
bas	7
▁pintor	7
▁Chic	7
▁Tzihuac	7
Serpiente	7
oluca	7
▁tiernos	7
▁tepixque	7
▁cos	7
▁mur	7
▁movie	7
▁aparta	7
▁estimaba	7
▁vigilan	7
▁raspa	7
▁nonbrado	7
▁sustituy	7
▁montañas	7
▁Xochitl	7
▁cuartel	7
▁col	7
chada	7
▁Huehuetla	7
redi	7
cordia	7
▁escondi	7
▁valeroso	7
idos	7
▁establezca	7
▁denominada	7
▁cacahuate	7
▁Teotihuacan	7
ngl	7
▁desaparecer	7
ula	7
▁fu	7
manera	7
▁Palacio	7
iente	7
▁Tlacaté	7
▁venas	7
▁Tico	7
uhtli	7
▁cuexteca	7
▁lic	7
▁juntaron	7
▁penacho	7
▁estuviese	7
▁Yu	7
▁mama	7
ázar	7
▁juntar	7
JOL	7
asilio	7
▁Esa	7
▁hechicero	7
gencia	7
▁Cruci	7
tenía	7
▁condici	7
▁Totomihua	7
▁afirman	7
▁línea	7
▁vencido	7
▁Map	7
▁directa	7
▁siente	7
▁prosigu	7
▁Ayopocht	7
▁recatado	7
▁guardaba	7
▁Azta	7
▁asediado	7
▁Brota	7
▁tributar	7
▁cristal	7
nete	7
▁robar	7
▁barat	7
▁aparecía	7
▁Ip	7
olito	7
▁Empieza	7
▁astr	7
▁conserva	7
▁fibr	7
tonil	7
▁femoral	7
eda	7
▁Suchi	7
▁merecedor	7
▁Igual	7
▁agarrar	7
▁confesar	7
▁Xihuiton	7
▁horca	7
▁monument	7
▁Tequic	7
▁avía	7
▁valiente	7
▁pasan	7
atican	7
▁afligir	7
▁danzar	7
▁ayuno	7
polla	7
▁esforzado	7
▁huérfano	7
▁cominos	7
▁trabajadores	7
▁tañe	7
▁Quiero	7
▁recipiente	7
bles	7
▁Berna	7
▁Tozcu	7
ería	7
▁Metzt	7
untad	7
▁juicio	7
memoria	7
▁viruela	7
`	7
▁virgen	7
▁ocurrido	7
▁propietario	7
▁excava	7
▁vestidura	7
▁resplandor	7
▁revuelve	7
▁có	7
quieta	7
▁aconteci	7
▁ata	7
▁temp	7
▁tiza	7
▁arcabuce	7
▁alegre	7
taba	7
▁busc	7
▁Dan	7
▁caminaba	7
aventura	7
▁vientre	7
▁exhibi	7
▁correo	7
bé	7
▁Aquella	7
▁originario	7
▁alcanzar	7
▁sorprendi	7
▁quau	7
▁otorgamiento	7
▁falso	7
▁majest	7
▁Pres	7
▁dirige	7
▁rebel	7
▁disparar	7
▁narra	7
zonco	7
▁rodead	7
W	7
▁rajita	7
▁sacan	7
▁Habla	7
▁idioma	7
▁afligi	7
▁destruy	7
▁celest	7
xayaca	7
▁Universi	7
▁comience	7
▁cant	7
▁apoyo	7
noche	7
▁dormí	7
▁serranos	7
▁Mazatl	7
▁espiritu	7
rian	7
▁puro	7
▁mercancía	7
▁preocupaba	7
▁humear	7
▁Año	7
▁cacto	7
mentos	7
tra	7
▁profes	7
▁seguirá	7
▁deber	7
▁ocurrir	7
▁círculo	7
fon	7
▁aflige	7
▁plumaje	7
▁entré	7
gate	7
▁tranquilo	7
▁soi	7
ber	7
▁personal	7
▁Fui	7
▁amare	7
▁trabajaba	7
▁bajan	7
▁ultim	7
▁sano	7
▁diz	7
▁hon	7
latzin	7
stre	7
tablo	7
▁semill	7
▁car	7
▁nombrar	7
▁poca	7
▁fija	7
▁dedicado	7
chon	7
faci	7
▁Coatlic	7
▁trux	7
▁Nanal	7
▁patria	7
▁Tan	7
▁Cuetlaxtl	7
lté	7
▁linde	7
▁felicidad	7
▁corregi	7
igno	7
▁reside	7
▁cena	7
▁nacional	7
▁morado	7
▁estandarte	7
▁bas	7
▁Yaca	7
▁madrina	7
▁amor	7
▁Beat	7
▁hoyo	7
▁completa	7
grado	7
▁Toltecat	7
máx	7
▁reconocer	7
tado	7
lva	7
▁prestado	7
▁máscara	7
▁persiguie	7
▁Asunci	7
▁Acuec	7
▁molido	7
sistía	7
erable	7
«	7
»	7
▁desgarra	7
▁goza	7
lle	7
edes	7
▁comerá	7
▁gritos	7
▁cofre	7
▁cuidados	7
▁puercos	7
ajara	7
▁ánimo	7
▁cala	7
cha	7
▁azulejo	7
▁It	7
cadena	7
▁cuela	7
▁obligado	7
eynos	7
▁ocult	7
▁genera	7
▁Regres	7
mada	7
▁designado	7
▁apesta	7
▁degoll	7
▁Merc	7
▁compus	7
▁Tlaxcal	7
▁escrita	7
▁cabecera	7
mundo	7
rlo	7
▁Coru	7
▁lavado	7
▁Tzompahuaca	7
▁ciua	7
▁séptim	7
▁espíritu	7
creció	7
ama	7
▁viviría	7
▁captur	7
rég	7
▁prueba	7
▁Acatla	7
▁convocar	7
mbar	7
▁Sería	7
▁Ingl	7
dario	7
▁grandeza	7
▁ésa	7
▁actividad	7
▁seré	7
▁duele	7
▁amenaza	7
▁Ap	7
ridad	7
ida	7
bre	7
▁asu	7
▁soport	7
▁enseñaba	7
▁Topant	7
iana	7
▁criatura	7
▁tuviese	7
▁list	7
▁aguel	7
▁Tonaca	7
▁derrot	7
▁muchísimo	7
▁contaba	7
▁claro	7
▁dejará	7
▁Nace	7
▁Decía	7
▁malinalca	6
▁anb	6
▁milagros	6
▁cru	6
▁crear	6
acalo	6
▁volte	6
▁vestir	6
▁sucio	6
▁portentos	6
▁arbusto	6
tépe	6
▁abundante	6
▁guiar	6
▁Bernald	6
▁adorno	6
▁afana	6
▁dirigía	6
▁afuera	6
▁manojo	6
▁bola	6
▁sangr	6
▁cord	6
▁sacarla	6
▁Tlacatec	6
tal	6
▁descarg	6
▁dá	6
▁tri	6
eta	6
▁vigila	6
▁della	6
▁cerc	6
▁complet	6
▁dign	6
culto	6
▁poyauhteca	6
icalanc	6
▁herba	6
▁tomará	6
▁fronter	6
▁caudill	6
▁permiti	6
antí	6
▁Axol	6
▁tocado	6
▁obedecer	6
▁Venía	6
▁acostumbra	6
▁inspecciona	6
▁comunal	6
lxoch	6
▁Tzompan	6
eco	6
oyohuaca	6
▁cesar	6
▁esparce	6
▁Chap	6
tud	6
▁Crece	6
▁Iztacc	6
▁bordada	6
▁señorita	6
▁sacado	6
▁Ent	6
ámac	6
coc	6
▁pato	6
cui	6
▁paró	6
▁retroced	6
▁pu	6
▁Zaca	6
▁her	6
▁vela	6
▁Acxo	6
▁pegar	6
▁descansaba	6
▁verla	6
▁sub	6
▁florece	6
▁amaría	6
▁contempl	6
▁calidad	6
▁desatin	6
sin	6
▁preparaba	6
▁impid	6
▁altepetl	6
▁fo	6
▁platicar	6
▁Chá	6
▁aprovecha	6
▁temporal	6
▁opin	6
▁Escuche	6
▁trabajen	6
▁mol	6
dero	6
fensa	6
▁pieza	6
cimientos	6
▁enoja	6
▁sentaba	6
▁regalar	6
▁estuvieran	6
▁tropa	6
▁peligro	6
▁asignar	6
▁Huitzilla	6
del	6
▁duodécim	6
▁crecido	6
maban	6
▁Christo	6
▁Car	6
▁acaban	6
▁estrenar	6
yerba	6
viene	6
▁hervirl	6
▁Pascua	6
▁arruin	6
▁engañar	6
▁falleci	6
▁confes	6
▁afirma	6
▁Yacatecu	6
▁sucedi	6
▁elecci	6
▁Poder	6
▁político	6
uch	6
▁sembr	6
▁escalera	6
▁Yaotzi	6
▁preocup	6
▁nonbre	6
▁conquistad	6
matlá	6
tuvieran	6
▁legua	6
▁distan	6
▁maravilloso	6
▁ingles	6
▁amarga	6
▁Tlapan	6
▁pertenezca	6
▁trozo	6
▁contradicci	6
▁Matlatzinc	6
▁pesada	6
rgant	6
▁recibí	6
der	6
▁marquesa	6
▁virreina	6
▁Favor	6
▁bulto	6
ducto	6
▁faltaba	6
gente	6
▁partida	6
▁reconocie	6
▁nombrada	6
▁lego	6
▁ganar	6
▁viviremos	6
▁objeto	6
toria	6
▁respectiva	6
▁Noch	6
▁trataba	6
▁situad	6
▁Tzapotla	6
▁vencer	6
▁alegr	6
▁llevará	6
▁oí	6
▁Justo	6
▁listo	6
otel	6
▁buscó	6
▁Justi	6
▁quieras	6
▁compara	6
▁desperdicia	6
quil	6
ér	6
▁cauda	6
milco	6
pasado	6
ovimiento	6
▁guardan	6
▁encomend	6
▁Chiucnauht	6
huix	6
▁provoca	6
▁tepaneca	6
▁erguir	6
▁padece	6
▁adornar	6
fijo	6
▁conquistado	6
chi	6
▁Orden	6
▁unoaconej	6
▁becin	6
▁pedregal	6
▁vuelto	6
▁católic	6
▁volverá	6
▁espantosa	6
▁Tepan	6
▁Cihua	6
▁instalado	6
izca	6
▁envia	6
▁Mimich	6
▁Tecuicho	6
▁Tecoco	6
▁tlacatecpan	6
▁cazoleta	6
▁gru	6
▁timbre	6
▁timbal	6
eca	6
emente	6
▁sustentar	6
▁Tet	6
lteuctl	6
▁cree	6
▁desampar	6
▁perturbe	6
▁Dioni	6
▁molesto	6
▁consulta	6
▁explica	6
nmediata	6
▁habi	6
▁acabara	6
▁nob	6
▁mencionar	6
▁prosigui	6
▁desdichado	6
▁llov	6
cando	6
▁turb	6
▁virtud	6
AL	6
nile	6
▁ayudaba	6
áramos	6
▁asediar	6
▁Amilc	6
▁maestr	6
escuela	6
▁Tepetla	6
▁introduj	6
▁secarse	6
▁atravesa	6
▁preparar	6
▁pensar	6
▁Gonz	6
▁célebre	6
▁Rein	6
▁enojaron	6
▁disponer	6
▁inútil	6
▁fall	6
▁responden	6
iel	6
▁pelear	6
sistir	6
▁Estamos	6
manceb	6
▁ataca	6
▁cubrier	6
▁haciéndo	6
▁aprehendi	6
▁Totoquihua	6
azar	6
▁pé	6
▁tlenam	6
▁duque	6
▁Llama	6
▁procurar	6
▁chi	6
▁Huá	6
ropa	6
▁particular	6
▁maseual	6
eciente	6
▁invocar	6
▁rogar	6
▁mencion	6
▁responso	6
▁concluid	6
▁colgado	6
▁falte	6
▁Regin	6
&	6
izque	6
▁desnuda	6
▁pudi	6
far	6
ol	6
▁pasta	6
▁hi	6
▁ch	6
▁movió	6
▁sonaja	6
us	6
▁Cuetzpal	6
▁Tecuan	6
▁bolsa	6
▁zacu	6
▁vendiese	6
▁gra	6
▁pelot	6
▁destruirá	6
▁fundado	6
▁canasto	6
▁abras	6
▁orna	6
ntifica	6
▁empuña	6
áculo	6
▁peg	6
▁continua	6
himallaxoch	6
▁paraje	6
▁Tenga	6
uez	6
▁figura	6
▁Cinc	6
▁serio	6
▁conforta	6
▁cura	6
ará	6
icos	6
▁guisado	6
▁Jhoa	6
▁inclin	6
▁mozo	6
▁Quauhtzetzel	6
hinampa	6
▁abati	6
▁estimado	6
éramos	6
III	6
lló	6
▁arroz	6
▁molino	6
▁tabla	6
▁nuera	6
guito	6
▁Uta	6
▁Huacal	6
▁jueces	6
▁sufri	6
▁padeci	6
hueyo	6
ercole	6
▁indígena	6
forma	6
▁suma	6
▁tomates	6
▁ceñido	6
▁cita	6
▁nombraba	6
▁Florid	6
▁Cerro	6
irán	6
▁extensi	6
▁Chi	6
▁derrib	6
▁Pil	6
▁castigar	6
▁teuhctl	6
▁decimos	6
xtli	6
▁Mamalhuaz	6
ingo	6
tus	6
yo	6
ice	6
▁creada	6
▁Xihuit	6
▁Apepe	6
▁cuna	6
▁avis	6
▁pequeñito	6
▁tien	6
▁váya	6
▁penado	6
▁quiebra	6
▁superfici	6
▁arenga	6
▁adornado	6
▁escudilla	6
ahogado	6
▁cubre	6
▁mor	6
▁abandonad	6
▁vendieron	6
▁quit	6
▁vendido	6
▁expresado	6
▁renovar	6
▁Oye	6
▁acompañante	6
▁Mix	6
▁sabor	6
▁tlaxilacale	6
▁satisfechos	6
uéx	6
▁Cohuatla	6
licu	6
▁enton	6
▁silencio	6
▁tirado	6
▁deberá	6
▁privilegio	6
▁desarrolle	6
▁die	6
ja	6
lé	6
▁suficiente	6
▁ratific	6
▁trabajaban	6
auhtzin	6
poc	6
cili	6
▁arreglo	6
▁arreglar	6
▁obsequiar	6
▁Orti	6
▁corn	6
isa	6
▁luminaria	6
▁Mari	6
▁enojar	6
▁probab	6
▁dijera	6
▁obedece	6
▁cambia	6
▁apropiar	6
▁muer	6
▁Ocuil	6
▁Gali	6
▁oculto	6
té	6
▁prima	6
eli	6
▁fatiga	6
vil	6
▁próxim	6
▁afán	6
▁hueso	6
▁Ne	6
▁desciende	6
▁Comenz	6
vino	6
▁pul	6
orque	6
▁llen	6
▁mora	6
▁Temilotzin	6
▁tomarla	6
LO	6
▁trab	6
zó	6
▁Acolm	6
▁far	6
▁acerc	6
▁requisito	6
▁solemn	6
TL	6
▁arrib	6
▁oydo	6
tzca	6
mág	6
▁famoso	6
oyan	6
▁rasura	6
▁juzgado	6
▁pondr	6
▁baba	6
▁enju	6
▁destruya	6
▁enojes	6
ay	6
▁devorado	6
▁Quauhtepe	6
ahua	6
▁ape	6
▁cuchar	6
▁pequeñita	6
▁Tzihuactl	6
▁confirm	6
▁repartir	6
▁ejecut	6
▁petaca	6
▁Cohuatzin	6
▁rapad	6
laman	6
tzotl	6
▁cierre	6
▁oscureci	6
usar	6
aterra	6
▁cañada	6
▁perverso	6
▁bib	6
▁suceda	6
▁Tlacahuepan	6
▁Jusep	6
▁rode	6
▁Chikomexochitl	6
▁contradi	6
▁curaba	6
istrito	6
ola	6
leite	6
▁ech	6
▁reunía	6
▁cántaro	6
itlán	6
▁Cuauhcó	6
▁Chimalma	6
▁futuro	6
▁Secretario	6
▁vendría	6
▁científico	6
▁remat	6
▁Cuitlach	6
▁germin	6
▁ce	6
mpa	6
▁cambi	6
▁escaramuza	6
▁pen	6
▁sirv	6
emoc	6
▁oportunidad	6
▁tomarlo	6
▁beatifica	6
arios	6
▁acostar	6
serra	6
▁nosotr	6
▁Cali	6
▁veintena	6
▁pí	6
▁volviera	6
▁tiró	6
▁acantilado	6
▁parroquia	6
▁tiende	6
▁documento	6
▁víctima	6
▁cometa	6
▁aguja	6
▁Yacahuetz	6
▁pronuncia	6
▁excepci	6
▁manto	6
▁Pro	6
▁caíd	6
▁correspondiente	6
imen	6
▁leche	6
▁deshierba	6
▁elevar	6
▁cuartill	6
▁inundar	6
▁ynformaci	6
▁cajón	6
▁gast	6
▁Tech	6
ismo	5
▁Cohuat	5
▁vendré	5
▁hierbita	5
▁género	5
▁Teopan	5
▁ple	5
▁Chacha	5
▁mande	5
quila	5
▁reún	5
▁abon	5
▁xalto	5
huipile	5
▁benefici	5
▁Dese	5
▁sirvi	5
▁abeto	5
▁red	5
▁auxiliar	5
▁Painal	5
▁movía	5
▁nube	5
▁pedacitos	5
▁dispers	5
▁tristes	5
mol	5
▁suspendi	5
▁acercaba	5
▁huv	5
▁alba	5
▁nixtamal	5
▁ora	5
▁pint	5
ILIT	5
▁espiga	5
▁magueyal	5
▁cañaveral	5
▁educado	5
▁cami	5
▁allegado	5
▁olvida	5
▁acaudilla	5
▁recogi	5
yauhtzin	5
▁Itztlotzin	5
▁escuchado	5
▁vivan	5
▁apret	5
▁haberle	5
▁ofendi	5
▁exigía	5
▁compadre	5
▁pública	5
▁Veng	5
▁abre	5
▁oiga	5
▁cansa	5
▁aguanta	5
donde	5
▁montaña	5
▁bordado	5
▁lienzo	5
idas	5
comuni	5
▁rana	5
▁mosco	5
▁despliega	5
▁llevada	5
▁presagio	5
▁Ix	5
▁Celestial	5
▁aplica	5
▁imposi	5
▁mexicana	5
▁Ur	5
▁conquistar	5
▁entrará	5
▁ejerce	5
stituto	5
▁embriaguez	5
eando	5
▁cualquiera	5
▁investiga	5
▁rue	5
▁aparezca	5
▁amonesta	5
ieren	5
▁diferencia	5
▁afligirá	5
▁regocija	5
▁avisar	5
▁yergue	5
▁ardor	5
▁supie	5
prés	5
▁Quería	5
▁preguntar	5
▁disip	5
▁tronó	5
▁destroza	5
seguirlo	5
▁enterado	5
▁señalar	5
▁vivirá	5
▁túmulo	5
▁ymagen	5
▁espum	5
▁retumb	5
▁Tzoni	5
▁logr	5
▁compañera	5
▁Teocuitla	5
igo	5
▁cuchara	5
cordó	5
▁propone	5
quitl	5
ynte	5
▁Bel	5
▁Vini	5
malinal	5
▁primo	5
▁Acudi	5
▁raja	5
▁Ixcuecu	5
enero	5
▁hordinario	5
▁Xalti	5
▁Cop	5
rubia	5
▁ordenada	5
cientos	5
rnes	5
▁binie	5
ision	5
▁Huítz	5
▁jú	5
enid	5
▁horadar	5
▁valen	5
▁Acuezcóma	5
▁Cuex	5
pitza	5
capitza	5
amb	5
▁asustado	5
mbrado	5
▁cuidaba	5
jército	5
acional	5
▁institu	5
▁pá	5
▁pil	5
▁profesor	5
▁estim	5
▁tocaron	5
▁oírl	5
▁pagan	5
▁movimiento	5
méri	5
▁sinti	5
▁medianos	5
ecitos	5
▁hoj	5
▁tapan	5
yahua	5
ochpan	5
▁Huitz	5
▁du	5
tín	5
▁peones	5
▁herida	5
gico	5
▁Rie	5
ríamos	5
▁monj	5
▁bland	5
cedía	5
▁bañaba	5
▁acue	5
▁contin	5
▁entroniza	5
▁invent	5
▁Ramir	5
tam	5
▁Teo	5
ju	5
▁cuatrocient	5
▁abandonado	5
▁cere	5
▁conservar	5
uame	5
▁juntan	5
▁levantan	5
▁sabido	5
▁arrebata	5
▁Cuauhtlatohua	5
▁torna	5
▁banquete	5
▁estuvi	5
▁Atezca	5
▁distinta	5
▁Será	5
▁logra	5
RO	5
▁Toton	5
▁comerci	5
▁viviera	5
uatl	5
▁octav	5
▁Ta	5
palcate	5
▁riñer	5
▁quejar	5
▁dul	5
▁invento	5
▁asan	5
tlacozauhca	5
▁alca	5
emani	5
▁secretari	5
▁Poco	5
▁mentiroso	5
▁Busca	5
írsel	5
▁flo	5
▁abundan	5
▁útil	5
efe	5
▁expone	5
▁sentid	5
dula	5
tizo	5
▁Tepaneca	5
▁ahorc	5
sej	5
ores	5
▁Gutierre	5
▁Bernard	5
parecido	5
▁Amigo	5
▁grave	5
▁ov	5
▁saque	5
▁Mizquitl	5
▁vigilar	5
▁bebé	5
▁xal	5
▁desto	5
▁otorgar	5
ngo	5
tón	5
ahui	5
▁firmado	5
ZO	5
▁desp	5
aría	5
▁determinará	5
▁cazado	5
▁dispara	5
▁llenan	5
▁colm	5
▁pez	5
▁Conc	5
▁quemado	5
▁pasear	5
▁aplaque	5
pich	5
▁unta	5
▁Tzinacant	5
▁tlailotlaca	5
▁verdolagas	5
▁Josepe	5
parentes	5
▁desarrolla	5
ndi	5
▁prendido	5
cicl	5
zad	5
▁encamin	5
▁engañe	5
▁vestimenta	5
▁cuauh	5
▁resucit	5
di	5
yendo	5
▁tecpatl	5
▁ordenar	5
▁adjudic	5
▁acer	5
▁víbora	5
▁Diga	5
▁menester	5
▁Coanaco	5
▁Tetlepanquetza	5
▁escurre	5
▁prendier	5
▁dificultad	5
▁compadeci	5
▁revolver	5
▁oscurec	5
▁empeza	5
▁pimienta	5
pu	5
▁pare	5
▁amortaja	5
▁fastidi	5
▁engañado	5
▁hervía	5
▁extra	5
▁Ixcozauh	5
▁savia	5
▁cosquillas	5
▁escuchen	5
▁hacedor	5
▁lec	5
▁estudios	5
íz	5
▁Nativi	5
▁enterar	5
nahuaca	5
▁baña	5
▁cuitlahuaca	5
▁llevarle	5
▁Aya	5
panco	5
▁vives	5
zaqualc	5
▁peniten	5
▁tiangue	5
▁Tlilté	5
▁encin	5
▁torpe	5
▁suplicaba	5
▁contestar	5
lega	5
▁desean	5
zohu	5
dro	5
rdida	5
verar	5
cto	5
▁comunic	5
▁permaneci	5
▁guacamaya	5
uhquil	5
▁parecido	5
▁sopla	5
▁Coatlayau	5
coali	5
nda	5
fri	5
▁absol	5
uto	5
▁montad	5
itud	5
▁Maz	5
▁flechar	5
elo	5
▁pajarito	5
▁antel	5
▁medido	5
tlatépe	5
▁corporal	5
auak	5
▁doquier	5
grama	5
alén	5
iste	5
▁entienden	5
▁amarillear	5
▁clarea	5
▁sabia	5
▁Silv	5
▁acabar	5
cóhua	5
lar	5
▁adueña	5
▁tro	5
▁trazar	5
▁redond	5
▁Mand	5
▁Mund	5
▁alumbrar	5
▁Nav	5
tienden	5
▁creer	5
con	5
▁labrada	5
lac	5
▁man	5
▁pasto	5
▁obscur	5
apia	5
▁medi	5
	5
▁herido	5
▁reza	5
▁corregido	5
eiba	5
ísimo	5
huetzqui	5
▁fortaleza	5
▁trueno	5
▁director	5
▁Mar	5
▁abierta	5
▁pe	5
▁desconoce	5
▁aliment	5
ísima	5
iro	5
▁bula	5
▁concert	5
▁compre	5
▁requiere	5
▁profund	5
▁save	5
▁despierta	5
▁oblig	5
▁apoyad	5
▁gote	5
▁Teat	5
▁evitar	5
ución	5
▁mujercita	5
▁pantal	5
▁taz	5
▁);	5
▁matado	5
▁funcion	5
▁frag	5
hcan	5
▁preguntaba	5
▁sepultada	5
▁franc	5
▁famosa	5
▁apodera	5
dijo	5
xotzin	5
▁impedir	5
▁cuñad	5
▁Acolmi	5
▁Baz	5
tlán	5
▁Tzin	5
▁cultivan	5
▁Reden	5
▁florecita	5
▁Siembra	5
▁europeo	5
▁atrevía	5
▁contó	5
▁xokoyoli	5
▁pela	5
▁encender	5
▁llevaré	5
▁iría	5
tzpan	5
▁mastle	5
▁oscurece	5
▁angustie	5
▁escuchad	5
▁viviese	5
▁Telle	5
▁Gra	5
▁acabe	5
▁pasará	5
▁humill	5
vir	5
▁recogía	5
▁Hazlo	5
uró	5
▁responder	5
tanto	5
piña	5
cargado	5
▁sufrir	5
▁esparcir	5
▁adivino	5
▁Xayaca	5
▁escap	5
▁retir	5
▁oydor	5
pe	5
▁Cuauhtlat	5
▁Tendría	5
▁Du	5
▁corredor	5
▁gremio	5
▁trasladado	5
▁Queda	5
lotl	5
▁cog	5
▁desapareci	5
▁retra	5
▁pesado	5
rí	5
▁Juanito	5
▁visible	5
▁cihua	5
tlatohuan	5
▁trasuntado	5
rú	5
brica	5
▁mire	5
▁permite	5
stima	5
▁fresco	5
décimo	5
▁realiz	5
▁Tecpa	5
▁prohibi	5
▁práctica	5
▁muriera	5
cente	5
▁Pino	5
braba	5
firmó	5
▁defini	5
ense	5
▁instancia	5
▁trescientos	5
▁residen	5
▁azotar	5
▁Otompa	5
dando	5
▁chapolear	5
▁Cuauhte	5
petlatzin	5
▁dormida	5
▁salv	5
▁arrecia	5
▁jala	5
▁abandonarla	5
▁compone	5
▁Cuitlahuac	5
▁Tomatl	5
▁acordar	5
himalhuaca	5
▁sufrie	5
ído	5
▁Van	5
▁subiendo	5
▁rogaba	5
yó	5
▁palom	5
▁terminan	5
▁Citlaltépe	5
▁alquil	5
mador	5
▁circunvecin	5
▁presidencia	5
▁Lic	5
▁perdón	5
▁descansa	5
▁Cuau	5
▁Riber	5
▁mercadería	5
▁invocado	5
▁encuentre	5
▁Ga	5
▁escog	5
▁parada	5
ic	5
▁cor	5
yahual	5
dele	5
▁Atli	5
tlalac	5
uso	5
▁hijit	5
▁crey	5
▁desayunar	5
astre	5
ecu	5
rados	5
▁Tecuani	5
titula	5
▁vayá	5
yce	5
▁podré	5
udas	5
olote	5
liuhqui	5
▁Xaquin	5
ortuga	5
▁ixtl	5
▁coloqu	5
▁Cuauhtli	5
▁trai	5
▁suel	5
▁Tendrá	5
▁individuo	5
▁mezquite	5
▁exclam	5
pantzin	5
▁pretend	5
▁Bar	5
▁deshech	5
▁mandaba	5
ño	5
▁Tz	5
▁huele	5
▁hubiere	5
▁Call	5
▁Hermos	5
cifica	5
▁vuela	5
▁pelean	5
▁sementera	5
▁Quetzaltépe	5
▁favorec	5
lvaro	5
▁Xipe	5
▁sufre	5
▁traves	5
uet	5
▁Baltha	5
▁ondula	5
▁almacen	5
▁Tecuil	5
▁deshace	5
▁armado	5
▁liber	5
▁Next	5
▁conseguía	5
▁li	5
▁Piens	5
▁calz	5
▁aprenda	5
iéndole	5
▁viviente	5
▁agradable	5
un	5
▁alem	5
ico	5
▁rellenar	5
▁Amar	5
▁posee	5
▁clausula	5
▁doble	5
bino	5
▁Q	5
▁am	5
▁estéis	5
▁Eva	5
xochitl	5
▁bis	5
▁pelea	5
▁labr	5
▁barbech	5
▁itacate	5
▁Cuí	5
xcoc	5
▁Esper	5
▁confirmado	5
▁saludarlo	5
▁enterraba	5
▁tribunal	5
▁dieci	5
▁dirig	5
▁esperanza	5
▁registr	5
▁bendía	5
▁Chimal	5
▁cautivado	5
▁aposent	5
▁Nezahualpil	5
egó	5
▁chiltep	5
rios	5
quía	5
▁regía	5
▁correspondía	5
costé	5
▁xoconostles	5
totl	5
ulgar	5
▁Nenci	5
▁Magn	5
guete	5
jes	5
▁depósito	5
▁corriente	5
ochtlan	5
uras	5
▁Techichiquil	5
▁trecho	5
▁iniciar	5
▁Huax	5
▁traerla	5
▁amaba	5
▁Tercer	5
▁detenido	5
▁ah	5
hice	5
ramp	5
▁cuidará	5
▁Cuauhtenco	5
▁apedrea	5
▁Ixco	5
▁preparan	5
▁nivel	5
▁atribu	5
▁proyecto	5
legio	5
▁corre	5
tán	5
▁acontecimiento	5
▁Cuitlahua	5
▁receb	5
▁promet	5
▁contenido	5
xotl	5
Tenochtitlan	5
bía	5
▁referid	5
▁dispersa	5
▁castillo	5
▁seno	5
tu	5
▁pudre	5
▁torcido	5
uchitl	5
▁atrevi	5
▁lá	5
▁gustara	5
▁chale	5
▁perecerá	5
huizcalpotonqui	5
añana	5
▁vendería	5
▁agobiado	5
colnahu	5
▁desató	5
TU	5
▁aguacero	5
▁obsequi	5
ntér	5
prete	5
▁frita	5
▁QUE	5
▁Tzompahua	5
iuhcan	5
▁puerco	5
▁dej	5
▁invit	5
▁enojado	5
▁guajolote	5
▁Aztasuchi	5
▁envidia	5
▁película	5
▁tuviera	5
▁obtuv	5
▁irrita	5
ot	5
▁Velá	5
▁jubileo	5
▁dedicad	5
▁redondo	5
seguir	5
▁venderá	5
▁trabajas	5
▁quemar	5
▁Toteoci	5
▁proceden	5
▁frijolito	4
fianza	4
▁arrieras	4
▁pon	4
▁molestar	4
▁arder	4
▁esperan	4
▁relámpago	4
▁dividida	4
▁planeta	4
▁Vuestr	4
▁dorad	4
▁hor	4
hui	4
ncho	4
▁ben	4
▁rompi	4
▁trato	4
▁rat	4
▁mandarlo	4
▁festejar	4
▁pino	4
oliente	4
fundada	4
▁Tonal	4
▁proclama	4
▁suplic	4
cle	4
▁ofrec	4
▁mo	4
stá	4
▁conci	4
▁decimotercer	4
▁manifiesta	4
▁orégano	4
▁Mayor	4
▁viera	4
ohuayan	4
▁rasga	4
▁arca	4
▁intest	4
tlapalla	4
▁cact	4
▁repentina	4
▁educada	4
▁boleto	4
▁emoci	4
úb	4
▁significar	4
▁preced	4
▁causaba	4
▁muriere	4
▁continente	4
▁repet	4
▁injuri	4
▁Cacamat	4
LE	4
▁acabará	4
▁rebañ	4
▁termine	4
carcel	4
▁rogamos	4
continente	4
▁cansar	4
▁mosca	4
▁educar	4
▁Polo	4
▁regalaba	4
▁repican	4
▁tlauhquechol	4
▁atreve	4
▁Baj	4
▁considerará	4
▁ago	4
▁hizi	4
▁vendiere	4
▁agujero	4
▁caminante	4
▁recado	4
▁Opoch	4
▁popular	4
▁quelites	4
▁quitaba	4
▁acudía	4
▁at	4
▁convi	4
▁eligie	4
▁extremo	4
▁cuest	4
▁sesion	4
▁topar	4
vieron	4
oyon	4
▁menciona	4
▁Manuel	4
▁dedican	4
▁tor	4
▁pegada	4
▁rodear	4
▁circunda	4
▁amonton	4
▁goce	4
parejas	4
▁Quin	4
▁Tlaltecatzin	4
▁Est	4
▁llevara	4
▁Arena	4
▁permanente	4
▁encontrarlo	4
amparado	4
▁Bu	4
▁Mago	4
pane	4
▁precis	4
▁honrado	4
▁instrumento	4
▁nudo	4
▁honce	4
uate	4
▁procur	4
▁vendida	4
▁manifestad	4
ven	4
jer	4
▁Culhuaca	4
▁acompañ	4
▁ochocient	4
▁sauce	4
▁raspar	4
▁viniste	4
▁abrig	4
▁zona	4
▁acababa	4
▁j	4
▁cometi	4
col	4
bilo	4
▁Fal	4
▁Tell	4
ere	4
▁ausent	4
▁renov	4
▁Tle	4
▁Huixacht	4
▁Ti	4
▁diadema	4
▁pectoral	4
▁desear	4
▁propon	4
▁hiel	4
▁adquiría	4
▁pacífica	4
▁IV	4
▁derrama	4
▁exclusiva	4
▁ayudara	4
▁permitiera	4
▁apropiad	4
▁Isla	4
oncillo	4
▁bendecir	4
▁huacales	4
▁precipita	4
▁duel	4
▁compañ	4
▁Tendr	4
tla	4
toloc	4
▁supe	4
▁frecuen	4
tiva	4
chan	4
ech	4
▁transforma	4
▁ayunar	4
rte	4
▁ausencia	4
▁descuartiza	4
▁cumpl	4
▁Mexicatl	4
▁confus	4
▁llenaba	4
▁riego	4
▁acomoda	4
▁jam	4
▁Texo	4
▁deseaba	4
▁vana	4
▁usaba	4
▁tela	4
▁viviere	4
▁culmina	4
▁aprehender	4
Ó	4
▁querrá	4
padeci	4
▁siembre	4
▁ataba	4
carn	4
▁temía	4
▁Xal	4
▁exclusiv	4
▁extraordinaria	4
▁Permanente	4
▁ocupará	4
▁fresca	4
▁encantado	4
▁saludable	4
▁goz	4
tomá	4
▁Cozcacuauhtenan	4
▁Quauh	4
▁defecto	4
▁zaca	4
ncas	4
▁chin	4
▁discut	4
▁aventaja	4
▁busque	4
reciente	4
▁ant	4
▁bastone	4
▁reanudar	4
▁oriund	4
▁apresurada	4
▁remov	4
▁ric	4
▁celestial	4
▁erija	4
▁sucesi	4
▁notific	4
▁Huey	4
▁Tenantzin	4
▁desiert	4
lifo	4
▁Camin	4
▁respondía	4
▁asustaba	4
▁Teuhtlehua	4
▁Conoce	4
▁brevemente	4
▁cortada	4
▁encabezan	4
▁adverti	4
▁invocaba	4
▁collera	4
▁peligrosa	4
▁Epcó	4
▁problema	4
▁Pin	4
▁Espina	4
cogía	4
▁capulines	4
▁penca	4
▁advirti	4
ilio	4
dias	4
XO	4
▁pira	4
▁quitado	4
▁calient	4
▁incensario	4
▁morral	4
cauh	4
▁Roch	4
▁borrach	4
▁tecomate	4
▁efigie	4
▁amil	4
▁añade	4
▁clar	4
▁despidi	4
▁Tlahto	4
▁aérea	4
▁deporte	4
▁montar	4
▁impone	4
▁aspecto	4
▁gigantes	4
▁just	4
▁pico	4
▁enseñorear	4
▁Debe	4
▁promov	4
▁cabalga	4
suegro	4
▁milagro	4
▁adquirir	4
▁aborrecía	4
▁matlact	4
▁Itzcó	4
▁prencipal	4
▁r	4
▁conprado	4
▁acrecientan	4
▁resultado	4
▁excelente	4
tica	4
▁erguid	4
▁inclina	4
▁devolv	4
▁pata	4
▁retractar	4
▁paje	4
ver	4
▁gim	4
▁Tenan	4
▁hiere	4
▁humeante	4
▁sobrepasa	4
▁resplandec	4
risco	4
▁atar	4
▁importan	4
▁traido	4
▁cultiva	4
SA	4
▁VERDE	4
hcho	4
dice	4
table	4
▁desbaratar	4
k	4
▁consol	4
▁confiri	4
EL	4
▁ins	4
▁cuánt	4
▁encontra	4
idez	4
gamos	4
▁Lobo	4
▁Tepanquiz	4
▁pozo	4
▁olvidad	4
▁asesin	4
▁pregonar	4
▁Constan	4
marino	4
▁doblar	4
▁doctrinar	4
▁marchit	4
▁perd	4
▁sustitui	4
▁mantuv	4
▁escondidas	4
▁vend	4
vos	4
▁probar	4
▁saldría	4
anja	4
ego	4
▁local	4
▁ofend	4
▁olvidar	4
umbre	4
▁endereza	4
▁voltea	4
riz	4
▁revistier	4
ig	4
f	4
▁llave	4
▁novedad	4
▁perdura	4
▁conval	4
▁engendrado	4
maría	4
suelo	4
des	4
▁ballesta	4
▁pis	4
▁tormento	4
▁colocada	4
▁renombr	4
▁espejito	4
▁rod	4
▁met	4
▁identifica	4
▁biólog	4
▁Norte	4
▁Cierta	4
▁lavada	4
ian	4
▁molió	4
▁oloros	4
▁encendido	4
diencia	4
▁Popoyot	4
▁rescibi	4
▁Char	4
mecatl	4
▁revista	4
▁alivi	4
rico	4
▁destinado	4
▁cociner	4
tara	4
▁Dur	4
▁empuj	4
petu	4
tú	4
▁coge	4
cajete	4
▁Ceo	4
ículo	4
ge	4
▁adqui	4
▁bailaba	4
tamal	4
▁casu	4
▁Macue	4
▁sacrificaba	4
▁Xiuhte	4
▁tem	4
▁aventó	4
▁favorable	4
▁perderá	4
▁estrena	4
▁Atl	4
▁alcanz	4
abi	4
jada	4
▁Tenuch	4
▁carpintero	4
▁Ocelo	4
▁estricta	4
▁lista	4
▁llegará	4
▁bebía	4
▁embarca	4
guer	4
▁descubierto	4
▁Tzinaca	4
▁Cor	4
men	4
▁rodeaba	4
▁equip	4
▁gue	4
▁acostad	4
uvo	4
epetzinco	4
▁rodean	4
▁secar	4
▁trat	4
am	4
▁Tlahu	4
rado	4
▁procurador	4
▁notorio	4
▁Cuauhqui	4
ativo	4
▁Ray	4
▁protesta	4
CI	4
inició	4
▁plan	4
▁pega	4
▁maicito	4
▁plat	4
▁Xalli	4
▁comp	4
▁Oztot	4
▁acostado	4
▁cilantro	4
▁revol	4
▁existía	4
▁Mor	4
▁arrancan	4
▁construyera	4
▁Entr	4
▁prehispánico	4
▁pretenda	4
▁doctrina	4
▁deleit	4
▁pech	4
▁oíd	4
▁desplega	4
▁derrotar	4
▁Pus	4
▁recev	4
▁continuaba	4
▁Mixcoatl	4
▁dañar	4
▁anduv	4
▁Atococ	4
▁Cipac	4
▁tortillita	4
▁Acolmiztl	4
cimiento	4
▁huid	4
▁cubría	4
▁Ibar	4
como	4
▁rap	4
▁prepara	4
▁Azca	4
▁Axo	4
▁explora	4
▁XI	4
▁grip	4
▁dobla	4
▁recio	4
▁amarrándo	4
▁VI	4
▁pruden	4
▁contendía	4
▁Hermano	4
▁tepi	4
gre	4
▁Camp	4
▁siga	4
▁gordo	4
ku	4
▁confí	4
▁zapote	4
▁repic	4
cohuatzin	4
▁mentir	4
uéstrame	4
▁suplica	4
ztacmixcohuatzin	4
▁cad	4
alidad	4
▁Ueue	4
▁humea	4
▁manojito	4
▁relato	4
▁sopa	4
▁sabidor	4
▁consigna	4
▁peligroso	4
▁avergonzado	4
lit	4
▁popot	4
▁mantenía	4
▁periódico	4
▁parecida	4
▁garra	4
uhca	4
▁Díga	4
▁desata	4
▁existi	4
▁peñasco	4
▁comestible	4
▁lombri	4
▁amase	4
ónica	4
▁Nahualteuctl	4
▁aceptar	4
▁Hic	4
▁riber	4
eños	4
▁Calm	4
▁Xala	4
zcué	4
▁Tlacot	4
▁hábil	4
▁figuras	4
▁bivier	4
▁conservad	4
▁maltratar	4
▁tomara	4
▁llevándose	4
via	4
▁Arranca	4
ronto	4
zca	4
▁idea	4
▁Xiuhcoyol	4
▁Tlahui	4
▁aprendía	4
▁inc	4
▁Tlacatecc	4
▁Trae	4
▁alega	4
▁atac	4
▁coger	4
▁vivirás	4
▁dejé	4
▁Suprem	4
▁asust	4
parti	4
▁dise	4
▁rinc	4
▁desocupada	4
▁quedara	4
▁borregu	4
▁graniz	4
▁Cotolco	4
▁afligido	4
▁ignominiosa	4
▁Tlappan	4
▁Bandera	4
idalgo	4
▁victoria	4
▁unidos	4
▁amen	4
▁mortal	4
▁chí	4
▁social	4
▁cera	4
▁preso	4
itario	4
▁gata	4
▁rincon	4
▁fijo	4
▁exacta	4
▁conoci	4
AS	4
▁Arm	4
▁regañ	4
▁amiga	4
▁contemplar	4
▁salitros	4
otlam	4
▁descansan	4
▁apresado	4
▁espant	4
tones	4
▁Tlalt	4
inqui	4
▁Cuauht	4
chimale	4
▁decidir	4
▁discípulo	4
▁apresar	4
él	4
▁viga	4
▁tronar	4
▁escripto	4
riente	4
lmuerz	4
▁ligera	4
▁invoc	4
▁pujar	4
uaca	4
▁Totoli	4
▁soñar	4
▁ocupa	4
Cisne	4
orre	4
cula	4
▁enreda	4
▁Ed	4
▁tlalhu	4
▁cestecillo	4
▁alumbre	4
▁prefect	4
▁vá	4
▁lis	4
▁iztacc	4
cinco	4
▁percibi	4
▁previa	4
▁suplente	4
▁agu	4
▁Tlacochcalcatl	4
▁inten	4
dido	4
▁distinto	4
DO	4
tzontl	4
▁Tlacate	4
▁Tepal	4
▁paresc	4
▁consigue	4
▁déjalo	4
▁Atlixuca	4
▁conden	4
▁ajena	4
▁declaraci	4
▁temazcal	4
▁agarr	4
▁catedr	4
átic	4
▁integra	4
ventu	4
▁Cohuatl	4
▁Ch	4
▁descompon	4
▁sembraba	4
▁ayud	4
clinar	4
▁ladrar	4
▁confundi	4
▁Nex	4
▁traduc	4
▁dig	4
▁Moise	4
▁ampli	4
▁producto	4
guero	4
uced	4
anos	4
elas	4
▁Niña	4
▁acercar	4
▁trabajamos	4
▁Alegraos	4
▁Temazcal	4
▁got	4
ntre	4
▁agradecer	4
▁próspero	4
nterior	4
▁permane	4
▁Vie	4
▁labrador	4
▁hir	4
▁instituy	4
▁dijiste	4
▁compren	4
▁conflicto	4
▁hága	4
alca	4
▁encarga	4
▁germinar	4
▁apostar	4
▁uauj	4
cihuatl	4
▁enfrentamiento	4
stia	4
▁Estaría	4
▁señalada	4
seis	4
eu	4
▁Ami	4
▁Bla	4
Z	4
▁bailan	4
▁excursi	4
▁culpa	4
▁confi	4
raza	4
tan	4
▁racion	4
▁arrastrado	4
▁situa	4
▁encendía	4
▁denomina	4
▁espantado	4
▁ingl	4
▁denota	4
	4
▁Tlacoten	4
▁Barb	4
uauhtinchan	4
▁simient	4
aller	4
ierre	4
▁invad	4
▁Xochitecutl	4
▁Quau	4
uelas	4
▁fuero	4
▁impres	4
▁consum	4
▁curandero	4
▁Cotztemex	4
▁chícharos	4
▁abatido	4
▁tañ	4
▁carpa	4
▁amara	4
▁Oco	4
▁biznaga	4
rranos	4
▁muert	4
puesto	4
▁sujeta	4
▁competen	4
vi	4
▁Da	4
▁semejan	4
siete	4
▁Levánt	4
▁entrevista	4
▁Tex	4
itan	4
▁boz	4
▁repent	4
anco	4
▁Pone	4
▁marca	4
▁abuelit	4
▁Popotla	4
▁puente	4
▁Cuaut	4
▁Poderes	4
▁Apan	4
▁desaparezca	4
▁Ixtlil	4
▁gir	4
esen	4
▁conprador	4
▁derech	4
▁apres	4
alc	4
cuic	4
alla	4
▁mantienen	4
▁Chimalpah	4
▁rebanadas	4
cantado	4
ente	4
▁interesad	4
▁repar	4
▁acusa	4
▁asombr	4
▁inicial	4
úch	4
Casa	4
quetz	4
▁Hágan	4
▁débil	4
▁Ypolit	4
▁xiuh	4
▁delgadas	4
▁apaga	4
▁entrelaza	4
▁gematista	4
▁Legislativo	4
▁Tepotzotl	4
rve	4
jón	4
▁pape	4
panteuctl	4
▁llovizna	4
▁jiote	4
▁poema	4
▁canoniza	4
▁combat	4
▁huitznahu	4
ex	4
▁Tziuht	4
▁postr	4
▁Totec	4
▁raya	4
▁cont	4
▁organiza	4
▁evangeli	4
▁persist	4
▁cierra	4
stimado	4
▁Sur	4
cáte	4
▁envolvía	4
catli	4
▁fino	4
▁conduci	4
▁Pasado	4
▁gotean	4
▁derr	4
etido	4
tzim	4
▁Huitzíla	4
dar	4
▁dixe	4
itzca	4
▁orina	4
▁impidier	4
▁sirvienta	4
ctavo	4
▁amonestado	4
yacan	4
▁Occetépe	4
▁desdeñ	4
▁hiri	4
icial	4
▁máquina	4
▁Amax	4
at	4
tzincas	4
soma	4
▁reservad	4
▁tort	4
▁agasaj	4
▁devor	4
▁funcionario	4
▁tema	4
▁sabrá	4
ndero	4
▁orgulloso	4
conehua	4
▁conoc	4
terna	4
atóna	4
matl	4
▁observa	4
mana	4
▁raspaba	4
▁estremece	4
▁Oqui	4
▁oirá	4
▁Cierv	4
▁desgranado	4
▁ad	4
cuech	4
▁vendiesen	4
▁cua	4
daron	4
▁Mé	4
ló	4
▁kil	4
▁qui	4
rme	4
▁cunpli	4
▁uña	4
▁Pepe	4
▁congreg	4
▁escribe	4
adena	4
▁convertir	4
autivo	4
▁espí	4
nuncia	4
▁encabeza	4
▁desig	4
uales	4
▁matarlo	4
tlatl	4
OL	4
rmó	4
▁Anda	4
produj	4
▁trajera	4
▁ponerle	4
ANA	4
▁recaud	4
▁bebid	4
▁proced	4
▁curarse	4
▁invierno	4
uce	4
bozo	4
▁ne	4
▁ber	4
▁jícara	4
▁estudio	4
▁invitaba	4
▁curv	4
▁cómoda	4
▁extendid	4
▁recorrier	4
▁rec	4
▁cubrir	4
▁intentaba	4
▁pelu	4
▁asisti	4
▁marc	4
▁prior	4
▁Canta	4
ncia	4
▁nana	4
cuatro	4
casita	4
▁comenzaba	4
▁braguero	4
izac	4
▁asiente	4
gendrar	4
▁aborrece	4
▁endemoniado	4
▁cataplasma	4
izar	4
hilito	4
▁pinto	4
▁existir	3
▁Yaut	3
▁imp	3
▁asistíamos	3
▁huehuet	3
▁hondo	3
▁patrimoni	3
▁cultural	3
▁Pastor	3
▁Tolnahu	3
▁Zacanc	3
▁paresca	3
▁band	3
▁revolv	3
▁implor	3
▁distribu	3
▁domina	3
stitución	3
▁transfi	3
▁Pregunt	3
▁acongoja	3
▁romper	3
▁beneficia	3
▁cobr	3
▁interrumpi	3
▁cruce	3
▁humareda	3
▁gor	3
▁aconseja	3
▁ra	3
nima	3
▁adorna	3
▁esparcido	3
lhuacan	3
río	3
cic	3
▁fúnebre	3
▁Tozan	3
pul	3
lce	3
▁verificar	3
▁anunci	3
tenencia	3
▁rendir	3
▁expresará	3
idente	3
▁obedecier	3
▁suprimi	3
▁apretad	3
pié	3
▁despens	3
NI	3
▁subía	3
▁Oiga	3
▁centímetro	3
▁Ycnotl	3
quito	3
cuarto	3
cendiente	3
jos	3
▁sentenciado	3
ierro	3
gas	3
lotes	3
▁violencia	3
▁chisporrotea	3
▁gros	3
▁enrojec	3
▁ampar	3
▁avergonza	3
▁averg	3
áb	3
side	3
▁Capol	3
▁dixere	3
balga	3
redes	3
▁trayecto	3
▁recorr	3
▁correc	3
▁contentaron	3
▁barranco	3
lpit	3
▁fun	3
▁provision	3
▁Llora	3
▁tened	3
▁desprecia	3
▁disgustado	3
▁roza	3
▁anocheci	3
▁perteneciera	3
▁hereder	3
petlac	3
▁arri	3
▁arroja	3
▁empuja	3
▁vot	3
dillo	3
▁Atlac	3
▁obedezca	3
▁escrib	3
▁diría	3
ey	3
▁criar	3
▁escucharlo	3
cogido	3
▁aparent	3
▁informado	3
▁corteza	3
▁hada	3
▁repartida	3
▁vendiste	3
▁Chikometepetl	3
donda	3
▁construí	3
▁premio	3
▁irlo	3
▁venera	3
▁brillo	3
▁peinar	3
▁correctament	3
▁expo	3
▁buque	3
▁except	3
rías	3
▁dormido	3
▁reconocid	3
▁Zacua	3
tok	3
ouat	3
▁tlaxi	3
▁administrar	3
▁huía	3
▁Cuate	3
nteayer	3
moto	3
▁asentaro	3
▁Yaote	3
▁acava	3
▁enpiez	3
▁moneda	3
▁desherbar	3
▁prendi	3
▁enviaba	3
elegido	3
▁Tloc	3
▁zur	3
▁compras	3
▁abund	3
▁volvería	3
▁Vol	3
▁sustituir	3
▁kuou	3
▁cobrar	3
ista	3
▁miseri	3
▁Chile	3
guerr	3
▁Tlacoc	3
mamos	3
uac	3
▁colgaba	3
▁desconocid	3
▁preocupado	3
▁legu	3
mbres	3
pi	3
▁pr	3
ivas	3
▁individual	3
▁prescrib	3
dependencia	3
zum	3
▁Cihuatla	3
▁religi	3
▁mezcla	3
▁dirigido	3
strucción	3
▁Macuil	3
mpida	3
▁instruye	3
▁Pipitla	3
▁despiert	3
▁cana	3
▁joy	3
▁céntric	3
ocemos	3
afet	3
▁regido	3
▁Volv	3
eré	3
▁condenado	3
▁Julian	3
▁atadero	3
▁riega	3
▁transporta	3
▁Puchtla	3
▁pedacito	3
▁desaloja	3
▁Toca	3
▁pretender	3
▁ansia	3
▁originaria	3
▁pintar	3
▁lastimera	3
▁sobrenatural	3
▁lastimero	3
▁suceso	3
▁AR	3
J	3
▁Mosc	3
atedral	3
▁alivie	3
▁Preci	3
▁Sali	3
▁quemaba	3
rép	3
yacapa	3
▁Monte	3
▁abogad	3
rezar	3
▁esfera	3
▁apachurra	3
▁heredad	3
ilacall	3
▁convoca	3
▁prójimo	3
▁inquieto	3
neral	3
▁verdura	3
▁jugos	3
▁ayudan	3
hue	3
▁encerrada	3
▁pudr	3
▁equi	3
noc	3
eopan	3
▁ayudamos	3
▁deshaga	3
por	3
▁súplica	3
huitztl	3
▁Resuena	3
▁envidie	3
▁bañan	3
▁lavamano	3
ztac	3
▁apariencia	3
morteci	3
▁tular	3
▁Xancopinca	3
▁Estará	3
oja	3
▁recomenda	3
▁alterar	3
▁arrancaba	3
▁Tráiga	3
▁Tráiganla	3
hechiz	3
▁emprendí	3
▁ent	3
ento	3
▁doncell	3
▁distinguido	3
▁creí	3
itzi	3
▁trabaj	3
▁aced	3
ide	3
El	3
emana	3
▁proveer	3
omienza	3
▁abrazar	3
▁Huicol	3
▁emborracha	3
▁gr	3
▁Lib	3
enlo	3
▁Colhua	3
▁introduci	3
▁invitado	3
▁extendi	3
▁suscit	3
▁Quint	3
▁entristece	3
▁amenaz	3
▁cé	3
anto	3
▁deposit	3
▁vomitó	3
▁tequihua	3
▁Atlauh	3
▁Disp	3
▁Habr	3
▁relata	3
▁Gu	3
rós	3
▁cercena	3
▁casarme	3
▁escena	3
▁verlos	3
▁ceboll	3
▁diria	3
▁and	3
▁pirú	3
▁tumbar	3
▁mulata	3
▁Tecó	3
nal	3
▁apunta	3
▁agita	3
quiyauh	3
▁Inven	3
▁abra	3
▁supiera	3
MPE	3
TO	3
TI	3
▁portugu	3
iling	3
ues	3
▁descubr	3
▁calzado	3
teucti	3
▁sazona	3
▁movi	3
▁mue	3
▁restante	3
▁Miccac	3
▁Tototl	3
ha	3
▁repercut	3
▁tamboril	3
▁escal	3
laza	3
▁construye	3
▁ramita	3
▁interven	3
▁bruj	3
▁norma	3
rdido	3
▁ardi	3
uixtoc	3
pilli	3
▁pasilla	3
▁laguner	3
▁embi	3
▁Cuetl	3
▁informe	3
▁convocado	3
▁fatigas	3
▁estemos	3
▁bastimento	3
darme	3
▁recordaba	3
▁extrañ	3
▁encendi	3
articipar	3
▁prender	3
▁gatea	3
▁estudiaba	3
▁sujet	3
▁amenazaba	3
▁ahuyentar	3
▁adquier	3
▁ropaje	3
tlato	3
aya	3
▁indigna	3
▁engaña	3
▁ri	3
▁Atempan	3
ecatzin	3
decer	3
▁conveni	3
▁garant	3
▁Iztacx	3
▁ejecu	3
ongos	3
▁Tecui	3
▁recordé	3
▁pulid	3
▁Cuachi	3
▁prelado	3
oliui	3
▁enhiest	3
▁Cit	3
▁Salud	3
rrible	3
▁cautiv	3
▁Español	3
▁arrastrándol	3
▁CHIL	3
▁aliviar	3
ult	3
▁correspondió	3
▁reconocí	3
▁platicamos	3
▁pregunté	3
▁expresó	3
nuevo	3
olocan	3
▁Zacap	3
chco	3
uiz	3
▁equivocad	3
eran	3
quix	3
mando	3
tino	3
▁cuide	3
▁basta	3
▁dispon	3
orosa	3
▁hablarle	3
▁hable	3
deros	3
▁borra	3
▁provee	3
▁otorgado	3
▁turn	3
▁reclamar	3
rcos	3
▁despedí	3
▁Hola	3
▁cima	3
▁amarilla	3
bilidad	3
conocida	3
▁determin	3
▁obrar	3
▁teporingo	3
▁adjuntos	3
▁romp	3
▁expresar	3
▁grat	3
▁Acallo	3
iba	3
▁Vender	3
▁atado	3
▁escapad	3
itiv	3
▁gris	3
▁beata	3
▁enrolla	3
▁tiangui	3
▁comerciaba	3
▁equivoca	3
▁sobrepuest	3
▁codici	3
zqui	3
▁Sub	3
▁lastim	3
▁desbarat	3
▁apla	3
ude	3
▁Oli	3
M	3
una	3
▁vejez	3
▁Rocíen	3
▁machacado	3
▁cocid	3
▁convers	3
▁Ab	3
▁Jacobi	3
▁dispuesta	3
▁entendía	3
▁Chiquito	3
▁Cib	3
▁gene	3
tró	3
▁rem	3
▁entretej	3
▁despertar	3
ezca	3
▁Yyaca	3
▁regalaron	3
▁choca	3
cido	3
odría	3
▁vegeta	3
▁complicad	3
▁arrastraba	3
rvá	3
emplo	3
▁ametralladora	3
mbre	3
oyola	3
▁contada	3
▁vivieras	3
▁alcanzaba	3
▁calli	3
▁rodilla	3
▁acomóda	3
ztoticpac	3
quelite	3
ial	3
▁conmo	3
▁festej	3
▁rito	3
▁Xicochimal	3
▁Cuánta	3
▁Nono	3
aria	3
▁Tlalcoz	3
▁delicios	3
▁chapea	3
▁yopi	3
▁Levanta	3
▁quema	3
▁aclar	3
▁baúl	3
ho	3
▁Teco	3
tlic	3
▁Xocoyolt	3
puesta	3
▁manita	3
tiza	3
▁cansé	3
▁tiraba	3
▁mode	3
▁chirimía	3
zteco	3
iza	3
ierto	3
tróp	3
ala	3
▁acogi	3
▁Palo	3
tsilin	3
▁elabora	3
uenle	3
▁tax	3
▁llame	3
▁Us	3
▁estufa	3
▁pastel	3
▁expulsar	3
éce	3
ramos	3
▁Ribe	3
▁firmar	3
rias	3
▁apiada	3
yáhua	3
gado	3
▁investigador	3
▁Pue	3
▁pacien	3
iva	3
▁bautism	3
▁penetra	3
▁imperi	3
RA	3
ON	3
▁PR	3
▁Treinta	3
▁bañar	3
▁cay	3
ADE	3
▁respetará	3
▁resfria	3
▁conten	3
ydo	3
▁Dispénse	3
▁acostumbrado	3
▁nazca	3
▁cabe	3
▁durmie	3
▁Tecpan	3
iño	3
usa	3
▁servido	3
▁viví	3
▁padecer	3
▁modest	3
▁Ecat	3
▁auxili	3
jan	3
▁Arbol	3
irr	3
▁biud	3
▁hagá	3
▁ejército	3
▁Zara	3
▁vence	3
▁sazon	3
▁jor	3
nada	3
▁escuchas	3
▁empacho	3
pos	3
▁causado	3
▁Tlatzotzon	3
▁crucificado	3
ímit	3
▁hered	3
▁arranc	3
▁polilla	3
▁reflexiona	3
▁Macpalxochit	3
▁mantiene	3
LA	3
toto	3
▁topile	3
quier	3
▁sirva	3
aíz	3
▁Tete	3
cuacuil	3
▁Jil	3
kuitaxkol	3
▁nokta	3
▁trepa	3
▁mantequi	3
▁expedi	3
▁amain	3
iréis	3
dieron	3
▁lejana	3
▁estrech	3
ipilt	3
▁buz	3
▁mango	3
▁culebra	3
▁espinos	3
▁plen	3
▁moderno	3
aliza	3
▁tantit	3
huan	3
gan	3
tecutl	3
▁rumor	3
▁Aran	3
▁Pasad	3
▁administr	3
▁celebrado	3
▁Heca	3
▁emplumado	3
huiton	3
▁Teyo	3
▁jur	3
▁cuída	3
▁convoc	3
machan	3
▁azotado	3
▁Salía	3
▁atuendo	3
lizar	3
ed	3
cotzontl	3
▁restaurant	3
áve	3
tera	3
bien	3
▁hosped	3
▁luc	3
▁presta	3
▁multa	3
▁tzompantle	3
mé	3
▁apropia	3
▁Ber	3
▁pilli	3
▁Dice	3
calca	3
▁apocento	3
▁desgarrado	3
▁hiz	3
▁profunda	3
▁dañada	3
▁brillan	3
elpochcal	3
be	3
▁milpita	3
▁Xoxo	3
▁fundido	3
minar	3
▁imaginaba	3
▁novici	3
vía	3
▁amada	3
▁imita	3
axal	3
▁Xiloxoch	3
▁quebrar	3
▁traspasa	3
▁fábula	3
▁esparcida	3
ndas	3
▁ribete	3
▁prob	3
▁posea	3
▁amistos	3
iésemos	3
▁carriz	3
▁destap	3
▁endroga	3
▁divertir	3
▁niñ	3
▁element	3
▁residía	3
▁burlara	3
▁inspir	3
▁herir	3
▁opaca	3
▁ennegrec	3
▁pierde	3
▁polac	3
rcio	3
bordó	3
ntó	3
▁Prefier	3
▁precipitad	3
▁mir	3
maqu	3
▁Quech	3
▁emb	3
▁Oroz	3
ándola	3
▁pilot	3
▁itzcuauht	3
▁enseñan	3
▁cultiba	3
ñe	3
▁Texoc	3
▁Trat	3
trán	3
▁fusil	3
▁Morel	3
▁tratan	3
▁levántense	3
▁tetecu	3
htin	3
▁comprobar	3
manen	3
▁trompeta	3
éxi	3
▁reinar	3
▁colgad	3
auhtépe	3
▁secundario	3
▁xi	3
daré	3
	3
▁place	3
nteras	3
▁sacrificad	3
▁infl	3
▁insta	3
QUI	3
▁ka	3
▁repit	3
▁tomas	3
usada	3
▁desembarc	3
▁renuncia	3
▁ceremonia	3
▁labore	3
▁vigil	3
▁tlama	3
▁Xochiquetzal	3
▁aplac	3
▁joya	3
▁brot	3
rrafo	3
▁Fu	3
▁ensanch	3
▁Siénte	3
stable	3
▁deud	3
▁Nan	3
goro	3
▁Miyahuatoto	3
▁cacastle	3
▁nariguera	3
▁carc	3
ajes	3
▁escupi	3
▁hoje	3
▁descalza	3
▁Bem	3
ogó	3
▁afrenta	3
▁FR	3
▁amanecía	3
rnos	3
▁bisi	3
stro	3
▁dom	3
ést	3
▁apur	3
fé	3
rtil	3
▁lagartija	3
▁alivia	3
▁salva	3
▁sábe	3
có	3
▁coincid	3
lera	3
▁Xocoyol	3
petzinco	3
▁siti	3
▁vistos	3
▁ambici	3
▁entregue	3
▁frondoso	3
▁materna	3
▁paterna	3
▁MA	3
▁paraestatal	3
▁base	3
huilizapan	3
▁Tul	3
▁techar	3
▁tern	3
▁xoch	3
▁Oton	3
▁nacid	3
▁dándole	3
▁suspiran	3
▁Sup	3
▁Agarr	3
huel	3
▁acercará	3
▁sufren	3
▁quebrada	3
▁alabado	3
▁sart	3
▁neg	3
▁tomada	3
▁patrona	3
Mon	3
▁menud	3
▁viajar	3
▁interrogar	3
▁custodiaba	3
▁aclara	3
▁peleen	3
▁cubierta	3
▁Pantitl	3
▁solicitaba	3
eneral	3
▁boludo	3
imalpa	3
▁consecu	3
▁escase	3
▁comienz	3
antisim	3
▁quarta	3
▁tronaba	3
▁colinda	3
uauhtli	3
uayan	3
▁alborotar	3
ársela	3
agan	3
▁bañador	3
▁abierto	3
▁infra	3
▁desprecie	3
acahuaca	3
tuviéramos	3
eloc	3
▁Tlacotz	3
▁Chil	3
▁Mole	3
▁consolar	3
▁Guana	3
▁true	3
▁oc	3
▁merecie	3
▁recib	3
▁rob	3
▁tir	3
▁fungie	3
tienen	3
▁nonbra	3
▁prefier	3
▁referir	3
▁moderada	3
bad	3
ictoria	3
▁prosper	3
able	3
edas	3
▁elegir	3
spérame	3
▁disco	3
tible	3
▁ciruela	3
nquiz	3
▁discusi	3
tlapalte	3
▁midiendo	3
▁Matlalc	3
▁composi	3
▁filósofo	3
▁tlaxillacall	3
▁excavaba	3
acall	3
▁ter	3
▁separar	3
uerto	3
▁carab	3
▁rescat	3
▁unió	3
▁desarrollar	3
▁compadezca	3
▁vendieren	3
VO	3
▁fácil	3
▁consign	3
▁carda	3
▁estir	3
▁balacea	3
lalocan	3
queda	3
▁angusti	3
▁ocup	3
▁rapado	3
▁Tlacochcalc	3
▁cat	3
▁amará	3
▁Plat	3
▁prenda	3
▁déjen	3
venció	3
▁XOCHI	3
▁convenci	3
▁condes	3
ohuaixtlahuaca	3
▁despedaz	3
▁arro	3
▁cambie	3
▁encarcela	3
▁palomita	3
▁reglamento	3
matzin	3
epeyacac	3
▁Icno	3
▁reverdece	3
▁retoña	3
▁bastardo	3
▁enferm	3
▁digne	3
▁escribiera	3
rge	3
▁Feder	3
▁deci	3
▁revent	3
coatl	3
▁molestia	3
▁hinch	3
▁jard	3
▁molía	3
▁acu	3
rienta	3
uco	3
ños	3
▁Atoc	3
▁infinita	3
▁Agu	3
▁Moc	3
oteca	3
▁Nuñ	3
▁metía	3
▁Servía	3
▁afeit	3
▁Dé	3
▁guant	3
▁anillo	3
▁oscurecid	3
ég	3
▁jovenzuelo	3
hu	3
▁Trad	3
▁Or	3
▁Bea	3
adá	3
▁escre	3
▁x	3
▁reunió	3
▁atavía	3
▁adornad	3
american	3
▁Matla	3
▁Cuy	3
▁diploma	3
▁Xochiaya	3
och	3
▁fallesciere	3
scribano	3
▁Ihui	3
▁saborea	3
▁termino	3
▁desecha	3
▁Xicohténcatl	3
▁organ	3
▁desagradables	3
▁ocupada	3
▁carro	3
▁super	3
▁Xaltepe	3
illas	3
▁controversia	3
▁soberan	3
ILL	3
▁enemi	3
▁tamalayo	3
▁perfume	3
Ñ	3
▁tabl	3
▁encarg	3
veras	3
rderá	3
▁mét	3
meca	3
▁flan	3
▁Orgullo	3
▁Caña	3
▁decreto	3
▁retornar	3
mpico	3
▁SE	3
▁Teocalhu	3
▁respetaba	3
▁proporciona	3
▁asign	3
▁hijitos	3
▁cantaba	3
▁procedi	3
▁corresponda	3
▁contradixe	3
▁enriquec	3
▁Alc	3
rguen	3
▁Quiyauh	3
▁Tey	3
qua	3
HUA	3
▁huitzillihuit	3
uz	3
▁arrugada	3
▁pi	3
▁escoge	3
▁andrajos	3
▁honr	3
▁liebre	3
▁Achitom	3
ual	3
▁descansé	3
toc	3
lohua	3
▁empre	3
cierto	3
▁acometi	3
▁chilito	3
▁Esfuér	3
▁pertenecie	3
▁delgadita	3
▁recordará	3
▁instruir	3
▁Mader	3
uando	3
▁br	3
▁hembra	3
cac	3
tlác	3
▁reluci	3
▁concertado	3
▁dirij	3
▁HONGO	3
illos	3
rid	3
▁interced	3
▁convidado	3
▁atajar	3
▁rezaba	3
▁antropólog	3
▁perseguir	3
▁Tlam	3
▁Vien	3
puerta	3
esti	3
▁limita	3
▁Tianquiz	3
rum	3
cachi	3
vuelve	3
impan	3
▁Cam	3
▁asola	3
▁emp	3
▁gall	3
▁Bri	3
obierno	3
▁celebrad	3
▁Tetza	3
▁punz	3
▁declarada	3
▁acost	3
yacac	3
▁chiquitit	3
▁gaj	3
▁boscos	3
▁rematar	3
chique	3
▁huida	3
▁alfarero	3
▁mizquica	3
▁hacha	3
▁experimentado	3
▁deposita	3
▁dividi	3
cipac	3
▁produc	3
▁Huitzilte	3
eves	3
tro	3
▁mixtec	3
opí	3
imo	3
▁disfrutar	3
▁reconoce	3
▁Coatepe	3
tecpan	3
▁socorr	3
diz	3
▁Tráigannos	3
▁fingier	3
▁creyer	3
▁aqueja	3
ihuatecpan	3
▁patrimonial	3
▁inflama	3
▁apresarlo	3
▁inclus	3
▁interesa	3
▁meta	3
reto	3
▁acarre	3
▁Acacit	3
▁Ahui	3
rastra	3
▁arranca	3
tlamacazqu	3
▁aprendi	3
▁sacrist	3
canto	3
▁venderían	3
▁desliza	3
▁Baja	3
▁Campe	3
huahua	3
▁Tlacoy	3
▁Quahuit	3
▁contenida	3
▁agreg	3
▁estruendo	3
▁pendiente	3
▁supier	3
cuch	3
iuhqui	3
▁disputan	3
▁cosechar	3
▁juega	3
▁platito	3
▁decapita	3
▁requerirá	3
▁bocado	3
▁Obr	3
yauhca	3
▁espi	3
▁atotonac	3
▁Tlapal	3
▁Yaoc	3
uixtl	3
▁teme	3
▁humild	3
▁conserv	3
busc	3
▁encontramos	3
▁distrito	3
ipe	3
▁robuste	3
▁poquita	3
▁huacal	3
▁incorpora	3
ejand	3
▁arroga	3
uela	3
azón	3
▁debería	3
estos	3
▁lector	3
pach	3
▁desazolvar	3
▁azotaba	3
▁búsque	3
▁into	3
▁cañ	3
▁amparado	3
entos	3
ólic	3
▁veteran	3
▁broma	3
▁transcur	3
▁entrelazad	3
▁exhibida	3
crimina	3
▁gozar	3
▁bote	3
▁desagradable	3
▁felicit	3
▁depus	3
▁Chimalp	3
hin	3
▁labrado	3
▁cubeta	3
▁punzan	3
▁urgen	3
▁Moteuc	3
▁obi	3
▁teñ	3
▁Jud	3
▁oyen	3
▁Calte	3
achado	3
▁provoque	3
▁perdía	3
▁gustoso	3
▁coci	3
cuauhtla	3
▁agota	3
▁estudioso	3
▁vuel	3
▁referen	3
▁hueite	3
cuí	3
ence	3
gueta	3
▁tej	3
g	3
▁refrescar	3
▁Cuitlacht	3
tecó	3
▁Tlacochc	3
▁colibrí	3
▁xokoyol	3
poch	3
▁burlaba	3
▁anegar	3
▁grab	3
▁gratifica	3
▁Tetl	3
▁encontrará	3
▁asignara	3
▁ajustan	3
▁gorda	3
▁Necesit	3
▁Ayaxca	3
uosa	3
▁causas	3
amiento	3
iseri	3
▁tomad	3
fes	3
penderá	3
AP	3
▁Ning	3
▁inundad	3
tumban	3
▁expus	3
▁multiplic	3
▁muslo	3
▁fleco	3
▁Sube	3
▁apoyaba	3
▁concedier	3
▁estepa	3
▁desgaj	3
▁Quetzalcoat	3
▁Serpiente	3
ube	3
▁siémbr	3
▁frutal	3
▁GUA	3
AMO	3
▁retorna	3
▁chiquita	3
▁resoluci	3
▁prohibid	3
▁presid	3
ndez	3
▁asist	3
▁enfermaba	3
▁detener	3
▁conocedor	3
▁respetuosa	3
▁extraordinario	3
▁ocultar	3
▁tráiga	3
liztaca	3
premiará	3
▁infierno	3
▁anunciar	3
▁Cimat	3
▁cunpl	3
▁Cité	3
▁muchísima	3
▁Xochtla	3
▁Tecuant	3
▁acudir	3
▁exhibid	3
amaco	3
▁cantan	3
rie	3
▁calm	3
uc	3
▁renta	3
▁resolver	3
▁etapa	3
▁asocia	3
▁reconocerl	3
▁aguard	3
▁je	3
▁fuga	3
QUE	3
▁penos	3
▁botella	3
ena	3
▁go	3
▁terr	3
adra	3
isteis	3
▁abanico	3
▁sahumador	3
▁mantener	3
▁mereci	3
▁caballeriza	3
▁error	3
▁refrigera	3
▁rojiza	3
hi	3
▁manten	3
▁revestí	3
estamento	3
layo	3
▁recorda	3
▁Quienes	3
▁quej	3
▁interesante	3
▁tezontle	3
▁potr	3
▁muestr	3
▁amanece	3
▁Amilpa	3
▁descabeza	3
▁apellida	3
▁erigir	3
▁insistía	3
▁introduc	3
▁trono	3
V	3
▁inaugura	3
▁díga	3
▁venderé	3
▁voluntari	3
▁Segu	3
ramente	3
▁aventar	3
▁tecpayo	3
▁cuauht	3
▁Cant	3
quihuit	3
▁Tumba	3
▁castigaba	3
▁burro	3
▁cimarron	3
plica	3
mortaja	3
▁grita	3
▁Subi	3
▁reverenciado	3
▁choz	3
▁manifesta	3
▁Suced	3
▁envuelt	3
nacaz	3
▁martaja	3
▁impedi	3
NA	3
▁boscoso	3
▁mya	3
▁Tío	3
▁reposa	3
▁Masa	3
ER	3
▁buscas	3
▁corretea	3
▁Hé	3
ñas	3
▁crucifi	3
▁Coa	3
guaya	3
▁temi	3
▁Man	3
ojo	3
▁tribu	3
▁adúltero	3
▁reuni	3
▁aper	3
▁aguacate	3
▁vuelo	3
▁agradezc	3
▁ritual	3
rillas	3
▁espante	3
dera	3
▁Oztoc	3
B	3
▁escud	3
▁hac	3
▁bendecido	3
▁hicieras	3
▁mantenimiento	3
▁otorgue	3
▁tard	3
imiento	3
catlteuctl	3
▁Cí	3
utl	3
cuez	3
▁ilu	3
ul	3
▁cabra	3
▁esclarece	3
fo	3
▁rela	3
▁Pong	3
▁sonido	3
▁Qu	3
▁Pre	3
▁cocerlo	3
▁Nació	3
▁silb	3
▁totonac	3
etzcatoca	3
zoma	3
▁respondier	3
tóto	3
▁intel	3
▁engalana	3
▁barre	3
▁derramar	3
metro	3
ende	3
▁Ome	3
▁atarlo	3
ruj	3
xacal	3
▁recompensa	3
▁priva	3
▁sepulta	3
zúcar	3
omín	3
▁dolía	3
iencia	3
▁acces	3
▁texto	3
caxoc	3
▁inconvenien	3
▁metro	3
▁cohuixca	3
▁ESTA	3
▁harto	3
▁tajo	3
▁faci	3
▁ordinaria	3
▁tau	3
apúr	3
▁tendida	3
hombre	3
▁recat	3
▁Antoñ	3
▁dispondr	3
▁bendec	3
▁mediano	3
▁zorrillo	3
▁desgracia	3
▁divertirse	3
▁rebana	3
▁embizm	3
▁revel	3
▁Tecal	3
▁manchad	3
▁multiplicar	2
htleque	2
▁Cohuatzontl	2
▁vendí	2
▁Tetzmol	2
locan	2
▁Perdón	2
deremos	2
▁Cin	2
▁provoc	2
lahtol	2
▁litera	2
▁enriquece	2
▁humanidad	2
▁baj	2
mandaba	2
▁extienda	2
pré	2
▁Coatlayu	2
▁buscado	2
▁cast	2
▁Viv	2
▁andrajoso	2
▁enorgullezca	2
▁hombr	2
▁requerir	2
▁mirarla	2
▁codicia	2
rmas	2
▁amaciz	2
▁Cacá	2
▁vendiér	2
▁gavi	2
turbi	2
▁xocoyol	2
▁Pipi	2
▁Conquist	2
nica	2
moxc	2
tico	2
▁Ver	2
▁XV	2
▁Tot	2
▁admir	2
▁construyen	2
▁SOYO	2
QUELITE	2
riesg	2
▁amarrado	2
▁hablen	2
▁irreflexiva	2
eminencia	2
▁paternidad	2
▁escogido	2
▁incurri	2
▁toga	2
▁atada	2
▁anuncia	2
▁comunica	2
▁hinc	2
▁ofen	2
En	2
▁QUI	2
▁pronunci	2
▁CALABA	2
ITA	2
▁puer	2
eden	2
▁greca	2
▁Conchit	2
▁Conde	2
▁grulla	2
rgu	2
▁ánade	2
▁pelícano	2
dr	2
entó	2
▁carr	2
iedad	2
▁protec	2
▁descuid	2
▁ofenda	2
▁traíd	2
▁resguard	2
▁sostenid	2
lejo	2
zcatl	2
reció	2
▁pú	2
▁bu	2
▁escribí	2
durará	2
▁cambiará	2
▁horada	2
▁conclu	2
bel	2
▁aprieta	2
▁residir	2
▁convenga	2
▁trasla	2
▁terminará	2
▁tropezar	2
▁ignoran	2
▁disgustar	2
▁manifest	2
noble	2
▁Yancuic	2
▁Tlalpa	2
▁jag	2
▁adul	2
▁Compr	2
▁matas	2
▁importuna	2
hon	2
efensor	2
▁Citlalc	2
▁dormitorio	2
▁exist	2
pantlac	2
▁predi	2
▁brillaba	2
▁mínim	2
▁Establec	2
rta	2
▁invas	2
▁inm	2
▁admit	2
▁demora	2
▁Conta	2
duría	2
catlan	2
▁cargan	2
aj	2
▁ayúda	2
años	2
▁terre	2
▁Amantla	2
strella	2
▁profetizad	2
▁tapar	2
▁Duque	2
vaja	2
▁enpie	2
▁traje	2
lvar	2
▁Aba	2
unza	2
▁bie	2
▁Parti	2
jtsi	2
▁dechado	2
▁Mois	2
muestra	2
▁hueit	2
▁Tlalco	2
▁Atiza	2
oma	2
zac	2
▁amár	2
▁estrag	2
▁lechu	2
▁rábano	2
errogat	2
▁votad	2
▁empleo	2
uardia	2
guen	2
▁apiadara	2
▁servirlo	2
▁pican	2
▁Serra	2
▁Cuic	2
▁Tozma	2
▁divertía	2
▁aprobaci	2
▁proceder	2
▁rep	2
▁Max	2
▁quitara	2
▁ladra	2
▁Ayop	2
▁continuar	2
▁Bell	2
rtes	2
▁colec	2
▁abrazo	2
▁Trabajas	2
▁contenta	2
▁Déja	2
▁causan	2
▁marinero	2
▁Ytzc	2
▁cultibaba	2
▁altera	2
nahuac	2
▁Tlama	2
▁Momo	2
▁viniese	2
▁vellac	2
▁atoli	2
▁Xiúh	2
▁reciba	2
cept	2
▁consisti	2
▁sane	2
▁golpeado	2
▁infa	2
▁Comp	2
ACATE	2
▁construid	2
pí	2
pitl	2
▁atol	2
w	2
▁hierv	2
▁alumbr	2
▁calentaba	2
ilitar	2
chura	2
▁hechicería	2
▁diligencia	2
▁Bus	2
▁expen	2
endía	2
▁reliquia	2
▁advert	2
zcal	2
▁Xilo	2
marró	2
▁PA	2
PA	2
▁pele	2
▁Tehua	2
▁reforza	2
▁Osoma	2
▁Xochitecuitl	2
ltic	2
▁engrandec	2
▁trafica	2
▁pervers	2
xtiende	2
▁Tozpan	2
▁Uet	2
▁fier	2
▁miran	2
óyotl	2
▁alzan	2
▁aj	2
▁jal	2
▁Laz	2
ndón	2
entid	2
▁menudo	2
▁Tzi	2
▁leyer	2
▁asegura	2
rejas	2
▁gri	2
culpado	2
▁Tlail	2
▁Uicoltepe	2
▁bendig	2
▁mintie	2
▁borrachera	2
ivi	2
▁apresa	2
▁Tráiganl	2
icle	2
▁dividid	2
▁brasa	2
▁Larg	2
▁alborot	2
▁recámara	2
tleco	2
patl	2
ijitos	2
▁dificult	2
▁Caca	2
▁perderme	2
▁acamaya	2
▁comulg	2
▁Qua	2
chic	2
▁Papalo	2
▁Tepapa	2
nahui	2
tojmi	2
tiérr	2
partir	2
▁acontec	2
▁cercan	2
xoxo	2
mpe	2
▁Merino	2
▁detendrá	2
▁llevár	2
▁regrese	2
▁florezca	2
▁marcharo	2
▁enojen	2
▁mestiza	2
▁Tecuich	2
▁ESPINOSO	2
AYOTE	2
UIT	2
ahuit	2
▁Huizi	2
▁enterra	2
orme	2
▁reanim	2
▁metiéndo	2
Pas	2
▁gane	2
▁delgadit	2
pit	2
sak	2
tik	2
EPA	2
▁morisca	2
▁daria	2
▁metier	2
▁disculpa	2
▁alcanc	2
vento	2
▁venderán	2
cuecue	2
▁XAL	2
▁orea	2
icón	2
▁Ycnotlacat	2
uar	2
▁adornaba	2
▁valios	2
▁ensay	2
▁sostenía	2
▁demostrar	2
▁sobra	2
▁litigan	2
▁despoja	2
▁bolita	2
▁merece	2
quia	2
▁Cece	2
▁enfri	2
kakau	2
jtik	2
▁recurri	2
▁mula	2
▁tipo	2
▁esclareci	2
▁Totot	2
▁escapa	2
▁sojuzga	2
omei	2
▁chapole	2
▁Tajchi	2
teco	2
ime	2
estregándolo	2
▁refin	2
▁Descansa	2
▁copita	2
▁perjudicar	2
▁buscará	2
▁Zacat	2
▁cubri	2
▁posi	2
▁anduviera	2
▁satisfac	2
pado	2
▁morisc	2
▁har	2
▁Tigre	2
▁cap	2
▁enveje	2
▁cubrirá	2
▁muda	2
iuh	2
▁dis	2
egando	2
▁condimentos	2
▁robustez	2
▁sexual	2
itla	2
▁resplandeciente	2
lor	2
gaba	2
▁autoriza	2
▁altere	2
▁vendas	2
▁comezó	2
▁pane	2
finita	2
▁endul	2
▁hemorragia	2
▁ahúma	2
pazo	2
▁Tecc	2
▁incon	2
bos	2
▁adereza	2
ali	2
kan	2
▁encumbrar	2
aguar	2
▁cesado	2
▁retira	2
▁asesor	2
▁consejero	2
CAS	2
CAB	2
▁conce	2
▁reflexionar	2
▁acerqu	2
axco	2
▁bañando	2
▁rebo	2
picaba	2
▁rellenándo	2
ltoton	2
▁metido	2
▁polític	2
▁agoniza	2
▁talla	2
▁Algo	2
▁particip	2
▁Chacal	2
▁paisano	2
▁despacha	2
▁haced	2
▁acostumbrad	2
▁suplicarle	2
toman	2
▁alimentar	2
▁adjudicad	2
def	2
cahualtzin	2
▁sacrifiqué	2
▁salve	2
▁perdone	2
▁atropella	2
▁Xochpoyo	2
▁lav	2
▁comiera	2
▁Regálales	2
▁recubrimiento	2
cequia	2
▁Atep	2
▁opus	2
uauhquil	2
▁pida	2
▁produzca	2
portar	2
▁concurr	2
mbr	2
▁servid	2
▁Venga	2
▁Macuilxochitzin	2
▁usurpa	2
▁Informa	2
▁Jose	2
tenerlo	2
▁escop	2
▁abrier	2
▁proporcion	2
▁náhuat	2
▁Delgad	2
▁Gar	2
▁cata	2
▁muñec	2
▁húmedo	2
▁acanalad	2
▁fug	2
▁flech	2
▁flecharlo	2
▁tejida	2
▁Cipact	2
▁alabanza	2
tlapech	2
▁Tezcat	2
▁Llam	2
▁XOCONOSTLE	2
▁bot	2
ánica	2
labora	2
▁My	2
▁Gus	2
▁Tole	2
▁Ol	2
▁UNA	2
▁picad	2
▁despelleja	2
▁cargaba	2
▁Tlachqu	2
posicion	2
▁acomodado	2
▁zapoteco	2
íamos	2
▁espontánea	2
uhtla	2
acat	2
▁abus	2
▁considerar	2
spas	2
▁Jac	2
into	2
▁llevándol	2
▁adivina	2
íces	2
▁vendimos	2
▁chamus	2
quina	2
▁invoque	2
▁conozca	2
▁increment	2
▁inyec	2
▁patol	2
▁cuetlax	2
bed	2
▁robust	2
▁peña	2
▁TO	2
ím	2
▁apod	2
▁partirá	2
▁miseria	2
▁dañe	2
▁sepár	2
inteuctl	2
urco	2
▁diestra	2
▁multipli	2
ombra	2
▁Inocen	2
gnate	2
▁aceda	2
▁mejilla	2
▁bandereta	2
▁carret	2
▁departamento	2
▁cens	2
▁bras	2
▁Tehuehueltzin	2
jab	2
▁Coza	2
lantla	2
▁Cuauhtzon	2
atlauh	2
teme	2
talo	2
▁electoral	2
▁caerá	2
▁rigiera	2
▁Chiapan	2
▁caig	2
▁traza	2
▁soltaba	2
▁correct	2
▁remedia	2
▁Muchísim	2
▁excelent	2
▁asustad	2
▁enojan	2
▁engendr	2
tsapot	2
▁conocí	2
ecundari	2
sij	2
▁volu	2
▁contribuye	2
▁difu	2
▁agradece	2
ráfic	2
▁teuc	2
▁Alva	2
▁moment	2
▁propi	2
ímetro	2
▁acrecent	2
▁eléctric	2
▁gas	2
ollantzinc	2
▁discordia	2
▁Chiauh	2
cí	2
TOMATE	2
▁parta	2
comprendido	2
▁posterior	2
▁contradic	2
▁angost	2
▁Icpa	2
▁tuerce	2
▁Cuahuix	2
fra	2
▁Imper	2
gradecimiento	2
reparaba	2
▁afe	2
▁bo	2
hicon	2
MAN	2
▁madroño	2
spiritu	2
▁Xacalpa	2
ceda	2
▁arrepi	2
▁plati	2
▁persigna	2
▁practica	2
Ú	2
▁VERD	2
▁istak	2
▁xono	2
ayoca	2
terre	2
oportuna	2
▁imputa	2
▁viviér	2
▁Hága	2
▁desprende	2
▁escarba	2
▁nervios	2
▁Tlatohu	2
adéce	2
▁Decid	2
obraba	2
▁aposentar	2
▁consagr	2
xalt	2
▁castellan	2
▁educativo	2
▁cuadr	2
▁bl	2
quecho	2
▁ajustar	2
▁ataviará	2
▁descubiert	2
▁afloja	2
▁Llegado	2
▁proteger	2
▁afrent	2
▁gustar	2
zahua	2
▁Tlaximaloya	2
scen	2
eyes	2
ezcatzon	2
▁envíe	2
▁ahuyenta	2
▁andá	2
goza	2
íralo	2
▁midi	2
ntonces	2
lchiuh	2
▁cimarrón	2
▁aprehendido	2
▁atrapad	2
arit	2
▁territorial	2
enedict	2
▁visite	2
▁PRIM	2
lici	2
▁Mixcohuat	2
telpoch	2
vio	2
axtla	2
▁colhuaca	2
▁Culhuac	2
iz	2
▁convida	2
▁envidi	2
▁Ji	2
▁Yeca	2
auti	2
▁Chontalco	2
▁Izc	2
cuitlap	2
▁Tlapa	2
latlauhquitepec	2
▁Hua	2
eski	2
▁atan	2
▁chaquetilla	2
▁molest	2
▁honrará	2
▁Medita	2
Qué	2
▁encomendad	2
▁Aviendo	2
▁Defen	2
▁constituy	2
rir	2
▁tost	2
▁orinar	2
▁Tehuan	2
▁proviene	2
▁esconde	2
▁lejan	2
▁Rico	2
▁temeroso	2
▁ordenarle	2
jki	2
▁vendiendo	2
▁Tlacoco	2
▁Herna	2
iere	2
zhuahuacatzin	2
▁crecid	2
▁ob	2
▁Lleva	2
▁levanten	2
▁heredera	2
uro	2
ibe	2
ueva	2
▁relampaguea	2
▁adorn	2
erdader	2
óx	2
▁NOPAL	2
▁satisfa	2
▁escudriña	2
▁Iztaccoyot	2
▁cano	2
uit	2
▁Yp	2
▁guajillos	2
▁poderoso	2
uen	2
▁haze	2
▁Pura	2
▁luci	2
▁travesaño	2
▁consist	2
▁revuelta	2
▁suplicarte	2
párense	2
▁tlatelo	2
▁Cihuac	2
▁restablecer	2
▁sostuv	2
salió	2
▁revuelto	2
▁Chichilcu	2
▁subiera	2
▁asistía	2
oral	2
▁rescatar	2
▁sirvier	2
▁certific	2
▁Tlalteca	2
▁Deb	2
▁pollito	2
▁acata	2
▁desolada	2
▁Gobernador	2
▁acompañarlo	2
bió	2
enayoca	2
ale	2
cuñado	2
▁señalan	2
▁Esposa	2
▁paradas	2
▁guard	2
▁añad	2
▁grandecit	2
▁armon	2
ioso	2
▁sumergi	2
▁kekexi	2
▁feneci	2
▁anpara	2
▁destribuy	2
▁ynstituy	2
▁afilado	2
ponen	2
mac	2
▁reverenciar	2
quizqui	2
▁mito	2
▁Tecamachal	2
ilvestre	2
▁pochtlan	2
▁Sil	2
▁promulga	2
▁Leyes	2
▁Almo	2
▁absten	2
▁enci	2
▁coma	2
▁beba	2
▁duerma	2
sol	2
provisiona	2
▁sembra	2
▁ayudarme	2
ztla	2
▁jacta	2
▁regresan	2
ció	2
▁esponjad	2
▁refugiado	2
▁chistoso	2
▁compuesto	2
tad	2
▁aile	2
▁relacion	2
ltitlan	2
gest	2
▁impre	2
sionado	2
▁hacerla	2
▁Sala	2
▁inconformar	2
niebla	2
▁cardenal	2
▁amaste	2
▁espanto	2
tero	2
▁recupera	2
ernos	2
▁vomit	2
▁Matlaccal	2
▁denominad	2
▁baldí	2
AF	2
AFA	2
▁empedr	2
▁incorpor	2
fu	2
▁rabi	2
▁definir	2
onstruid	2
▁docto	2
▁gramal	2
▁Tlailotla	2
▁Quiyeuhtzin	2
▁rellen	2
▁ahor	2
▁haziend	2
▁ensucia	2
▁permanecerá	2
▁desasosiegue	2
▁Acozac	2
▁recoge	2
▁transmiti	2
pán	2
▁yerg	2
moler	2
▁sent	2
▁muc	2
ntarnos	2
▁cuidan	2
▁sapo	2
▁secundari	2
▁provenía	2
ZA	2
UH	2
▁captura	2
ualip	2
ox	2
excal	2
▁cogerá	2
▁naveg	2
ptimo	2
▁Cozcacuauh	2
▁Cent	2
▁desprendi	2
marillas	2
▁resuel	2
eren	2
▁hubie	2
▁avanz	2
▁calpixqu	2
▁infeli	2
▁reg	2
▁pisotear	2
▁apoderan	2
▁atrapa	2
▁xili	2
▁castigaría	2
cib	2
▁disminu	2
▁manej	2
aste	2
]	2
▁dirigid	2
▁aman	2
▁vagabundo	2
▁culpable	2
▁homicid	2
▁estudian	2
car	2
▁dialogan	2
▁Tezcac	2
▁maestra	2
▁rentar	2
▁capul	2
▁aromática	2
▁cur	2
▁bue	2
▁Yzquixochiqu	2
▁Ech	2
▁alia	2
▁desforest	2
▁llamé	2
esto	2
ificar	2
tomó	2
EGUN	2
cen	2
▁ingre	2
diente	2
▁pepita	2
truy	2
UR	2
▁CHI	2
COME	2
COAT	2
▁materia	2
oya	2
teuhc	2
dalgo	2
▁caminata	2
ducción	2
▁cogi	2
▁genuina	2
▁Sufre	2
ayunaba	2
▁Macuilx	2
▁Rica	2
▁plane	2
▁habiéndo	2
▁acompaña	2
▁Toz	2
▁Xoc	2
▁top	2
▁zafar	2
onaba	2
tetl	2
stado	2
lexan	2
tí	2
pac	2
▁Abre	2
▁CI	2
UIL	2
áselo	2
mpl	2
▁call	2
rgánica	2
▁expid	2
▁distribuir	2
▁Secretaría	2
▁entidad	2
terio	2
▁reduci	2
bra	2
▁simula	2
▁servi	2
EMP	2
▁llevare	2
▁soltar	2
▁revis	2
▁dársela	2
▁pág	2
vidad	2
▁aberigu	2
▁determine	2
▁hosti	2
▁generos	2
▁chism	2
▁valida	2
▁enumera	2
▁corri	2
▁mezcl	2
▁llámalo	2
▁hubiér	2
▁preparati	2
▁repos	2
▁limit	2
xa	2
esgraciad	2
▁sencilla	2
mbl	2
▁refi	2
agnífico	2
cible	2
▁cenicient	2
▁vigesimo	2
▁Píde	2
▁Susténta	2
▁faja	2
▁revient	2
▁Bajar	2
▁discre	2
▁maciz	2
hueco	2
OC	2
zate	2
▁chilacayot	2
▁segui	2
▁corpulento	2
▁notifi	2
▁variedad	2
▁encerraba	2
▁estimada	2
aiko	2
▁Cárde	2
▁mojar	2
olorado	2
tima	2
▁Esp	2
▁aceta	2
zgo	2
▁Oí	2
▁Tecuict	2
arca	2
▁defendía	2
▁Cuauhx	2
▁sospechan	2
▁navaji	2
▁devoto	2
ebre	2
cencia	2
▁entendid	2
▁berdader	2
bata	2
▁presenta	2
uillo	2
▁post	2
rimera	2
▁adivinan	2
▁malacate	2
▁abusa	2
epí	2
úsquenlo	2
▁testament	2
huaca	2
TEC	2
▁Treintai	2
▁disfrut	2
▁representativa	2
valua	2
▁consumi	2
uél	2
▁fenes	2
▁salier	2
ubier	2
▁misterio	2
▁cudicia	2
▁hurta	2
uaochpa	2
▁Tlacochint	2
▁ig	2
▁ocasion	2
▁inocen	2
▁batid	2
▁sospecha	2
rar	2
cólotl	2
becilla	2
▁horr	2
izado	2
▁rebosa	2
▁colorado	2
rada	2
▁tormenta	2
tapalapa	2
nueve	2
▁ynforma	2
▁roto	2
▁unir	2
▁investigar	2
lejado	2
▁cerradura	2
▁bald	2
▁Jua	2
tepixque	2
▁Escrib	2
▁Xicó	2
▁resta	2
▁Pu	2
rifica	2
▁ind	2
▁mantel	2
▁Apena	2
▁iz	2
titl	2
▁Techinan	2
uper	2
▁Pónga	2
cavaba	2
aye	2
▁constituir	2
▁decreta	2
▁labor	2
▁tafet	2
▁sacude	2
tec	2
▁lanz	2
▁Cuauhpopocat	2
▁durazno	2
stando	2
▁aletea	2
▁glorificado	2
acaltzin	2
rod	2
▁traduci	2
▁emparej	2
MIMI	2
zan	2
▁agujerito	2
pone	2
▁gritan	2
▁vivamos	2
EGR	2
▁estab	2
▁trasquila	2
▁esparc	2
▁cabal	2
▁Cuauhpilo	2
▁muchach	2
▁Sale	2
▁sonaba	2
▁tremen	2
▁estropea	2
olócat	2
ecan	2
▁aviéndo	2
érg	2
▁Villag	2
urna	2
TA	2
▁Acompaña	2
▁Pluma	2
▁sosten	2
▁inmensa	2
▁crim	2
▁Acalcal	2
▁Tha	2
_	2
▁turbe	2
▁temas	2
▁vendiése	2
▁Tocuilteca	2
yau	2
egoría	2
▁grandecitos	2
ren	2
▁beneficiado	2
▁obten	2
▁enriquecer	2
▁compensa	2
ublado	2
AC	2
▁villa	2
calidad	2
paricio	2
▁guerrera	2
▁gozaba	2
▁postre	2
zteca	2
▁otorgad	2
▁Tlecuil	2
▁Atizap	2
zozo	2
lteca	2
erraba	2
▁graznar	2
dio	2
▁adviert	2
▁recostad	2
▁QUINTO	2
poyo	2
▁Cuauhtl	2
guacat	2
▁someter	2
▁comis	2
R	2
ED	2
ADOR	2
▁cultiv	2
lít	2
▁reblandec	2
▁Deja	2
▁sacra	2
▁pareci	2
▁mantenerl	2
▁incen	2
diaron	2
▁revesti	2
▁Aut	2
▁tirarlo	2
▁divirt	2
▁uits	2
▁recordarle	2
cimos	2
ical	2
pina	2
▁Tep	2
▁nono	2
▁procura	2
▁décim	2
▁pedí	2
▁daría	2
▁temiendo	2
▁trabajador	2
quietud	2
▁precipit	2
abeza	2
▁rabia	2
▁ampu	2
▁cultib	2
▁despert	2
▁reúno	2
ini	2
▁gal	2
▁apresuraba	2
▁fortalecer	2
▁doloroso	2
hco	2
azos	2
▁soberano	2
rto	2
avor	2
▁arrastr	2
brí	2
▁agregado	2
▁desaparecía	2
entan	2
▁supera	2
▁exalta	2
▁xa	2
▁descen	2
▁calenta	2
▁borla	2
▁Oct	2
▁Dic	2
▁atravesar	2
▁sopl	2
▁viril	2
▁tranquiliza	2
▁Cocol	2
▁acuesta	2
▁argumento	2
▁desaparec	2
nadie	2
epartamento	2
▁Basti	2
▁certificaci	2
ayacámach	2
▁removi	2
ibro	2
▁sacarlo	2
▁fortalece	2
ilidad	2
▁Chalchi	2
▁Queza	2
▁friazo	2
convenido	2
▁recogiera	2
masa	2
▁preguntada	2
lática	2
▁tejo	2
▁limitaba	2
▁bru	2
▁Tzinancantla	2
▁Tecpantla	2
petate	2
▁honrar	2
▁acusado	2
▁roll	2
▁Aquél	2
▁Gén	2
▁huerfanit	2
está	2
▁resolverá	2
▁suscite	2
▁violen	2
▁vul	2
usia	2
▁Bo	2
▁Encontr	2
▁Ayauhcal	2
▁ocupan	2
▁sangrar	2
itz	2
buena	2
▁domin	2
▁patron	2
▁ciñe	2
▁sacándol	2
▁cargador	2
PE	2
▁enterr	2
▁manchada	2
▁Ing	2
▁tabern	2
chos	2
jko	2
esma	2
▁vivas	2
▁Mictla	2
▁encenderá	2
▁ataví	2
▁vendamos	2
ortilla	2
▁comandante	2
▁realizan	2
IX	2
nde	2
▁respo	2
▁interi	2
XTO	2
▁Bra	2
▁preparados	2
▁embri	2
▁Mixcoa	2
lpan	2
▁Iz	2
▁ynform	2
▁venderíamos	2
pondrá	2
▁Invita	2
▁entorpece	2
▁obedecido	2
ífic	2
▁Mac	2
▁coro	2
▁Tene	2
▁conta	2
uitl	2
▁ducient	2
dora	2
▁nac	2
imatilulc	2
lico	2
▁válid	2
▁Otorg	2
bert	2
uacan	2
▁trigueñ	2
ila	2
chas	2
▁vist	2
▁excesiv	2
▁concib	2
▁Beb	2
▁Tened	2
riamente	2
▁subsiste	2
ztapalapa	2
▁punt	2
▁vuelva	2
▁diseña	2
▁engrandecer	2
▁Alej	2
▁Tepant	2
▁Meca	2
▁recatada	2
ija	2
▁resguarda	2
▁protegerá	2
▁mer	2
idiana	2
▁divis	2
oria	2
▁cortarla	2
▁anoche	2
zcapotzalc	2
álo	2
▁siéntate	2
▁adopt	2
▁soporta	2
▁amas	2
▁arrodilla	2
rededor	2
uhy	2
▁Xip	2
tlil	2
▁Calp	2
▁dier	2
▁BLANCO	2
JON	2
▁aprende	2
▁sacada	2
▁crónica	2
▁gobe	2
▁Estuvi	2
▁Trabajan	2
▁deuda	2
EDI	2
▁discurría	2
▁MAZOR	2
▁Tranquil	2
cual	2
▁compon	2
hualco	2
▁Ixmatlat	2
▁Lim	2
▁apoya	2
venga	2
color	2
▁escuchan	2
▁sostener	2
pital	2
cíclica	2
▁humean	2
▁Chiqui	2
▁sant	2
▁Sem	2
▁riqu	2
ompa	2
▁prepare	2
▁Despu	2
▁Teci	2
▁Momau	2
órgano	2
=	2
sequia	2
▁festivo	2
sangren	2
▁brinca	2
▁inmu	2
erío	2
▁establecida	2
▁desvel	2
▁compadece	2
▁chamusc	2
▁achac	2
llado	2
ibu	2
urría	2
LAHUA	2
▁inclinada	2
▁Xilot	2
▁camot	2
▁desfallezc	2
sula	2
▁Chico	2
▁Tor	2
▁Nexpa	2
zcac	2
▁pusie	2
▁XOCOYOL	2
▁gu	2
▁catedral	2
▁Legislat	2
▁iniciativa	2
▁presentada	2
mite	2
▁fastidiaron	2
▁convirtiera	2
huitzo	2
▁distintiv	2
▁intentar	2
pal	2
▁Llev	2
pagaba	2
▁prende	2
▁extravia	2
dij	2
▁barb	2
▁liso	2
▁apreciar	2
▁regente	2
▁lechuza	2
cieron	2
▁Primera	2
▁Nana	2
▁bendic	2
▁favorece	2
▁desesperación	2
▁Respond	2
▁felic	2
▁ofuscad	2
▁coyol	2
Esta	2
▁gritar	2
▁trague	2
ontaña	2
▁etnia	2
ñ	2
▁puré	2
maya	2
▁zapoteca	2
▁pantanos	2
▁arbitrari	2
mul	2
▁tenerlo	2
▁roman	2
▁fabrican	2
▁marchaba	2
▁trabajado	2
▁Yancu	2
▁revelar	2
▁ofusca	2
▁Uitz	2
▁observar	2
▁adve	2
▁desistier	2
izquit	2
▁Fuiste	2
bandonar	2
▁Ville	2
▁labrava	2
▁vig	2
cuá	2
mulo	2
▁Xoconoch	2
cequi	2
▁kam	2
▁extingui	2
▁estudia	2
▁diaria	2
▁viviste	2
envolvía	2
▁fundament	2
ierne	2
▁Ipalnemoan	2
▁puñ	2
▁asienta	2
ato	2
taro	2
ora	2
uli	2
▁llévate	2
▁Cuapp	2
▁coti	2
diano	2
P	2
encatl	2
ongo	2
macuex	2
poli	2
▁Atzaqualc	2
▁Tec	2
▁Tezcatlami	2
▁machete	2
▁rompe	2
▁asesinato	2
▁neblin	2
▁Toztecaci	2
▁Pantla	2
▁viviréis	2
▁Poyauh	2
▁Johan	2
emite	2
▁embarc	2
▁mene	2
▁Ezt	2
celopan	2
avid	2
istas	2
BR	2
APL	2
quiz	2
▁Cuauhtzi	2
▁Quetzalcuauh	2
▁admite	2
▁sentenci	2
▁fijado	2
considerad	2
▁Cuitlachc	2
caer	2
▁murmura	2
▁Tecuic	2
itli	2
▁Ometocht	2
▁Tlax	2
▁Chapol	2
▁capi	2
rotes	2
▁lind	2
▁obscurecer	2
▁conveniente	2
▁entristecía	2
▁sitiar	2
erse	2
▁cuidaste	2
arlos	2
uda	2
rriba	2
▁Acat	2
▁inclui	2
hiauht	2
▁negligen	2
▁Descans	2
▁Tzonpanteuctl	2
▁Tepiltz	2
otzom	2
▁inquietud	2
▁pasajero	2
▁arrepient	2
▁pront	2
▁escuchará	2
nio	2
▁soñ	2
▁chiquill	2
▁enlaza	2
▁elegante	2
bus	2
▁aterra	2
hual	2
▁reí	2
▁burlado	2
▁Comandan	2
▁campamento	2
▁barri	2
▁culturas	2
▁precolombino	2
▁históric	2
▁extiéndete	2
▁Regala	2
▁germinan	2
▁actua	2
▁acuátic	2
uita	2
icas	2
▁bin	2
▁Cuezcomatliy	2
▁Matlatl	2
▁Cuezal	2
▁Cuextecat	2
▁Cap	2
▁deterior	2
▁pares	2
▁viole	2
▁XXX	2
▁diab	2
▁rever	2
gue	2
▁primoros	2
▁subordinado	2
▁jud	2
▁responsabilidad	2
▁inmi	2
gra	2
▁tar	2
jeta	2
▁forjar	2
▁prontamente	2
duc	2
▁comanda	2
▁vivieran	2
ámoslo	2
azareno	2
ihuapilli	2
▁mecate	2
▁apaciguar	2
▁lanzad	2
▁Portento	2
▁arrojado	2
chpuch	2
▁Precio	2
▁puñado	2
timo	2
▁anochec	2
▁Acap	2
▁reclama	2
▁atiende	2
▁contradicion	2
▁alarm	2
▁transcribi	2
▁aprecia	2
▁teucpil	2
▁mauiztla	2
▁Docto	2
rador	2
egue	2
▁impong	2
▁múltiple	2
▁lápi	2
▁pidiéndole	2
ócalo	2
▁ruégale	2
▁maleta	2
▁instruía	2
oc	2
▁ubica	2
▁retirada	2
calteca	2
▁teponazt	2
▁xiuhc	2
ticpac	2
nía	2
ak	2
▁Epcohuat	2
▁Coz	2
▁correspondi	2
▁platica	2
▁Tlal	2
▁resu	2
oyol	2
▁Coat	2
▁aguarda	2
▁estime	2
▁encontrara	2
▁fragan	2
▁Cha	2
▁agitad	2
▁exaltado	2
▁envolv	2
▁calentarl	2
▁emociona	2
▁pañuelo	2
potonqui	2
▁teoc	2
▁Corre	2
colhuaca	2
icana	2
▁merca	2
buela	2
▁prohibida	2
▁Fuer	2
▁jugaba	2
▁Lloraba	2
séptimo	2
criado	2
▁compro	2
▁anul	2
▁obediente	2
otor	2
pero	2
▁crí	2
▁eduque	2
▁Tuviste	2
▁Xico	2
téncatl	2
tur	2
víste	2
yacente	2
▁TERCER	2
,	2
▁Tzonpan	2
▁Hagámo	2
▁turba	2
ntiguo	2
▁pellejo	2
▁Totoz	2
uat	2
cua	2
▁broten	2
▁curiosa	2
acxo	2
icu	2
▁separ	2
▁nue	2
alixtlahuaca	2
▁afrentar	2
▁reclu	2
▁mandase	2
yente	2
repú	2
culo	2
▁funestos	2
▁sobresal	2
▁deshonr	2
▁trans	2
▁candelero	2
▁permíta	2
▁invitar	2
▁descuartiz	2
▁estimab	2
▁Llegar	2
dispensa	2
▁rece	2
▁Zapot	2
▁Texcal	2
▁Cuauhtenampa	2
▁satisfacer	2
▁Sob	2
▁Teuhcho	2
TRI	2
▁REL	2
▁Veinti	2
▁vacío	2
▁mastica	2
▁induc	2
alada	2
▁Xiuhc	2
▁acab	2
▁distrae	2
▁atas	2
▁tlaxilacal	2
prendido	2
gular	2
▁lléven	2
▁encarn	2
▁teji	2
▁Molan	2
▁Coy	2
cale	2
▁Coyol	2
▁Huitztla	2
cuitla	2
▁roda	2
▁estuve	2
▁infie	2
▁sahum	2
▁pretexto	2
ollo	2
▁circunstancia	2
graciada	2
▁distin	2
articula	2
pel	2
▁refinad	2
▁vel	2
▁vain	2
▁constar	2
▁ofrendador	2
▁locura	2
▁organizado	2
▁hom	2
alicia	2
▁labrar	2
tito	2
▁desdeña	2
▁conviert	2
▁protector	2
▁Chichicuepon	2
▁manifestará	2
zonpan	2
▁veh	2
trech	2
▁mensual	2
▁efe	2
▁dividía	2
▁adorarl	2
▁chane	2
enez	2
▁Migue	2
▁alcoh	2
▁encerrarlo	2
▁Temalaca	2
auhtitlan	2
sion	2
rlos	2
▁ayun	2
▁engañ	2
UN	2
▁precedi	2
▁Tzonmol	2
▁autor	2
▁Cel	2
anitzi	2
▁asistente	2
▁confía	2
▁trax	2
▁temporada	2
▁inmundicia	2
dic	2
qu	2
iéntate	2
ápida	2
▁proces	2
bu	2
olf	2
gang	2
▁perforad	2
kuouj	2
nunciaba	2
▁restituye	2
▁sembradío	2
▁Telpo	2
derno	2
estar	2
▁punza	2
▁Atlixel	2
cama	2
empoa	2
lia	2
suso	2
▁reflexion	2
▁dotarte	2
▁mixcólotl	2
▁permanecía	2
▁recordó	2
▁decid	2
luvia	2
aballero	2
▁proclam	2
▁divida	2
▁papalo	2
▁promesa	2
▁Cab	2
▁tlacuilo	2
▁ros	2
▁mandas	2
▁aprov	2
ava	2
▁bale	2
▁persuadir	2
▁Reconoc	2
máza	2
abell	2
▁arrend	2
▁biv	2
▁herrero	2
▁Pí	2
▁Cipactl	2
stía	2
▁borbo	2
lazado	2
▁bienvenid	2
jus	2
▁tapó	2
ransfiguraci	2
▁tibio	2
OJ	2
▁XIP	2
▁Tulan	2
▁Otum	2
▁Tez	2
▁llevándole	2
lat	2
▁perdiera	2
tecuht	2
▁despojar	2
yos	2
▁gordita	2
▁mostra	2
maxtl	2
MORA	2
forme	2
▁rajad	2
▁sincer	2
▁Sába	2
pég	2
▁Pod	2
▁inventado	2
▁leí	2
▁apacible	2
▁tejamanile	2
▁seren	2
edazo	2
▁lanzar	2
huaste	2
erbita	2
▁desperta	2
aciones	2
rcole	2
▁MI	2
▁FLORES	2
▁YO	2
▁defendier	2
▁estam	2
▁torcida	2
▁cultivaba	2
▁acusar	2
pitz	2
réi	2
zaga	2
bes	2
cesaria	2
▁obligarla	2
sediad	2
▁odiada	2
▁lucid	2
Yo	2
tiago	2
▁rompa	2
▁fuma	2
▁corpora	2
▁Príncipe	2
▁desmay	2
▁Tuvi	2
▁apac	2
entado	2
▁ray	2
auh	2
▁Xocot	2
ámo	2
▁senor	2
▁suena	2
▁escarn	2
▁resolvier	2
▁beb	2
atólic	2
▁remuneraci	2
▁michhua	2
▁Guerrera	2
▁cordel	2
negará	2
prueba	2
▁Franc	2
▁Argue	2
mat	2
▁prendiere	2
▁endur	2
▁galan	2
argado	2
▁narr	2
arrón	2
▁pudri	2
▁TSOJPI	2
ivisteis	2
▁derruid	2
▁creía	2
lub	2
▁respet	2
▁candelera	2
▁mosaico	2
▁sangramiento	2
egro	2
barca	2
▁compadec	2
▁uva	2
▁machac	2
▁Pareci	2
▁Sev	2
astian	2
quillo	2
▁colga	2
Ante	2
▁Corrier	2
▁Chu	2
ru	2
▁preci	2
ERBA	2
UE	2
Y	2
▁concedida	2
auro	2
LOP	2
▁prestad	2
▁cantá	2
▁concedid	2
tlacuilo	2
▁plebeyo	2
▁aprovech	2
▁gateando	2
htzin	2
▁Apóstol	2
▁desarroll	2
▁unida	2
▁esmeraba	2
▁desayunaba	2
▁capellan	2
▁ajeno	2
▁mate	2
▁Tepech	2
▁conceder	2
▁húmed	2
íri	2
tio	2
▁yace	2
▁consuegro	2
ahualco	2
erio	2
▁Cem	2
▁Atlan	2
oyáhu	2
roga	2
rón	2
▁apagar	2
enardec	2
▁confesaba	2
▁practicaba	2
▁devolvi	2
▁exhibía	2
▁encendida	2
▁Xiu	2
▁andubie	2
▁oir	2
tre	2
▁ajolote	2
equihua	2
▁caxa	2
▁volar	2
▁prometi	2
▁ynquieta	2
▁afanos	2
▁fierro	2
▁amontona	2
▁chiapan	2
tlal	2
▁trabaje	2
▁aprendiera	2
▁forj	2
bajos	2
▁entretejid	2
▁cuelga	2
▁Tij	2
▁PRI	2
▁cortarlo	2
▁culebr	2
▁hicie	2
▁ji	2
▁extender	2
▁compart	2
▁despedida	2
▁consagrad	2
▁Muerto	2
▁envenena	2
▁oya	2
▁tojmi	2
cese	2
ár	2
coche	2
▁decretad	2
▁bar	2
°	2
▁empleado	2
divina	2
▁acechan	2
▁tron	2
rregla	2
▁honrarlo	2
▁dán	2
▁divierte	2
▁amarillar	2
▁excav	2
urland	2
izna	2
▁amarrar	2
scondida	2
▁jarro	2
▁Pan	2
▁Cris	2
ICO	2
rla	2
▁quisiese	2
capacidad	2
▁aterrar	2
pote	2
▁nutri	2
▁Perf	2
▁trastorna	2
▁señoria	2
▁quart	2
numera	2
▁cuer	2
ayan	2
▁Cuauhpoyahua	2
▁Nentlamati	2
▁Zanat	2
ndios	2
ciado	2
eyacan	2
▁progres	2
▁maravilla	2
senal	2
▁expuest	2
zada	2
▁paladea	2
▁Itztlo	2
▁morr	2
▁bombear	2
▁machaca	2
▁All	2
ADOS	2
▁sostene	2
rmela	2
▁cerillos	2
▁acuchill	2
▁merec	2
▁term	2
▁alancea	2
"	2
▁ge	2
▁lancha	2
▁rema	2
▁defi	2
him	2
▁tz	2
▁Nu	2
▁poblad	2
actancio	2
▁apari	2
▁apalea	2
▁vigor	2
▁saldr	2
rando	2
▁complacid	2
▁decí	2
▁robaba	2
ecían	2
▁perturbar	2
▁vendiéndo	2
▁Zima	2
fuerza	2
▁benepl	2
ive	2
▁Huejo	2
▁pronunciaba	2
▁amar	2
▁Cuauhtep	2
omo	2
st	2
ógrafo	2
▁prole	2
ordinado	2
mbient	2
▁vestid	2
▁recorrie	2
xico	2
▁Poch	2
▁sofoc	2
▁consecutivo	2
▁Galile	2
▁remontar	2
▁afecta	2
ladar	2
ijo	2
▁besar	2
▁recit	2
▁costeño	2
▁hui	2
ecto	2
▁conferi	2
▁demand	2
▁juzg	2
▁volve	2
imá	2
▁ajuste	2
▁Rum	2
▁determinada	2
▁llenando	2
▁recibirla	2
▁respondo	2
ple	2
asado	2
▁solter	2
niente	2
cind	2
▁salpicado	2
▁Azt	2
oxochitl	2
▁partícipe	2
▁ofrend	2
▁fundamento	2
▁limpien	2
▁apropi	2
▁POR	2
FI	2
IDEN	2
CA	2
DI	2
▁exhibir	2
▁profier	2
▁int	2
▁perdon	2
▁Tlatz	2
▁marques	2
▁distingue	2
▁Siguie	2
▁Medi	2
úda	2
▁identificad	2
▁remit	2
▁izcahuit	2
▁axa	2
▁Período	2
OMO	2
epan	2
xouh	2
▁curan	2
▁reprendía	2
▁vent	2
▁dejaré	2
▁lazo	2
▁Oztoma	2
▁refuerz	2
▁vej	2
▁Habl	2
sigui	2
chiu	2
▁ki	2
▁k	2
emej	2
▁azot	2
▁siguier	2
▁dialoga	2
▁consagrar	2
▁kik	2
▁desag	2
▁diverti	2
ect	2
▁amad	2
lya	2
éntamelo	2
▁Toc	2
▁abd	2
omen	2
▁habitan	2
▁pule	2
▁Top	2
▁Seguía	2
▁miraba	2
▁Xiuhnel	2
▁tropie	2
lti	2
▁agrada	2
▁tradicion	2
▁frai	2
▁ES	2
TIG	2
▁TRA	2
▁mérito	2
chca	2
▁mon	2
▁dirigen	2
▁mant	2
▁percibí	2
▁disputa	2
▁lavará	2
▁lloras	2
apítulo	2
ehua	2
lotea	2
▁inf	2
▁proteg	2
▁represent	2
▁amenazada	2
▁Tenu	2
onimo	2
▁magna	2
▁precipitaba	2
yma	2
ixto	2
lmorza	2
cam	2
uecuex	2
adores	2
▁imponen	2
▁barca	2
rtido	2
▁sufría	2
▁fácilmente	2
▁obedeci	2
ortar	2
▁guardará	2
▁piados	2
lleg	2
▁redes	2
▁perseguirlo	2
▁benévol	2
▁Guad	2
▁ensaya	2
▁Regi	2
staba	2
▁establece	2
▁cobraba	2
▁salí	2
ochteca	2
▁cumplí	2
▁glorios	2
▁imponerle	2
▁carn	1
teotl	1
decir	1
▁presentara	1
quan	1
▁nonbrad	1
ígal	1
néc	1
▁gala	1
noci	1
▁Teto	1
riquez	1
liza	1
▁Huixa	1
▁Ipalnemo	1
▁quant	1
imas	1
ogra	1
▁heri	1
▁poni	1
írve	1
rrán	1
lima	1
estro	1
déja	1
▁doran	1
▁disciplinar	1
▁impon	1
▁sorprendier	1
iban	1
▁malaca	1
azgo	1
abuelo	1
gol	1
fier	1
▁glo	1
alles	1
▁inqui	1
▁relat	1
▁explic	1
▁reverenciad	1
azada	1
movió	1
menor	1
▁funda	1
levado	1
▁instrui	1
▁Regál	1
▁besa	1
▁acc	1
▁Nezahual	1
auhtla	1
entiende	1
▁riñ	1
▁profi	1
▁Tezontlal	1
vuestro	1
LTO	1
MAR	1
▁alegraba	1
▁acepta	1
adura	1
bri	1
enviado	1
▁Org	1
▁oprim	1
▁esclaviza	1
rva	1
▁huev	1
ecillo	1
▁chichi	1
▁esforz	1
lgada	1
▁padecim	1
aís	1
▁fuer	1
▁funcionar	1
olpe	1
cuece	1
▁Izta	1
▁desempeña	1
▁Regála	1
▁adquiri	1
▁med	1
▁trei	1
▁realizará	1
▁interroga	1
rle	1
recí	1
▁concede	1
ája	1
▁dif	1
▁suspender	1
▁ajust	1
▁excu	1
maste	1
▁menosprecia	1
▁retu	1
▁vay	1
▁atavia	1
▁avergonzar	1
▁trafican	1
▁emprendier	1
▁esconda	1
elampague	1
panxo	1
▁Zu	1
molió	1
udi	1
▁imponer	1
▁contribu	1
▁potencia	1
▁extranjer	1
inente	1
▁inmediata	1
▁granje	1
ueyo	1
▁aband	1
tlapal	1
▁sepá	1
poblado	1
sali	1
uj	1
uak	1
ilit	1
▁ordena	1
ermit	1
huahuacatzin	1
▁encubiert	1
▁cubr	1
nandez	1
▁ahorcad	1
▁aplic	1
▁cometido	1
quien	1
esquina	1
▁hurt	1
▁pagaría	1
▁estremec	1
▁comenzara	1
scripci	1
eotenanc	1
namacoya	1
▁Cahualt	1
chime	1
▁topil	1
▁Vo	1
▁Tomar	1
ercer	1
▁destruyer	1
▁Huitzilop	1
▁Quimicht	1
▁Cuahui	1
▁repi	1
mal	1
▁bala	1
▁persigue	1
▁imagina	1
▁cazuel	1
▁Tlaltec	1
▁aliar	1
▁angarilla	1
▁sop	1
▁regula	1
▁Yoh	1
mixcohua	1
mich	1
▁hizier	1
▁sacudir	1
▁Mu	1
onasterio	1
usto	1
venir	1
entencia	1
▁Só	1
foc	1
IT	1
ABA	1
VE	1
▁Tran	1
▁habé	1
rsela	1
eycito	1
▁Sena	1
▁difer	1
▁obedecía	1
vario	1
▁interes	1
ign	1
um	1
tepet	1
maro	1
▁Ycquixochit	1
emil	1
huite	1
servicio	1
▁convo	1
▁Chichicuepo	1
cial	1
fiesta	1
tentoso	1
▁defendi	1
chitecutl	1
Chalchiuhmomoztl	1
▁Cotz	1
oló	1
▁DU	1
boca	1
▁desech	1
▁colindan	1
▁obl	1
uahuit	1
▁corrid	1
vac	1
edim	1
tenimiento	1
▁respetado	1
▁ranch	1
cendido	1
▁entibiar	1
▁chisp	1
▁ilumin	1
huito	1
▁partid	1
▁palaci	1
▁embajad	1
▁Ru	1
▁desasosega	1
▁Coc	1
▁Xacal	1
▁bendid	1
▁defens	1
▁Tendré	1
▁reserva	1
▁revisti	1
▁elect	1
icidad	1
voluntarios	1
peyac	1
conozca	1
Tomas	1
▁Tecama	1
▁CH	1
STI	1
quitepec	1
▁ochoci	1
ntas	1
rándolo	1
▁Teca	1
▁cuev	1
▁conej	1
▁tepoz	1
▁multiplica	1
arde	1
▁Tlach	1
▁llorará	1
▁insist	1
▁exclaman	1
▁TAL	1
TOMAT	1
IJ	1
OYO	1
KK	1
▁guisa	1
▁cuy	1
dado	1
▁tepam	1
ejó	1
▁past	1
▁tie	1
▁litiga	1
▁toro	1
jet	1
dios	1
quitec	1
yunta	1
mbo	1
ld	1
cioso	1
▁espere	1
otomihuaca	1
▁cava	1
▁leva	1
yotes	1
▁abrasad	1
▁administraci	1
▁acuerde	1
▁decapitar	1
▁agradeci	1
▁agacha	1
muy	1
siguiente	1
▁nacier	1
iero	1
▁complac	1
▁repa	1
▁Tequixqu	1
icho	1
cerá	1
▁envilece	1
▁tratad	1
allará	1
jaban	1
xot	1
spereza	1
▁espér	1
amarg	1
incuent	1
tribuir	1
▁keke	1
▁molid	1
iaré	1
▁revist	1
▁mejora	1
▁Siembr	1
levar	1
▁extens	1
Su	1
lhua	1
sosieg	1
▁desgran	1
▁Matlac	1
arc	1
ayauh	1
▁aborrecer	1
▁sustente	1
▁pláta	1
evántense	1
erv	1
▁sobrin	1
▁discret	1
activo	1
▁desperdi	1
▁viviend	1
dale	1
▁marchan	1
▁sospech	1
yahui	1
varon	1
▁estu	1
grada	1
▁instruy	1
and	1
turna	1
▁lastimar	1
▁poniéndole	1
palito	1
yztacapa	1
xquipan	1
spañol	1
▁rel	1
▁obst	1
inado	1
vier	1
▁andrajo	1
tlayáca	1
▁invocan	1
▁viviré	1
iroso	1
meterá	1
vaya	1
▁vid	1
▁bebed	1
rijol	1
▁clas	1
ifica	1
▁document	1
vangeli	1
tavo	1
azco	1
nga	1
ong	1
▁cuad	1
▁ampara	1
▁resbal	1
flor	1
▁desayu	1
zcu	1
▁espantos	1
▁resiste	1
hcalca	1
▁llamaré	1
▁crucifica	1
▁destruid	1
elada	1
▁mej	1
mek	1
▁codorn	1
▁diviert	1
chol	1
▁supli	1
pudi	1
▁publicado	1
designa	1
quedado	1
cue	1
ézca	1
▁futur	1
INTO	1
▁negoci	1
▁desdicha	1
▁tesoro	1
unda	1
álida	1
▁matará	1
▁nuest	1
lnahua	1
tilli	1
▁clásic	1
▁llenad	1
ment	1
sciende	1
▁Dí	1
▁cerillo	1
rosa	1
▁camell	1
arnos	1
▁aleja	1
isponga	1
▁Be	1
matliya	1
▁Tepecua	1
pílca	1
▁Tepep	1
ontitlan	1
▁Cuappa	1
▁Coatli	1
▁disponga	1
tóma	1
cal	1
▁Cuáuhque	1
ualquiera	1
▁human	1
quemado	1
▁sintier	1
▁xok	1
opoch	1
cehual	1
▁Go	1
mera	1
spinosa	1
nció	1
ordina	1
ervicio	1
oamerican	1
▁ruég	1
malin	1
▁Ixtlilx	1
▁baje	1
▁favo	1
▁ocasiona	1
suadir	1
secó	1
▁Oro	1
▁acércala	1
▁golpea	1
▁Agrad	1
acha	1
▁Chim	1
varios	1
ienta	1
resupuesto	1
▁determinad	1
eniza	1
icia	1
▁herman	1
▁alum	1
hem	1
filiac	1
raga	1
F	1
AGA	1
drecita	1
ceb	1
RES	1
ave	1
▁andará	1
▁oua	1
▁celebra	1
rten	1
▁epi	1
copal	1
▁mazorquita	1
▁kuouj	1
elot	1
▁sobrepon	1
▁doscient	1
▁menudit	1
▁bienaventura	1
nza	1
▁Sufri	1
viésemos	1
▁enfad	1
▁perteneci	1
▁sustitu	1
▁dam	1
▁or	1
▁símbolo	1
tlachinoll	1
▁ceñid	1
tenedor	1
ynos	1
▁Conce	1
rtémo	1
▁lléva	1
ntercede	1
▁ballest	1
alnamacoya	1
▁Rom	1
▁derro	1
▁volv	1
VER	1
lotlac	1
▁Ezhuahuacat	1
▁Huit	1
ilí	1
▁agre	1
aixtlahuaca	1
▁Chiconc	1
▁Yau	1
▁Tepalc	1
xtla	1
▁Quiyauht	1
▁Huei	1
ixitl	1
▁vestiment	1
▁exprim	1
tlatlauhqui	1
▁suplicará	1
▁morad	1
▁dedique	1
▁entere	1
▁trein	1
▁algui	1
▁Bauti	1
▁indíge	1
▁condu	1
▁Cholo	1
▁huel	1
▁Teote	1
▁Cuída	1
▁circular	1
ares	1
▁Acue	1
ji	1
▁falles	1
▁Xim	1
▁Motelchiu	1
▁cart	1
ucho	1
▁matan	1
▁pierda	1
▁quié	1
▁Art	1
hace	1
ué	1
▁Miyahua	1
if	1
▁regid	1
hará	1
cruci	1
▁pusi	1
aternidad	1
siempre	1
cemos	1
▁prisione	1
▁escaramuzar	1
lome	1
▁much	1
▁banquet	1
ecito	1
nvocaba	1
▁votar	1
uoso	1
▁poniéndo	1
rgar	1
solada	1
muchos	1
▁cuidadosa	1
▁testi	1
monio	1
▁informaci	1
▁demor	1
▁Mizquit	1
bería	1
rueco	1
nez	1
▁Tre	1
mec	1
▁desolad	1
▁ór	1
▁fallesc	1
▁tope	1
▁perjudica	1
entamente	1
▁difun	1
▁muel	1
▁Xochip	1
apa	1
uía	1
lpopoca	1
▁humillar	1
▁tepan	1
erren	1
▁clare	1
▁Trans	1
fina	1
▁Apres	1
icha	1
▁Calixt	1
▁disgusta	1
▁perecie	1
▁disfraz	1
▁prim	1
▁celebraba	1
▁Rec	1
▁inventar	1
▁adjudica	1
patadas	1
▁mage	1
alegra	1
▁cihuatl	1
▁prefi	1
▁censura	1
olvido	1
rzobispo	1
▁dipu	1
▁despa	1
olgar	1
▁inquiet	1
comandante	1
ine	1
igen	1
▁desplegar	1
▁acortar	1
ezcomaixtlahuaca	1
▁prosegu	1
▁Cuat	1
apel	1
▁Estad	1
og	1
nito	1
▁conpra	1
érse	1
clar	1
▁BLANC	1
recido	1
▁maltrat	1
mecac	1
▁import	1
▁agres	1
▁central	1
▁dejá	1
penetra	1
▁Pav	1
▁poseci	1
▁justic	1
yzt	1
▁obe	1
▁huérfan	1
▁voltean	1
▁Cual	1
iris	1
▁Totolimpa	1
▁Constituci	1
▁solí	1
sobre	1
▁centa	1
▁levánten	1
▁Cui	1
▁refugi	1
max	1
tristez	1
▁interesar	1
IXCO	1
▁Macuilmal	1
rectament	1
hacen	1
▁Tecp	1
amacoy	1
▁Huet	1
▁desazolv	1
▁prolonga	1
▁gobie	1
yahuaca	1
▁edifi	1
pin	1
▁calpix	1
▁Ger	1
undio	1
▁expresa	1
▁libert	1
▁amante	1
▁cade	1
▁agarran	1
▁Rep	1
iesen	1
▁ayudaría	1
uauhtle	1
xaca	1
legaba	1
▁nieg	1
▁Julia	1
venera	1
Com	1
ígn	1
com	1
▁publicar	1
▁Opa	1
hina	1
▁jub	1
ayote	1
▁relatar	1
ardino	1
▁informara	1
tifica	1
▁moj	1
uno	1
idan	1
ever	1
ticinco	1
▁Mizqui	1
auta	1
ng	1
▁espaci	1
TAS	1
▁entende	1
▁Rodri	1
▁rojiz	1
xhorta	1
▁fres	1
▁atrap	1
▁obrará	1
▁Itzcuint	1
▁desaparece	1
▁Eg	1
ipto	1
raz	1
▁escondida	1
▁Quetzalm	1
▁escu	1
inc	1
volvía	1
▁golpeaba	1
▁arrebat	1
silio	1
rtific	1
▁calmar	1
evo	1
▁Expe	1
cta	1
▁festiv	1
▁Guer	1
uahu	1
▁respond	1
ò	1
▁ynquiet	1
▁acced	1
▁herre	1
rde	1
ctl	1
▁Hij	1
▁Dad	1
▁dadle	1
▁pajar	1
NCO	1
dministra	1
ública	1
alizada	1
▁administrativ	1
▁opera	1
ema	1
alegría	1
T	1
▁FLOR	1
témosl	1
▁despl	1
azaba	1
lmente	1
▁acuest	1
▁conviv	1
▁háb	1
▁aflig	1
caiga	1
▁torc	1
bla	1
▁persi	1
▁cobi	1
lista	1
tuoso	1
rezca	1
▁Axi	1
tuyo	1
▁valeros	1
▁inven	1
mire	1
tercer	1
aré	1
▁arra	1
Coco	1
ok	1
sfuér	1
▁calaba	1
▁depositan	1
▁itztlacozau	1
▁sacrific	1
ciar	1
▁balle	1
▁compusier	1
músico	1
▁Pi	1
otr	1
sk	1
nejo	1
México	1
▁Blanc	1
▁pastorcit	1
arza	1
▁aguj	1
▁edificara	1
gu	1
villa	1
▁pervierte	1
▁destroz	1
▁satis	1
▁parescier	1
▁suplican	1
▁observará	1
▁castigad	1
ilita	1
▁tigr	1
Sol	1
ivió	1
viviente	1
cultará	1
forza	1
libr	1
establezca	1
ecatecu	1
▁Seré	1
▁Estaré	1
experiencia	1
▁perspectiva	1
▁tumba	1
▁solicitad	1
▁Ixcui	1
▁despu	1
ntar	1
▁pla	1
▁ped	1
qual	1
ipan	1
uhpan	1
ocado	1
▁rechaza	1
▁aboga	1
▁excelen	1
▁hermos	1
enda	1
▁pequeñ	1
▁huehuetla	1
necesario	1
capturar	1
▁Adiv	1
▁enumer	1
cion	1
cotl	1
▁fortalec	1
▁templ	1
udable	1
*	1
▁investigara	1
▁satisfech	1
oatzin	1
▁Tezozomoct	1
izn	1
▁Tocuilt	1
ntegra	1
▁rí	1
▁malinal	1
▁Micc	1
uelve	1
cultura	1
▁vací	1
oct	1
▁Met	1
vestidura	1
▁bell	1
descrip	1
utilizab	1
▁hormig	1
bios	1
▁prec	1
▁pleit	1
▁muerde	1
▁infam	1
cérca	1
▁junt	1
uitlachcohu	1
ihuacan	1
▁teotl	1
XCO	1
▁Tiz	1
▁declare	1
▁vendi	1
rcado	1
fisca	1
ayo	1
▁apacig	1
▁tex	1
▁Enton	1
▁Xua	1
▁introdu	1
▁bultito	1
▁afanar	1
▁Trá	1
▁derrui	1
ertid	1
cabell	1
▁reparte	1
▁Reco	1
rro	1
▁narrad	1
▁result	1
chil	1
limento	1
ángel	1
cochcalcatl	1
ailotlac	1
▁Ez	1
uau	1
paneca	1
▁Tezcaco	1
iér	1
ueme	1
▁descar	1
▁envuelv	1
▁descendi	1
cuerdo	1
▁material	1
▁Tenochti	1
ipi	1
ndieron	1
▁cau	1
ruina	1
▁asentad	1
trae	1
▁efectiv	1
▁engañan	1
▁navaj	1
cu	1
lizará	1
opondrá	1
▁retoño	1
▁exigi	1
▁Luc	1
avía	1
día	1
berg	1
▁consagra	1
▁veni	1
▁Diré	1
zatl	1
quechol	1
poton	1
▁Mom	1
etzco	1
éxic	1
▁nahua	1
litro	1
descan	1
orden	1
▁fatig	1
cajó	1
▁platican	1
derrama	1
ced	1
ben	1
▁Vendr	1
▁xon	1
▁prolong	1
▁Crey	1
▁rasg	1
▁provecho	1
▁Avien	1
▁Vend	1
▁Ceb	1
▁encabez	1
diesen	1
icieron	1
▁Ciert	1
▁causar	1
▁derribar	1
hora	1
▁declina	1
▁pastora	1
▁Conf	1
endiente	1
▁llevaro	1
barg	1
▁aca	1
▁Ecatzi	1
tzí	1
bec	1
▁asignad	1
▁escá	1
▁derribe	1
▁proc	1
rear	1
bús	1
hing	1
nglo	1
erías	1
▁Xay	1
▁parient	1
▁Texca	1
tzon	1
pare	1
▁inviolable	1
▁constitu	1
cional	1
▁inviolab	1
sesionar	1
▁acomodad	1
arga	1
▁dixer	1
▁aporta	1
▁Tem	1
blaba	1
egu	1
▁empiez	1
iltec	1
▁tendía	1
lvidar	1
sepult	1
▁asisten	1
áquenl	1
enroll	1
ervi	1
▁restrin	1
▁TOMAT	1
corola	1
▁Joh	1
ger	1
ald	1
▁obedecerá	1
▁Tort	1
olita	1
▁Cuappan	1
gándole	1
▁suspir	1
▁Xóc	1
ALA	1
▁defec	1
ekat	1
▁prego	1
dados	1
▁concu	1
▁Niñ	1
▁lanzá	1
▁amé	1
▁despreciar	1
▁efectua	1
popocat	1
▁lumin	1
▁situ	1
▁cosechaba	1
pr	1
▁Cuitla	1
▁Embri	1
▁Cuacuauh	1
tlahtoa	1
uga	1
▁poseya	1
dello	1
▁toto	1
▁Quienquie	1
idó	1
ejar	1
▁Quetzalp	1
▁tlal	1
ACA	1
▁compu	1
gido	1
▁decret	1
▁incluyen	1
▁Huitzilopoc	1
▁ordenad	1
▁chapoltepec	1
▁tetzc	1
acohua	1
chcuauhtli	1
auhyo	1
▁tol	1
▁Sab	1
jemplo	1
remio	1
dándose	1
▁satisface	1
aturale	1
apos	1
▁Tecay	1
cortar	1
ebido	1
gener	1
▁inmedia	1
▁comprend	1
lustr	1
ípi	1
chado	1
▁investig	1
▁interrog	1
amé	1
portaba	1
quién	1
▁navegar	1
ndió	1
▁desalient	1
xotla	1
▁ergu	1
▁xoko	1
▁Gr	1
▁sombr	1
auhqui	1
▁marchita	1
▁senta	1
▁capulin	1
▁soci	1
zompahuaca	1
estía	1
▁perr	1
▁encamina	1
▁Olo	1
pantz	1
▁Ató	1
yauht	1
▁Cuaté	1
▁Teucxo	1
omi	1
▁Tól	1
bito	1
▁celebre	1
OTE	1
solucion	1
▁apocent	1
▁Bon	1
ntan	1
▁empe	1
ieran	1
▁atribulad	1
▁ll	1
▁AC	1
cutor	1
▁Xaltépe	1
apotzal	1
▁Tequixqui	1
▁multi	1
mu	1
▁desapar	1
ultiv	1
ecci	1
trabajadores	1
▁apen	1
▁obscurece	1
tabl	1
mira	1
egla	1
viera	1
▁moldea	1
▁Cien	1
uhtzin	1
iti	1
zapa	1
rrilla	1
tará	1
rtillas	1
▁sacab	1
genas	1
nportilla	1
jole	1
▁legislatura	1
▁inver	1
bedecían	1
▁pronu	1
uci	1
▁amanecier	1
▁cuidad	1
teoc	1
hitl	1
▁Xi	1
£	1
huicamina	1
▁blanc	1
domin	1
nimo	1
xiste	1
otolco	1
yantla	1
árden	1
▁compete	1
eglamento	1
▁Deba	1
mares	1
▁origin	1
▁tray	1
▁yerb	1
ctli	1
Es	1
ába	1
▁Lav	1
▁envolvi	1
▁vended	1
▁relativ	1
endí	1
▁mane	1
▁Inst	1
▁cultu	1
acuátic	1
▁afilia	1
tendrá	1
exotzin	1
omici	1
▁protege	1
rafi	1
ztl	1
▁obtenga	1
▁huí	1
maco	1
▁golpean	1
oncella	1
éntes	1
pecha	1
rmen	1
equeña	1
▁agra	1
▁bolbie	1
▁paja	1
evemente	1
▁Je	1
▁restri	1
▁hij	1
▁germina	1
▁alfar	1
▁Tlatlauhqui	1
▁Cahuetz	1
htitlan	1
▁comision	1
apít	1
▁Cuauhn	1
▁preten	1
▁comple	1
▁limitado	1
▁chist	1
▁Cau	1
huit	1
▁tribut	1
▁objet	1
▁despaci	1
▁determinar	1
ecatec	1
gía	1
ernácul	1
▁plazo	1
míll	1
▁interpret	1
▁disper	1
▁patada	1
caliente	1
ima	1
pas	1
escolar	1
▁Tecoz	1
MO	1
lt	1
▁oyer	1
▁cargado	1
▁demol	1
acochc	1
hctl	1
▁pereceré	1
▁Sá	1
▁amontonan	1
▁Capo	1
huiz	1
uebe	1
▁Ahue	1
▁mayoral	1
▁vie	1
▁Sanche	1
▁may	1
▁zanahorias	1
▁preferencia	1
valía	1
▁almendra	1
▁oracion	1
▁contiende	1
▁due	1
▁golpeándo	1
cándo	1
ormigui	1
▁Gil	1
justicia	1
amaban	1
▁vill	1
▁Maxi	1
ucharada	1
▁aconsej	1
▁regresad	1
▁dispar	1
zaca	1
▁Aztac	1
▁Tlacac	1
ocht	1
ohuaca	1
auhtenco	1
oxiuh	1
▁Cuauhtliyolqu	1
▁denotan	1
▁conduce	1
dista	1
▁conmover	1
▁faltar	1
▁transf	1
erido	1
▁recome	1
▁gé	1
lida	1
▁bur	1
ueye	1
▁puebl	1
nombre	1
loquec	1
▁Gi	1
▁resti	1
▁Nopalt	1
uzan	1
totoztl	1
▁despleg	1
▁omit	1
emá	1
▁morta	1
ndad	1
▁Compañer	1
uirnalda	1
▁Comunicar	1
▁hund	1
▁nom	1
▁Tlac	1
omihua	1
▁algu	1
sideras	1
▁orej	1
bril	1
▁Mayo	1
▁Juli	1
▁Sep	1
ncio	1
▁bra	1
rín	1
uevo	1
▁revuelv	1
tzcua	1
▁ventan	1
ski	1
▁labran	1
▁Tlacax	1
▁Cá	1
▁Domin	1
▁enorgulle	1
cer	1
▁depend	1
▁chupa	1
fundido	1
▁curios	1
exot	1
ismos	1
▁trav	1
▁básic	1
isla	1
orios	1
catépe	1
▁impusier	1
▁sirvien	1
▁valer	1
▁eche	1
▁aguantar	1
▁carg	1
tencia	1
▁Cesa	1
rea	1
▁restaur	1
▁podr	1
▁cator	1
denándol	1
hiuc	1
▁verifica	1
chmacue	1
▁suspens	1
▁cumpliera	1
▁disfrazad	1
▁grac	1
ejos	1
▁camp	1
estre	1
▁prófugo	1
porte	1
▁administrativa	1
▁imponga	1
mig	1
ub	1
nicio	1
▁madur	1
▁sorpre	1
▁obedien	1
▁encanta	1
▁hablará	1
;	1
▁dibujar	1
▁Astax	1
rtilla	1
chenta	1
▁aliado	1
oce	1
▁rabo	1
▁sangra	1
▁funesto	1
olía	1
▁lavaba	1
▁Nauh	1
tene	1
Axay	1
▁llan	1
▁pereciera	1
▁gover	1
▁poderos	1
vuestra	1
▁vivirán	1
▁accede	1
▁Xochiteu	1
▁Temilot	1
▁espec	1
táculo	1
▁Abrah	1
▁perseguido	1
uhtepe	1
stillo	1
▁VII	1
teniente	1
robada	1
▁busqu	1
yol	1
florido	1
▁Frí	1
▁Come	1
▁expulsa	1
▁bolud	1
lecha	1
inita	1
quini	1
atrav	1
cuent	1
▁anochece	1
▁hermo	1
enochtitlan	1
▁confir	1
▁enaltec	1
yohual	1
▁Pon	1
ág	1
▁inv	1
úz	1
▁lle	1
specto	1
▁profetiza	1
▁comportar	1
▁Hazl	1
▁económica	1
traído	1
llegar	1
▁danzan	1
madera	1
▁Tamp	1
atza	1
▁Xime	1
▁Tepotz	1
▁acorda	1
momoz	1
dam	1
▁Ir	1
zacuá	1
▁Ayauhc	1
ontempla	1
▁Teh	1
▁alcanzan	1
▁necesitará	1
▁soberbi	1
▁Hi	1
▁Nahu	1
olin	1
▁Tzonpa	1
xiuh	1
rre	1
ztlaco	1
▁endulz	1
▁Ayocua	1
ministro	1
▁lib	1
▁desesper	1
atender	1
▁quiz	1
▁contrata	1
▁guerre	1
huacue	1
rancaba	1
▁avanzad	1
tomara	1
▁Ac	1
uazaca	1
▁Mixcoatlail	1
ted	1
onalli	1
huacatzin	1
▁visit	1
proclama	1
rden	1
▁degollar	1
▁inclinar	1
▁domi	1
▁legítim	1
érea	1
▁reforz	1
▁retract	1
▁Jaco	1
▁activo	1
▁adic	1
cería	1
·	1
▁ol	1
▁saborear	1
▁llant	1
tá	1
▁defect	1
prar	1
licen	1
ctin	1
cámara	1
age	1
cederá	1
▁agit	1
aquí	1
▁fung	1
▁continent	1
ítima	1
suelva	1
platic	1
ofecía	1
▁Traj	1
▁Ixtl	1
áhu	1
electo	1
▁Supl	1
▁confund	1
▁chal	1
▁requiri	1
stoy	1
maje	1
recient	1
amaxtl	1
kua	1
evol	1
mentaba	1
▁trabajará	1
▁concederá	1
produce	1
▁examinar	1
▁fac	1
uetzaltec	1
IPI	1
b	1
▁fatigar	1
ich	1
erior	1
▁obsequia	1
▁Sufr	1
▁Comen	1
▁Fran	1
itecu	1
yehua	1
nuestro	1
▁cercana	1
brillo	1
▁someti	1
▁detenid	1
teponaz	1
▁exhibier	1
▁dádiva	1
abló	1
Matlatzinc	1
▁Tequ	1
aloya	1
▁bez	1
▁oido	1
▁Dueña	1
▁opone	1
▁antig	1
ducir	1
gres	1
tép	1
▁mandare	1
▁delgada	1
▁abstuv	1
▁Tepoz	1
▁More	1
▁Temaz	1
tzitz	1
tísima	1
▁aberigua	1
▁Moyo	1
▁dulz	1
vias	1
capa	1
▁costal	1
ochitzin	1
hibido	1
▁Tlachinol	1
taz	1
NOS	1
Ľ	1
SO	1
pet	1
frío	1
caña	1
camapichtl	1
halchiuhtlatona	1
chitome	1
oxcoxt	1
▁Invo	1
recuerd	1
uatec	1
▁Xochit	1
▁Salí	1
travies	1
▁atra	1
▁encargar	1
estaba	1
▁refier	1
▁avecinda	1
izó	1
rincipal	1
▁Ocui	1
▁Yauht	1
ixtlahuaca	1
▁Huexolotla	1
▁Tecpat	1
▁Nac	1
▁Izhua	1
▁Cahual	1
▁Xolo	1
▁Hui	1
▁rellena	1
eres	1
▁fingi	1
▁senten	1
▁arr	1
▁comprob	1
▁maiz	1
uila	1
ikua	1
ercio	1
▁Regresa	1
ug	1
▁arroyo	1
▁Ros	1
▁Cacal	1
rdón	1
▁aplicar	1
anadas	1
acion	1
yer	1
▁sumar	1
▁participan	1
conocimiento	1
cados	1
▁contemp	1
▁Mach	1
end	1
ró	1
zque	1
▁apreci	1
▁esmera	1
marte	1
cumbre	1
▁claus	1
▁manifieste	1
▁levante	1
▁Avi	1
▁tlatelolc	1
auhtliquetzqu	1
llev	1
▁emprend	1
▁consegui	1
▁recur	1
▁antela	1
cretaría	1
itzilopoch	1
▁Aztax	1
▁plei	1
▁algua	1
gil	1
▁Yzquixoch	1
▁ataja	1
zquixochiquauhti	1
dan	1
▁Acom	1
tecatli	1
zompan	1
ñando	1
▁conmin	1
▁Aní	1
ham	1
▁constitui	1
▁sobrepas	1
▁Rod	1
igi	1
▁inscribi	1
▁alf	1
abeto	1
▁Chichimecat	1
hablar	1
▁diestro	1
▁opac	1
sign	1
▁volví	1
▁espo	1
liz	1
▁repren	1
▁cen	1
▁comino	1
▁Quah	1
ltepec	1
▁perfora	1
tendré	1
▁clá	1
usula	1
uey	1
cuña	1
fuerte	1
pagará	1
vado	1
garo	1
▁Moli	1
▁Tlato	1
▁provocad	1
pic	1
▁inferior	1
▁Pedr	1
azo	1
ngría	1
ruega	1
▁Fl	1
▁yacen	1
▁enrojeci	1
ehuatzin	1
ribano	1
▁tap	1
▁agujer	1
▁penosa	1
compuesto	1
rra	1
cri	1
▁Quauhtl	1
tomat	1
itual	1
llará	1
rcada	1
▁sacerdo	1
Tigre	1
▁intr	1
igantes	1
▁almendras	1
▁Cil	1
tlaltépe	1
▁retro	1
▁apropiada	1
▁hil	1
▁Marques	1
semejaba	1
▁causada	1
▁abraza	1
▁piedr	1
▁hirvi	1
▁redonde	1
▁Raspa	1
mesa	1
▁dejad	1
▁corresponder	1
▁defin	1
▁crecí	1
ándo	1
ocotes	1
▁desplieg	1
▁confortar	1
speranza	1
▁huitz	1
itzil	1
uítz	1
▁aveci	1
onat	1
út	1
bol	1
uelit	1
oloc	1
▁Nahuali	1
▁Yzquixochi	1
cuy	1
▁arregl	1
▁Enséñ	1
▁Forma	1
▁trini	1
tarios	1
▁desgarr	1
▁escar	1
verdad	1
▁entregara	1
▁Fr	1
▁aprend	1
▁ganado	1
lució	1
▁XII	1
celli	1
▁ascens	1
ñada	1
ñet	1
cija	1
▁chichimec	1
bil	1
▁Inicia	1
posesione	1
orresponde	1
▁diri	1
mir	1
ribunal	1
▁quauhtli	1
▁Tozcuecue	1
▁escriba	1
torna	1
▁comete	1
figura	1
mita	1
emp	1
panto	1
▁otom	1
presad	1
▁interpretad	1
▁descubrier	1
▁tibi	1
Si	1
ozcuecuex	1
uitzilihuit	1
▁tenan	1
XIP	1
▁tiesa	1
▁respeta	1
▁desayuna	1
felic	1
▁recaudi	1
usurpa	1
antado	1
▁cí	1
udad	1
▁consent	1
▁exhib	1
jó	1
JO	1
▁brill	1
▁ren	1
cor	1
▁Flor	1
ncha	1
érti	1
▁colg	1
▁moja	1
▁consult	1
ece	1
DA	1
▁bombea	1
▁desagu	1
▁isl	1
argaba	1
▁vivid	1
▁fingie	1
▁reun	1
uitzca	1
▁Dejar	1
alméca	1
▁ot	1
▁magno	1
ermano	1
eb	1
im	1
ler	1
▁muéstra	1
descubrimiento	1
▁revalora	1
violencia	1
▁moriré	1
paje	1
▁respetuoso	1
▁danz	1
▁regocij	1
▁hues	1
▁repara	1
usted	1
▁daña	1
naja	1
▁oto	1
soportab	1
▁insuf	1
rible	1
ves	1
amac	1
▁creci	1
▁floreci	1
▁popo	1
loca	1
▁inmund	1
▁NO	1
AR	1
▁ajusta	1
malayo	1
▁Ll	1
quitli	1
▁Zo	1
ľ	1
zú	1
▁mundanas	1
sido	1
▁cause	1
▁dij	1
radic	1
▁buscara	1
▁poqu	1
▁Sanc	1
▁consignado	1
RIM	1
orado	1
▁legisla	1
▁here	1
▁Volvi	1
▁asol	1
iego	1
▁semen	1
ochini	1
▁arras	1
▁esc	1
▁secret	1
▁precios	1
▁apris	1
lacatzi	1
uhqui	1
var	1
▁ayote	1
▁disciplin	1
▁llevá	1
ocupado	1
respond	1
▁Hici	1
onga	1
▁diligen	1
▁esfu	1
fl	1
▁Lope	1
zquierd	1
contento	1
▁encendie	1
▁ponerlo	1
▁despe	1
inada	1
▁recolecta	1
colombi	1
▁mofa	1
huate	1
▁traga	1
dilla	1
▁embo	1
scados	1
lores	1
▁llene	1
UAR	1
zpan	1
posa	1
bsidiana	1
canta	1
noven	1
D	1
▁sang	1
cibimiento	1
mbriagado	1
▁Em	1
▁sintie	1
rina	1
▁reu	1
▁Teyc	1
▁Ycno	1
náhuatl	1
▁Gal	1
elol	1
▁Tlalte	1
tecui	1
cahuaca	1
▁reñ	1
▁inconform	1
uida	1
ienzo	1
▁Viz	1
guiar	1
rieta	1
▁frí	1
jol	1
▁Iztac	1
pulsa	1
▁entraría	1
onacaz	1
OME	1
▁AQU	1
▁educan	1
▁Teyu	1
▁muertede	1
tlá	1
▁huitzilopoch	1
▁sonri	1
mixco	1
▁incorporar	1
▁Cuauhxi	1
onstru	1
▁suegr	1
venía	1
semilla	1
▁separada	1
▁apartad	1
▁gat	1
▁dud	1
▁apellid	1
▁traz	1
▁derru	1
tecatépe	1
digo	1
▁falsedad	1
▁pasill	1
rchar	1
▁teu	1
nti	1
▁lluev	1
▁seiscient	1
▁indi	1
▁Contz	1
▁compraría	1
madre	1
▁predicado	1
▁concluye	1
uta	1
ianza	1
▁Th	1
emilot	1
▁Tenoc	1
▁obedecie	1
▁Rev	1
veme	1
▁ofrezc	1
▁Tzonp	1
▁recorri	1
iltzin	1
▁aprendí	1
OCH	1
▁arredr	1
▁teni	1
érsel	1
amara	1
Huitzilopochtl	1
▁reflexi	1
▁étnico	1
cultural	1
iéndolo	1
▁económico	1
▁señ	1
ále	1
▁aren	1
scribir	1
▁molde	1
nuestra	1
primía	1
▁aqu	1
▁cás	1
▁pregona	1
▁devuelv	1
▁tartamud	1
▁lustr	1
llita	1
arla	1
amal	1
▁tempo	1
ntífic	1
proxim	1
▁hum	1
▁nu	1
▁encar	1
ñado	1
fíci	1
cuicho	1
▁confirme	1
▁Tepey	1
▁Atlic	1
alocan	1
chichi	1
mit	1
ecuil	1
▁tesor	1
Flor	1
▁Busc	1
cuauhtli	1
▁Iztacmi	1
▁fla	1
cacahua	1
▁añ	1
▁angustiado	1
▁mari	1
acerdote	1
Estan	1
ramient	1
▁concentra	1
quería	1
scrivano	1
▁Xilote	1
radi	1
▁incul	1
carte	1
▁pobl	1
lechero	1
adero	1
rig	1
ht	1
plano	1
▁raspad	1
▁empujar	1
mojada	1
▁reconoc	1
▁aprobada	1
▁derrotada	1
▁desga	1
blado	1
▁conser	1
elotzin	1
▁Tlacoch	1
▁val	1
▁alb	1
sexto	1
▁Motec	1
uczoma	1
▁Itzmi	1
tener	1
abían	1
▁platillo	1
ztlan	1
▁chia	1
▁avecindad	1
▁ná	1
use	1
▁ahoga	1
▁mace	1
zando	1
▁estudiara	1
▁pegado	1
▁blan	1
cino	1
▁tend	1
lá	1
▁Peni	1
▁entendí	1
argo	1
▁maca	1
▁bautiza	1
▁aparej	1
padec	1
▁déje	1
▁efect	1
▁reforma	1
▁gua	1
uana	1
aldo	1
bandera	1
▁tomat	1
▁contiend	1
person	1
arlo	1
mon	1
▁xochimilc	1
▁colibr	1
ntiag	1
▁compadezc	1
▁derrumbe	1
▁entiende	1
▁vuelv	1
▁conv	1
▁atemoriza	1
QUINT	1
lados	1
▁Tlacahuepa	1
▁administraba	1
▁Consu	1
etzal	1
tona	1
▁Desgra	1
conten	1
ubiese	1
oponía	1
iré	1
▁fortalezc	1
niz	1
ule	1
tzotz	1
tzcuin	1
Canta	1
▁Ad	1
▁desnud	1
bir	1
asen	1
rabajaba	1
▁acosa	1
▁Ayo	1
▁bañ	1
errama	1
nchan	1
▁esencial	1
▁instituye	1
▁beneficio	1
alien	1
dificar	1
▁empie	1
▁emprendi	1
ejote	1
▁asemeja	1
▁Tlailotl	1
ñido	1
sivo	1
▁congregar	1
▁lej	1
▁Mixco	1
parece	1
▁Cruza	1
▁emple	1
▁SOY	1
▁Patria	1
rcas	1
▁anpar	1
▁ult	1
ramar	1
▁cá	1
tedra	1
▁persuadi	1
petz	1
▁berd	1
▁almen	1
▁indign	1
▁pertene	1
▁Ministro	1
om	1
▁Ri	1
ámosl	1
lanura	1
▁cier	1
cat	1
▁Desca	1
iscurso	1
todo	1
▁afloj	1
▁xoconostle	1
▁Toman	1
▁somet	1
holul	1
yac	1
vivió	1
uitztlan	1
pieza	1
▁Ue	1
▁abso	1
gruesa	1
▁novie	1
▁quar	1
iene	1
▁tezca	1
lumbran	1
esteros	1
stó	1
oltépe	1
▁resp	1
▁rechazad	1
▁velan	1
▁Ax	1
▁presto	1
▁Francis	1
▁av	1
▁habit	1
▁Motecu	1
▁ejerc	1
▁Ar	1
ificada	1
tana	1
▁mante	1
▁Mese	1
ral	1
▁distingui	1
▁Pare	1
abrá	1
ART	1
AJ	1
tcpet	1
zcuecuextl	1
▁desemp	1
ígue	1
▁cans	1
gir	1
▁abnegad	1
▁orgullo	1
▁emplead	1
ut	1
ll	1
▁Establ	1
puña	1
laban	1
ah	1
anda	1
▁cosechan	1
▁forjador	1
tales	1
▁lament	1
▁Lava	1
▁Tr	1
cum	1
ocupaba	1
▁vergonzos	1
▁atributo	1
▁empuñar	1
▁interc	1
ambi	1
▁tizo	1
dia	1
▁escas	1
irm	1
viendo	1
pida	1
rrump	1
▁huyen	1
▁corred	1
▁interrump	1
▁trastorn	1
▁sancion	1
▁recobr	1
▁libertad	1
▁expedid	1
perado	1
cían	1
▁hospeda	1
mujer	1
▁cria	1
▁cabece	1
▁arru	1
llaba	1
visto	1
▁velas	1
▁escurr	1
edimiento	1
▁ceniz	1
▁restablec	1
▁hablá	1
▁relig	1
cebolla	1
▁cam	1
▁viol	1
▁murmurar	1
días	1
émoslo	1
▁Tlah	1
▁balacear	1
▁tecolote	1
xcallo	1
▁regi	1
▁empi	1
▁propuesta	1
entativa	1
▁piz	1
mace	1
▁Tehue	1
nezca	1
▁derra	1
▁perfec	1
ciona	1
tió	1
▁Toto	1
lu	1
▁tall	1
vinieron	1
chcalcatl	1
cuauh	1
▁prove	1
▁construi	1
▁magnífic	1
▁restaura	1
▁Desempeña	1
▁adora	1
▁fórmula	1
pertur	1
flores	1
▁compañer	1
▁cit	1
extla	1
▁ocot	1
▁pl	1
▁florean	1
igesimo	1
segundo	1
▁padecía	1
bija	1
▁oscura	1
▁capar	1
acito	1
cerro	1
facto	1
▁Pala	1
▁incensar	1
▁Univers	1
▁jar	1
abe	1
▁refer	1
▁permit	1
vivi	1
▁Cah	1
diésemos	1
zuelo	1
dicen	1
▁identific	1
▁Her	1
minio	1
▁manifi	1
▁berda	1
▁perfum	1
uauhquechol	1
▁actuar	1
ilagros	1
referencia	1
▁procederá	1
▁brotad	1
pueblo	1
▁poll	1
uelo	1
chita	1
jura	1
Dicen	1
▁Tolp	1
epopo	1
▁custodi	1
hé	1
▁estatu	1
▁Yacat	1
cep	1
unido	1
▁entrevistar	1
▁fest	1
leccion	1
adron	1
▁escon	1
▁Presid	1
epult	1
▁antece	1
dente	1
suprimi	1
▁encend	1
edor	1
▁conju	1
▁pegan	1
▁Méxi	1
▁Revillagigedo	1
▁verifi	1
engua	1
órico	1
▁gigante	1
▁Quier	1
▁ventur	1
▁afirm	1
▁acudie	1
▁insup	1
iten	1
cuerda	1
▁hermanita	1
ojan	1
▁receso	1
olític	1
▁sacará	1
▁fallesci	1
▁ceder	1
amachan	1
▁dándo	1
▁permita	1
▁retorn	1
Ca	1
▁obscurec	1
▁Azcax	1
▁fij	1
▁reb	1
asar	1
▁señalado	1
▁TOMA	1
tale	1
▁Luci	1
▁mictlan	1
▁ochen	1
ática	1
▁compuest	1
▁concer	1
▁federa	1
ezahualcóyotl	1
▁cohe	1
rentes	1
▁hué	1
huetl	1
▁Permane	1
▁bebi	1
▁pidier	1
▁volvere	1
▁ram	1
▁arrastrándo	1
▁incrusta	1
▁rompier	1
▁impu	1
▁mentiros	1
▁consider	1
▁reclam	1
▁incluye	1
▁aví	1
sale	1
▁enviará	1
▁entromet	1
ñó	1
▁zanahoria	1
▁rallad	1
pinos	1
madura	1
▁gobernaré	1
AZ	1
X	1
OM	1
ALLA	1
IC	1
RDE	1
▁ME	1
MOR	1
IA	1
▁LO	1
AN	1
PRE	1
EN	1
▁desisti	1
▁descarna	1
artar	1
uelta	1
imi	1
▁desee	1
ándosele	1
▁tlacatec	1
esnuda	1
irse	1
▁bailado	1
vive	1
▁expl	1
anada	1
enco	1
chalc	1
▁Matlacc	1
▁exc	1
▁chic	1
▁Agradec	1
▁Xalapa	1
fil	1
▁Gilot	1
▁perversa	1
▁judí	1
andaba	1
hacía	1
▁Tlaxi	1
convocado	1
▁anc	1
lada	1
stituir	1
▁vo	1
cabul	1
illado	1
príncipe	1
▁alegrá	1
▁pisotea	1
▁tocara	1
diana	1
▁abarc	1
fer	1
mia	1
unicip	1
xel	1
xayacat	1
lido	1
chixc	1
▁hostiga	1
▁reunirá	1
▁Iniciativa	1
rdinaria	1
ferente	1
▁señale	1
▁MOR	1
TAL	1
▁princ	1
▁notori	1
raiga	1
para	1
▁decl	1
vestid	1
nunci	1
amino	1
▁atent	1
onecuil	1
▁apart	1
▁enrosca	1
umento	1
ubsiste	1
▁conocerá	1
uestra	1
▁conc	1
▁Nombr	1
▁cucharad	1
buelta	1
▁evit	1
ilaba	1
▁Tezt	1
▁recuerda	1
IE	1
RV	1
▁comercian	1
▁Quice	1
▁Vende	1
▁encumbra	1
TZ	1
▁Arroja	1
▁bomb	1
▁soldad	1
▁Tecua	1
illan	1
apach	1
exochitl	1
ust	1
▁afila	1
evada	1
rizon	1
UL	1
CE	1
▁desat	1
▁alegré	1
▁Cort	1
óge	1
▁Corri	1
yot	1
Tlaca	1
▁tlaxc	1
iese	1
▁dient	1
crecer	1
▁embarnecer	1
▁embarnec	1
memor	1
chiquen	1
ablar	1
hqui	1
▁metí	1
▁respe	1
ndiese	1
▁Marti	1
rolog	1
▁señala	1
▁duraz	1
laj	1
▁vencid	1
▁desciend	1
▁Xilom	1
chill	1
ími	1
grand	1
secar	1
▁alquila	1
▁extraordina	1
traves	1
▁sacudi	1
tete	1
▁iztac	1
▁predica	1
▁Jun	1
▁norteñ	1
barata	1
▁contestara	1
▁cuec	1
Huitzíla	1
estimar	1
rólogo	1
▁argu	1
▁acud	1
▁agrav	1
▁Derech	1
orear	1
▁desvena	1
zahuat	1
▁persegui	1
nseñaba	1
▁enseñara	1
uñe	1
▁conmov	1
▁diversi	1
▁modern	1
▁comporta	1
▁calentará	1
▁entibiará	1
▁forja	1
▁Fed	1
▁Llor	1
▁conced	1
▁leyend	1
ventura	1
▁indigen	1
chpan	1
▁rendi	1
▁Acac	1
▁desfalle	1
▁orin	1
▁gener	1
endido	1
▁pedreg	1
tapa	1
acue	1
conquist	1
atohuan	1
▁considerad	1
▁Haced	1
▁aborrec	1
▁robad	1
▁Atzca	1
cotiza	1
tiempo	1
▁estuviere	1
▁arrep	1
tículo	1
▁imper	1
▁reprend	1
▁hablara	1
eis	1
▁ruega	1
▁tequi	1
▁derrumba	1
▁añadi	1
mujeres	1
▁bauti	1
▁regulará	1
▁estorbar	1
ponder	1
mura	1
oblacion	1
▁princip	1
▁tradu	1
quetzal	1
De	1
manda	1
CAR	1
▁MO	1
▁solita	1
pués	1
congoja	1
▁rop	1
Lo	1
alizará	1
▁apriet	1
sigu	1
trataría	1
▁emplum	1
acó	1
uria	1
caban	1
danza	1
▁cualesquier	1
▁Levant	1
ka	1
uaj	1
▁arrogan	1
▁cuext	1
▁procedier	1
scrito	1
▁obstáculo	1
▁diver	1
▁depende	1
▁cose	1
▁cla	1
▁raspo	1
lman	1
▁Océ	1
▁dista	1
▁aceit	1
▁Dispéns	1
▁fau	1
▁AJO	1
▁mercade	1
▁gloriosa	1
rgen	1
nterces	1
putado	1
▁regale	1
▁rect	1
uplico	1
▁Az	1
giosa	1
orte	1
stantin	1
▁apropiarse	1
▁oprimi	1
ernida	1
léven	1
IN	1
▁espar	1
pod	1
adito	1
▁refresc	1
equia	1
▁Chiauht	1
▁anim	1
Anda	1
▁Vuel	1
▁reque	1
▁asustar	1
▁atavi	1
▁excede	1
▁Espér	1
▁xam	1
sie	1
nyan	1
▁Dam	1
undir	1
▁expon	1
▁abor	1
ball	1
ósto	1
▁ocurriera	1
▁emba	1
dur	1
lc	1
/	1
fríe	1
▁escue	1
▁reprodu	1
▁devora	1
soberb	1
▁afect	1
▁adv	1
▁llamam	1
iercol	1
vid	1
▁milco	1
ezco	1
ncillo	1
▁Ato	1
lixtl	1
▁anot	1
ític	1
untémosl	1
Antoni	1
aldi	1
obra	1
ije	1
pazote	1
menes	1
▁aproba	1
amen	1
▁interce	1
▁casaba	1
▁estable	1
venida	1
▁sumerg	1
▁tetec	1
fanos	1
nopal	1
▁devolve	1
▁construcci	1
▁conclui	1
▁ung	1
tlapan	1
▁tiz	1
▁jue	1
▁detenga	1
ab	1
▁Eshuahua	1
▁selecci	1
fi	1
▁reanud	1
▁cárg	1
▁espe	1
▁desenv	1
inaba	1
▁refle	1
erte	1
▁reparta	1
▁volvie	1
cali	1
▁recibirá	1
▁demostra	1
cpayoca	1
▁Xacalc	1
desma	1
▁Arzo	1
alvo	1
▁otorga	1
ítulo	1
▁previ	1
▁Mata	1
arían	1
▁utili	1
▁inve	1
▁catarro	1
▁vuest	1
propia	1
borre	1
▁Cuitlac	1
▁Ixhu	1
▁sacrifica	1
▁Ahuitz	1
cañ	1
▁interpreta	1
▁atiend	1
visteis	1
cantar	1
▁extiend	1
áre	1
▁chapolea	1
▁em	1
pobrez	1
▁resolvi	1
▁rueg	1
alizan	1
▁dispong	1
ec	1
catado	1
▁Mil	1
ien	1
naka	1
OPE	1
CH	1
▁dejándo	1
▁abraz	1
tame	1
▁esp	1
tula	1
▁desayunan	1
morado	1
▁comí	1
teza	1
▁devo	1
▁titul	1
▁Cuauhxo	1
▁comet	1
▁Ahua	1
chtecatl	1
▁Tozp	1
pacatl	1
alcalde	1
ulhuac	1
▁Xochiaca	1
inacant	1
epec	1
▁Ocuila	1
acac	1
▁Ori	1
zaba	1
▁Tlaol	1
ompo	1
▁destina	1
vicio	1
mentado	1
▁limpie	1
▁manch	1
▁Indi	1
▁osado	1
▁Ag	1
bia	1
▁abis	1
inios	1
▁horn	1
ear	1
jts	1
lix	1
viva	1
▁incl	1
▁temeros	1
▁desd	1
vara	1
▁calent	1
▁arrier	1
▁cato	1
lica	1
▁adjunto	1
▁imped	1
▁cuid	1
erme	1
ixe	1
î	1
▁heroic	1
▁costeñ	1
▁Cuep	1
tíc	1
est	1
▁requis	1
endas	1
▁herv	1
▁ofrecier	1
▁encaj	1
curría	1
▁precipitar	1
ánde	1
▁enredan	1
▁relativa	1
inominal	1
▁circunscripci	1
▁plurinominal	1
primero	1
▁amorosa	1
▁amaran	1
▁embriag	1
tlapil	1
▁cuant	1
iosos	1
▁exact	1
▁confort	1
▁pretendier	1
▁plant	1
▁Ra	1
úl	1
▁pertenezc	1
▁acuchilla	1
media	1
▁enojaba	1
andamiento	1
▁zaf	1
amuza	1
▁Trabaj	1
acan	1
▁agrade	1
▁respectivo	1
▁dictar	1
▁ordinari	1
▁reglament	1
ustodi	1
molino	1
teuc	1
▁oye	1
uito	1
▁encendiera	1
▁emit	1
▁clave	1
▁arruga	1
solo	1
▁tapado	1
sería	1
▁Itztla	1
arme	1
rros	1
elebrar	1
pie	1
▁aprehend	1
▁encerr	1
visible	1
▁impa	1
lpable	1
▁menti	1
▁puja	1
manteca	1
▁suspira	1
▁compasiv	1
▁tejid	1
hiucnauht	1
▁obse	1
abiduría	1
eligió	1
▁libr	1
SCA	1
diestra	1
rota	1
vina	1
▁impe	1
trar	1
ocuilteca	1
púr	1
yu	1
nturas	1
ALL	1
ORA	1
ltima	1
▁disfruta	1
panquetzal	1
▁atemo	1
cahua	1
▁tlaca	1
tozozt	1
toma	1
▁Yollo	1
cuani	1
nite	1
▁descanse	1
▁Mox	1
ohuaz	1
tzco	1
igan	1
▁tripa	1
tlatzin	1
▁Xiuhca	1
>	1
lanc	1
alqui	1
▁IX	1
embriagan	1
▁deshie	1
EB	1
LI	1
JA	1
firmo	1
nemigo	1
▁cent	1
laliz	1
▁enfada	1
▁reali	1
prenderá	1
▁Josep	1
nhelo	1
ecer	1
▁entierre	1
maxtla	1
▁apresuró	1
rido	1
xil	1
coyá	1
zt	1
caltzin	1
celotl	1
▁embriagar	1
amacoya	1
ofrenda	1
▁herm	1
amante	1
▁ebri	1
▁tub	1
formalidad	1
ki	1
ujk	1
enk	1
zapoteca	1
▁tlap	1
eración	1
lhuicamina	1
GO	1
RDO	1
▁sost	1
▁nove	1
▁compl	1
▁anu	1
▁formar	1
▁Cár	1
▁comport	1
▁xochite	1
onduce	1
▁pintan	1
▁enfrenta	1
▁discreto	1
esencia	1
▁perdí	1
▁Herman	1
hermosa	1
▁Azcap	1
tzalco	1
▁Cuauhtit	1
▁dolo	1
excalco	1
glesia	1
