▁yn	18709
▁,	15005
▁.	14436
▁in	11714
▁	10491
que	4200
▁ye	4055
h	3879
▁y	3520
n	3455
a	3209
▁ynic	2953
▁Au	2750
▁;	2541
▁de	2497
▁ca	2377
li	2201
▁yhuan	2035
1	2023
▁oncan	1914
▁ipan	1762
▁auh	1730
▁xihuitl	1714
i	1684
▁no	1619
co	1596
tzin	1574
s	1565
o	1564
▁:	1493
▁ypan	1476
z	1474
▁yc	1416
▁amo	1310
▁huel	1243
▁ihuan	1189
▁ompa	1178
▁niman	1178
tl	1147
▁i	1145
▁nican	1145
c	1067
▁ma	1041
▁ce	1023
▁o	1018
tli	1013
▁a	978
▁|	971
▁çan	937
▁ic	925
▁se	919
▁In	913
▁on	878
ya	860
▁'	828
▁años	804
▁zan	802
2	800
can	794
to	791
uh	789
▁yehuatl	785
▁omoteneuh	779
▁don	767
▁Mexico	755
ca	724
▁?	715
▁ica	699
6	691
▁ya	650
▁tlen	638
▁oc	637
▁mo	630
▁catca	628
▁ytoca	628
▁axcan	621
5	621
▁Yn	617
tzinco	609
▁cenca	608
xihuitl	596
▁San	595
▁tla	592
▁tlahtohuani	583
quac	565
▁uan	556
e	556
4	548
▁Juan	545
▁iuh	544
l	535
3	521
▁A	521
¿	519
▁metztli	518
0	516
▁tlacatl	510
▁mexica	506
tin	498
▁ynin	496
aya	496
▁mochiuh	487
▁itoca	481
an	479
▁inic	471
▁Francisco	470
▁mani	463
▁qui	462
▁quin	447
▁ti	447
9	444
▁te	429
▁Ma	427
pa	427
▁ni	422
▁I	420
▁tlaca	419
8	406
me	402
huan	401
in	399
▁yuh	394
▁Sant	389
tica	387
j	370
7	365
▁para	364
zin	351
-	351
▁yehuantin	343
pan	342
▁ça	341
▁ixquich	334
▁ne	324
▁Pedro	324
▁Ca	322
▁e	321
▁t	320
▁la	319
▁T	316
tiuh	306
▁calli	302
hua	300
▁itech	299
▁ihcuac	298
zque	297
▁Ye	296
▁cualli	296
▁iquac	282
▁Tecpa	282
▁ome	279
▁No	278
▁Miguel	278
▁mochi	273
▁yehuatzin	271
▁atl	271
▁C	269
▁Nican	269
▁Acatl	266
▁altepetl	266
▁ayac	264
▁tlalli	263
oan	262
▁motenehua	260
▁huey	259
▁Maria	256
▁!	256
é	256
▁to	253
▁tonati	249
▁Calli	249
▁Tocht	247
▁Y	243
▁inin	242
te	242
qui	239
ez	239
▁pesos	238
r	235
▁Sanct	231
▁Diego	231
▁Dio	230
es	230
on	228
▁Amo	227
▁tlahtoque	226
dad	224
▁xiuitl	222
▁O	221
]	220
▁ahmo	220
▁ipampa	218
▁Tenochtitlan	217
ia	217
▁uel	216
▁mi	216
ón	216
▁nopa	214
▁del	209
▁ciu	208
▁Martin	207
▁ypampa	206
▁Ce	205
▁n	203
uan	202
▁wan	198
▁xi	198
▁tlalticpac	197
▁fray	197
ni	196
▁ytech	195
▁yxquich	195
▁omochiuh	193
▁España	192
▁visurrey	192
▁yancuic	192
▁momiquilli	192
▁Huehue	190
▁huehuetque	190
¡	188
no	188
tia	187
ti	185
▁nohuian	185
▁Niman	182
▁chichimeca	182
tiaque	182
▁yuhqui	180
v	177
▁Zan	176
▁teopixque	175
▁justicia	174
▁tic	173
▁X	173
▁nochi	173
▁totecuiyo	172
“	172
▁”	171
▁unca	171
▁acico	170
▁Antonio	170
▁españoles	169
▁Tla	169
▁Yhua	169
▁niquito	169
zo	168
▁nehuatl	168
hcuac	167
▁Amaqueme	167
ua	166
▁azo	166
▁mil	166
zquia	166
▁por	164
▁Axcan	164
▁nepa	162
▁yca	162
▁campa	160
▁mochiua	159
▁umpa	158
▁hual	158
▁tle	157
▁Pablo	157
▁achto	156
▁Ynic	156
ctli	155
hquac	154
▁con	154
▁intla	153
▁mochintin	153
▁nic	151
▁oqui	151
▁nel	151
▁tonal	150
▁D	150
ica	150
▁Hernand	149
▁Culhua	148
▁tlahtocat	148
▁nelli	148
ín	147
▁ki	147
mpa	147
▁ta	146
▁san	146
▁mayor	145
▁oyuh	145
▁iuan	144
▁za	144
lia	142
▁aca	142
teuhctl	142
tzintli	141
▁[	141
án	140
▁Tlen	140
▁Ipan	140
▁pero	139
▁governador	138
▁iuhqui	137
titlan	137
yotl	136
▁alcalde	135
▁omomiquilli	134
▁Chalc	134
▁ika	134
ke	134
▁Ana	133
▁Cruz	133
itl	131
motlahtocatlalli	131
liztli	131
▁Sancto	131
▁testigo	130
▁arçobispo	130
▁escribano	129
—	128
tla	128
▁mochihua	128
dias	128
Ç	127
▁aquin	126
ihqui	126
▁icome	126
▁mes	126
omingo	126
piltzin	126
▁quenin	125
tlan	125
▁itla	124
▁mah	124
▁señor	124
▁chalca	124
▁teoyotica	124
▁quiniento	124
quintin	123
▁icuac	122
▁yece	122
k	121
▁miec	121
▁inon	121
ntin	120
▁kikua	118
▁atle	117
[	117
▁p	117
▁Luis	117
▁quen	117
▁yuhquin	116
▁matlactl	115
ía	115
▁miac	115
▁omo	115
catca	114
▁su	114
oc	114
los	113
▁Te	113
▁rey	113
▁hualla	113
▁nahui	113
▁h	113
▁onca	113
▁tlahtocati	112
▁Xuare	112
▁d	112
▁	111
▁achtopa	111
▁nemi	111
▁aocmo	111
cayotl	110
▁ichan	110
▁moch	110
▁xochitl	110
▁Uan	110
▁yehica	110
▁teopan	109
▁cana	108
▁chane	108
lco	106
▁mic	106
al	105
▁ical	105
▁nozo	104
toc	104
▁nima	104
tepec	104
▁español	104
▁alcaldes	104
▁quiça	104
mo	103
queh	103
dios	103
▁Se	103
▁quimati	103
▁domingo	103
ero	103
▁cenpohual	102
▁ocachi	102
▁escrivano	101
▁can	100
▁achi	100
t	100
▁tein	100
▁motlalli	100
▁Chichimecateuh	100
▁Ypan	99
yo	99
▁tlacpac	99
▁oquito	99
meh	99
▁quipia	98
▁cuix	98
▁maj	98
▁ahno	98
▁mag	98
▁juez	98
▁monequi	98
▁inamic	97
centetl	97
▁ante	97
▁abril	97
▁tleyn	97
hoan	97
▁ixpan	97
▁ychan	96
atl	96
▁monamaca	96
estad	96
çi	96
yemo	96
os	95
▁padre	95
ztli	95
▁saj	94
ó	94
▁XI	94
(	94
▁tepetl	94
loc	93
teca	93
▁teotlac	93
▁huei	93
▁non	93
▁Inin	93
▁ipa	93
lique	93
▁Marí	92
▁mayo	92
)	92
▁Joseph	92
▁icce	92
tatzin	92
hqueh	92
▁V	91
▁huehue	91
▁Yehua	91
▁im	91
lo	91
▁occe	91
huatl	91
▁Tenanc	90
▁nech	90
eh	90
▁mochipa	90
▁tomin	90
▁yxpan	90
▁ka	89
▁Aztla	89
▁yo	89
▁wa	89
tihui	89
iencia	89
▁tlamantli	88
▁an	88
▁quitohua	88
▁onpa	88
▁c	87
▁sancto	87
Ihuan	87
ui	87
ço	87
▁na	86
▁posesio	86
▁cani	85
▁kampa	85
▁nehin	85
▁occequi	85
▁kitoka	84
▁hueyi	83
huitl	83
▁cequi	83
▁yez	83
▁P	83
▁Nima	83
▁xic	83
▁ytla	83
▁ke	82
▁cemilhuitl	82
iano	82
iembre	82
asta	81
▁M	81
▁om	81
▁huecauh	81
▁ual	81
▁tlatoque	81
▁viernes	81
▁ammo	81
pampa	80
▁Cuix	79
▁en	79
tzino	79
▁teopixqu	79
▁komo	78
▁cate	78
▁taman	78
as	78
uitl	78
▁Nuev	78
▁hualquiz	78
▁momati	78
▁mochihuaz	78
▁peuh	78
▁ixquichtin	77
huayan	77
▁omito	77
xiuitl	77
▁tech	76
▁macuil	76
y	76
nepantla	76
▁August	76
▁Atonal	76
ça	75
▁quito	75
▁VII	75
▁cihuapill	75
▁tomine	75
▁izqui	75
▁occequint	75
oso	74
lli	74
d	74
▁huallaque	74
matl	74
▁icpac	74
catqui	74
▁cruz	74
▁yaoyotl	74
▁ohualla	74
quez	73
▁VI	73
▁ipatiuh	73
▁Atenc	73
▁çano	73
iman	73
hicomoztoc	73
▁cihua	73
▁nicmati	72
▁motocayotia	72
▁cen	72
▁totecuyo	72
▁keme	72
aj	71
▁lunes	71
titech	71
▁tlahtolli	71
▁teo	71
▁XIII	71
▁otzatzi	71
▁puchteca	71
iz	71
▁Tlatilu	70
▁Mochiu	70
u	70
▁Huel	70
▁IX	70
hui	70
▁obispo	70
▁Garcia	70
▁quihto	69
ngeles	69
ado	69
III	69
▁nauh	68
▁yntech	68
▁Mo	68
▁México	68
oña	68
tsin	67
▁onpohual	67
▁Azcapotzalco	67
▁Ah	67
▁Tlatilolco	67
▁huan	67
▁azteca	67
sco	67
▁amatl	67
▁tepan	67
▁tlatohuani	66
▁tenochca	66
▁pil	66
▁totolli	66
▁tecpan	66
ique	66
▁Al	66
▁mach	66
▁testigos	66
▁ynamic	66
▁chaneque	66
catl	65
▁Mendo	65
▁Ome	65
bre	65
▁Vela	65
ylhuitzin	65
▁anozo	65
▁S	65
▁çatepan	65
▁macehualti	65
yaya	64
missa	64
layllotlacteuhct	64
▁aci	64
▁Xoco	64
▁cuali	64
▁ey	64
▁XII	64
▁ihtic	64
▁macuilli	63
▁Ica	63
▁s	63
ka	63
val	63
▁motlallico	63
▁Gas	63
▁diablo	63
alli	63
▁ah	63
▁Ysabe	63
▁tehuanti	63
▁Sanche	63
▁onká	63
▁omic	62
▁ayamo	62
m	62
▁mitz	62
maqueme	62
bado	62
▁tlatolli	62
▁quiz	62
par	62
▁III	62
na	62
onso	62
▁N	62
▁ton	62
▁Colhuacan	62
▁alguacil	61
xochitl	61
▁noponi	61
enero	61
rço	61
mpaneca	61
▁quim	61
▁intech	61
huantzitzin	61
▁VIII	61
▁oya	60
▁itechpa	60
xtli	60
▁iman	60
▁mar	60
▁matlac	60
▁Re	60
▁mexi	60
ito	60
▁Oncan	60
▁noso	60
ma	60
tle	60
▁dos	60
yan	60
▁quichihua	59
▁mohuicac	59
▁oiuh	59
ico	59
ticatca	59
loque	59
▁occen	59
▁yeyi	59
▁quil	59
▁mahuiztililoni	59
ticpac	59
▁ynpan	59
▁tepitzin	59
ujki	58
▁m	58
▁neci	58
▁Ximene	58
▁yon	58
▁sá	58
▁ac	58
▁Valer	58
▁omentin	58
juak	58
▁Tlanahuatih	58
▁omoteneuhtzino	58
zqueh	57
▁yehua	57
htic	57
▁motlalia	57
▁aqui	57
▁notlatol	57
▁quimo	57
calli	57
▁nan	57
▁Yc	57
tzi	57
í	56
rú	56
ske	56
x	56
tontli	56
▁tlaxillacal	56
▁Tlilteca	56
rio	55
▁tlein	55
▁tliltique	55
▁oti	55
ús	55
▁huallehua	55
atzin	55
▁Pe	55
▁febr	55
▁Xi	55
▁G	54
▁tel	54
lá	54
▁tianquiz	54
chtli	54
▁oni	54
▁Jes	54
▁nepapan	54
▁zatepa	54
▁timo	54
da	54
▁juni	54
octu	54
liz	53
▁ymixpan	53
▁anoço	53
cac	53
▁yzqui	53
glesia	53
▁Quahuitzat	53
▁kiilui	53
enta	53
▁mitohua	53
▁cente	53
▁teocal	53
▁ono	53
▁juramento	53
▁huell	53
▁nohuiyan	53
▁Tlaco	53
▁tzillini	53
▁Tzaqualtitla	53
▁nica	52
▁tlacah	52
▁aya	52
▁tlaco	52
huac	52
▁kuali	52
▁melahuac	52
▁To	52
ani	52
▁nopilhuan	52
el	51
▁mahuiztic	51
▁cahuitl	51
poliuhque	51
ahuac	51
▁quezqui	51
▁Tequani	51
ton	51
yoc	51
▁matlacpohual	51
▁nimitz	51
▁oquichiuh	51
quahuitl	51
▁Tlal	51
▁Castilla	51
▁peso	51
▁chinam	50
▁moyetzticat	50
az	50
▁occeppa	50
▁man	50
▁quexquich	50
▁quimilhui	50
▁quihual	50
ce	50
▁nian	50
▁cempoal	50
▁ohtli	50
▁yeuatl	50
znequi	50
ceppa	50
ipiltzin	49
▁yniqu	49
▁ceppa	49
▁xochi	49
calco	49
▁tlahtocayot	49
catzintli	49
▁och	49
quichiuhque	49
▁Nehua	49
▁yntla	49
▁conito	49
ah	49
▁itechcopa	48
▁quiza	48
▁cihuatl	48
▁yehuan	48
▁tetl	48
▁ytencopa	48
▁yauh	48
és	48
ta	48
tepetl	48
▁Pas	48
nimo	48
▁akmo	48
▁itlal	48
▁]	48
kilo	48
za	48
▁quename	48
▁huehuey	48
▁manca	48
▁Sebastian	48
▁Moteuhcçoma	48
▁onoc	48
{	48
▁marte	48
auh	47
▁chicahuac	47
oles	47
nado	47
▁intlahtoca	47
▁otic	47
▁misa	47
▁occepa	47
▁ax	47
▁me	47
kilit	47
▁E	47
▁pipilti	47
ac	47
yahque	46
▁itocayoca	46
teouh	46
▁satepa	46
▁cuicatl	46
▁timacehualti	46
▁juebes	46
▁oquic	46
▁huitz	46
ldo	46
▁ipaltzinc	46
▁sa	46
▁tleco	46
qualli	46
▁Jeró	46
▁clérigo	46
▁aço	46
▁mochiuhtzino	46
▁kualt	46
▁Ya	46
la	46
tic	46
ik	45
▁semi	45
▁nicmaca	45
▁caxtolli	45
tique	45
tinemi	45
catzin	45
▁tehuan	45
érc	45
▁yohua	45
iago	45
acalli	45
▁queman	45
▁tlali	45
▁u	45
▁x	45
▁oquin	45
▁tequitl	45
▁julio	45
▁cuica	45
▁doctor	45
ayc	45
▁Fern	45
}	45
acxoteca	45
▁aoc	45
▁nama	45
agos	45
▁q	44
▁muchiuh	44
▁yectli	44
▁Na	44
pus	44
▁Garc	44
▁el	44
▁Martín	44
▁Yehuan	44
htli	44
▁chicome	44
▁hualmochiuhtia	44
▁itic	44
▁ahcic	44
▁ypa	44
▁cecen	44
▁acatl	44
ian	44
tzticac	43
▁oydores	43
tlamantli	43
▁II	43
▁onkan	43
▁Ante	43
▁Geronim	43
▁iyollo	43
▁Ompa	43
▁omome	43
tlamico	43
zi	43
▁den	43
▁mitoz	43
▁nochipa	43
▁icel	43
▁ipanpa	43
oa	43
▁tlahtol	43
▁monasterio	43
▁topan	43
▁Juana	43
▁ihuicpa	42
▁tecpatl	42
▁nez	42
▁ilhuicatl	42
▁quitocayotia	42
▁quitlalli	42
rqués	42
▁tlatoani	42
▁motla	42
quitoque	42
▁inchan	42
ye	42
seh	42
▁huelis	42
▁Felipe	42
do	42
▁carrancista	42
▁patlahuac	42
▁Inic	42
▁moteca	41
▁Jacob	41
tlahtoani	41
▁cal	41
lhuitl	41
▁sie	41
▁oquimo	41
▁ixquichcauh	41
▁zapatista	41
▁monjas	41
▁yhui	41
▁Can	41
▁China	41
pol	40
▁tepilhuan	40
▁izquican	40
▁oncuan	40
▁onkak	40
▁Quauh	40
▁opeuh	40
tiaya	40
▁tlacat	40
▁callaqui	40
▁cemanahuac	40
pohuiz	40
▁ueyi	40
liaya	40
▁oyeya	40
venta	40
▁teocuitlatl	40
▁Quen	40
▁set	40
mitl	40
cuahuitl	40
tequiuh	40
motlalilia	40
▁tecpo	40
▁jue	40
toton	40
equintin	39
▁necoc	39
▁Tetzcoco	39
▁pohui	39
▁oks	39
▁istak	39
▁Luy	39
▁tlaxilacall	39
▁he	39
▁Nochi	39
liztica	39
▁otlananquilli	39
▁Mah	39
▁noyollo	39
▁oncaxtolli	39
▁ytocayoca	39
▁moyetztica	39
▁nicnequi	39
▁xonacatl	39
▁Tullam	39
nixpan	39
uaya	39
▁xa	39
▁quilhui	39
ando	38
katk	38
▁cuahuitl	38
▁queh	38
▁onic	38
▁Huitzillihuit	38
▁nonamic	38
les	38
▁Mariana	38
loni	38
▁Yuh	38
▁yglesia	38
▁ahuel	38
▁monequiz	38
▁ychpoch	38
▁ypilhuan	38
▁notahtzin	38
ayoj	38
timani	38
uatl	38
ina	38
▁ticmati	38
zquiani	38
▁mocauh	37
copa	37
▁yaque	37
tlacauhqui	37
▁axca	37
▁pouiz	37
▁ycpac	37
quene	37
▁muchi	37
nantzin	37
tlaca	37
▁ticpia	37
▁Aquin	37
oyan	37
▁kwak	37
▁oquitecaquiti	37
▁napohuall	37
▁cocone	37
F	37
▁Yehuatl	37
▁chicon	37
▁onmatlact	37
▁Aya	37
▁telpochtl	37
▁mantia	37
▁quinequi	37
antzin	37
▁entons	37
mati	37
▁Tona	37
▁aic	37
▁caxtol	36
▁once	36
▁otli	36
▁yeka	36
▁ican	36
▁namech	36
▁chil	36
▁kimana	36
▁nehua	36
▁tepe	36
▁teotl	36
▁mohuica	36
▁nochtin	36
tlauhtecatlteuhc	36
▁xochiyoua	36
otequihua	36
camo	36
▁H	36
huia	36
ltzin	36
▁tlaço	36
▁maxiti	36
▁tica	36
hmo	35
oca	35
’	35
▁tlamachtilcal	35
▁Lun	35
▁camo	35
loyan	35
▁Aca	35
▁Baltha	35
▁Popoca	35
tzitzin	35
ilhuitl	35
▁ašan	35
▁miak	35
▁tlal	35
cuac	35
tlanahuatili	35
ahzo	35
manalco	35
▁sep	35
▁icnahui	35
oque	35
▁quetzalli	35
▁yepohual	35
▁chicuacen	35
▁mocallaqui	35
ual	35
▁Cohua	34
quiuh	34
▁miyec	34
▁iuhquin	34
▁iz	34
ko	34
▁nikan	34
oni	34
▁Iqui	34
tetl	34
▁Compañ	34
▁nonantzin	34
mej	34
nequi	34
uia	34
▁tlatilulca	34
▁tepetzint	34
▁kil	34
▁Ic	34
ro	34
▁Quine	34
▁mihtohua	34
▁Cu	34
▁Magdalena	34
▁chimal	34
▁Axayacatzi	34
▁onaci	34
▁aud	34
▁noviembr	34
▁hui	33
▁Tziuh	33
▁Yao	33
▁Sebasti	33
▁nen	33
nahui	33
aca	33
en	33
ún	33
▁Guerr	33
▁imixpan	33
▁ilhuicac	33
▁ohual	33
▁miquiz	33
▁regidor	33
▁Pere	33
ntli	33
io	33
▁chiquacen	33
▁quizque	33
▁ontetl	33
▁Huan	33
ohuac	33
▁oquiz	33
tlalpan	33
▁k	33
ernador	33
▁Testigo	33
▁Man	33
otl	33
▁milli	33
quiteneuh	33
sesek	33
tenco	33
▁omomiquili	33
huaya	33
▁Chichimeca	33
ás	33
▁tlalpan	33
▁ytechpa	33
▁Marin	33
▁Tle	33
▁xole	33
tacico	33
▁iyo	33
▁estaca	32
abri	32
▁otech	32
llo	32
toca	32
▁xiuhpa	32
zar	32
go	32
▁nictlali	32
▁mihto	32
▁ymac	32
▁culhua	32
▁ohuala	32
▁nopan	32
iztli	32
▁nocone	32
▁cemanahua	32
huexotl	32
▁chicue	32
▁teopancal	32
▁quenmania	32
▁Per	32
▁nauhtzon	32
▁gob	32
residen	32
▁quitqui	32
▁ynacayo	32
sic	32
▁Oc	32
▁iztac	32
▁tohueytlahtoca	32
▁quimochihuilli	32
utl	32
▁tehua	32
▁unpa	32
atzintli	32
▁huitze	32
▁cocolizt	32
▁nochan	32
▁iteyo	32
▁Nauhyot	32
ihmo	32
tzontli	31
▁Chalchiuh	31
▁yah	31
▁tlacual	31
▁quimon	31
▁itlan	31
▁tlayahualolo	31
▁yntoca	31
▁tota	31
▁tonali	31
xiuhtzin	31
uac	31
matica	31
ra	31
▁Oncu	31
▁licenciado	31
uiaj	31
▁yehoa	31
▁cemi	31
▁las	31
cui	31
▁ycal	31
▁Santiago	31
▁Yaotl	31
▁noca	31
▁chalchihui	31
eque	31
▁omochiuhtzino	31
	31
tihuitze	31
uantin	30
▁quimitalhui	30
▁Ti	30
▁ipilhuan	30
▁ot	30
▁quimotlalili	30
▁Sacramen	30
▁itlatol	30
▁yxquichcauh	30
▁Christ	30
▁nocal	30
▁tlatla	30
▁moyollo	30
▁Acamapicht	30
▁Chapoltepec	30
▁itlami	30
ppa	30
▁tlami	30
▁piltzint	30
▁itlahtoca	30
▁palacio	30
▁huehca	30
▁quilhuia	30
▁chicuey	30
▁coztic	30
▁ytloc	30
pajti	30
lito	30
▁ayocmo	30
▁iztatl	30
caxitl	30
▁Lo	30
▁quitoa	30
▁omotlalli	30
▁Thom	30
▁Huitzillopoch	30
▁Azta	30
▁macihui	30
cauh	30
/	30
▁Joan	30
▁choca	30
▁onech	30
▁axox	30
ome	30
▁noyol	30
▁Tiacapan	30
▁hueca	30
▁xon	30
▁caxtolpohual	29
▁hualmohuicac	29
▁castil	29
▁altepetlypa	29
sme	29
▁tlayahuallo	29
▁omacoc	29
▁amono	29
pena	29
▁quihuica	29
▁L	29
▁moztla	29
tliltic	29
▁ten	29
▁nocon	29
▁Leon	29
ardo	29
brer	29
▁Chalchiuhmomoz	29
▁tito	29
▁tochtli	29
capilla	29
▁cua	29
▁at	29
▁tenanc	29
▁mitoa	29
▁Hueyi	29
▁Azo	29
▁Nehuatl	29
▁Yancuic	29
▁oztomeca	29
▁totlaçonan	29
ión	29
▁mí	29
▁venta	29
▁si	29
▁Tenuch	29
kan	29
huacan	29
▁Ac	29
▁Qui	29
▁cepa	29
▁Jab	29
▁tletl	29
▁Baptista	29
tlatqui	29
▁Toteoci	29
▁omotlali	29
chimal	29
▁quichiuh	28
▁inpan	28
▁tofirma	28
▁Itzcohuat	28
▁Ip	28
▁chichilti	28
▁ohuac	28
▁Huexotzinco	28
▁ijkin	28
▁cihuame	28
▁atlan	28
oz	28
itzin	28
▁oncate	28
hin	28
▁Huitzilopoch	28
▁noja	28
▁ix	28
quia	28
▁eheca	28
huaz	28
▁tonan	28
▁nanakat	28
▁hora	28
ren	28
▁quimachiyoti	28
tito	28
chicome	28
▁kema	28
▁chichi	28
▁yhua	28
▁concui	28
▁sentabo	28
▁macoc	28
▁tlahtocapil	28
▁oacico	28
▁miqui	28
▁Col	28
▁Teohuateuhc	28
tlalia	28
▁Ni	28
▁nino	28
opil	27
▁kineki	27
▁cuacualtzi	27
▁Mexica	27
▁Tenoch	27
cuic	27
▁Xochiyoua	27
cecni	27
tlallia	27
iga	27
▁ilhuitzin	27
ocac	27
▁ohui	27
tlacamo	27
▁Acxo	27
yacac	27
▁Totecuiyo	27
▁cuauh	27
▁mu	27
▁nocuel	27
▁tlama	27
▁Señor	27
tzonco	27
▁Sa	27
▁incal	27
se	27
ic	27
ntica	27
pixque	27
▁motlanahuatilli	27
▁tlayahualolizt	27
▁icac	27
▁comendador	27
▁ama	27
▁pan	27
sar	27
cualcan	27
hual	27
▁Melch	27
ontli	27
▁moyetzticate	27
▁xochmilca	27
ili	27
▁Sá	27
▁quauh	27
▁cuauhtla	27
le	27
itzochiyahuizotl	27
testamento	27
▁Angel	27
▁quihualhuica	27
ehuac	27
▁moteylhuia	27
▁quemman	27
▁tlatocat	27
▁XXI	27
▁tochan	26
illa	26
oxcoxt	26
▁Cuepopa	26
▁tlamatinime	26
▁Zaca	26
uhque	26
▁Co	26
▁onka	26
▁yan	26
yohualtica	26
ntzin	26
▁ite	26
▁Marqués	26
▁ypal	26
nkak	26
▁poliuh	26
omihto	26
▁pregon	26
▁quinpeuh	26
chichimeca	26
▁señora	26
▁tata	26
▁seki	26
▁Luca	26
cihuatl	26
topixque	26
▁Intla	26
▁Xic	26
▁ilhuitl	26
▁pehua	26
▁Ne	26
▁tocon	26
huiz	26
▁Mach	26
zintli	26
▁quinamaca	26
▁Tlahtocan	26
▁Teocalti	26
▁tepaneca	26
▁ih	26
▁kitokaytia	26
▁ytlal	26
▁quiyahuac	26
▁quetzal	26
▁oydor	26
▁Cuali	26
▁cenpohuallon	26
Á	26
▁uejueyi	26
va	26
▁teutl	26
▁quihtohua	26
jki	26
de	26
euhctl	26
▁onnahui	26
tecatl	26
quihui	26
▁quiyahui	26
huiac	26
▁macuilpohual	26
▁Huitzilihuit	25
▁namo	25
▁Pi	25
▁ay	25
▁un	25
lloque	25
▁Andr	25
▁capitá	25
macac	25
▁Luren	25
ueytl	25
▁blanco	25
▁polihui	25
▁Momoch	25
loz	25
ára	25
▁Tezca	25
ita	25
▁corte	25
uhtli	25
▁al	25
▁tlahco	25
▁Miac	25
▁notoca	25
▁yaz	25
▁macoz	25
▁fiscal	25
tiz	25
poyon	25
▁carta	25
▁nanima	25
▁Xochi	25
▁quema	25
▁ypilhuantzitzin	25
▁Tlahco	25
▁iquey	25
asa	25
X	25
ki	25
▁ihui	25
▁momiquili	25
melaoa	25
aco	25
▁quichiua	25
▁atentlipan	25
▁Tenochtitla	25
▁Tepe	25
cia	25
theo	25
tenamitl	25
mani	25
nte	25
xiuhti	25
▁tlaxilacaleque	25
▁teomama	24
▁monamaka	24
▁niquin	24
▁totoca	24
▁iaxca	24
chilli	24
▁kena	24
▁totlal	24
▁huecahua	24
▁yntlahtoca	24
▁tetepe	24
▁Guzm	24
▁mellahuac	24
▁itequiuh	24
micac	24
▁Quiz	24
▁inacayo	24
▁otla	24
▁Padre	24
▁nelti	24
ato	24
▁hualmohuica	24
ipan	24
▁itta	24
ehuaque	24
tihuitz	24
miquico	24
▁ohtlipa	24
▁quitlalia	24
▁totoni	24
▁Tercer	24
▁quaresma	24
▁quimicti	24
▁re	24
▁atzaqual	24
▁poui	24
nin	24
▁omey	24
▁yepazohtli	24
ior	24
▁tosa	24
▁quincahua	24
▁iciuhca	24
▁teca	24
▁Cort	24
▁Th	24
▁Sal	24
▁neh	24
caltitlan	24
▁oki	24
▁tocal	24
▁Canin	24
chez	24
lmeca	24
▁xoch	24
▁Di	24
▁Totolte	24
▁Isabel	24
miuh	24
▁Xocoyo	24
tixpan	24
ves	24
▁wal	24
▁cali	24
tecuhtli	24
tlahtoque	24
ana	24
▁calpoll	24
▁quitoz	24
▁ym	24
▁xinech	23
▁kemaj	23
▁tlatouani	23
▁peua	23
bispo	23
▁hueyapan	23
▁tlacati	23
▁kisa	23
▁acan	23
▁Xochimilco	23
▁Pano	23
nco	23
▁tlazo	23
▁quicauh	23
▁tlatilolca	23
▁mononotza	23
loya	23
▁timitz	23
▁ilhuica	23
▁nouia	23
▁tlaxcalteca	23
▁mochtin	23
tes	23
▁pouhqui	23
▁tehhua	23
▁ypam	23
▁huehyi	23
▁hualaz	23
mian	23
▁atenco	23
▁noço	23
ada	23
dos	23
▁Cont	23
▁quitta	23
▁Ipalnemohua	23
▁Teoc	23
▁pantzin	23
echtli	23
yohuacan	23
▁tia	23
ihui	23
nahuac	23
anil	23
▁visita	23
▁mique	23
▁kin	23
▁mochiuhque	23
lleque	23
▁Quin	23
cho	23
▁machiztic	23
▁niya	23
▁Mart	23
▁Lope	23
▁icihuauh	23
▁motlali	23
ipa	23
▁chichimecatl	23
▁intlatol	23
▁Roma	23
▁Ahuitzot	23
▁chi	22
▁xiuit	22
I	22
▁momana	22
yotzin	22
lico	22
▁pa	22
ino	22
▁genera	22
▁Ken	22
▁isquich	22
▁mito	22
▁ito	22
▁zihuapil	22
▁titla	22
▁quinhuica	22
▁ycome	22
▁Tehhua	22
▁oquich	22
tlacatl	22
cauhque	22
▁ueuet	22
▁tlaxillacalpa	22
▁motlacatilli	22
▁Jesuc	22
hristo	22
▁tlatocati	22
▁tetech	22
ulco	22
lotl	22
listli	22
▁quimilhuia	22
▁altepe	22
▁Atlauh	22
▁icmacuill	22
▁ocelotl	22
htzin	22
▁teopixca	22
▁po	22
▁anca	22
oribi	22
▁palio	22
▁Cuitlate	22
▁yec	22
‘	22
▁moquixti	22
milhuitl	22
▁calaquia	22
▁ynehuan	22
▁nauhxiuhti	22
▁teuctli	22
tzitzinhua	22
▁Esc	22
cohuatl	22
▁ixua	22
tik	22
dor	22
▁tlenamaca	22
azque	22
▁rebolúsio	22
lmach	22
▁Me	22
tok	22
pipilti	22
▁moči	22
▁cu	21
▁citlal	21
▁iccen	21
▁quiual	21
▁nechmaca	21
▁cualtzin	21
▁quauhtli	21
huique	21
▁maca	21
▁fech	21
▁Bernard	21
▁otlapacho	21
▁semana	21
w	21
▁Quauhtli	21
▁guardi	21
▁maco	21
▁tlacochcalca	21
siko	21
▁ynchan	21
huani	21
impan	21
▁Don	21
tlaxillacalleque	21
▁caxtollom	21
▁Nuestr	21
firma	21
▁tictlali	21
▁intlal	21
▁ytlan	21
▁chiconpohual	21
tlalli	21
iaya	21
▁tl	21
▁youal	21
▁Tec	21
▁Inime	21
▁nika	21
▁xocon	21
▁ichpoch	21
eve	21
▁omaxiti	21
▁Quetzalcanauhtl	21
▁Cuauh	21
▁quauhtla	21
▁Hu	21
▁yao	21
teo	21
rera	21
▁ayatl	21
chi	21
tenta	21
▁opanoc	21
▁Xu	21
ár	21
ria	21
▁quinotza	21
us	21
oncaxtolli	21
ilia	21
tocatzin	21
empo	21
▁omei	21
▁kani	21
▁Kema	21
▁quimana	21
▁mopaca	21
▁yajki	21
▁temo	21
▁matlactlomome	21
▁quiyauh	21
▁Tlaca	21
nenenque	21
▁Capitá	21
▁kichiua	21
manca	21
▁vey	21
ére	21
nauhtetl	21
ara	21
▁huallaci	21
▁motlayahualhui	21
▁Rodrig	21
▁ymatica	21
▁tottatzi	21
▁quipiaya	21
▁mahtlactli	21
oac	20
▁cem	20
▁iyol	20
▁mixpan	20
▁teyacana	20
tiaz	20
▁K	20
▁ualla	20
toque	20
tzitzihuan	20
huitz	20
▁momoztla	20
▁tequiti	20
▁sanct	20
▁ko	20
tequitzin	20
▁Auitzotzi	20
▁mimic	20
▁centzon	20
▁mono	20
▁we	20
rcel	20
▁otihualla	20
tepeuh	20
tonac	20
▁inpilhuan	20
▁cual	20
▁ikuoujyo	20
▁Chalm	20
▁mexicatl	20
▁mochan	20
▁moquetz	20
▁tototl	20
▁quinonotza	20
ayotl	20
huaque	20
▁nicam	20
cozcatl	20
▁ixochiyo	20
▁patla	20
▁hueyac	20
pachiuh	20
tahuan	20
▁Huitzil	20
▁yey	20
▁Quauhcece	20
ador	20
lla	20
▁tek	20
▁quittaya	20
▁má	20
cenpohua	20
▁iquin	20
▁quimoteotia	20
▁itechpohui	20
▁acaltica	20
▁ualmotlali	20
▁testamento	20
nemi	20
▁huallaz	20
htzino	20
▁ichpokero	20
yohualli	20
▁leonportilla	20
▁ima	20
▁Axayaca	20
teotl	20
▁ihuian	20
▁Tehuan	20
▁quiyahuiz	20
▁tlamacazqu	20
cnihuan	20
▁nohuia	20
▁Fe	20
▁Matlactli	20
intin	20
▁tlatoca	20
chihuaz	20
▁onoca	20
▁quimomaquilli	20
alante	20
▁Queman	20
▁tlamatini	20
▁XXV	20
▁quinhual	20
▁otlipa	20
▁omotocateneuh	20
▁onelti	20
ohualli	20
via	20
▁it	20
▁immano	20
▁yeynti	20
▁Ant	20
▁iqui	20
wan	20
▁ayao	20
▁tocnihuan	20
osme	20
▁Para	20
akmo	20
▁nitla	20
▁tlalmant	19
▁keman	19
▁motta	19
otonqui	19
▁Ayac	19
▁omachiztic	19
kopa	19
nauac	19
yocan	19
▁altepehua	19
▁oquittac	19
ólito	19
▁quittaz	19
▁pilli	19
▁tiquin	19
▁Jap	19
▁mill	19
▁nepantla	19
▁itzintla	19
▁xolal	19
▁tlatihuani	19
brica	19
▁nauhpohualxihui	19
onnahui	19
▁nuestro	19
▁oquimotlalili	19
▁quiquixti	19
tlaçopiltzin	19
▁eyi	19
▁diciembre	19
▁Achtopa	19
kwa	19
▁nekwt	19
▁Valle	19
lhuiloc	19
ix	19
▁oquicac	19
▁ichpoca	19
ch	19
omextin	19
ih	19
▁quinmictizqu	19
▁quitoca	19
▁ahque	19
ocan	19
coz	19
▁ch	19
▁mochiuaz	19
chinanco	19
▁imaxca	19
jua	19
▁moma	19
tolinia	19
▁hualpeuh	19
▁Jer	19
▁tlan	19
▁orne	19
▁tiquito	19
gen	19
▁centlamant	19
ospital	19
▁tinemi	19
▁uey	19
▁cofradía	19
tech	19
▁Quenin	19
▁chicueyi	19
▁anqui	19
▁Carlo	19
▁miecpa	19
ánde	19
▁Quetzalco	19
▁favor	19
▁moman	19
▁kan	19
▁Toch	19
▁qual	19
▁teotenanc	19
pilhuan	19
hcac	19
▁sin	19
▁otlananquili	19
quiz	19
ticac	19
▁yej	19
▁Tepeyacac	19
▁oneci	19
▁quicui	19
exihco	19
▁tonacayo	19
▁amotle	19
jtani	19
▁kiijto	19
▁quitemaca	19
quipiaya	19
zcatqui	19
▁tihui	19
▁quinexti	19
▁Zapat	19
▁Mocel	19
ualli	19
kej	19
xic	19
▁maestro	19
▁Alta	19
▁Maxtlato	19
nenque	19
▁quitocayoti	19
▁Cuitlahuac	19
L	19
▁queni	19
ticate	19
▁kichipaua	19
▁tlatocayotl	18
▁achitzin	18
▁nictene	18
tlatol	18
tinemia	18
▁Campa	18
▁qu	18
yah	18
▁tlake	18
▁ut	18
▁Nic	18
ytic	18
sp	18
coppa	18
yn	18
▁Anahuac	18
▁kajfent	18
pohuallonmatlact	18
▁nofirma	18
▁Tozcuecuex	18
▁Colua	18
▁hi	18
▁ticneltili	18
▁quimoquixtili	18
▁Cacamat	18
▁Yopi	18
▁di	18
techpa	18
▁momaquixti	18
▁quinmaca	18
▁quiquetza	18
▁pano	18
uachcauht	18
man	18
▁XX	18
tlaolli	18
▁nomaicni	18
huatzin	18
▁tlahtoli	18
▁kači	18
cic	18
eva	18
▁omonamicti	18
▁ciua	18
uel	18
▁Cual	18
▁calaqui	18
▁ote	18
▁icuic	18
sa	18
▁Mochi	18
callitic	18
▁cempohual	18
▁capa	18
▁soldados	18
▁tlananquilli	18
▁Mich	18
▁toca	18
▁Cano	18
▁Chicome	18
çacatzi	18
htica	18
▁teh	18
rez	18
▁Paso	18
▁mocuepa	18
nanacatl	18
▁ken	18
▁quaxoch	18
▁abbad	18
▁est	18
▁yaxca	18
▁Cenc	18
▁Greg	18
▁pejki	18
▁moquetza	18
▁oqu	18
▁Kuesal	18
▁kuamekat	18
▁ciuatl	18
cucolc	18
▁tley	18
▁Quauhtemoctzi	18
▁Quetzalmaçat	18
▁motec	18
▁Macuex	18
▁oquimocaquilti	18
▁niquilnamiqui	18
▁naui	18
▁mopilhuati	18
▁quipehualti	18
▁quiahui	18
▁popoca	18
zcate	18
▁Con	18
miran	18
pia	18
▁hualtemo	18
▁tlacuilol	18
erna	18
píritu	18
▁ixiujyo	18
▁oquicui	18
▁tomi	18
▁onez	18
▁tilma	18
▁Tlaltlanahuatil	18
▁ši	18
▁naualoztomeca	18
▁ok	18
▁Ocelotl	18
▁Sentlanahuatil	18
pacca	17
xocoyo	17
tizque	17
ntla	17
▁Es	17
▁quimatoca	17
▁Alvar	17
acatl	17
chan	17
▁tapalol	17
▁kitalilia	17
▁Ki	17
▁Heca	17
▁tzatzihua	17
manel	17
▁nehoa	17
tlanequiliztica	17
litic	17
▁nicneltili	17
Chalchiuhtlatona	17
▁descalço	17
▁nin	17
namaquilti	17
ixiptlatzin	17
tiliaya	17
▁quintoca	17
▁teyacan	17
▁mocahuac	17
▁quinhualyacan	17
lan	17
▁Tomas	17
▁Yaca	17
ey	17
▁colhua	17
omotlanahuatilli	17
ntoton	17
▁cacauat	17
▁tlacuali	17
▁ytocatzin	17
inos	17
▁Cat	17
campa	17
▁teopa	17
▁Buen	17
▁onemi	17
otlalnan	17
▁chicomozto	17
▁quimocaquilti	17
▁ordinario	17
ate	17
nia	17
▁motlatol	17
▁conde	17
rrey	17
▁Teçoçomoctzi	17
▁toc	17
sin	17
▁tlatzintla	17
▁Ican	17
van	17
▁inana	17
onimo	17
chicuey	17
▁ytlahtocayo	17
▁ahcito	17
▁niaz	17
▁tlanahuatilmeh	17
zan	17
▁tlacatecolotl	17
micohuac	17
uicaya	17
▁neca	17
▁quitla	17
▁oconan	17
▁tepoztl	17
▁axkana	17
▁titlaca	17
▁š	17
▁Ko	17
▁akin	17
uhtica	17
▁caxtollon	17
▁ayok	17
▁ayoj	17
▁quincauhtia	17
▁oto	17
▁yohual	17
▁tlacamo	17
▁hualmocuep	17
▁mesica	17
tas	17
llique	17
▁toma	17
▁tekitij	17
▁otlatlacoltilo	17
▁otlahtocati	17
▁Bartolome	17
pehuaya	17
▁tepuz	17
▁notech	17
uaque	17
▁itlatqui	17
▁mococohua	17
▁mota	17
▁itlac	17
▁etc	17
▁monotsa	17
▁como	17
▁temicti	17
▁quihualhuicac	17
tiliz	17
ces	17
▁cuauhtli	17
▁nuev	17
tzalan	17
▁quemania	17
▁azcapotzalca	17
stli	17
macehualli	17
▁Anton	17
▁chicuete	17
▁XXX	17
▁teocuitla	17
hualli	17
▁tepantlahtoani	17
▁nemia	17
▁Papa	17
ok	16
poni	16
▁manel	16
mic	16
aque	16
▁moyol	16
▁eua	16
▁motlapo	16
▁Pa	16
tih	16
▁Texcalco	16
▁neztica	16
▁michime	16
llanc	16
▁onmomiquilli	16
▁anauac	16
▁tlah	16
tiw	16
▁Achto	16
▁Quauhtle	16
quizque	16
▁Tiça	16
tzon	16
▁tinech	16
▁Corte	16
▁nehon	16
▁yek	16
▁Kual	16
tlalmomozt	16
▁atenquiça	16
ccan	16
jkí	16
▁nimitztatauhtia	16
▁miyak	16
▁yntlan	16
▁Iman	16
▁totlaçot	16
▁oquiçac	16
rced	16
ztlacatiz	16
▁Ix	16
▁iya	16
▁On	16
▁omochi	16
▁quimolhuili	16
tamachiuh	16
▁Ram	16
▁com	16
▁temachtia	16
▁mote	16
tonco	16
▁Chicuey	16
▁occecni	16
ixtoco	16
tococ	16
▁quitlatlauhti	16
▁kuoujtaj	16
▁Laza	16
▁neu	16
▁imacehual	16
▁otlacat	16
▁Xochitl	16
▁Francisc	16
▁Om	16
▁Chapultepe	16
▁achiton	16
▁tequi	16
jtouaj	16
cue	16
panecatl	16
huacatl	16
▁tlahuic	16
xitilli	16
▁texcal	16
▁Acxit	16
▁Uajka	16
▁kikuaj	16
inas	16
▁pehuallo	16
▁semiya	16
ixti	16
▁nicuel	16
▁Achi	16
▁mopan	16
▁tequihua	16
▁ie	16
▁ahcop	16
▁Tzompa	16
▁mohuicxiti	16
▁tepa	16
▁litro	16
▁mocui	16
▁mononotz	16
▁quiteca	16
▁Tlacopan	16
▁teu	16
▁moteilhuia	16
tza	16
nbre	16
▁mix	16
maca	16
▁Toteo	16
▁nemohua	16
nahua	16
senta	16
▁U	16
ecan	16
▁arcobispo	16
ciado	16
uiac	16
▁Tlacatl	16
wak	16
nacio	16
▁toyollo	16
tiquizque	16
▁ohkion	16
mochiuh	16
▁otlica	16
▁pipiltzitzinti	16
▁ach	16
▁Xiuh	16
▁tona	16
▁tlathui	16
▁xiuh	16
▁huetzi	16
tztlacoçauh	16
yollocacopa	16
▁nimo	16
▁Xal	16
▁coza	16
▁quicahua	16
macoc	16
▁naxca	16
▁Mi	16
taya	16
▁oppa	16
▁quima	16
huiyac	15
onamaka	15
▁ikamojyo	15
▁Za	15
▁quitlali	15
▁quichihuazque	15
quiyauh	15
zenca	15
ector	15
uani	15
qualloc	15
mana	15
▁tlahto	15
▁Ga	15
▁tlapal	15
▁atlauhtl	15
▁Z	15
ecatl	15
lacateticpac	15
ohua	15
▁tenochtli	15
▁b	15
▁uajka	15
▁ohki	15
▁provisor	15
▁corona	15
▁ihuiyan	15
alina	15
▁Acacit	15
▁omochihua	15
▁Ipa	15
▁notla	15
▁alguazil	15
lizque	15
▁lo	15
▁Macuilli	15
=	15
▁chic	15
▁omohuica	15
ilhuia	15
tepitzin	15
▁itepotz	15
▁milla	15
etzontli	15
▁monoltito	15
▁quizaz	15
▁ycel	15
▁tlallolinaliz	15
▁quitlalitia	15
nenemi	15
▁quinnotz	15
▁Colhuaca	15
▁ikan	15
▁En	15
▁oquichti	15
▁itlahtocayo	15
▁noxhuiuh	15
▁pro	15
octli	15
▁nite	15
▁quicac	15
▁omocauh	15
ixpan	15
▁quimatia	15
▁Nicol	15
▁textli	15
▁Chiquace	15
▁Ecatzin	15
▁Tlacatec	15
▁zoqui	15
▁Ka	15
exot	15
▁huexotzinca	15
▁Tleyn	15
mantsi	15
▁tulteca	15
▁kikui	15
▁tealti	15
▁yztac	15
▁Bartolom	15
▁tepeuh	15
▁ocon	15
▁Xaltoca	15
▁bueno	15
▁omaco	15
uaca	15
▁Ylhuicamina	15
tili	15
▁provincial	15
▁oquihto	15
▁yaoyo	15
▁escritur	15
▁cahuayo	15
▁cuent	15
▁omoyetzti	15
▁yu	15
tihuia	15
▁quiquetzque	15
▁intlahtol	15
▁miyequint	15
namacac	15
▁federal	15
▁Tlacateu	15
allanca	15
▁Cente	15
▁tepoz	15
era	15
▁Ozto	15
▁teteu	15
▁tzotzomat	15
tón	15
ika	15
▁tit	15
▁quinmicti	15
▁ytetzin	15
▁zo	15
▁onpeuh	15
▁Pue	15
▁mopia	15
▁quicaqui	15
▁Sem	15
▁ymomextin	15
▁inahuac	15
omitl	15
▁española	15
▁Tezcatlip	15
▁mochihuas	15
▁Teçoçomoct	15
▁Cuahuitzat	15
▁itak	15
▁Zavallo	15
▁testigosme	15
cahuan	15
▁hue	15
uaj	15
xochi	15
▁Gran	15
▁tlatquihua	15
▁namique	15
▁yzca	15
▁moteylhui	15
▁Tehua	15
▁Oquito	15
▁apachiuh	15
▁maceual	15
▁inijuanti	15
maski	15
ña	15
▁tlatoli	15
ne	15
yuhqui	15
▁tino	15
▁ahtle	15
▁piltzitzin	15
▁nipa	15
ychpoch	15
tlacah	15
▁kuoui	15
tlazohcamati	15
▁altepeme	15
ltia	15
▁Eca	15
▁acallotli	15
tilia	15
▁Ay	15
caltin	15
▁Huexotla	15
▁Ba	15
▁itloc	15
Cuauhtlequetzqui	14
▁ci	14
pilli	14
tepeca	14
▁Moyo	14
▁totlatoca	14
▁quihuicaz	14
▁pipiltoton	14
▁oquimilhui	14
▁hua	14
▁oh	14
pra	14
▁pas	14
po	14
▁oaci	14
nel	14
yá	14
nenca	14
▁inehuan	14
▁nia	14
▁Seki	14
▁eski	14
yac	14
▁ontzon	14
quetza	14
tzinohua	14
▁acah	14
▁oquim	14
▁immo	14
▁ahci	14
▁pochteca	14
oua	14
▁ohualquiz	14
nohualca	14
ixca	14
▁ticchihuaz	14
▁tlatlac	14
▁motolini	14
quique	14
▁quichihuaco	14
▁tocol	14
▁inime	14
▁yaya	14
▁totla	14
▁mač	14
▁quitoznequi	14
solo	14
▁imal	14
yon	14
▁pilolo	14
▁El	14
cahua	14
▁yocoxca	14
▁tenahuac	14
occan	14
▁tlani	14
▁hualhuia	14
▁onneci	14
▁cicitlalti	14
▁ihua	14
▁motech	14
▁talticpactzin	14
▁ijkini	14
▁neltilizt	14
▁yaui	14
▁Tlaxcalla	14
hueyi	14
▁Monte	14
uique	14
▁elito	14
▁ik	14
▁omoquixti	14
uiz	14
▁ualteyaca	14
▁neli	14
▁eltok	14
▁regidores	14
▁Tlamaocatl	14
ayah	14
▁pur	14
▁ahço	14
res	14
▁miaque	14
▁quitlahtocatlal	14
▁quitlalcahui	14
▁mocahua	14
▁ycac	14
neki	14
▁Nikau	14
▁oksi	14
▁Huax	14
acac	14
▁Moys	14
▁occentlamant	14
▁Atlix	14
pitza	14
oquan	14
▁len	14
is	14
▁ixquichca	14
▁quinhualhuicac	14
▁Ytzquauhtzi	14
▁sintli	14
▁motetequi	14
hqui	14
▁Occep	14
etetl	14
▁veint	14
▁Quexqui	14
▁huillohua	14
Ma	14
▁ytlatqui	14
▁Nama	14
▁intlan	14
▁momamal	14
▁tres	14
▁Ayotzin	14
▁chiuhcnauh	14
▁tlapanahui	14
▁Tetzauh	14
▁kipiya	14
hualmohuiquilli	14
cam	14
▁ymaxca	14
▁frayles	14
▁LX	14
▁Itz	14
▁occente	14
▁omuchiuh	14
ahui	14
▁Mil	14
dez	14
totocac	14
▁Sanc	14
▁au	14
▁oquihual	14
▁epohuall	14
uhqui	14
▁primer	14
▁kimaka	14
▁intoca	14
tlallo	14
palli	14
▁omote	14
▁tlateotocani	14
▁Atlixeliuhqui	14
momoyahua	14
▁tecuan	14
iuh	14
ral	14
▁neč	14
▁Mora	14
▁ami	14
▁tu	14
▁nik	14
▁Balta	14
▁magnifico	14
▁tlatol	14
▁Ig	14
▁tolteca	14
▁itzonteco	14
ehua	14
▁ocallaqui	14
▁Occequi	14
▁Tiçocic	14
▁itstok	14
▁pe	14
▁Cuitlaxcohuapa	14
oltzin	14
▁moneki	14
▁temi	14
macal	14
▁quimotlallili	14
lti	14
▁nauhcampa	14
▁Ualleua	14
nanquilia	14
▁cuel	14
▁Yey	14
▁matlactlomey	14
▁imil	14
▁ytlatol	14
▁ocno	14
yaoyotl	14
▁real	14
▁chalchiuh	14
▁caxtilan	14
▁naua	14
▁tlaškal	14
mocuepque	14
▁Uel	13
▁emol	13
itlan	13
▁mihtoa	13
▁ximo	13
▁oquinequia	13
▁pr	13
▁La	13
tilli	13
piaya	13
▁andas	13
▁tlaaltil	13
▁mixtli	13
▁quimottiliz	13
amo	13
▁karg	13
maça	13
▁itlahtol	13
VIII	13
pí	13
tulo	13
xumal	13
ayan	13
izque	13
teyacanaliz	13
▁ichpocame	13
▁oahcic	13
▁quichihuaz	13
▁christianos	13
▁tlapan	13
▁Coyohua	13
▁yquizayanpa	13
▁quitoua	13
▁kiteki	13
regon	13
▁kinamaka	13
▁chikauaya	13
▁Nian	13
▁yezque	13
atol	13
xo	13
▁antocnihuan	13
▁ze	13
▁Rosa	13
cexiuhti	13
namacaya	13
▁michi	13
▁Totecuyo	13
tlahtul	13
▁Le	13
notle	13
▁ohualmohuica	13
eño	13
▁xihuitli	13
▁ixtlahuapa	13
▁conilhui	13
▁Nec	13
▁cuezcon	13
auak	13
choca	13
▁macoque	13
▁teteucti	13
▁oquitla	13
ehuatzin	13
▁merino	13
▁quitema	13
▁puerta	13
▁quimotlalilitia	13
▁Tiçaapa	13
omentin	13
▁tal	13
polco	13
▁An	13
▁Nochipa	13
▁Amanalco	13
▁kuouj	13
erdo	13
▁Tloque	13
ulhuacan	13
▁momauhti	13
▁val	13
▁Quema	13
▁icchiquacen	13
▁campana	13
▁icamara	13
▁oquitlalli	13
▁Josep	13
▁Mexicatl	13
▁atol	13
▁nell	13
▁cinco	13
óp	13
▁tetlan	13
▁cenpohuall	13
▁taol	13
▁chiuhcnahui	13
amatl	13
▁quexquichcauh	13
▁nih	13
▁Timal	13
▁Jos	13
▁omomama	13
yok	13
ojuanti	13
olco	13
emimilolc	13
paneca	13
▁motecpan	13
cate	13
namic	13
▁Neçahualpil	13
▁Nahui	13
▁Tecpayoca	13
▁itlahtoltzin	13
chichi	13
wa	13
▁niccui	13
▁quimolhui	13
▁monexti	13
▁ozto	13
peuhque	13
chipahuac	13
▁cuauhtin	13
▁Quaquauhtzi	13
▁titlanahuati	13
▁ommatlact	13
▁nomac	13
▁Quatlecohuat	13
▁quite	13
▁Marc	13
▁quimacac	13
▁doctores	13
▁Santo	13
▁huallolin	13
euatl	13
▁Tlaliztacapa	13
▁Acamapich	13
▁yzquican	13
▁iixpan	13
▁quinyacana	13
xima	13
▁nikau	13
▁ytic	13
naui	13
▁muchinti	13
▁xinachtli	13
tlaoli	13
▁Christo	13
▁ipilhuantzitzin	13
iliz	13
▁onyeya	13
▁cuacualaca	13
▁notlal	13
▁yquiçaya	13
▁immoyollo	13
▁poztec	13
▁Cl	13
▁Su	13
encia	13
▁quimaci	13
tilo	13
huitec	13
lahtocateixiptla	13
▁tak	13
▁inteocal	13
▁aotli	13
▁tik	13
▁Guadal	13
▁ahuax	13
▁onocon	13
▁tlaxcal	13
▁muči	13
▁aten	13
pantli	13
itic	13
▁calmimilo	13
▁Quito	13
▁tleh	13
▁Maca	13
▁okseki	13
▁teucuitla	13
▁cocol	13
▁Chimalpopoca	13
olito	13
▁Mexicatzinco	13
tlactlomey	13
▁id	13
▁Xochmilco	13
▁Tlatlani	13
▁molpilli	13
▁tayi	13
▁maçatl	13
▁tlauel	13
▁Ta	13
▁quitlani	13
▁contlalli	13
▁maço	13
lacatl	13
▁ha	13
▁quicauhque	13
▁tlatohua	13
▁ICUIC	13
▁Zatepan	13
▁bwe	13
▁tloque	13
tilma	13
▁Ju	13
▁cohuatl	13
▁oce	13
▁ylhuica	13
▁topa	13
nna	13
▁totome	12
chiuhcnauhpohual	12
tlahtolli	12
otlatlauhtilia	12
▁nopiltzin	12
▁Uitzilopoch	12
▁mohuicatz	12
yec	12
poualli	12
▁Acolnauacatz	12
▁huelic	12
hquion	12
▁xokoyol	12
molli	12
otepeuh	12
squich	12
▁huehcauh	12
▁yqu	12
▁v	12
▁kanin	12
▁huetz	12
▁seis	12
nbo	12
▁mocalti	12
tlakatl	12
▁Cen	12
tico	12
▁itencopa	12
▁Quexquich	12
▁Tolteca	12
▁petla	12
nca	12
A	12
▁Ax	12
conetzin	12
chiuhque	12
▁niccaqui	12
ano	12
▁Hernan	12
▁onoya	12
▁apachihui	12
▁Yohualla	12
caxtolli	12
▁Chimalhuaca	12
▁tlauhquechol	12
▁xoxo	12
aliztli	12
▁conetl	12
▁Chiconco	12
▁quizaya	12
ilique	12
di	12
▁tlalmacehua	12
▁masehual	12
ervan	12
xiptlatzin	12
cenyeliz	12
▁Cal	12
temaquixtiani	12
▁ui	12
znequia	12
▁nicpia	12
▁tealtiani	12
▁toco	12
▁cuacual	12
▁quinec	12
npa	12
▁tlapalli	12
▁yciuhca	12
▁possesió	12
▁itual	12
▁Paul	12
tlehua	12
onmotoquilitia	12
▁quimohuiquili	12
ente	12
▁reyes	12
f	12
▁oksehpa	12
tepoz	12
peuhtica	12
▁ocho	12
quixtiz	12
▁zazo	12
ba	12
motlalico	12
chin	12
▁expa	12
ntzinco	12
titlani	12
ihua	12
olla	12
equachcauht	12
▁cholo	12
▁ceme	12
▁xochicual	12
▁iteyccauh	12
▁ceceyaca	12
▁Tepi	12
▁motlatocatlal	12
▁Quetzal	12
▁texixico	12
▁Cemi	12
▁moskaltia	12
pixqui	12
liloc	12
coneuh	12
▁pouh	12
yaw	12
▁teyi	12
▁caxtiltecah	12
▁Córdo	12
▁Tulla	12
kualtsin	12
▁tetla	12
▁Noch	12
kwakon	12
▁innacayo	12
▁Sando	12
it	12
tecomatl	12
▁maseualme	12
ol	12
▁Huetzi	12
tlahtoltzin	12
▁xoxocti	12
"	12
▁xochime	12
▁xochimilcopa	12
▁nikani	12
▁quimopiel	12
▁señorati	12
tecque	12
▁temamauhti	12
▁quinhuicac	12
techmonequi	12
ltik	12
▁totech	12
▁Hernán	12
▁pi	12
▁motz	12
oyonia	12
yauh	12
▁tecont	12
▁nonacayo	12
▁tlalle	12
youa	12
▁mixnamiqui	12
▁Zanye	12
atili	12
▁ocelo	12
huehuetl	12
▁metro	12
▁kikuechoua	12
▁hualmotlalli	12
▁quimomaquili	12
apan	12
▁Quauhtliquetzqu	12
quimanque	12
▁canpa	12
▁quimat	12
▁Oqui	12
▁Amatlanahuatil	12
oj	12
▁nien	12
macuilli	12
▁huehcapa	12
cihuapill	12
mach	12
▁ixiuh	12
▁oquinmo	12
▁nechpactia	12
tequi	12
▁oquimitta	12
▁nemiliztli	12
▁tlayi	12
quechol	12
▁tlayahuallolizt	12
qua	12
▁oquizque	12
▁omotlacohui	12
▁cavallo	12
▁hermano	12
▁centent	12
▁tecuhtli	12
▁ninemi	12
▁alta	12
talia	12
upe	12
huiya	12
▁polliuh	12
▁niztlacati	12
lazohcamati	12
▁chantlaca	12
▁matlacmatl	12
▁maytl	12
ompehua	12
▁tih	12
▁Por	12
cempoall	12
▁tsikitsi	12
▁Achitome	12
▁motlalito	12
macaque	12
▁qualo	12
▁taki	12
▁moquetztica	12
▁tlahtoca	12
▁temazcalli	12
▁santo	12
▁quitlacoz	12
huilo	12
▁taaman	12
macaya	12
▁icno	12
▁contlali	12
▁nequi	12
tamal	12
▁mochipau	12
▁tepiton	12
▁tzatzi	12
▁quihtotihui	12
▁quiuica	12
▁cabildo	12
▁amixpan	12
▁uajkapa	12
▁motlahtocatilli	12
▁emperador	12
▁Xinech	12
▁otocon	12
▁tzauhcti	12
▁Mizqui	12
quaxoch	12
▁ayo	12
▁niquihto	12
▁chicuace	12
▁mas	12
▁angel	12
ixco	12
▁quitlaliz	12
ario	12
▁xiuhtoto	12
▁illamatzi	12
asan	12
▁imoztla	12
▁quinahuati	12
▁tlacua	12
▁motamachiu	12
▁macehual	12
▁mocal	12
▁hualmicuani	12
▁moc	12
▁ninequi	12
htaya	12
▁nacatl	12
▁quimochihuili	12
▁quinmomaquilli	11
▁tlaciuhqu	11
chiuhcnahui	11
▁acolhua	11
▁Cohuatlyc	11
▁tiquiximati	11
tlatlaya	11
▁nicchihua	11
yocoya	11
ohueh	11
▁Salome	11
▁oy	11
▁quiztica	11
tzatzilia	11
ipe	11
▁Montes	11
▁kipia	11
mil	11
▁kiijtouaj	11
▁Chicuhnau	11
uica	11
▁akol	11
▁xochicualli	11
acahuan	11
calqui	11
▁altepepan	11
▁cexiuhti	11
▁top	11
▁tepetla	11
▁quipi	11
▁oco	11
huizque	11
▁Cristo	11
gue	11
▁nicmacatiu	11
▁yquizaya	11
▁oquimochihuilli	11
▁ytzintla	11
wi	11
▁tlatlaco	11
▁ompohual	11
tamalli	11
ktik	11
▁teat	11
▁mati	11
panahui	11
titla	11
▁telpoca	11
▁Tzacual	11
tlatquitl	11
▁sampa	11
tz	11
nozo	11
▁tite	11
▁mochiuhtica	11
pillo	11
▁cue	11
▁zohua	11
▁matlacte	11
kachi	11
chon	11
▁Ben	11
▁tonyaz	11
▁quixohua	11
▁tenantsi	11
▁Tzon	11
chpuchtzin	11
▁ychpochhua	11
monamicti	11
▁quimomachilti	11
▁tehhuatzin	11
▁totlaçomahuiz	11
nos	11
▁niquetza	11
▁pu	11
▁atliti	11
▁inquisidor	11
▁Tecuanipan	11
▁Timo	11
▁do	11
▁Opochhua	11
▁criyoyo	11
koko	11
▁albaceas	11
▁itoka	11
▁cemana	11
▁amitla	11
▁one	11
▁onmopehualti	11
óme	11
▁oquichiuhque	11
▁Iztac	11
▁nakatl	11
cemilhuitl	11
tecpan	11
▁moihtohua	11
▁yas	11
▁occec	11
▁Oquiz	11
▁maya	11
▁Ayo	11
ehuantzin	11
▁tlanahuati	11
▁mahuiz	11
▁Toni	11
▁Quahui	11
▁inemac	11
ntzitzin	11
▁izquitlamant	11
▁pleyto	11
▁Tole	11
▁quimocuilli	11
▁Tezcaco	11
▁Xochiquen	11
▁Qua	11
▁cepan	11
▁xo	11
tsoyon	11
▁mochihuazquia	11
▁fundador	11
nechicolistli	11
▁pres	11
▁Omaca	11
tonal	11
▁timexica	11
▁Nezahualcoyot	11
yol	11
pix	11
▁Altepetl	11
tlamantin	11
tencia	11
▁nota	11
▁teneuhtica	11
steca	11
▁otzatzihua	11
▁macuili	11
yaj	11
▁Maximilian	11
▁sito	11
▁mozt	11
icauh	11
▁ayaxcan	11
tlehuatl	11
▁coyon	11
▁quiquetz	11
▁akoli	11
▁Tecuciztecatl	11
tepe	11
▁tlato	11
mamani	11
▁mocentlali	11
xiquipil	11
nentlamati	11
▁huicci	11
cualita	11
epaso	11
▁moyaua	11
▁atezca	11
▁omotlalico	11
	11
chihualloc	11
▁quichihuazquia	11
tototl	11
▁Tlacayelel	11
▁ihqui	11
▁caci	11
▁Tlatil	11
tach	11
▁kwaw	11
▁Bo	11
▁onino	11
unta	11
▁et	11
tlahtocatlalli	11
▁Vis	11
▁kičiwa	11
▁tami	11
▁apóstol	11
▁yancuica	11
▁quittac	11
tilique	11
bax	11
so	11
▁ticnamaca	11
▁Barb	11
▁tiya	11
▁caltzallan	11
▁xochitica	11
tihua	11
htiuh	11
▁moyoteca	11
▁quicuitia	11
▁Axayacat	11
▁niqui	11
▁pehuaz	11
▁tlachinol	11
och	11
▁franc	11
▁temachti	11
▁mocen	11
▁tenuch	11
▁canato	11
tzontecon	11
▁wic	11
▁tlanext	11
dito	11
hualti	11
▁hueyaltepe	11
▁Teotena	11
lik	11
▁nombr	11
ej	11
kun	11
▁chicuepohual	11
miquito	11
▁xu	11
▁quicuiz	11
▁conaqui	11
yacan	11
▁quinamacaz	11
▁yahqui	11
uitze	11
htoc	11
nice	11
quetzaya	11
▁Trini	11
▁cece	11
jko	11
mon	11
uian	11
nacochtl	11
▁Tonaca	11
▁metla	11
▁hualquiça	11
▁kiitak	11
tahtzin	11
▁tlayahuallolo	11
▁Cilcu	11
▁macah	11
▁Nochtin	11
▁miactin	11
▁quimocahuilli	11
tlahtol	11
▁mictilo	11
▁tlahtlacol	11
▁Temilotzi	11
tzintic	11
▁Xom	11
▁Pá	11
▁Tlachcuititla	11
▁quihualmo	11
▁oquichihua	11
NIC	11
▁cateh	11
▁Naui	11
▁noncua	11
▁niquim	11
▁icontlamant	11
tlacuihuayan	11
ochtli	11
▁chiquacenpohual	11
▁yccen	11
tiazque	11
▁centavo	11
▁atentli	10
han	10
tecuhyo	10
altepe	10
iuhqui	10
▁Acolhuacan	10
▁yyoca	10
▁tlamin	10
▁motlatoca	10
chachan	10
moquetzaco	10
▁xacal	10
tiquiz	10
▁inyollo	10
▁matlatzinca	10
▁Ihqui	10
ezzo	10
▁Cohuatla	10
cuepa	10
ue	10
uak	10
▁tía	10
antoton	10
yacapan	10
il	10
motlatlauhtili	10
illo	10
▁tiquilhui	10
nextiliz	10
eo	10
▁petlacal	10
▁ithual	10
HUITL	10
yé	10
▁titech	10
▁tom	10
▁Tziuhtecat	10
▁Matlaltzi	10
kto	10
▁aye	10
▁acocall	10
itzticac	10
tlamiz	10
chichic	10
xiuh	10
oaya	10
▁nana	10
vio	10
quizazque	10
▁Couatl	10
cua	10
▁Ipalnemoa	10
▁moca	10
▁pachiuh	10
▁nimitzmaca	10
▁amoma	10
▁kwal	10
▁xolo	10
▁Guille	10
huelitiliz	10
▁micca	10
▁yx	10
tiuia	10
▁cui	10
▁Caxtillan	10
▁onechmolhuili	10
notlahtol	10
pacho	10
ciento	10
▁uno	10
nahuatia	10
tlactlomome	10
▁ana	10
▁hueh	10
cruz	10
tlatlauhtia	10
nan	10
▁nawi	10
namiquito	10
▁oquimottili	10
▁ocze	10
ü	10
cihuatzin	10
xokoyol	10
antzinco	10
▁motlatolti	10
rtes	10
▁Concepció	10
Sennechicolistli	10
tlamacazque	10
▁tlahcuilo	10
▁quimoneltilili	10
yolic	10
▁conitta	10
▁moxelo	10
ahuiltia	10
▁quicohua	10
▁momanilti	10
▁Oquin	10
▁Quauhnahuac	10
▁callac	10
▁ticchihua	10
▁tlantocant	10
▁yzcatqui	10
▁Ika	10
▁patiyo	10
onco	10
cen	10
zco	10
▁Chal	10
▁calnacaz	10
▁tlatocayoti	10
▁motoca	10
▁niquitoh	10
▁yma	10
▁quitequi	10
azquia	10
▁quimocuitlahuia	10
▁xitomatl	10
▁quinextia	10
▁totoli	10
techpohui	10
▁Malinalc	10
eca	10
▁quinhualhuica	10
▁itoloc	10
alta	10
jtok	10
▁Tamo	10
anchan	10
▁uala	10
▁cuauhtlahto	10
huel	10
▁nanqui	10
▁atlauhteca	10
▁Este	10
tlaltecah	10
▁mamal	10
▁quitohuaya	10
lathuic	10
▁icomilhuit	10
▁hualmocuepque	10
▁xiquin	10
▁minoto	10
sé	10
oya	10
rina	10
▁oquimoneltilili	10
▁Ypam	10
▁toni	10
▁Axkana	10
▁mocaua	10
dam	10
▁coni	10
▁quitoti	10
▁amech	10
▁yohuac	10
▁kiuika	10
▁niquitta	10
▁iximacho	10
latan	10
nek	10
nahuas	10
▁quintla	10
uaz	10
cta	10
▁uauj	10
uic	10
▁hualmo	10
▁quallan	10
alpan	10
nton	10
atiuh	10
itonal	10
▁Tollan	10
tlapo	10
teneuh	10
▁xiquipil	10
▁motemachtili	10
▁Tenan	10
▁mocencauh	10
▁chicoc	10
▁Mahtlactli	10
▁ano	10
zqui	10
▁Ocachi	10
▁onmo	10
otzin	10
▁tzontli	10
itas	10
loto	10
mectli	10
acan	10
▁Tlatquic	10
▁Cihua	10
M	10
equi	10
ciyahua	10
▁Tecuicho	10
▁matlactin	10
▁Cuacuauh	10
▁tlapia	10
ochtin	10
▁oquimotocayoti	10
▁mot	10
asqua	10
▁pohuia	10
▁tete	10
▁hualcallac	10
at	10
▁yetok	10
▁mojmostla	10
▁onin	10
olhuacan	10
tani	10
▁tlil	10
quimil	10
▁chanehque	10
▁onihualla	10
iyo	10
▁cocoxqu	10
▁tlate	10
▁uajki	10
▁hualnen	10
quiliztli	10
▁inmac	10
▁ayoc	10
iuj	10
itaci	10
▁quimotoquilli	10
▁inchachan	10
▁malti	10
▁kinekij	10
▁Augustin	10
otatzin	10
áb	10
▁ohua	10
▁inemiliz	10
▁tlequiquiz	10
lihui	10
nechico	10
▁tzo	10
▁lice	10
▁onmotlalli	10
▁governació	10
▁em	10
▁ifirma	10
▁elki	10
▁quimanilli	10
▁tokniu	10
▁yol	10
▁chalchiu	10
▁itlanahuatil	10
▁name	10
▁Sot	10
▁tzon	10
▁Citlaltepe	10
▁momat	10
▁ixnesi	10
bla	10
textli	10
▁tepitsi	10
▁omonamaca	10
▁cafen	10
▁nochin	10
▁nitemo	10
▁tzilini	10
mecatl	10
▁quechol	10
atolli	10
iscos	10
▁mopa	10
▁popo	10
▁tinemiz	10
▁tiazque	10
etzin	10
mento	10
▁huala	10
et	10
pil	10
▁chilposon	10
▁Hueymolla	10
tlalman	10
ixiptla	10
▁IN	10
▁quitazque	10
▁notlanequiliz	10
▁tiquim	10
▁alvaceas	10
▁Timitz	10
ayotzin	10
▁motocac	10
rillo	10
▁Quat	10
▁F	10
▁nikilwia	10
▁Milla	10
euhque	10
▁teci	10
▁nenemi	10
▁mestiço	10
▁ahquin	10
hualco	10
ak	10
▁Tochinte	10
▁ihca	10
aloya	10
▁opoliuh	10
huelitzin	10
▁onxiuhti	10
quintayocoli	10
ihuaya	10
▁tlat	10
▁quallo	10
▁Malintzi	10
▁sig	10
onmacuilli	10
pohua	10
▁tiqui	10
tepeual	10
imitl	10
▁oquit	10
▁Tlayllotlac	10
▁iciuau	10
▁Motecuhzoma	10
▁ueuey	10
cal	10
▁kwartiy	10
▁umotlali	10
▁nenca	10
▁quitzinti	10
▁noxhui	10
▁itstos	10
▁Bautista	10
▁Quinto	10
▁cenpoual	10
mma	10
tepan	10
▁Tepantlahtoani	10
▁teteo	10
lhuan	10
▁motataca	10
▁chicuei	10
eyxtin	9
▁omomiquilitzino	9
▁ueli	9
lhuia	9
▁seminario	9
▁cultura	9
▁nahuatl	9
▁note	9
▁acal	9
tzotzoma	9
clar	9
▁mocuepaz	9
▁yoki	9
huipil	9
▁hu	9
apachiuh	9
▁Ximo	9
cpac	9
▁poctl	9
▁toyolo	9
▁Nanahuatz	9
xoxouhqui	9
lpilli	9
▁otlayahuallo	9
▁cofrad	9
▁quimohuiquilli	9
namiquia	9
▁mochihui	9
▁ku	9
caya	9
tiui	9
▁opa	9
tlanque	9
tika	9
▁itlazoh	9
▁itecpanchan	9
KILIT	9
▁mococo	9
ueitl	9
▁tomahuac	9
nezcayotia	9
▁oquitocayoti	9
▁metztica	9
tihuani	9
▁respe	9
pichtl	9
▁tlahtohua	9
cualli	9
▁itzti	9
▁nicuicanitl	9
motlalis	9
kali	9
itos	9
paso	9
molpili	9
▁Qu	9
▁Yztac	9
tzitzintin	9
▁Sierra	9
ilu	9
▁tlamach	9
▁icnotlaca	9
▁wel	9
stro	9
▁ualleua	9
▁yexiuhti	9
▁quihuallan	9
▁teixpan	9
▁uelis	9
▁quimitta	9
▁mex	9
nacatl	9
layecanani	9
rmo	9
▁oquilhui	9
▁tlazoh	9
esto	9
▁nitlanahuati	9
▁ei	9
▁hualquiza	9
cuauh	9
▁Cha	9
▁tohuan	9
▁tiaz	9
▁Vera	9
▁tecpill	9
▁eli	9
xque	9
sá	9
▁Temizt	9
tálo	9
▁nohuiya	9
▁qua	9
▁ycallaquia	9
▁nanma	9
yollo	9
▁Aculhuacan	9
mbre	9
▁papaquilizt	9
▁días	9
▁cualant	9
cahuatl	9
▁Huitzilla	9
▁Hui	9
▁omictilo	9
ltique	9
▁mocxi	9
opa	9
▁Nepa	9
çopilhuantzitzin	9
▁cilia	9
átic	9
▁totoltetl	9
▁Consejo	9
aske	9
▁canela	9
▁quimocohui	9
ntencia	9
▁yalhua	9
un	9
calaqui	9
▁Apa	9
▁motlallitzino	9
hoa	9
▁Coco	9
▁uia	9
▁Eu	9
cohua	9
tlanahuatilmeh	9
▁It	9
▁pia	9
▁Moztla	9
▁sebad	9
▁guardia	9
▁ixo	9
▁icoppa	9
▁chichiton	9
▁conan	9
tzonquiz	9
▁necalli	9
▁moyetztiez	9
▁patriarc	9
▁motlapachoa	9
▁Ytzco	9
chihuili	9
▁ytlatzin	9
▁Nameh	9
▁quinmach	9
▁virrey	9
▁temac	9
▁tlahuellilo	9
peuh	9
hatzin	9
▁cenquiz	9
▁Catha	9
▁nomon	9
▁koma	9
▁Sim	9
aro	9
siden	9
▁okse	9
ihuatzin	9
▁Tonalliy	9
▁otiquin	9
▁otomi	9
▁itata	9
▁nictema	9
▁ilhui	9
▁monotza	9
huanyolque	9
▁Itech	9
chane	9
▁mihiyo	9
ocmo	9
▁momiquiliz	9
metl	9
▁muchiua	9
▁tij	9
▁cá	9
▁Margari	9
ICA	9
▁ln	9
b	9
▁mayanalo	9
▁omotla	9
▁ticto	9
ihuitonco	9
uilli	9
▁tiachcauh	9
▁ynquisidor	9
ós	9
▁onicnemili	9
▁pos	9
▁Tzotzo	9
yca	9
▁Epcoa	9
▁paqui	9
▁Teca	9
▁cuach	9
▁alguaciles	9
▁iteč	9
calque	9
▁yahue	9
▁xiccaqui	9
polihui	9
▁uaki	9
▁omomachti	9
laque	9
▁nochpoch	9
▁calpol	9
meca	9
▁comitl	9
▁molinia	9
ican	9
ehuatl	9
▁licencia	9
huicpa	9
▁inxiuh	9
▁Cue	9
▁macuiltetl	9
nahuatil	9
▁mochihuaya	9
▁fuer	9
▁tleca	9
▁Amotlen	9
yotlan	9
▁Coyoaca	9
▁luto	9
▁coyol	9
takilo	9
tihue	9
▁calac	9
▁ammi	9
▁tlaqual	9
iliaya	9
▁matlactzon	9
cuauhtlahto	9
tlatoque	9
▁tajko	9
▁Tlil	9
▁huico	9
▁tlatqui	9
▁quinpia	9
▁mitl	9
▁cueponi	9
ltiz	9
ltiaya	9
ctiaya	9
▁nimitzmactili	9
▁nochtlaca	9
▁quipiaz	9
▁domin	9
igos	9
techcopa	9
▁nechmo	9
▁oquimolhuili	9
▁oquitlali	9
▁nocep	9
▁chia	9
▁ich	9
telpoch	9
▁conmottilia	9
yaca	9
▁visurreyes	9
▁hospital	9
▁canónigo	9
▁for	9
▁Ipalnemoani	9
▁ycnocihuat	9
▁este	9
emi	9
▁yeti	9
▁tlapech	9
▁Tonan	9
▁moquixtilia	9
▁oquixquich	9
▁Conito	9
otahtzin	9
tian	9
▁matlactlonce	9
▁oquimat	9
▁otlatoca	9
cozqui	9
▁tlachpana	9
tamachihua	9
▁quimotla	9
▁ontlachia	9
▁totecuio	9
▁axonka	9
▁calla	9
▁dfo	9
tlahuac	9
▁notlaçot	9
▁castol	9
uez	9
cihuatequipano	9
▁tlanepanol	9
ías	9
▁toquichti	9
icuac	9
toqueh	9
▁yowa	9
lolli	9
▁Nia	9
▁Tzonpa	9
▁Uexo	9
▁ticate	9
▁yollo	9
coc	9
▁nauhcan	9
tlananquilia	9
▁auc	9
▁icniuh	9
▁quipie	9
▁Mal	9
▁Cali	9
▁quicua	9
▁tijchiua	9
quitohua	9
▁ymon	9
aznequi	9
nti	9
▁xochimilca	9
xtlatl	9
tec	9
▁mexihco	9
▁quinhualquixti	9
▁f	9
▁Cencil	9
▁Acolmi	9
▁noma	9
jke	9
▁Com	9
▁ceb	9
▁Atezcapa	9
▁toxiuh	9
▁kostik	9
▁omocallaqui	9
resa	9
xoch	9
▁ocholo	9
▁otlal	9
tiez	9
▁Tetza	9
▁Mazaque	9
ollo	9
mochintin	9
callaqui	9
cuhtli	9
▁Matlaco	9
▁omococo	9
▁ylhuicac	9
▁mac	9
▁neneuhqu	9
▁diario	9
▁Quauhti	9
▁Ymixpan	9
▁ticateh	9
▁tenahuati	9
▁De	9
▁Boni	9
▁kon	9
▁noyolo	9
▁Quauhtemoc	9
yas	9
des	9
tlacamecayotl	9
▁nijneki	9
▁inome	9
▁Tor	9
▁castolli	9
▁huecapa	9
nequiz	9
▁taxkal	9
▁tlejko	9
omey	9
picti	9
▁ixco	9
ola	9
ochi	9
▁Toyaot	9
▁neciz	9
huatin	9
▁oniquito	9
quimopielia	9
▁Tenayoca	9
▁yezquia	9
p	9
nrri	9
icpac	9
▁Hual	9
ga	9
nohuian	9
▁apis	9
cuica	9
▁quitz	9
▁ceppaya	9
illi	9
nemilliz	9
▁quineltili	9
ci	9
▁Cuitlach	9
▁xopan	9
▁tomac	9
▁Quauhtitla	9
▁Agua	9
▁totlahtol	9
tokaj	9
▁telpocame	9
mimichtin	8
molloc	8
▁itstoke	8
▁oual	8
▁cocoliz	8
▁huia	8
noch	8
▁temaco	8
▁tetzauitl	8
▁temoc	8
achi	8
▁cualyotica	8
▁monechico	8
▁ab	8
▁ticneltil	8
▁tlacuchcalcat	8
▁motequipacho	8
ualco	8
uin	8
uelita	8
gustin	8
▁quihualcui	8
▁kiteuatsa	8
▁sabe	8
▁yajke	8
▁techyahualloto	8
mah	8
cuiliz	8
▁tlamaceuh	8
▁Mallat	8
▁ninotoca	8
▁ninomaquixti	8
zenquizca	8
▁ichpochtzin	8
neda	8
ázar	8
▁tlachia	8
mi	8
▁pani	8
▁quintlalli	8
mapan	8
uauhnahuac	8
▁aciz	8
▁tlatzacuiltiloz	8
▁iy	8
▁otlachi	8
▁Ch	8
▁capell	8
▁Quihto	8
U	8
▁komal	8
▁oquiten	8
maka	8
tsitsi	8
▁icmatlactl	8
metztaya	8
▁aco	8
popo	8
huehue	8
▁tlalla	8
▁Chimal	8
nichoca	8
▁popoliuh	8
▁mohuentique	8
▁cocoxque	8
▁conpehualti	8
▁quimaca	8
▁Moquiuitzi	8
▁chololteca	8
contlaza	8
▁kiita	8
tlanequiliztzin	8
▁huaxchilli	8
▁ueue	8
▁monechicos	8
▁kali	8
▁nekwa	8
▁Ern	8
▁axoxtlantli	8
▁Acol	8
▁ihcac	8
uallaque	8
malina	8
pam	8
motlaocoliliz	8
▁cha	8
▁Az	8
▁Yon	8
▁kiajsi	8
lloc	8
▁ytlaca	8
▁Tlalteca	8
couatl	8
▁Tlatel	8
▁quimonapalhui	8
▁Quateot	8
▁quimanaz	8
lhuiaya	8
▁tinemizque	8
lmeh	8
▁yaoteca	8
ría	8
▁çe	8
▁topilhua	8
misa	8
diá	8
▁alm	8
▁timiqui	8
▁ommacuil	8
▁otleco	8
én	8
▁una	8
▁Bel	8
▁gentiles	8
▁huaqui	8
▁cavallero	8
▁Car	8
ostej	8
namiki	8
▁macocui	8
▁tehoanti	8
teupan	8
▁Jua	8
▁Ahuat	8
teopan	8
▁itzon	8
▁Tell	8
colegio	8
úñ	8
pielia	8
▁ypatiuh	8
▁Nahuaque	8
▁Huitzilopuch	8
▁oniquihto	8
cuali	8
▁mocua	8
ocalaquia	8
▁tlaix	8
ntlali	8
▁momaca	8
▁mocahuaz	8
▁xochiyojt	8
▁yxhuiuhtzi	8
▁quicuic	8
▁niquiza	8
chilcuitlaxcolli	8
chiuhqui	8
▁tlachie	8
▁Gan	8
▁quimama	8
motlachcuitlaxil	8
▁tlahueliloc	8
▁Mimich	8
▁tlamachotil	8
▁momachtiz	8
▁Fra	8
oconcuic	8
▁mori	8
llos	8
▁nikin	8
▁tomat	8
▁titlato	8
▁cano	8
▁noce	8
ppoal	8
lcá	8
ntar	8
▁quimil	8
▁nahual	8
temohua	8
▁cemilhuit	8
▁oncas	8
▁ytztia	8
▁axiuac	8
tlatlami	8
lca	8
nic	8
▁quiyahuallo	8
▁močin	8
▁tecamapa	8
▁ompoal	8
▁totlazo	8
▁cuixcoc	8
aua	8
kuoui	8
tztli	8
▁nochpochtzin	8
▁Aust	8
cahuili	8
▁nihuetz	8
ollin	8
▁nicchihuaz	8
▁neka	8
ihiyo	8
▁Huey	8
huic	8
▁tote	8
tlahtollo	8
sej	8
re	8
▁intzonteco	8
▁nohpalli	8
tlactli	8
▁yehoantin	8
tihuetzi	8
▁quinmo	8
ihuan	8
yohuac	8
▁cihuapil	8
▁caxiti	8
tiachcauh	8
ahuia	8
▁bara	8
▁ocuach	8
▁Tequi	8
▁popolihui	8
▁chichime	8
▁ihuitl	8
▁iteopixca	8
▁Tlotli	8
▁Amax	8
icno	8
zhuatl	8
▁tlema	8
matia	8
▁ohuic	8
panolti	8
▁pain	8
▁Tecayehuat	8
lizpan	8
▁oticchiuhque	8
▁cactiman	8
▁oquimicti	8
lican	8
▁occentlamantin	8
ololo	8
▁Hueymac	8
▁motemachtilli	8
▁oquauhtlahto	8
▁Ytzcahua	8
▁caxtil	8
▁imac	8
▁moto	8
▁tihual	8
nacayo	8
npaneca	8
matzin	8
▁ynpilhuan	8
▁nemizquia	8
▁ticmo	8
▁ticchiuh	8
▁itztic	8
wili	8
▁zazan	8
▁imomextin	8
nanquilli	8
▁nocuell	8
▁moquatequi	8
▁Muñ	8
cocohua	8
lolco	8
petlapan	8
▁anahuaca	8
▁yui	8
notza	8
quiçaya	8
▁itauhcayo	8
rtyr	8
▁oraciones	8
calaquia	8
tlac	8
▁The	8
▁tiquitoz	8
▁hualyetia	8
▁ahhueli	8
tiquiza	8
tlap	8
oyahque	8
▁Faustin	8
▁quimolhuilia	8
▁quimonamiquilli	8
▁tiquita	8
▁quitequipacho	8
▁nomil	8
entre	8
▁ohuall	8
or	8
▁Tequixquipan	8
inanyo	8
▁Cas	8
▁yolcame	8
▁altepeyo	8
▁maseual	8
▁nentlamati	8
▁oquitta	8
macxoya	8
▁itenco	8
ati	8
toquili	8
tocan	8
▁mictlan	8
▁koyo	8
▁amaix	8
rte	8
▁yncal	8
▁mela	8
teuhctitlan	8
▁intlac	8
▁ju	8
etl	8
▁Silv	8
▁paht	8
▁conteca	8
▁tlapoali	8
▁moteneuhtzino	8
tlamellahua	8
▁Tlahtol	8
▁isisna	8
tlaocol	8
▁quatro	8
▁Atl	8
huetziz	8
▁conquetz	8
centlamantin	8
▁tix	8
▁conmocaquilti	8
▁tiquizaz	8
xca	8
▁tlapani	8
H	8
▁Yo	8
▁nauhte	8
▁connoz	8
poloa	8
▁tlatoz	8
ilti	8
▁mollon	8
cobar	8
▁quimoteochihuil	8
▁kimaneloua	8
▁Porf	8
irio	8
šilti	8
▁Ueue	8
huili	8
▁esk	8
▁Ro	8
▁Ceyno	8
▁panoz	8
N	8
▁Ach	8
açi	8
enca	8
▁tlaltipac	8
▁matl	8
▁çatepa	8
▁elot	8
▁nomati	8
▁xoconochtli	8
olo	8
▁Nopa	8
nki	8
▁ja	8
▁tomatic	8
▁tlatlatlauhtilo	8
pachotia	8
tlatolmelauh	8
ros	8
ño	8
lica	8
coatl	8
▁hualehua	8
▁yectla	8
*	8
hamo	8
▁iuelti	8
▁otit	8
▁ximotequipacho	8
mahuiço	8
▁Kani	8
chiquacen	8
▁moyolloh	8
altique	8
▁moskalti	8
▁candela	8
▁yaomic	8
▁tonahuatlahtol	8
cateh	8
quetzal	8
▁Pan	8
▁ycnahui	8
▁Franci	8
▁kua	8
çaca	8
▁texo	8
htiliz	8
TIN	8
namiqui	8
▁nopiltz	8
▁atoya	8
▁quimaxiti	8
▁toxochi	8
▁močiwa	8
▁itlaço	8
▁oquimonamicti	8
▁eztla	8
toz	8
▁motetoquilli	8
xolal	8
onalli	8
▁etl	8
▁quicuillo	8
▁informacio	8
▁cenquizca	8
▁yetzonxi	8
▁Tlotepetl	8
ETZA	8
melauac	8
motlan	8
▁oacic	8
▁Mazatl	8
uilana	8
▁nauhpohual	8
uacatl	8
▁cuahcual	8
▁acic	8
▁Dami	8
▁nappa	8
▁Aguila	8
▁oton	8
▁miquia	8
▁yoma	8
▁kwa	8
▁tequani	8
▁quix	8
hke	8
itla	8
▁oquiquetz	8
▁quicuaya	8
▁mocentlalli	8
cah	8
▁nauhtlamant	8
▁tepacti	8
▁sabado	8
tihuetzca	8
▁Sen	8
▁otlatlanil	8
▁lis	8
▁much	8
▁quixmati	8
▁caquizti	8
tlactloce	8
▁tiyaca	8
▁barrio	8
ras	8
nex	8
▁nicno	8
▁Motelchiuh	8
▁atitla	7
▁mozcalti	7
▁ichpuch	7
motlapohpolhuili	7
▁quimamati	7
▁yato	7
▁nicnotza	7
▁xiujtsi	7
iliztli	7
tihqueh	7
yaque	7
iti	7
▁chico	7
▁Teopan	7
▁Atzaqualc	7
▁matlalt	7
▁ihiyo	7
zolli	7
tiloc	7
mellahua	7
▁Quemah	7
ndado	7
yeyan	7
▁coton	7
▁tezcaco	7
▁anima	7
palehuilo	7
urga	7
▁quintlatlauhtia	7
▁provincia	7
▁tlaka	7
lado	7
tepotzco	7
▁Mont	7
▁Lu	7
▁quimottili	7
▁Jesucristo	7
▁Casta	7
altepetl	7
▁mocaqui	7
▁muchihuaz	7
cuitlaxcol	7
▁ohualnenen	7
▁oquihualhuica	7
▁choquiz	7
▁tlaocol	7
▁Tlaçotzi	7
▁Aten	7
chihua	7
▁itha	7
▁Tepoztl	7
▁coyohua	7
▁Rodr	7
opuchco	7
yehua	7
aparri	7
tlapal	7
teyxpan	7
▁oquineltili	7
▁quimonahuatil	7
▁nep	7
▁yuli	7
tlakwa	7
▁yolli	7
▁Polo	7
▁nele	7
▁quihcuilo	7
▁tict	7
cuilo	7
tekpi	7
nemitia	7
▁occan	7
nijki	7
▁monamic	7
cihuauh	7
▁kintla	7
▁sopilote	7
▁Huitznecahual	7
▁moce	7
hca	7
▁toch	7
▁nocni	7
tlanahuatilli	7
▁tlaxcalli	7
▁ytlacamecayo	7
▁oyeca	7
huico	7
quinoc	7
hueli	7
▁ocse	7
▁quichihuas	7
▁quimocuitia	7
atlactli	7
▁tijneki	7
▁ohuatzintic	7
▁tlatlani	7
ohuaya	7
▁ilamatzi	7
▁titemo	7
▁oticma	7
once	7
onpehua	7
vicario	7
▁mocencahua	7
chalchiuh	7
fa	7
▁sant	7
▁oquitoca	7
▁quinpactia	7
▁ticnequi	7
nehnemi	7
▁teyol	7
ihtic	7
otoca	7
imopilia	7
▁tecouani	7
icnequia	7
▁quimocaquiti	7
▁temachtique	7
▁hueyatl	7
▁imatica	7
tinemiz	7
▁tim	7
▁Tetzcuco	7
▁dizie	7
▁tlamahuiztili	7
▁corregidor	7
▁nemiz	7
▁tzilli	7
nta	7
huicaya	7
▁noteuh	7
▁yntocatzin	7
▁quimoquechili	7
▁telpuch	7
ectli	7
▁sacramento	7
▁Ipal	7
▁mism	7
ar	7
mallinal	7
yoj	7
kwitlaš	7
tlapachol	7
tecuiyohuan	7
lar	7
tlapan	7
tlamellahualti	7
cual	7
uacan	7
▁contla	7
▁tlaxilacalpa	7
altzin	7
▁inteyacanca	7
▁ayauh	7
▁hualmehuiti	7
▁ho	7
▁maicni	7
▁monahuac	7
▁tepehuani	7
▁Toci	7
▁iselti	7
jor	7
quetzqui	7
anazque	7
▁Macuil	7
▁XV	7
▁oquinmaca	7
▁tlaxkali	7
yso	7
nal	7
▁Tecpan	7
bal	7
▁Chalchiuhtli	7
omeca	7
▁quinpillo	7
▁hualcallaqui	7
▁otlachalani	7
▁motocayoti	7
▁Petro	7
huecauh	7
▁quih	7
▁trigo	7
▁Matla	7
▁quintocayotia	7
▁netotilo	7
iel	7
uiztli	7
▁ompeuh	7
umár	7
▁tonehua	7
▁aman	7
▁omompo	7
▁ixtlauatl	7
ihuiyan	7
▁iteocaltzin	7
asilio	7
▁Alfredo	7
orden	7
xtik	7
▁quita	7
moquetzaya	7
ilpia	7
▁oquipehualti	7
▁Xolloc	7
omotlahtocatilli	7
huelli	7
▁firma	7
cias	7
▁cuachcal	7
▁itlah	7
▁bay	7
▁pilokichpiltsi	7
▁tlitl	7
tlahtohuaya	7
▁palani	7
▁tlame	7
▁tlatillo	7
ilpi	7
▁šiw	7
▁tanto	7
▁Map	7
▁Tzapotla	7
▁tiquittaz	7
▁Oso	7
▁Totecuio	7
▁Cua	7
▁ičan	7
▁tlapacho	7
▁notomine	7
▁ixic	7
▁Acoc	7
▁hualca	7
▁pleito	7
▁sikiera	7
uecauh	7
▁Neçahualcoyot	7
▁tohuey	7
cihuatlahtoca	7
▁ytlaço	7
huacam	7
▁Ual	7
▁anquin	7
▁calmeni	7
▁quimonequiltia	7
▁napoal	7
▁moilui	7
▁quitlaco	7
▁nono	7
▁hoc	7
sla	7
▁niyaz	7
▁seys	7
tocayotia	7
ijuanti	7
▁oquico	7
▁Tepa	7
huicaque	7
▁tepilolcua	7
▁tepilolcuauhti	7
▁otihual	7
rey	7
▁Sanctíssim	7
▁caxtoli	7
motlanahuatilia	7
▁Yeh	7
▁tiça	7
▁papan	7
iki	7
htalhuia	7
▁pactia	7
▁amaca	7
	7
▁itek	7
sos	7
▁ohuiloa	7
▁tiquitta	7
ixnamiquiz	7
▁otinech	7
ama	7
cuitlapil	7
▁Tep	7
▁copal	7
xi	7
tlamotla	7
▁colo	7
▁conetzin	7
▁oquimochihuili	7
▁notechmonequi	7
pepeyoc	7
▁necht	7
quicac	7
tlehcoz	7
▁tlachihualli	7
▁nocniuh	7
▁otitla	7
▁yxiptla	7
▁totol	7
nechichihual	7
aga	7
▁icchicuace	7
▁yohualpa	7
tlatlauhtilli	7
▁Acatla	7
totlatol	7
`	7
ieuayo	7
▁tlacopaneca	7
▁Zorita	7
▁kima	7
▁kal	7
chitzin	7
cahuaz	7
milli	7
iuitl	7
▁tlatlanilo	7
▁tlale	7
▁quimottilli	7
▁novie	7
▁kejn	7
eme	7
▁quinanquili	7
ocelotl	7
miquiz	7
▁tochi	7
▁teuhctlahto	7
▁cococ	7
▁uetsi	7
▁maquiz	7
▁ç	7
entetl	7
▁tlachihualti	7
OLLI	7
ida	7
▁iqua	7
poliui	7
▁teko	7
cahuilli	7
▁cacoc	7
▁onechilhui	7
▁omihtilhui	7
motlacatilitzino	7
▁Acolnauaca	7
caltech	7
tzacual	7
▁patr	7
tzontec	7
▁cuicani	7
▁tlacualo	7
▁Baltesa	7
edes	7
▁tamech	7
itia	7
▁tlamahuiçol	7
monequiltitzino	7
▁yhuiyan	7
▁Tlacopa	7
tzallan	7
▁quiqua	7
▁caltepito	7
▁Uauhquil	7
hualiztli	7
ones	7
▁nicuhtzitzi	7
momachitia	7
▁otlacauhqui	7
ropa	7
▁incihua	7
▁Ha	7
▁yolca	7
▁ikone	7
▁capill	7
▁tlamaniti	7
▁tlapohual	7
▁tlapalti	7
▁mocuitia	7
▁chollo	7
▁teipa	7
▁quitzitzquia	7
▁Quipia	7
▁hualmocuepa	7
▁omotlapo	7
▁tlay	7
W	7
▁conitoti	7
tlapactli	7
▁mimiqu	7
▁Vizcay	7
▁calaquizque	7
tlatoaya	7
▁oka	7
tejki	7
▁ylhuicaa	7
eya	7
▁tacizque	7
▁gr	7
▁quimonilhui	7
quixti	7
▁iamox	7
hquen	7
cenyollo	7
▁yectic	7
▁yhuelli	7
▁tlateochihual	7
▁ihuaxca	7
xiuhtlapohual	7
▁mocuep	7
▁kiualika	7
wakun	7
cuillohua	7
motla	7
▁Cecen	7
cuilohua	7
▁quinpacho	7
▁tlapic	7
tlecahui	7
yotica	7
tlatohuani	7
▁omononotz	7
halchiuhtlahtona	7
▁quinnonotza	7
▁tekit	7
▁yeho	7
netoliniliz	7
imitac	7
▁macuilxiuhti	7
▁omopouh	7
▁tlatotonia	7
▁quau	7
▁oypan	7
tlayocol	7
▁XVII	7
▁Cempoall	7
stin	7
nanakat	7
▁icmacuil	7
▁desd	7
▁kamoj	7
▁toplantita	7
apana	7
▁mierco	7
▁otlihpa	7
tlazotlaya	7
▁tomatl	7
▁toteouh	7
ohuatlayauhcan	7
▁opoliuhque	7
▁nex	7
▁Chi	7
▁Mac	7
▁quixitini	7
▁honcan	7
▁calman	7
▁tleyc	7
▁Coa	7
▁Huei	7
▁neltic	7
tenan	7
ezontlalnamacoya	7
teopixque	7
▁zanyeno	7
loca	7
▁ahquihuan	7
altia	7
▁lu	7
tlaliz	7
▁Apepetz	7
▁tetta	7
istat	7
ucho	7
▁Nica	7
uxcux	7
temoctzin	7
▁tlamati	7
yohual	7
▁otlama	7
son	7
tlatlahtia	7
▁ixcua	7
▁yt	7
celiya	7
▁kwika	7
quetzque	7
▁iyolloco	7
▁otiquitta	7
▁informaci	7
▁amoyollo	7
wia	7
ejo	7
▁ocualicaya	7
▁oquicauh	7
orre	7
▁teocuitlay	7
▁Xiuht	7
▁dies	7
▁Xim	7
molhuili	7
▁nopilo	7
xueli	7
tlatique	7
chayahuac	7
cuecuexa	7
▁chinan	7
mocuachhui	7
▁kosa	7
▁quicoco	7
nes	7
▁Izta	7
▁ihuic	7
▁cequin	7
▁naranja	7
▁niccahua	7
▁mocpac	7
▁omotecac	7
quin	7
itstó	7
▁kuatitla	7
▁tococ	7
▁Motolini	7
▁wakun	7
▁pollihui	7
▁Azcap	7
tzalco	7
▁pisil	7
▁tlacochcalcatl	7
▁yllamatzi	7
xtin	7
▁Ynquisició	7
▁Gali	7
▁namatl	7
pohual	7
ahuil	7
▁hualhui	7
▁chicomilhuit	7
atilia	7
▁quipatla	7
▁Tlahcoxonacatl	7
▁conitu	7
mador	7
▁XXVII	7
▁uits	7
cikawas	7
▁icnauhca	7
cuicatl	7
▁toltecatl	7
aška	7
▁Cohuatl	7
▁tlaskamati	7
▁Quauhtepec	7
▁ve	7
iya	7
tequiti	7
▁omocuep	7
▁kipoyelia	7
▁omotlacatilli	7
tor	7
▁oquinanquil	7
▁kana	7
wela	7
eras	7
itac	7
▁nohuan	7
▁motlahtolti	7
▁Ytz	7
▁medio	7
ehuantin	7
▁quinequiz	7
▁otlacatque	7
▁Coru	7
quauhtli	7
itztihui	7
entos	7
otlak	7
▁itlahtollo	7
▁vel	7
▁ymi	7
▁mopehualti	7
▁quinamiqui	7
▁quinchiuh	7
cavaz	7
coya	7
▁motequipano	7
quixohuaya	7
piloua	7
▁tetecuhti	7
▁Babylon	7
▁Nem	7
yxti	7
mamá	7
▁notzalo	7
▁uitz	7
▁niva	7
oči	7
▁Huehueyo	7
kilnamiki	7
▁tinen	7
▁kipixto	7
▁tictocuitlauia	7
ocatl	7
▁Hispantlal	7
toma	7
ienda	7
▁onya	7
▁quelehuia	7
▁momoz	7
▁hualmoquetza	7
▁ualtemo	7
▁xami	7
▁Tlacahuepan	7
aller	7
epanca	7
▁atentlipa	7
tencatl	7
▁nicnotlamati	7
tohua	7
▁tlamana	7
▁caltech	7
▁xochimila	7
▁Acap	7
▁Chimalpahin	7
rón	7
ansa	7
▁mana	7
cuili	7
nemiliz	7
▁Coyoueue	7
▁Topantemoc	7
chcue	7
sen	7
▁Tzonpahua	7
tlaytlaniliztica	7
▁quimontocatia	7
▁notahtzitzihuan	7
ine	7
▁otlathui	7
tepitztic	7
▁nicmelahua	7
ntlapal	7
polohua	7
▁ticuicani	7
euh	7
▁año	7
▁kwalika	7
tiuitz	7
mosewi	7
quitaque	7
kamoj	7
tlapehpeni	7
▁quauhnauaca	7
▁intloc	7
coni	7
▁hualmoman	7
▁cecentlamant	6
quicauhtia	6
▁malinalca	6
▁tlatlanti	6
poliuh	6
▁xoxoui	6
▁Zorida	6
▁nocel	6
nimitztatauhtiti	6
▁achtopan	6
neuhque	6
▁elotl	6
monec	6
▁xochitla	6
▁mahuilti	6
▁zacatl	6
cocol	6
▁totlaçottatzi	6
▁innacaz	6
momanaya	6
▁taka	6
▁motlahtocatlali	6
LLI	6
hcan	6
ajuia	6
neyxcahuil	6
▁lea	6
▁taxca	6
▁Tlillan	6
▁nechca	6
achcocolhua	6
▁inxiuhtlapohual	6
▁nezi	6
▁tiamiqui	6
▁dia	6
opechteca	6
motlanahuatilli	6
hualmoquixtili	6
▁omonexiti	6
▁poyauhteca	6
▁Ihquion	6
▁Xicala	6
▁xihualla	6
▁cuele	6
▁imaman	6
▁icih	6
▁quitlallia	6
▁cohuatequitl	6
▁Tzompan	6
▁quitlatia	6
yencuic	6
▁Tehhuehuent	6
▁Tepozt	6
▁quineltiliz	6
▁moquetzinotica	6
▁onicac	6
▁icalaquia	6
igot	6
udo	6
▁teš	6
▁tlac	6
▁Octepitzin	6
▁deci	6
▁Cuauhtli	6
▁tilmah	6
▁Ey	6
tzillin	6
▁niki	6
▁quintolini	6
▁michin	6
▁yaca	6
▁yeye	6
▁hualtecauh	6
▁oma	6
▁cuitla	6
▁Reyes	6
niz	6
jchiua	6
uil	6
▁Motecuzoma	6
ihuaconetl	6
▁eltó	6
▁xoco	6
▁oniquita	6
htos	6
▁natzin	6
calihtic	6
▁yxquichca	6
▁imiquiliz	6
▁ponhui	6
▁yntlatqui	6
tecpana	6
▁tzitzica	6
▁mopatla	6
ilis	6
tek	6
▁Cana	6
▁cocox	6
▁choquizt	6
▁quiteneuh	6
▁tecpa	6
▁oquinec	6
▁ymachtzi	6
▁teuc	6
laca	6
▁ocalaque	6
iztlacatiz	6
melahua	6
▁timitzno	6
▁cox	6
htin	6
▁huehuentzi	6
▁kimeua	6
pinauhti	6
choquiz	6
▁oquica	6
▁tequitizque	6
taz	6
▁ička	6
▁quipolo	6
▁Momauhti	6
▁achcacauhti	6
▁oniye	6
▁onechmo	6
▁nohhui	6
▁tlilli	6
▁Citlal	6
ueytlatoca	6
▁cochia	6
▁quimochihuilia	6
▁Quezqui	6
▁quauhtlapecht	6
tecopa	6
ichan	6
▁noncuica	6
▁oquitlanque	6
uctli	6
▁yaoc	6
tlapaltzin	6
▁ynfirma	6
▁cuicca	6
lozque	6
▁tzonteco	6
ouat	6
▁conmotlalili	6
▁arçobisp	6
▁quimopialli	6
▁occequin	6
▁elo	6
▁mocni	6
izquixochitl	6
litec	6
▁tlacuilo	6
Tenochtitlan	6
▁Muño	6
ver	6
▁Cuauhtzin	6
▁huexotl	6
▁mowika	6
▁pregun	6
ohome	6
▁motlatlalli	6
wec	6
▁quimocohuiz	6
▁tlaxilacal	6
▁tlatzitzillica	6
▁pahpacohua	6
▁nonan	6
Al	6
machio	6
▁nocue	6
▁machiyotl	6
▁Amitla	6
zinco	6
hco	6
quimicuilhui	6
▁ocalac	6
▁inkinekij	6
▁kinejki	6
▁Coz	6
um	6
techachan	6
tlamati	6
▁Yaotzin	6
▁Cuica	6
▁mictillo	6
ntzi	6
▁icuiliuhti	6
▁motlatolcuepaz	6
▁pipi	6
▁yauy	6
htinemi	6
▁quihta	6
▁tiaca	6
terre	6
▁onmaxi	6
xaya	6
▁legua	6
sión	6
▁olini	6
▁Joven	6
▁quihualmihualli	6
▁Mictlan	6
hiuhcnahui	6
▁ihuel	6
nextik	6
▁Temillotzin	6
▁comal	6
iego	6
▁Moquihuix	6
▁Uitz	6
▁onechtlaocol	6
▁yhuinti	6
▁cuexteca	6
▁Atlixco	6
ilui	6
▁XVI	6
tlahtocatzin	6
▁motetzahui	6
▁toyao	6
axcatili	6
▁B	6
▁mulato	6
tlaquimilol	6
▁noconilnamiqui	6
tlayohuaz	6
▁monepano	6
yampa	6
▁kichijke	6
nopilhuantzitzin	6
lvar	6
▁huehueyi	6
▁quinquixti	6
emachticatzintli	6
▁tetlaocolti	6
pocht	6
▁Nequametzi	6
yolo	6
ini	6
▁tis	6
hpa	6
yaoyo	6
▁cone	6
▁oquima	6
▁Chicon	6
▁Mexic	6
▁iyolloh	6
▁quimocuitlahui	6
nime	6
▁icihuahua	6
▁moča	6
▁tlachallani	6
▁tapach	6
▁cuitlatl	6
▁mohuetzilti	6
nete	6
▁sink	6
▁quimottiti	6
tlaelehuiliz	6
▁oniquitta	6
teocaltzin	6
▁calco	6
▁chan	6
▁pedas	6
▁omoman	6
rre	6
▁callihtic	6
icuillo	6
pe	6
▁achiyok	6
▁cri	6
▁espir	6
▁ast	6
notzque	6
azqual	6
▁imojuanti	6
tonati	6
▁Quetzalcoatl	6
▁inacaz	6
▁ytlacahui	6
ias	6
▁yeni	6
▁timota	6
uiquili	6
▁ycallaquiyanpa	6
▁tepanecatl	6
cuel	6
▁yxhuiuh	6
▁Flor	6
mama	6
▁titlanamacazqui	6
▁quiteylhui	6
▁tlatlatlauhti	6
▁quit	6
▁quihualcauh	6
▁Mizquitl	6
▁Ticpia	6
▁cenpohuallonma	6
pozon	6
▁Testigos	6
▁mohuetziti	6
uatro	6
▁tlatoa	6
▁Muteuhcçuma	6
▁tlapac	6
E	6
ampa	6
maxitic	6
aquia	6
▁bala	6
kawi	6
▁tlacayo	6
eso	6
kisas	6
▁Vaticano	6
▁teki	6
▁keski	6
▁noc	6
opolla	6
▁Tepan	6
▁Ehecatl	6
▁tlahuelilo	6
▁mototoni	6
▁mox	6
▁tecomatl	6
▁tlazotilma	6
▁onmani	6
▁chilacachtextli	6
▁Uiz	6
cahuato	6
▁motlal	6
▁Itla	6
▁incha	6
yoh	6
▁onicon	6
xitinque	6
▁orno	6
etes	6
▁Hecatzin	6
hue	6
▁xitinque	6
▁nicchiua	6
▁pactica	6
▁tepahti	6
▁komalko	6
▁toconito	6
tlal	6
▁mitzmo	6
tetzotzon	6
ab	6
itiuh	6
▁tlatzilini	6
▁tecul	6
▁onte	6
▁patio	6
▁kimati	6
▁oquitemaca	6
nezcayoti	6
mayiti	6
mmaca	6
▁timonequilti	6
▁tlacateccat	6
▁tetzc	6
▁tot	6
mal	6
▁huac	6
▁oquinyacan	6
▁CHIL	6
ETL	6
ilo	6
▁Tecui	6
tlapalehuia	6
▁quinyaoyahuallo	6
qu	6
▁Tlacateuh	6
escuela	6
▁tlachihual	6
▁itz	6
▁tecuani	6
▁ynacaztla	6
tlali	6
mocaquilti	6
▁Malitzin	6
▁quihuicac	6
vamderra	6
caz	6
▁otitononotzque	6
▁nicnemilia	6
▁quilpilli	6
llocan	6
▁tlatlauhqui	6
▁Ru	6
▁Reyno	6
▁Uitziliui	6
quimopialia	6
▁ocallac	6
▁mate	6
micti	6
▁tlazohtla	6
▁Nimitz	6
▁Dan	6
▁uitsyo	6
tlacahuan	6
▁vezino	6
▁tlamani	6
tenamic	6
▁onimitz	6
▁Cequi	6
▁Bernab	6
▁august	6
▁quetzaliz	6
ltzallan	6
mictizque	6
▁conpatla	6
▁oquimotla	6
maquili	6
▁Malin	6
spañoles	6
huiliztli	6
calehcapo	6
▁xoc	6
▁zacuan	6
▁Tic	6
▁onchicuace	6
▁iyeya	6
▁Asi	6
piqui	6
kwali	6
▁quimoquenti	6
▁quicauhti	6
▁quitlapo	6
▁otlih	6
liuhtica	6
▁huecapan	6
tajtol	6
▁Xochin	6
sako	6
calmimilo	6
▁Nopiltzintzin	6
▁cuitlapill	6
▁atlapall	6
tentli	6
alti	6
▁nimonan	6
▁Zanno	6
kalaki	6
▁oquiquixti	6
macehua	6
tipa	6
▁Amoca	6
macpal	6
▁kikualia	6
tlalcoual	6
tocaya	6
▁Regin	6
▁teix	6
▁icxi	6
poztec	6
▁Otla	6
▁otequiti	6
▁omoquetz	6
▁Cuitla	6
▁sis	6
sta	6
xitia	6
▁cator	6
tlachicahuilili	6
▁moyocoya	6
▁kikaua	6
▁Anca	6
▁quilhuiquixti	6
nbr	6
▁Malacate	6
pec	6
ú	6
▁micalli	6
▁čiki	6
tlen	6
▁kimikti	6
▁iteyc	6
▁tlalpollo	6
▁ycauaca	6
mekoj	6
▁cehui	6
▁Yalhua	6
hualoc	6
cizque	6
home	6
itu	6
▁tlacualchih	6
ltzinco	6
▁monemiltia	6
▁huatzinco	6
▁xiqui	6
▁omotequipacho	6
▁chiqui	6
nahuatilli	6
▁mitotia	6
▁Xico	6
▁mical	6
mitra	6
▁matlaquilhuit	6
idad	6
▁huetzti	6
▁tonquiza	6
á	6
esek	6
▁quiihtos	6
span	6
▁moteochiuh	6
▁teupixqu	6
ehuetzquiti	6
tamachilis	6
▁moteneuh	6
▁molpi	6
▁Quauhtzetzelt	6
▁alma	6
▁yocu	6
▁otecaquitil	6
▁niquix	6
▁arroz	6
▁ahua	6
▁mazo	6
paccanonotz	6
nemizque	6
ikan	6
▁yotla	6
▁yaotlato	6
▁Uta	6
▁nompa	6
▁siem	6
uallitlan	6
▁yoquich	6
ispan	6
▁ualmo	6
▁totlatqui	6
▁Ad	6
ixtlahuaz	6
inechmopahcayohu	6
▁mone	6
▁az	6
cayohua	6
▁Mota	6
▁ahciah	6
▁Just	6
▁llice	6
ten	6
▁niccohua	6
▁mellel	6
▁vandera	6
callac	6
▁yteyccauh	6
▁teč	6
▁motlapacho	6
▁quimpehua	6
▁hualhuilohua	6
▁mal	6
▁ita	6
▁Cipac	6
cio	6
▁niaw	6
▁Iz	6
▁xitech	6
yocox	6
quizayan	6
▁quitlati	6
▁Nanal	6
▁huiloa	6
▁ticmatiz	6
▁epohual	6
totonil	6
▁Cuetlaxtla	6
▁makuil	6
qué	6
rda	6
▁tie	6
▁cuah	6
▁totatoc	6
▁Teyehua	6
eocolhua	6
huitltemoc	6
IN	6
▁tatok	6
▁ganin	6
notlatlahtia	6
▁coatl	6
▁tekitl	6
yolqui	6
▁quimach	6
tos	6
xoxoui	6
htocatlalitzino	6
▁onquiz	6
▁Bartholomé	6
▁toaltepe	6
▁contoca	6
tlahtohuani	6
▁kar	6
▁quimotlapalhui	6
▁papac	6
uhtiuh	6
▁timochi	6
▁icococa	6
ponti	6
▁quicuiliz	6
▁Estado	6
totoca	6
▁Quauhtla	6
▁nicquetz	6
▁cuepon	6
▁ticcaquilti	6
▁çann	6
ualhuia	6
▁acame	6
▁quihtotia	6
xquichtin	6
tlachihualtzin	6
▁uecaua	6
▁Bonifacio	6
▁niquita	6
▁nohue	6
pitzac	6
pohuan	6
▁ičpokato	6
oncexiuhti	6
▁oquinchiuh	6
▁chicontetl	6
▁Pochtla	6
quixmati	6
miximati	6
▁Nonohualcat	6
▁timiquiz	6
▁chantih	6
▁Mochipa	6
ematl	6
▁callaquia	6
▁mopouh	6
quetzalli	6
nacaz	6
▁ticmaca	6
ihuitl	6
▁moihc	6
tlatzoal	6
ltenco	6
cu	6
amox	6
▁quiçaz	6
manaya	6
▁quinmoquixtili	6
▁ihquin	6
▁limon	6
▁yyo	6
▁ninomati	6
alticpactzin	6
▁tec	6
▁mixco	6
▁iyao	6
▁mahuiztique	6
chipahuaque	6
▁ahuiyacan	6
uili	6
▁Sekin	6
▁tlatzacual	6
moctzin	6
▁excan	6
▁tlahtolloyan	6
chicahuaque	6
tlalmomoz	6
pez	6
chihuaya	6
lantlaca	6
▁quimomachitia	6
▁tepacho	6
mando	6
çoquiquixti	6
▁Coza	6
▁uexotzincatl	6
▁Mixcoua	6
▁Ocuill	6
▁yyao	6
▁anquito	6
▁quixtlahuaz	6
▁Maquimatica	6
ntlanahuatil	6
uayan	6
▁Tlananquili	6
▁motlan	6
▁tlaxi	6
xixitin	6
▁Yxco	6
ltic	6
▁xitl	6
▁čan	6
▁nemoa	6
▁Quau	6
▁tiki	6
▁honp	6
▁iztay	6
▁ocnoce	6
▁teteuhcti	6
tapani	6
▁ichte	6
▁itzotzoma	6
huane	6
quiltic	6
▁oquimoteoti	6
▁Caxtolli	6
▁vi	6
quema	6
▁noze	6
▁Xicomoya	6
▁metsti	6
▁notex	6
htoqueh	6
▁huapal	6
▁mexihca	6
comitl	6
nequia	6
cel	6
▁weya	6
chihuazquia	6
▁ohualtemo	6
▁quicuique	6
titlania	6
▁Quimach	6
▁Senador	6
▁nahuatlahtol	6
▁quinnahuati	6
▁quiualit	6
▁temazcal	6
teyacan	6
▁ajkopa	6
pitzahuac	6
tób	6
▁otica	6
▁notia	6
▁treinta	6
eua	6
▁itechpan	6
▁icruz	6
▁chicuacenpohual	6
▁otimo	6
▁iztaque	6
▁tepeua	6
▁otoconcu	6
▁tecua	6
chiuh	6
▁itec	6
▁Niño	6
▁ythual	6
▁beint	6
▁ispan	6
▁quitlatla	6
▁ixiuhtlapo	6
dico	6
▁Uajkin	6
▁Ozoma	6
▁Toltitla	6
▁Villa	6
tlahuiz	6
colli	6
popocatzi	6
▁manzanah	6
▁Momoztla	6
▁omocalti	6
▁ixtlahuatl	6
▁Nex	6
ualmotlalli	6
cas	6
▁Fi	6
ezcayo	6
huian	6
▁kuenta	6
▁Cohuatzin	6
▁tos	6
hualneci	6
pouhqui	6
uc	6
lamanca	6
▁amotla	6
quiliz	6
▁tema	6
▁Teuhcxo	6
▁itenyo	6
▁miequi	6
▁Quauhtlatoa	6
▁nepapa	6
▁quipollo	6
▁Cuauhx	6
▁pati	6
▁niquitlani	6
▁ipehuaya	6
lloni	6
▁pueblo	6
Ca	6
▁tlahca	6
▁Tepo	6
▁Tlatlahtocayo	6
tequihuacayo	6
▁Lú	6
▁Neh	6
▁moteilhui	6
▁quiteneuhti	6
ales	6
▁Iyol	6
oquizaya	6
▁persona	6
tillo	6
manili	6
▁quipacho	6
▁kometa	6
▁tlamama	6
oti	6
▁kuento	6
▁huallehuac	6
ahuilti	6
▁achitonca	6
zoh	6
calpol	6
▁Chimalma	6
▁tamal	6
▁ycallaquiya	6
panoaya	6
huitequi	6
▁tlaol	6
▁mohuaxca	6
▁concuiz	6
▁nemizque	6
▁tenantzin	6
▁quimi	6
▁quimonequilti	6
habito	6
▁itestamento	6
▁kaltsinta	6
huallamattia	6
▁ixhua	6
cmatlactlomome	6
caquitia	6
▁nicneltil	6
▁oumic	6
▁tlacoch	6
▁quinyacan	6
auhcampa	6
▁toton	6
▁ixmati	6
▁Que	6
tlahuitol	6
stlacosauh	6
▁tixpa	6
yeliz	6
▁ixtla	6
ecni	6
▁cehual	6
▁timocahua	6
tzonquiça	6
tecpaneca	6
▁frai	6
▁quitztica	6
akaj	6
ebes	6
poyahua	6
▁otlacati	6
ako	6
wis	6
▁Tech	6
▁ihuinti	6
▁yewi	6
▁tlacatque	6
tolo	6
▁merce	6
▁teyttitilo	6
omeh	6
▁quihuinti	6
ego	6
tlapohual	6
▁yexpa	6
▁polihuiz	6
tequitl	6
▁mozcalia	6
▁macehualtzitzin	6
oloc	6
▁Yacahuetz	6
▁Hel	6
▁Oya	6
iotl	6
▁xiuhtla	6
▁tlajko	6
▁inhuel	6
▁tothatzi	6
epke	6
temoa	6
▁tlacuillo	6
ihuitzin	6
miquillitzin	6
▁techan	6
▁onihui	6
huaca	6
▁centlan	5
▁temoque	5
moteochihuilli	5
okachi	5
▁Mixcohuatl	5
▁kalijtik	5
▁Noteahu	5
uca	5
▁ikuitlapa	5
▁occeh	5
yehuatl	5
tlamatiliz	5
▁talpan	5
▁weyi	5
chia	5
▁ycalaquiam	5
▁nicouil	5
▁quauhtlahto	5
malacachotih	5
▁Chacha	5
▁mopohua	5
maquilli	5
justicia	5
chí	5
▁omahuilti	5
▁Unca	5
cuepca	5
▁ayya	5
ono	5
▁bor	5
▁ič	5
▁anmohuica	5
▁Otech	5
▁motlancuaquetz	5
▁notomin	5
tlahuilli	5
▁quimichi	5
▁noxochi	5
nenequi	5
▁pol	5
laquico	5
iua	5
tlazotla	5
technonotza	5
▁huitza	5
▁ihuitz	5
iko	5
alton	5
▁chapol	5
▁tetzahua	5
tur	5
chiua	5
PA	5
▁quinauati	5
▁omotlanahuatili	5
▁calaquiz	5
▁yohui	5
pilla	5
▁teuctl	5
▁quincuiliz	5
▁quimocuitlahuiz	5
animan	5
tejtek	5
piaz	5
▁olin	5
tlanel	5
▁quimocahuili	5
▁mocehui	5
▁ycnauh	5
▁quipachoua	5
▁quimmaca	5
▁tzihuactla	5
▁cuillotl	5
▁çacatla	5
▁ilihuiz	5
matinime	5
▁yuwa	5
cuauhtlahtotia	5
▁tocoto	5
▁tiw	5
▁kitla	5
matlac	5
▁Acolhuaca	5
▁QUE	5
ilhui	5
▁intzon	5
yauhtzin	5
▁quicaquiz	5
ochtzin	5
laloya	5
vi	5
▁siya	5
▁quimixnamiqui	5
▁tlecopa	5
▁pahpaqui	5
intla	5
▁tlatzacuiltil	5
▁mecahuiteco	5
▁cortes	5
tlahcuilo	5
iton	5
axcalli	5
▁otemoc	5
▁cuicanitl	5
xanco	5
cahuilia	5
vallos	5
▁nohuel	5
▁mopilhuan	5
ehuaya	5
▁hualte	5
▁pielo	5
liznequi	5
▁Celestial	5
▁nene	5
catzitzintin	5
maco	5
yolcocoa	5
bano	5
▁tlatlaz	5
tlatecpan	5
▁yetetl	5
tlalhuiquixti	5
▁cirio	5
▁ixquichi	5
▁tzatziz	5
▁mehua	5
tenyo	5
cuauhyo	5
▁cecec	5
▁sehcano	5
▁quiixtlali	5
▁čiči	5
onequixtil	5
xotlac	5
edi	5
▁ohue	5
▁tlahtocaaltepe	5
ozquia	5
▁namicoz	5
▁quiuatqui	5
▁nicxochi	5
monemitiz	5
cehui	5
tennamic	5
▁vara	5
▁toconmela	5
▁quicencau	5
ixmati	5
▁tlacotenc	5
tlacpac	5
panoya	5
tlami	5
▁Conilhuia	5
▁metst	5
▁quiximati	5
cacque	5
▁honpohual	5
▁nipilt	5
icpiaya	5
▁xih	5
▁Note	5
▁ichpuchtzin	5
▁ajko	5
▁tijtil	5
▁kajfen	5
xiuit	5
▁conmanili	5
▁caltempa	5
tú	5
▁nemih	5
macaz	5
▁civil	5
▁oquintla	5
temactilis	5
▁teixco	5
▁moquixtia	5
▁tlatoaya	5
zotl	5
▁Acul	5
▁Teocuitlap	5
cpa	5
▁anquimati	5
▁atliua	5
▁quinmocuitlahui	5
▁mococoa	5
ños	5
▁mayan	5
▁niquiximati	5
huetz	5
▁omi	5
▁parte	5
▁ori	5
▁profet	5
exo	5
▁tuwalt	5
▁tiwala	5
▁quitzacuilli	5
▁icomienda	5
▁ximotlali	5
▁duques	5
▁XXIII	5
ajar	5
ijuikas	5
▁kilnamiki	5
▁tekiti	5
▁motlapachilhui	5
▁tečmaka	5
ura	5
▁quenma	5
▁matlacpoal	5
xico	5
quitenyoti	5
▁iteopanc	5
▁teyo	5
ijtik	5
yoquic	5
▁quilpi	5
▁mocehuitzino	5
▁quimocuiti	5
▁yxpa	5
phet	5
motta	5
▁Acuezcoma	5
▁itlachi	5
▁notlalnaca	5
▁moilochti	5
▁kenk	5
▁quiselis	5
▁tepos	5
yolloco	5
▁iyaoquizca	5
nelli	5
▁quinpalehui	5
opochcopa	5
tentoc	5
▁Quil	5
▁tzillin	5
▁Teotihuacan	5
▁Tenonotzaliztl	5
tlall	5
▁iteco	5
tztoc	5
▁yahtinemi	5
▁quitocatinemi	5
▁quitenehua	5
▁proces	5
mocentlamachti	5
▁cacahua	5
▁pitzome	5
ibuen	5
ixko	5
▁nipahpaqui	5
metzpa	5
chicuacen	5
▁otoco	5
oltica	5
▁motepe	5
▁ocenquiz	5
▁tlamamal	5
▁motlallia	5
▁yeylhuit	5
▁techual	5
▁cihuanton	5
quihue	5
▁ychina	5
▁Nocni	5
ë	5
rag	5
akak	5
orral	5
taro	5
▁teuton	5
uiaya	5
pehuazque	5
dre	5
▁Guadalcá	5
▁quimolhuia	5
▁Ximotlali	5
HUA	5
▁oquinmomaquilli	5
▁cavalleros	5
▁monges	5
▁monemitia	5
walkis	5
▁aquen	5
▁tlanextia	5
litzino	5
▁Ph	5
▁otzintic	5
▁quateçontzi	5
kana	5
▁Neca	5
paño	5
▁quimocaltili	5
▁tzitziquitzin	5
nexti	5
tipohualo	5
xa	5
▁hualmoto	5
▁ichpo	5
▁imaceual	5
▁aua	5
KAMOJ	5
mayahui	5
yocoyalloc	5
popolo	5
▁Ayopocht	5
tomahuac	5
▁ehua	5
▁tematequilo	5
icnopillo	5
▁At	5
▁tlahe	5
▁Onech	5
▁Quaquauh	5
▁yoquichhui	5
tlatlani	5
fi	5
pi	5
▁kitemo	5
▁Justi	5
notlahuel	5
machiliz	5
ltin	5
euhctlacoçauh	5
▁fi	5
cacopa	5
▁imma	5
ciuhca	5
▁oquincui	5
▁hualmiquani	5
▁quinmopachilhui	5
ocu	5
▁tlazomaxtla	5
▁mazatl	5
▁monauati	5
nolhuil	5
▁onmatl	5
etitlaniz	5
▁quinmotlalili	5
▁hualyeti	5
▁huallo	5
▁nečtla	5
▁Nino	5
▁Tepaneca	5
▁awelito	5
▁Tocui	5
ltecatl	5
▁tepoztlacuepon	5
▁oye	5
uicaz	5
manahui	5
▁Crucifixo	5
▁huiptla	5
eyçahui	5
tepehual	5
atzitzintin	5
quizqueh	5
netequipachol	5
tekitise	5
lhui	5
▁Tecama	5
▁otlacua	5
onakat	5
▁Otic	5
▁quicuazque	5
nka	5
▁kweb	5
▁itečin	5
▁ake	5
pilo	5
anti	5
▁quimochihuiliz	5
namacaz	5
▁konetl	5
teco	5
mantoc	5
ixui	5
miqui	5
▁icha	5
icnotlamati	5
▁macehua	5
tlapana	5
▁ixiptla	5
ach	5
TOMAT	5
KOYO	5
motlalli	5
▁quiman	5
chixtica	5
▁Yoal	5
▁yaotlapia	5
ses	5
ehuayo	5
▁comino	5
▁tomahpil	5
ahhuilia	5
▁teoc	5
quicauh	5
▁Roch	5
▁quimomaca	5
▁Ycno	5
▁onoz	5
amilca	5
▁itzmiquilitl	5
▁poyox	5
▁tlatzacca	5
▁onezque	5
▁mapapatauak	5
huantoc	5
▁tlapitza	5
macuilpoal	5
▁inhuicpa	5
notztia	5
cializ	5
▁tlallolin	5
ittaya	5
▁axihua	5
▁nicn	5
taol	5
▁Toribi	5
epantla	5
ualoua	5
O	5
▁monan	5
imihiyo	5
▁tlaquetzal	5
xayac	5
huilia	5
▁hordinario	5
kišmat	5
omačti	5
tlacamecayoti	5
nijke	5
▁moxima	5
monahuatilli	5
manaca	5
▁mochin	5
▁ipilhua	5
▁xexeliuh	5
▁inteo	5
am	5
▁ycuiliuhti	5
▁cochiz	5
uati	5
▁nahuati	5
calxelol	5
cihuaicni	5
▁tetlacolti	5
▁quixelo	5
atipa	5
▁itlaquen	5
taj	5
▁ytzonteco	5
nonqua	5
▁momachitia	5
▁momatiz	5
▁none	5
zcaliliz	5
▁am	5
▁nauhcanpa	5
▁Amil	5
catlteuhc	5
▁Tepetla	5
iak	5
▁ocello	5
miz	5
quentia	5
tlanilli	5
▁kas	5
kema	5
▁XXII	5
aloc	5
hpan	5
▁imman	5
▁omix	5
ahuaqui	5
▁Gon	5
lcahua	5
catzitzinti	5
▁quimin	5
▁Tlach	5
huica	5
quihuecapano	5
▁quitlalten	5
▁kwalani	5
lania	5
manta	5
ečilwia	5
▁conc	5
namaki	5
▁kion	5
▁Tlauel	5
▁Tlantilolco	5
▁huelitiliz	5
▁totlahtoca	5
mecauh	5
itiz	5
▁nonemiliz	5
▁tlapo	5
nanquiliz	5
kito	5
▁titlakwa	5
▁Totoquihua	5
▁omocuepque	5
▁quinmohuiquilli	5
xquich	5
▁quitzonquixti	5
▁nocontlali	5
tlatlacol	5
▁quemen	5
▁hualmocallaqui	5
▁motlaliz	5
totol	5
▁poli	5
bo	5
quilia	5
moyahua	5
▁yehuanti	5
▁xochimil	5
▁mohuepahua	5
coal	5
fri	5
▁Juare	5
▁takua	5
lis	5
kwalikak	5
potoni	5
▁immonaca	5
▁quetzalitzt	5
▁Ja	5
▁mochiuhtia	5
macazque	5
rka	5
▁quinanquilli	5
▁quihuallitta	5
▁iquech	5
▁chiquacemin	5
tiyanquiz	5
▁quihualtem	5
yunka	5
▁momachtizque	5
▁moix	5
▁Motecuhçoma	5
▁quitoquilia	5
uicaque	5
uauhtzin	5
ualiztli	5
toto	5
▁tlanauatia	5
▁itokay	5
▁Vi	5
▁omonanahuati	5
▁Mohuic	5
▁tlapitz	5
quimacaque	5
tencopa	5
▁ocaxilti	5
yu	5
▁quiualilhui	5
▁quichi	5
alem	5
pepetlauh	5
▁Tequan	5
xayacatzi	5
▁yhuin	5
chihuilli	5
▁tlamachtil	5
▁Noca	5
titotlatolcuepaz	5
▁tlacoçahuia	5
▁Totecu	5
▁Macuilp	5
▁chilpitzahuac	5
▁pohpolihui	5
▁hocat	5
iuhtia	5
conmana	5
tlacemicnopilhui	5
▁immitzin	5
▁tlacuicuil	5
▁tlamelahua	5
▁chichic	5
ierra	5
▁ume	5
▁Cemanahua	5
▁tlayohua	5
alcatl	5
▁Totol	5
▁quiquetztia	5
▁quitlaça	5
chichiuh	5
▁monetolti	5
fessión	5
▁nikita	5
▁ytlalpan	5
▁itiachcauh	5
▁Ke	5
nen	5
▁Des	5
▁nicalaqui	5
tecon	5
chocaya	5
mayauh	5
▁ipampan	5
itech	5
▁motlahtocatil	5
▁quinmochihuilli	5
▁kikuecho	5
▁oyeco	5
sio	5
▁ipetl	5
▁oualla	5
▁nokone	5
▁techpaleui	5
▁Universi	5
▁yntlatoca	5
aquilli	5
▁chicuexiuhti	5
▁xw	5
▁ypial	5
huelic	5
tze	5
▁tlahuana	5
▁tiquinmaca	5
▁nocne	5
▁ticuazque	5
ovar	5
mofirmati	5
▁oxiuhti	5
▁tecu	5
tleya	5
namacoya	5
▁tlacanecuilo	5
▁auto	5
▁molino	5
▁Viv	5
intokay	5
▁tatama	5
lot	5
▁tewa	5
elipe	5
▁tama	5
▁motzicoa	5
▁maquimatica	5
aiac	5
▁itelpoch	5
▁niccuepa	5
▁Uacal	5
▁impa	5
eu	5
nila	5
apa	5
chiuaya	5
▁yvispera	5
▁quineltilizque	5
ueyo	5
▁Teatin	5
tlamatihui	5
▁caxtilantlahto	5
▁quipanahui	5
▁tlallolini	5
icoton	5
ehuiliaya	5
paka	5
▁tekuani	5
quauhnahuac	5
▁kini	5
▁peones	5
▁Amilpam	5
▁cehuiz	5
▁nehnemi	5
▁quimocallaquil	5
ihtoa	5
▁quiten	5
▁huipil	5
oqui	5
▁conmochihuili	5
▁quizaloz	5
eteylhui	5
oquizque	5
yaoquizca	5
▁galli	5
▁omonemili	5
▁lugar	5
▁cuanaca	5
▁Coyol	5
▁mon	5
▁tiltik	5
▁tictocuitlahui	5
▁tlemamal	5
▁quitlatlauhtia	5
moteneuh	5
▁ichtaca	5
▁yoa	5
▁pepen	5
▁oquixixitini	5
▁mit	5
miccahue	5
kwent	5
▁Queni	5
ozque	5
▁tetetstik	5
▁oquimpeuh	5
▁Azca	5
▁Xa	5
▁cihuapipilt	5
▁Quiyauh	5
▁amic	5
capa	5
pachoz	5
▁chikaua	5
xochime	5
▁kipa	5
▁quimmac	5
▁AUH	5
TZ	5
▁hualoli	5
morado	5
▁notata	5
▁yxpoyahua	5
▁omoteylhui	5
▁yancuique	5
▁omomauhti	5
▁tamali	5
▁tenex	5
▁concauh	5
▁Cuauhtemoctzin	5
ál	5
▁chichil	5
mekat	5
▁nanmo	5
▁amotlatoca	5
▁quinemilti	5
omopehualti	5
▁confirmació	5
▁koua	5
▁tiaw	5
▁Yhuitl	5
▁hualmocueptzino	5
tzacuh	5
contetl	5
▁testico	5
pixca	5
▁nicpo	5
▁tlalcou	5
oaz	5
motlatlauhtilia	5
▁key	5
tlatlalochti	5
cavallo	5
nahuatitia	5
▁yehuatzi	5
xilan	5
▁ynquisidores	5
▁estandarte	5
▁yaomiqui	5
maceuh	5
▁ancate	5
poctlan	5
▁tlapallan	5
▁quinechico	5
ikniua	5
quimotlaltia	5
▁onotzalo	5
▁Beat	5
▁Xocon	5
▁Dionis	5
nečmaka	5
sion	5
▁nikile	5
ale	5
tiquitaque	5
▁Ayocua	5
notzalo	5
čiwalti	5
▁Im	5
▁quiauh	5
▁nanahu	5
▁omocencauh	5
▁motlacatili	5
pilhuantzitzin	5
▁momama	5
éne	5
escrivano	5
▁yhuicpa	5
▁Quaquauhçi	5
▁Moquiui	5
mahpict	5
tlazque	5
▁coche	5
▁Nahual	5
▁quicuepil	5
▁omatlactl	5
▁inne	5
▁Oca	5
▁tlalmaceuhqu	5
▁tijkuaj	5
▁tzopelic	5
▁ytzti	5
▁techmo	5
xochiyo	5
▁oquixitini	5
tzatzaqua	5
ihcuilo	5
▁yoya	5
▁tlacualoya	5
▁toka	5
▁huerta	5
▁itlanex	5
ayo	5
▁Ton	5
▁totonia	5
amanqui	5
▁mocnelili	5
htili	5
caquiti	5
▁ypiltzi	5
▁Tlahui	5
▁kitekili	5
▁ittaz	5
▁iicniuh	5
▁caxtillan	5
calmecac	5
liliztli	5
ilio	5
▁Nicpia	5
▁yntlal	5
notz	5
▁momac	5
▁noconito	5
▁timotla	5
▁cualtetzi	5
▁mocolhua	5
▁ahuiac	5
nahuatili	5
▁tlejkok	5
nomatca	5
mocemaxcatilli	5
quatequi	5
▁libre	5
tekitiske	5
▁Toteco	5
▁neto	5
tlatziuh	5
▁tomil	5
imopanolti	5
ayyo	5
▁xquin	5
▁techpalehuiz	5
▁Guad	5
rax	5
▁milpa	5
poua	5
mokejketsa	5
▁Tomatla	5
lama	5
▁antle	5
uz	5
uhtiaque	5
▁omocehui	5
yollali	5
▁otechmo	5
tka	5
▁quimoyacanilia	5
cameh	5
▁azta	5
mundo	5
iaque	5
▁ohuetz	5
mihtalhuia	5
eltica	5
▁quimocihuauhti	5
▁onhuala	5
▁yxcoyan	5
▁motechiuhcaua	5
▁kichijchiua	5
▁imach	5
▁tixochit	5
▁ixtlahua	5
▁walpano	5
quauhtla	5
▁Ci	5
▁otechilhui	5
uillo	5
▁may	5
caltzin	5
CO	5
▁Tol	5
lilia	5
▁šo	5
▁oquinmicti	5
hquez	5
comienda	5
▁amihiyo	5
▁tlapapal	5
▁Nomaicni	5
ahuiyacan	5
▁itztoc	5
▁nohua	5
▁Profes	5
▁ihuitopil	5
yi	5
onimic	5
▁onquiça	5
nganin	5
icontetl	5
▁nimitsilui	5
▁ipillo	5
▁kuapalak	5
▁monequiltia	5
tzinoz	5
T	5
mopehualti	5
▁Nech	5
poall	5
oatl	5
iuhti	5
▁cihuatontli	5
▁otimitz	5
▁otitlacat	5
▁temimil	5
pahuic	5
▁cuartel	5
nez	5
▁notzallo	5
▁Cuetlaxo	5
▁quihualtoca	5
▁quauhtlatollo	5
▁quihualmama	5
▁Uitzilopuch	5
▁Tizoc	5
▁Mihtoa	5
▁ijuanti	5
▁tamechtohuiquil	5
▁tlateteko	5
▁Tlaqui	5
tzcali	5
neyxcuitill	5
▁mocentlalia	5
▁otu	5
kas	5
močiwili	5
quey	5
▁ounaci	5
axca	5
▁Jacobit	5
▁yot	5
▁momacaz	5
far	5
motlazotilia	5
▁TE	5
▁tlatzquito	5
▁napoualli	5
▁nicnanquili	5
▁motomine	5
▁teyollo	5
ssesió	5
▁Rr	5
TL	5
▁mizquitl	5
cpatl	5
xayaque	5
▁Tzompahuaca	5
▁sowa	5
hicac	5
▁Herm	5
tca	5
▁quicuaz	5
▁nauilhuit	5
▁Yzcoatzi	5
lohua	5
▁cuetlaxtecatl	5
▁ymal	5
▁cepaya	5
▁oquinnahuati	5
▁kite	5
petl	5
tloc	5
▁Totec	5
uico	5
▁angli	5
▁moten	5
xoco	5
tlapallo	5
elnamiqui	5
▁izca	5
▁quicaua	5
tlahtocatlallilo	5
▁onpan	5
▁Pasqua	5
▁titlakuas	5
▁niyas	5
▁Quah	5
chijki	5
▁Yztacal	5
tlacuauhnahuati	5
▁tlalman	5
itlema	5
▁kipaka	5
▁nihual	5
▁huilohua	5
▁cocoya	5
malhuaçoca	5
▁ynemac	5
▁nacayo	5
▁kikoua	5
▁actihuetz	5
▁Paz	5
ztica	5
▁mayanallo	5
alla	5
azar	5
▁conix	5
tecutli	5
▁tiwi	5
▁motata	5
maro	5
altin	5
ltilli	5
▁tlaihiyouilizt	5
▁moteneua	5
▁Chalchiuhma	5
▁ytlacauh	5
▁tzatzayan	5
anime	5
▁çoqui	5
▁timonan	5
▁albacea	5
▁uajtli	5
▁hualpe	5
▁Eva	5
▁Oaci	5
▁kito	5
▁tepatique	5
xiuhtia	5
uhtoc	5
▁Teuc	5
▁Oco	5
▁Acolma	5
▁quichihuaznequi	5
zacatl	5
eliz	5
coliztli	5
▁quimictia	5
▁mixnamic	5
▁Cani	5
sur	5
▁centecpan	5
▁mero	5
alca	5
niquilhui	5
▁hualnez	5
titia	5
▁Popo	5
▁macuiltzon	5
▁Moteoczoma	5
▁otlamomotla	5
▁yxiuh	5
▁mocuic	5
▁Alç	5
ega	5
▁matlatlac	5
cohuaz	5
▁culhuacan	5
▁xim	5
▁nimiquis	5
▁mulatoti	5
▁nauinti	5
▁onmiquani	5
▁Acal	5
▁officiales	5
▁ximopanolti	5
▁yten	5
▁uc	5
cencahua	5
▁neltillizt	5
▁intlahtocayo	5
▁epoual	5
▁sikiw	5
okoj	5
kespa	5
▁molini	5
▁kikaki	5
▁int	5
pahpati	5
▁viz	5
▁quipallehui	5
▁Magn	5
▁Itzt	5
▁moxochi	5
▁yquiza	5
▁cempual	5
ntoc	5
▁itia	5
uchtzin	5
▁mizquica	5
huallo	5
▁teuhc	5
icuiliuhti	5
omic	5
▁oquimon	5
beatificaci	5
▁zanio	5
pollo	5
▁ip	5
▁nopapá	5
pohpoa	5
▁ochpan	5
asitiw	5
▁nicpiazquia	5
▁yehyecatl	5
olegio	5
▁ohuel	5
▁metzt	5
for	5
▁Chiapa	5
▁achica	5
▁itlaaltil	5
lloco	5
▁cuart	5
▁inextla	5
▁Math	5
▁Monser	5
▁tenamiki	5
▁chinampaneca	5
▁tlatete	5
▁quicouh	5
tepiton	5
▁castillo	5
▁Atoto	5
ekwt	5
benta	5
kano	5
iquipilc	5
tepequec	5
▁Cap	5
anpa	5
QUIN	5
itizque	5
cofradía	5
eas	5
▁Fran	5
ñe	5
▁umoteca	5
▁oquitecaquilti	5
lle	5
▁canon	5
▁tzomi	5
traba	5
▁tepal	5
▁Cuitlauac	5
non	5
nemili	5
▁imachiyo	5
conehua	5
rrill	5
▁mocuecuep	5
▁ipiltzi	5
xillo	5
▁ynmac	5
▁acolnauacat	5
▁otlayahual	5
▁Kiilui	5
▁estaga	5
tsi	5
▁kikuito	5
ivitla	5
▁timika	5
▁Tlalocan	5
▁nahuatlahto	5
tzintla	5
▁mocueptzino	5
▁tlachix	5
▁pica	5
tecpancal	5
▁tlapco	5
▁Oficio	5
tlayocoya	5
▁huehcahua	5
itlahuiz	5
▁timaco	5
▁titlazohtlazqu	5
tiv	5
apata	5
▁chipaua	5
▁noteh	5
▁oquimopaccaceli	5
▁Carran	5
▁Tlazo	5
▁caxtilantlacah	5
▁Merc	5
cuitlapan	5
tlacatecollo	5
▁coco	5
nonotzque	5
▁tichane	5
ocatzin	5
▁ayxtlahua	5
▁Velá	5
ahue	5
▁quenman	5
monanquilili	5
quixtiaya	5
▁jubileo	5
teilhui	5
▁nec	5
mania	5
▁mano	5
peualtia	5
▁kajón	5
▁Tlan	5
miquiliz	5
tlacallaquil	5
▁tlatzotzona	5
yezque	4
▁sekin	4
▁patlah	4
▁xinechmo	4
▁tlahcuilolli	4
ezque	4
▁noxuiuh	4
▁Xichual	4
▁TLA	4
nauhcampa	4
▁Tolnahuac	4
temo	4
▁tlaye	4
▁nimitzn	4
▁onemia	4
▁tomal	4
▁tlacotl	4
▁tlahtocatiz	4
▁mohuicaz	4
onmicuani	4
▁tictlan	4
▁tachcauh	4
ixahuia	4
tlalnamiquiliz	4
▁quitepotztoca	4
▁iluikatl	4
uallachia	4
titlaniz	4
huiaya	4
▁Mex	4
▁ohtlatoca	4
▁nat	4
cualtzin	4
HUAN	4
▁quilui	4
▁cecem	4
anto	4
▁motzon	4
▁ijk	4
ltal	4
▁kanik	4
▁itlacauh	4
▁yxtlahua	4
▁tlatemowi	4
▁kiyek	4
loaya	4
ehualoz	4
▁mohue	4
▁motlaloa	4
timitzmaca	4
▁icniuhti	4
▁Antoni	4
▁huallitztoc	4
▁ninomiquili	4
matlactlomey	4
▁quenamica	4
mahuiz	4
maquixti	4
hcatzin	4
neltiliz	4
▁nesi	4
▁nextamal	4
▁orégano	4
llohuaya	4
▁quimixiptlati	4
▁tiquihtoz	4
aloz	4
zouipill	4
catla	4
pepeni	4
▁yeki	4
▁yepohuallo	4
▁Nauh	4
QUI	4
ollohua	4
yoyah	4
ué	4
▁otlaneltoca	4
macehualhua	4
lacxipanhui	4
cuexcochtlan	4
▁Ytztlotzin	4
▁hualya	4
▁Tlaquilx	4
matcatzintli	4
▁xx	4
▁amocol	4
actica	4
▁iquizaya	4
▁moyahua	4
▁tiitstose	4
▁tikin	4
caltzaquallo	4
▁centímetro	4
▁uejkapan	4
▁motitiz	4
▁quimpia	4
▁Grec	4
▁axaxayacatl	4
motlapalo	4
tihuetz	4
▁Itey	4
kuoujyo	4
gada	4
tzayan	4
▁motlatqui	4
hualpanahui	4
▁isiua	4
▁quimotetza	4
▁Yx	4
▁Tloqueh	4
catoc	4
▁monextia	4
mocuil	4
▁xijmaka	4
▁motlatoltiz	4
úr	4
▁Nimitztatauhtia	4
olton	4
▁timitznotili	4
▁Onia	4
▁Ur	4
▁marque	4
▁quimocihuahuati	4
▁Opoch	4
▁contzinti	4
▁tequipanos	4
▁tlapalehui	4
▁cempoali	4
▁mochioa	4
▁oquix	4
▁kinimak	4
▁quitemohu	4
▁nemaque	4
▁teyxhuihua	4
tzacuili	4
▁omeh	4
tlahtocan	4
▁asis	4
xolehua	4
tlahtoli	4
ek	4
▁chihualo	4
tlapololtiz	4
xicoz	4
aqualti	4
▁otiqui	4
▁titlachia	4
omotlahtocatlali	4
▁opahpac	4
hualmiquanitzino	4
▁Atlaco	4
teponaz	4
quiquiz	4
▁Yoyo	4
▁nimitzilhui	4
▁quitlacamati	4
▁yuhca	4
otia	4
▁manima	4
vez	4
cocoliz	4
▁cenpoal	4
▁monamicti	4
▁quenameh	4
▁huelitiz	4
▁tontla	4
htzi	4
melel	4
▁oquimocuil	4
▁oquimocaquiti	4
tata	4
▁momachti	4
▁kaka	4
lko	4
▁tečin	4
calpixca	4
▁oczequi	4
otoc	4
moc	4
▁tlatomonki	4
tetzotzona	4
nican	4
▁kipixki	4
▁noyolio	4
▁teohua	4
▁motecac	4
zillo	4
▁momachtia	4
▁chicahua	4
▁pozon	4
macoque	4
▁Xoh	4
▁mimil	4
▁cuico	4
tijneki	4
▁tiye	4
▁ixochi	4
ane	4
▁Tzihuac	4
▁quimacicacaqui	4
▁toconnamiqui	4
▁ayot	4
ze	4
▁Tesca	4
▁quilnamiqui	4
▁cecenyaca	4
▁cecentlaca	4
▁conetic	4
quinmonahuatilli	4
▁quimatiz	4
xeliuhcayo	4
cuacecahuil	4
huiptla	4
mauhti	4
nauhpo	4
mimicti	4
nació	4
estre	4
▁naci	4
▁estava	4
▁pobres	4
uka	4
▁Anmehuan	4
▁tlalnan	4
▁yaotlapiallo	4
▁Icno	4
cuecuenot	4
ualyaca	4
▁ualcallaqu	4
▁Tezozomoct	4
▁Yaote	4
▁Cuauhtemalla	4
▁tzonquiz	4
▁yepewa	4
▁čiko	4
▁tiualajki	4
naquiz	4
▁notlaquen	4
▁tlaquen	4
tlahtoca	4
▁Tl	4
obarr	4
obia	4
▁Quilhui	4
▁ximonemiti	4
▁quitlahtlati	4
▁otitech	4
▁matlactloce	4
▁kuou	4
▁oniual	4
▁huian	4
tlahtocaycpal	4
catzinco	4
▁oquixtla	4
ista	4
▁Cahual	4
▁Huixacht	4
ualtzin	4
quimocnelili	4
potica	4
▁otlatopil	4
▁tetlatqui	4
ualloc	4
▁oquihuicac	4
tatah	4
motlahtlanili	4
▁nocuacuil	4
▁itepeuh	4
▁tlalhuacpan	4
▁Tiquin	4
▁copehualti	4
▁motlalitzino	4
▁Consep	4
▁gran	4
▁omoco	4
tlacatzitzintin	4
▁huacal	4
▁Quim	4
ocoltlatzillinil	4
▁yxtlamati	4
▁oaxcatil	4
▁ontlaxtlauaz	4
ahtolli	4
▁responso	4
▁quimihtalhui	4
▁otlan	4
▁netecpano	4
▁mama	4
▁tlahuahhualoa	4
▁cochi	4
nehnen	4
▁tlakuaka	4
▁contlaz	4
▁nemilizahuiyaca	4
▁nipaxialo	4
namacaque	4
▁descar	4
ços	4
▁timonequiti	4
▁Am	4
ér	4
▁inglestlahtohua	4
▁Ihyo	4
namiquiz	4
manon	4
▁tinechmaca	4
▁iatlapal	4
▁xexelolo	4
▁chicuacentetl	4
▁Antr	4
▁Merino	4
▁Ticoc	4
tenotz	4
▁Pu	4
chtlan	4
▁Tepitzin	4
temi	4
quetzalpatzac	4
▁Kejn	4
hueliti	4
▁kiix	4
melchiquiuh	4
ijtouaj	4
nemizqueh	4
▁ticchihuazque	4
S	4
entencia	4
tzonquizca	4
▁marquesa	4
▁Agost	4
cuitlahuic	4
▁tlanamaca	4
▁CA	4
moztlatica	4
▁conpeualti	4
▁mičoak	4
▁kipantem	4
▁Quitla	4
ncauhque	4
▁Xuchimilco	4
tlahtohua	4
▁tepehua	4
quiyahuac	4
▁Encarnació	4
▁xitin	4
▁Moteuhcçuma	4
▁icte	4
teniente	4
▁tecpayo	4
tlanamaquiliz	4
▁Alcalde	4
▁omotlahtolti	4
▁sol	4
amen	4
leta	4
ber	4
kitowa	4
alcalte	4
▁icehce	4
ontlahtocat	4
▁cihuateopix	4
▁teteco	4
▁huehueca	4
▁Lucia	4
pilti	4
močiw	4
▁ilhuil	4
xihui	4
▁pah	4
▁mihmati	4
tlanemili	4
▁niquauhtl	4
yahuallo	4
▁huallamelauh	4
motlamachti	4
▁yani	4
kamoui	4
▁Toton	4
nmanque	4
▁cozca	4
uanyolque	4
ciua	4
huetziqui	4
▁melel	4
▁miquitlani	4
ulla	4
▁Totomi	4
▁Tapal	4
▁ixne	4
tlayecolti	4
▁Omo	4
▁kuidado	4
▁baratu	4
▁almo	4
▁xichualcui	4
tlacatecolo	4
▁yte	4
tlati	4
▁tropa	4
▁tihuallaz	4
itzineuh	4
▁Huitzitl	4
kaj	4
▁ixtlahuatlaca	4
neli	4
alcay	4
▁bast	4
▁quincallaqui	4
▁cuicoano	4
▁oquimohuiquilli	4
tiwe	4
machiyotl	4
NIN	4
teochihua	4
matque	4
▁iztlacati	4
rólogo	4
▁onyez	4
▁amaxca	4
▁cuicuica	4
tecaya	4
▁siki	4
▁ivi	4
▁niquilhui	4
patioti	4
▁oquicel	4
▁kitl	4
yohui	4
▁Iuhqui	4
▁inezca	4
▁kalaki	4
▁quimixpanti	4
▁nahuatill	4
enin	4
tenoj	4
▁moteka	4
roa	4
▁ninoquixti	4
▁nipoliuh	4
ombre	4
quiliztica	4
▁misotlak	4
▁ycha	4
tojmi	4
▁menor	4
▁Gutier	4
tetetzotzon	4
▁oquichihuili	4
▁ychcapixqu	4
mandamiento	4
huitze	4
▁mochijki	4
▁xal	4
▁esquina	4
ech	4
bra	4
mahuizoh	4
▁tonn	4
nahuatilih	4
▁techcauh	4
kin	4
anilli	4
▁ocçe	4
tacatl	4
NO	4
▁quitocaya	4
▁topil	4
▁nac	4
mochiuhtzinotica	4
▁mocepan	4
▁otlat	4
tlatla	4
▁toto	4
▁xwe	4
akin	4
▁quimonamicti	4
▁Servan	4
moxillan	4
▁Nohuian	4
eonechicoliz	4
▁Moyocoyatzin	4
otinemi	4
quinamiquito	4
▁Chollol	4
▁yolo	4
nalli	4
tiquiça	4
iztica	4
moyolcehui	4
▁quenami	4
▁semilla	4
chil	4
▁tozan	4
▁mochihchi	4
▁ipil	4
▁Tzinacant	4
▁tlayllotla	4
▁tlatzopeliloni	4
▁poyoxnacatl	4
teloloh	4
▁icpalti	4
▁quitemacaz	4
ouan	4
icniuhtzi	4
▁moteuhc	4
quecholl	4
▁ocontlalli	4
▁ahuil	4
chihchica	4
▁Tianquiz	4
nextia	4
▁tequipano	4
▁kimolontia	4
▁kikixtia	4
▁ijtik	4
▁tequitiz	4
noço	4
▁oquitlatla	4
neros	4
▁espada	4
▁tocayotil	4
▁Cacamatl	4
ixhuiuh	4
▁oquinpehua	4
▁kwent	4
▁roman	4
▁tlaneltoquilizt	4
uiliz	4
▁Teutontlal	4
▁yayá	4
▁mili	4
▁quilpillico	4
machizti	4
icio	4
tlachcuitla	4
▁acue	4
xakual	4
▁tateuat	4
▁Uitzilla	4
cohcolti	4
▁maman	4
catinemi	4
▁Cohuanac	4
▁Tetlepanquetza	4
▁nitlal	4
ohhuanalti	4
▁tlamacehua	4
▁tlecuill	4
texcall	4
▁mome	4
mohualhuiquili	4
pilhuati	4
▁seg	4
oloz	4
quimihiyohuilti	4
▁kiijku	4
▁momaceual	4
▁moteuiaj	4
ontetoca	4
▁quihuillantia	4
vatl	4
▁mok	4
▁quimotlauhti	4
mimil	4
▁omicuani	4
▁amiqui	4
▁oceppa	4
▁tsik	4
ecatzin	4
▁Occente	4
anillo	4
▁cehua	4
▁motlaliaya	4
▁kaswela	4
▁tlatemactilis	4
▁amatlacuilol	4
▁tlatlacahui	4
▁amatlahcuilol	4
▁polliohuac	4
ohuani	4
▁Yztacxochit	4
▁yciu	4
quechilia	4
xacal	4
▁je	4
▁itomine	4
▁metl	4
poloua	4
tsope	4
molcahuili	4
coyahuac	4
▁maestr	4
▁Yek	4
yomatzin	4
omanilli	4
▁miximati	4
icaya	4
temohui	4
kiera	4
▁niantle	4
▁Teotl	4
yl	4
▁quitetec	4
▁occetic	4
▁ninochi	4
nicmohtili	4
▁Matlac	4
▁tzonquiça	4
▁gan	4
salo	4
▁caxati	4
▁çacap	4
quizqui	4
▁poçoni	4
▁kikwa	4
nemilis	4
▁ipati	4
tí	4
▁ba	4
▁kwalikak	4
▁oquinhualquixti	4
▁Quiual	4
niaya	4
č	4
▁Ihuicpa	4
macehual	4
▁cuahui	4
▁toxochimil	4
▁quitocaz	4
▁otiya	4
▁otemoque	4
▁Teh	4
▁ecauh	4
▁Zara	4
yohuan	4
achcauh	4
▁timihtilhuia	4
hihua	4
▁ohualhuil	4
▁quimochicahuil	4
cenquizca	4
▁quellehuia	4
▁Tlamacazqui	4
▁Quetzaltotot	4
▁oquimomaquil	4
▁marques	4
oregidor	4
▁quihualquixti	4
▁imayauhcan	4
▁calohtli	4
▁Is	4
dro	4
▁quinmanilli	4
▁oquinmonochili	4
▁ymixpa	4
▁chicuetlamant	4
▁tlatolti	4
quiztiquiça	4
▁či	4
▁chalchiuhtoto	4
▁ycalaquia	4
calcohual	4
▁tlapopotz	4
▁kos	4
▁nexicol	4
quinhualhuicac	4
ohualla	4
▁notecuiyo	4
zaz	4
notlamachti	4
huey	4
▁moquimilo	4
▁cehcen	4
huehuetque	4
▁Huitznahua	4
▁fal	4
mopiyal	4
▁nixpa	4
▁imixpa	4
zapol	4
▁quincauhti	4
ittac	4
▁oquimama	4
mamaza	4
cuaya	4
▁pahpaquiliz	4
oxochitl	4
nintasojkamatili	4
tlalticpac	4
▁mayana	4
▁colhuaca	4
▁tlatlauhtilo	4
quechtlan	4
auhqui	4
▁comiss	4
▁quintemo	4
▁ochollo	4
mimina	4
▁yaw	4
▁letra	4
itiaya	4
▁axa	4
▁quixo	4
▁tzotzoma	4
▁tlacotona	4
▁Itzquauh	4
▁imayauhca	4
▁moteylui	4
▁Ytzc	4
▁ytztit	4
azul	4
ulli	4
▁oquimoma	4
OCON	4
▁omot	4
momanque	4
▁huitztla	4
▁nohuiyanpa	4
▁tlayahualo	4
▁maxix	4
▁ontla	4
rociaroquih	4
▁totalmanic	4
▁Motec	4
itec	4
almazalo	4
huitza	4
xiuhmolpilli	4
▁Popoyot	4
machtiaya	4
▁Calliyma	4
nyan	4
▁sia	4
▁quincauh	4
▁techmaka	4
▁quimomictili	4
▁Cuetzpaltzi	4
yocol	4
▁pahpaquilizt	4
oniznequi	4
▁namot	4
ahtoltzin	4
▁Yeuantin	4
▁mixtlapacho	4
▁Yxquichi	4
tlahcuilol	4
roz	4
▁omonemilti	4
▁Amb	4
ados	4
▁cuetla	4
cizquia	4
▁quimochihuilili	4
▁Nonan	4
▁tlacualchihualo	4
▁cuetlahui	4
uhtia	4
quimiliuhtia	4
necuil	4
▁Dur	4
▁pehualo	4
mahmana	4
nemachti	4
▁icnime	4
iollo	4
▁Topan	4
panitlaza	4
etlatl	4
tzitzqui	4
▁iquex	4
▁amox	4
▁tlachiya	4
▁Notat	4
tzivac	4
▁miaqui	4
ecahuil	4
▁bá	4
culo	4
chichiuhtia	4
▁Nav	4
▁esc	4
▁yekyekt	4
▁quiquechcoton	4
▁temallaca	4
ec	4
kimikti	4
iern	4
▁tlaolkuntl	4
yhuin	4
anacan	4
▁calxexelolt	4
tlapitzaliz	4
▁oquiyocox	4
matini	4
▁Chimallaxotzi	4
▁conmotla	4
▁Teco	4
▁Onen	4
ltepec	4
▁yacuica	4
▁Fabi	4
▁ihc	4
▁Xon	4
toconmaca	4
▁nenquiça	4
▁onpohuallon	4
incalco	4
▁tlaj	4
▁Ocello	4
▁chichipahuaque	4
tlamacho	4
huitia	4
▁pochot	4
▁quimopilhui	4
▁huitzeh	4
tiahqueh	4
▁moye	4
paquiya	4
opoch	4
▁omonexti	4
▁Mar	4
mopechtec	4
▁quitemohui	4
▁niccohuili	4
▁nemico	4
▁ontlazohtla	4
▁itlazo	4
▁oteochihual	4
miquili	4
▁Fr	4
panohuaya	4
▁ythuall	4
▁nicnocohui	4
▁monetech	4
▁momimicti	4
▁Zoqui	4
oza	4
teocal	4
▁chal	4
▁cohuayotl	4
▁yntlahtol	4
EL	4
pitzalo	4
▁taoltsi	4
calpan	4
▁nichihua	4
▁quipatiyoti	4
machiyoti	4
▁YE	4
wti	4
pre	4
rne	4
▁fuerza	4
▁Yzcat	4
ç	4
▁retabl	4
▁kita	4
euayo	4
cuauhtli	4
▁Totolli	4
mochihuaz	4
▁carmeni	4
▁cilantro	4
▁secretario	4
cocone	4
chtique	4
▁cuauhtlapech	4
▁oquinmoten	4
cul	4
▁hualpano	4
maceual	4
chic	4
may	4
▁mocual	4
▁otima	4
ssa	4
▁quimopieliz	4
▁maça	4
imal	4
▁tezca	4
▁teuh	4
ur	4
▁titononotza	4
▁Tleyca	4
▁tiqualhuica	4
ahci	4
▁conitot	4
xal	4
▁tohueytlatoca	4
uantzi	4
▁oyx	4
▁quiuallitla	4
atlycha	4
▁quichalani	4
▁timotlacohuia	4
tlahtocateopixqu	4
▁chicomilhuiti	4
toka	4
yohua	4
▁Oçomat	4
▁mimati	4
palxochi	4
▁pobre	4
quiti	4
PAN	4
▁Pill	4
▁ualciuatla	4
▁tictomac	4
▁topalehuil	4
necah	4
uicatz	4
centlaliaya	4
petlame	4
▁caltitlan	4
mpopolo	4
▁Chiconquiauh	4
auhtitlan	4
▁tlalpolo	4
▁kitameui	4
quimixquechilli	4
▁omochanti	4
mpoal	4
tzauhctia	4
▁Sol	4
tlalcohual	4
onenonotzal	4
palehui	4
▁ymaltepe	4
▁juzti	4
sia	4
miccatepozt	4
▁yepohualxiuhti	4
▁kitlani	4
▁kokolis	4
▁mokaua	4
▁namechno	4
iš	4
▁amaihcuilol	4
tijtok	4
uiyo	4
nicy	4
ximatin	4
ij	4
▁Tiyaca	4
macuex	4
nenepil	4
enepil	4
▁itstoya	4
▁motlati	4
uiya	4
▁totahuan	4
▁nijchiuas	4
uat	4
quelehuia	4
panoz	4
yeman	4
▁takuauak	4
▁tamechto	4
▁le	4
cmo	4
anato	4
▁otihuala	4
▁tlapetlani	4
alco	4
nahual	4
leque	4
▁Mastlat	4
▁tzaqualtzint	4
▁niccauhti	4
▁omoten	4
▁timocacaya	4
▁mocuaatequi	4
nidos	4
tecpoyo	4
▁onicteneuh	4
éj	4
antlaca	4
▁onye	4
nezcayotili	4
▁TIen	4
▁acitica	4
hicuacen	4
▁Tzo	4
tzontla	4
▁anech	4
▁quelehui	4
▁ox	4
▁tlatlata	4
▁moteo	4
nqui	4
chcatl	4
▁tlaocoxti	4
ehuato	4
tlaneuhti	4
▁tiyaz	4
patla	4
▁tonto	4
tlatilulca	4
▁teut	4
▁çoço	4
▁unte	4
uallo	4
tlahpalo	4
▁cecenyohua	4
▁axkimati	4
▁tlapopoka	4
▁quimochihuillia	4
▁kitlachili	4
▁nikinca	4
riz	4
acachto	4
nicnamaquilti	4
▁titlatla	4
upil	4
▁nikito	4
▁lisian	4
rrí	4
▁tochimal	4
callaquilli	4
▁quinmomaquili	4
momaquilli	4
▁kipixtó	4
ula	4
nenepaniuhtica	4
tlanepanol	4
epec	4
▁oquimin	4
▁Opano	4
machtiz	4
▁inhuaxca	4
▁rep	4
úb	4
▁ytlaxilacaltia	4
▁Yaocui	4
tillan	4
▁ait	4
▁omotlalia	4
▁Teçoçomoc	4
acitihui	4
▁ynmacehual	4
▁nenemo	4
▁quipopo	4
▁Calm	4
axalo	4
zaliz	4
▁chanono	4
▁quimix	4
▁techpeuh	4
▁Azc	4
▁coh	4
acico	4
▁onaqui	4
▁seyajtok	4
tacayoti	4
▁oquihualmo	4
caca	4
caquiltia	4
tacal	4
cohuilli	4
▁Tecpatzin	4
nonoualc	4
▁oconanacatl	4
huitica	4
▁nove	4
▁momi	4
cente	4
▁ixcuichehua	4
▁yxmatlallehua	4
oltecatl	4
nemac	4
pinos	4
▁Melahuac	4
▁Xiuhcoyol	4
▁tlazolli	4
cencauh	4
▁quicoua	4
tlaxcal	4
eski	4
▁tlaneltili	4
poctzi	4
moneltilli	4
▁oconchiuh	4
▁motlaca	4
▁More	4
ocal	4
▁oquipixque	4
mahcehual	4
▁minuto	4
▁aregl	4
quimati	4
▁Tlacanteo	4
▁Tlanahuati	4
▁mitztequipacho	4
quauh	4
tzatzi	4
tzonteco	4
▁Nika	4
▁quitlatlaz	4
▁nonquiz	4
▁quimonehualti	4
callan	4
ninoquetza	4
tumpa	4
cihuanton	4
hapultepe	4
▁tiquitlani	4
▁manic	4
▁ue	4
ococa	4
▁quincuitia	4
▁totemachtica	4
otza	4
▁tocateneuh	4
▁chipauak	4
▁chimalhua	4
▁Chapoltepe	4
▁Maxtlatzi	4
▁monono	4
▁tlaçul	4
▁quitlaniz	4
▁quinmocahuilli	4
▁Teohua	4
tollini	4
chihuaco	4
tlahtocayo	4
▁descalso	4
▁necuiltonolizt	4
zcatl	4
macehualti	4
dal	4
▁tiyez	4
▁ipetlacal	4
▁quica	4
xahua	4
▁opouh	4
▁uetz	4
▁itlahcuiloltzi	4
▁esp	4
▁itlapohual	4
machiyo	4
▁chicuhna	4
manque	4
mixmachilia	4
▁popoch	4
▁topixcatzin	4
xotla	4
▁pala	4
▁par	4
▁tlapitzal	4
▁prima	4
tokaytia	4
▁cholojk	4
▁chinampa	4
▁notlaxilacalti	4
lliz	4
nahuatilia	4
▁omonanahoati	4
▁inyeya	4
▁mona	4
▁hueli	4
▁oncuica	4
angor	4
▁quintlamamaca	4
xqui	4
▁netlapachol	4
ticnamaquilti	4
▁tineci	4
▁nihuala	4
▁Yeyi	4
polhuiz	4
▁yacachto	4
ltilo	4
iyaya	4
▁otinechmo	4
▁nihualla	4
pualli	4
cotonas	4
▁mihtotia	4
ZO	4
▁Madr	4
pilçi	4
dalena	4
quic	4
▁Citlall	4
tlachco	4
▁Naua	4
▁tlalticpaque	4
▁ogovernadorti	4
epilhuan	4
▁setie	4
tul	4
▁ohualne	4
▁inyeyan	4
quaque	4
▁kiti	4
▁mošiyo	4
▁chicahualizt	4
▁oyah	4
▁tapalca	4
mojuanti	4
▁nemauhtilo	4
panok	4
tohuaya	4
▁oquimitalhui	4
▁Castill	4
▁quitzacua	4
▁amiz	4
▁yehepohual	4
tliltica	4
ilito	4
kopin	4
▁tlamatilizt	4
mohtili	4
chimall	4
momaquili	4
▁Tequichihualis	4
▁Tequichihua	4
▁tonemiliz	4
▁Tul	4
▁Oquipiaya	4
tenonotzaliz	4
▁tzonquiza	4
▁oncallaqui	4
▁oquimanili	4
▁opopoca	4
cuitiuetz	4
▁yaotequi	4
mome	4
▁tlamelaua	4
▁tonte	4
▁oquimati	4
▁yeyeca	4
▁governadores	4
▁immix	4
▁quitlami	4
▁oquimiqu	4
omachix	4
tolome	4
▁Xochitlal	4
▁quixitiniz	4
▁nextic	4
▁mahtlacp	4
▁caqui	4
▁oquimotlallili	4
teomama	4
▁quihualnotz	4
laqui	4
▁tlatlacah	4
cayopan	4
▁amame	4
▁pipil	4
▁tocen	4
▁quimopi	4
▁tontemiquico	4
motlatlanili	4
▁tlahtoa	4
htique	4
▁tlapi	4
▁tlequa	4
viso	4
▁moxtlauh	4
▁mictla	4
▁ticana	4
▁iteo	4
▁ycopa	4
▁ciuatlan	4
▁ciuapil	4
▁tenyo	4
▁quiyocox	4
acica	4
▁monexiti	4
rcas	4
▁poye	4
ztlaeual	4
eopixcatlatecpan	4
▁tijkua	4
coaz	4
▁nitoc	4
▁prefect	4
▁Occe	4
huellamatiz	4
▁avía	4
▁otlatolmelauh	4
▁nina	4
çacatl	4
▁imeyxtin	4
▁icpalpa	4
▁aki	4
▁iç	4
lactli	4
LIN	4
▁anquimocaqui	4
acayohua	4
piliz	4
cuauht	4
▁oncac	4
▁Tlacochcalcatl	4
▁Tlacochin	4
▁Perd	4
ido	4
tecolotl	4
▁mazeuhal	4
mauhca	4
▁pexon	4
▁tum	4
▁tlahuizcalpa	4
▁atlatl	4
▁Tepal	4
▁difun	4
ictocaquiltilico	4
▁ycalaquiyan	4
▁pouhtica	4
▁tlatlacoltiloc	4
tlacanechicoliz	4
sitsi	4
moujti	4
▁ate	4
lecan	4
▁onitla	4
▁acalo	4
oxixitin	4
▁huicoc	4
▁nix	4
xiuhtico	4
icac	4
çalo	4
▁cathetrá	4
▁escri	4
tura	4
▁ace	4
abad	4
mellel	4
▁oro	4
▁tlahui	4
▁Epcohuat	4
▁ineneuhca	4
▁chihuallo	4
▁Tiçaua	4
tque	4
titi	4
miak	4
ssión	4
▁Mic	4
▁Itechpa	4
▁quiyahualloto	4
armas	4
▁Onca	4
▁chichinaca	4
▁oquinchiuhque	4
▁Xaquin	4
dora	4
tlachihual	4
▁conquechcoton	4
▁timoquixti	4
▁Po	4
▁oquimoca	4
taque	4
▁Chicahua	4
monequitia	4
tlamachiliz	4
rolog	4
▁quauhtzonyo	4
▁telpoch	4
▁intlatocau	4
▁quiyomahui	4
▁tlanahuatil	4
nemiliztli	4
tepuzmacuauh	4
▁elisk	4
tlacual	4
nepa	4
guero	4
▁tlahuil	4
tlatocayo	4
▁icol	4
iah	4
acal	4
▁onpohuall	4
tlahtoltica	4
▁tinemizquia	4
▁iyomiyo	4
cenca	4
malacacho	4
tihueh	4
tlanamacazque	4
▁Xolo	4
▁tezcatecomat	4
xitiniz	4
▁teochol	4
ihuinti	4
▁titekitij	4
quitquitiui	4
▁plata	4
▁quinamicti	4
▁onhui	4
acic	4
quinchololti	4
dn	4
hcihui	4
▁teotica	4
▁chant	4
▁Maza	4
▁niquintemo	4
▁tzauh	4
▁Oh	4
▁quimococol	4
▁xocoyo	4
▁oquicuep	4
moquetza	4
mintaci	4
▁Nicnequi	4
▁Atlan	4
▁nochpuchtz	4
▁telpopocht	4
▁icyey	4
macati	4
▁tlalquitzquili	4
▁ouala	4
▁oqualo	4
▁honte	4
kakatso	4
terio	4
▁mixcahui	4
apantica	4
catetel	4
▁teteuh	4
▁teuhctlato	4
xitin	4
yahualol	4
nentlamatia	4
▁nenonotzal	4
ahua	4
▁Omoce	4
▁yoyolime	4
aroa	4
tlamachotil	4
▁opano	4
▁mixiuh	4
▁yatok	4
▁huallotlatoca	4
▁quimontlalia	4
▁imahuiz	4
▁ipatillo	4
tecuiyo	4
▁onchiuhcnahui	4
▁tlalnamaca	4
ihualmouicac	4
▁icemel	4
▁Tezozomoctzi	4
▁quexqui	4
▁quihualla	4
temachtica	4
chá	4
▁Quaquapiça	4
▁cozti	4
nomacehual	4
▁tlanamacazquia	4
▁tlallo	4
ujtok	4
▁cenpohuallom	4
▁motocatenehua	4
radici	4
▁kayot	4
erre	4
alijtik	4
▁nocihua	4
▁iheua	4
▁Xichualcuican	4
mecayo	4
exi	4
▁atli	4
nas	4
▁Chikomexochitl	4
pias	4
▁tilahua	4
▁tiqua	4
tlachalaniz	4
exexellolo	4
▁guerr	4
▁chichina	4
yek	4
▁mohuillan	4
▁yaoti	4
▁ora	4
▁pipiltont	4
ortug	4
▁cihuatzitzinti	4
quichihua	4
▁cuauhta	4
▁namico	4
machti	4
andan	4
▁nontla	4
▁oquicuic	4
htihuitz	4
▁quinmolhuilli	4
▁chalchiuhtla	4
▁mochoquili	4
tex	4
▁sitlal	4
▁itlacapa	4
▁omoch	4
▁oncastol	4
▁petici	4
mol	4
▁onia	4
▁Mictla	4
tičolo	4
nonantzin	4
▁taxcaltzin	4
▁axtlen	4
▁nitlachie	4
mitalhui	4
popohui	4
tolteca	4
▁Mochihua	4
tlatski	4
TLI	4
nopillo	4
tenehua	4
xpan	4
▁imaicni	4
▁Cuauhtlahto	4
▁totec	4
▁Secretario	4
▁xocom	4
amana	4
▁xokok	4
▁Mis	4
elo	4
▁quincuili	4
ztique	4
mauiztili	4
auac	4
▁nixochi	4
né	4
▁aoca	4
▁nitlacua	4
▁ytechcopa	4
titica	4
▁Oje	4
euaya	4
▁oytt	4
komid	4
▁quihualitqui	4
▁tlayoua	4
ninocihuauhti	4
▁metz	4
▁otiquinte	4
▁ximehu	4
motepotztoquili	4
▁Yzqui	4
▁mayanalizt	4
▁tlahuizcal	4
▁Xip	4
macoz	4
biex	4
▁quimononochil	4
yewalo	4
▁uajkajki	4
▁tipolihui	4
▁intlaca	4
▁neyxnamiquilizt	4
▁tequitih	4
▁moxtlaua	4
▁Pepena	4
iquinpia	4
▁theniente	4
▁ista	4
▁quichioa	4
▁itena	4
namiquiliztzin	4
▁omoyecti	4
▁Tzimpa	4
▁cemen	4
onpa	4
▁chiuh	4
▁Xicon	4
çoma	4
▁altepechan	4
▁quizo	4
▁Techichiquil	4
▁nimiqui	4
▁Coatl	4
▁nakas	4
tol	4
▁itqui	4
▁Tequihua	4
▁kaj	4
▁kualanij	4
▁quichichiuh	4
▁conma	4
uiti	4
▁meca	4
▁Matlatzinc	4
loxochitl	4
piya	4
▁iikni	4
llacatz	4
▁tlatecqui	4
▁tziua	4
▁tlaman	4
testigo	4
▁momuztl	4
▁tlatequipano	4
teuhca	4
▁calhuahza	4
▁Tepotzotla	4
tacti	4
▁motlalili	4
motlali	4
ranpi	4
cuique	4
mochihua	4
▁quizqui	4
▁tzapoteca	4
▁Muy	4
▁quilnamic	4
molhuichihuilili	4
▁owal	4
makili	4
tlacahualtiaya	4
quipan	4
▁Uax	4
▁quixnamicti	4
cuilia	4
eyi	4
▁Xochitecutl	4
▁quiya	4
quimonechicalhui	4
▁ueca	4
▁moquixtili	4
▁iluikak	4
▁ymoztla	4
▁itlacamecayo	4
▁monamikia	4
chicahualiz	4
yollamachiliz	4
moquixtitiquiz	4
imacoc	4
▁cahuapa	4
ima	4
▁Theohuaca	4
▁yxpam	4
▁ixpolihui	4
xamani	4
ehcoc	4
mochihuili	4
▁Nixpa	4
▁otiquitaque	4
pili	4
tiya	4
▁niwi	4
astañ	4
papalotl	4
▁neteilhuil	4
quicuitlacoyoni	4
▁mitotique	4
▁Goçal	4
tlalhuiz	4
ticpiaya	4
▁ticceli	4
hquia	4
▁nicuica	4
amaco	4
nechmocnelili	4
omesti	4
▁Xiuhca	4
▁Ocelopa	4
▁oconquixti	4
bia	4
▁tlenkikwas	4
ohui	4
loli	4
tentlapiqui	4
▁tlatemo	4
▁mosoa	4
▁tlatlatla	4
▁xolopi	4
iztac	4
▁tlanonotza	4
▁quinpehuat	4
xto	4
▁nechilhui	4
▁caxtilteca	4
▁niconet	4
allo	4
▁yoyoli	4
majts	4
▁nitlama	4
▁tijuikas	4
tehuitequi	4
▁tecoco	4
▁tlachipau	4
▁Coyo	4
▁notlatzin	4
▁imicpa	4
uitec	4
▁ehuani	4
yazque	4
▁altepetlaca	4
▁xite	4
▁miltequitca	4
▁acoc	4
quimilolo	4
▁otlanahuati	4
quinotzque	4
lín	4
▁Bapti	4
cis	4
▁ayam	4
tenemac	4
▁tocay	4
imati	4
▁nopilhua	4
▁met	4
▁nimitstem	4
▁tlamacaz	4
concaqui	4
▁Oto	4
▁oniquin	4
▁Quauhtemalla	4
teuc	4
▁oquilpico	4
▁ynmacaça	4
vas	4
▁uejkaua	4
▁yeva	4
iske	4
comit	4
chitl	4
▁matlaktli	4
▁semp	4
wali	4
▁teponaz	4
quiaya	4
▁moč	4
▁cuicuil	4
quamimi	4
▁Tziuactla	4
▁Upan	4
▁Chicomo	4
iernes	4
▁notequi	4
▁ahuia	4
▁Tlacochcalc	4
▁naška	4
▁teocuitlat	4
▁Coli	4
▁mopialis	4
▁altepechanehque	4
▁tokone	4
▁iccaxtollom	4
hti	4
conelhua	4
▁nohuaxca	4
ixpantis	4
▁Nicu	4
lás	4
▁mochichihua	4
pits	4
xicol	4
▁quinemilli	4
▁omochihui	4
cuele	4
tzauh	4
▁kwali	4
▁xoconcaqui	4
latl	4
ochihuaya	4
ués	4
▁hualmotzotzona	4
cuicatica	4
▁quimocaquitica	4
▁machia	4
ileui	4
▁ticte	4
tlatlaniloz	4
▁quitzacu	4
▁mochantili	4
▁itlapil	4
▁Oyeya	4
itini	4
▁yhuian	4
er	4
moquequelo	4
tepalehuiliz	4
yectiliz	4
▁motequi	4
pilhuia	4
▁monamiqui	4
▁Val	4
▁Todo	4
▁Cadena	4
▁Celi	4
ukw	4
▁kiyekana	4
▁chichihuala	4
▁ohualmo	4
▁ayk	4
tonameyo	4
cayotica	4
ciaci	4
quauhtzin	4
▁tonaci	4
nyaz	4
▁Ohui	4
coyolli	4
▁oquimocohui	4
▁teuhcyot	4
▁Tel	4
▁techon	4
▁tlapohua	4
▁cepo	4
▁amoztlacat	4
▁mocalaqui	4
▁Nikan	4
tlachcuitetel	4
▁ex	4
der	4
▁muchihua	4
huehuetzto	4
▁Otompa	4
▁toncuica	4
▁ahciz	4
▁couatl	4
▁kinkui	4
▁tetlanextilli	4
▁cima	4
vana	4
▁tepoztla	4
temoz	4
▁quimonpehualti	4
nicmachiyoti	4
litia	4
▁quinamoya	4
▁cocin	4
▁tičiw	4
liti	4
▁tequa	4
▁ehecat	4
xcatzin	4
teuhctlahtoca	4
▁patlani	4
catic	4
tiyajki	4
chocti	4
mocalti	4
mochin	4
ehuico	4
cuepque	4
▁Nelí	4
huilli	4
▁coyoa	4
▁tetlaocol	4
▁atica	4
▁tocommo	4
▁Kiijtouaj	4
▁tequitini	4
▁Lante	4
xexelo	4
quixtia	4
hpiani	4
ynic	4
choquiztlapal	4
▁moquetzino	4
▁quimitlanilili	4
▁prior	4
▁quihualyaca	4
tomin	4
▁poste	4
▁moyecti	4
▁koš	4
▁Comi	4
yolquima	4
▁malinči	4
▁tlamochihua	4
potonil	4
hué	4
koneme	4
▁cacahuaxochitl	4
▁mopilhoa	4
▁Hor	4
panoua	4
cayeliztli	4
▁pitzonacatl	4
▁chachal	4
▁ynteyacanca	4
huitiaya	4
coton	4
▁tlaneltoca	4
▁tlazaloa	4
▁nitlanauati	4
▁uejka	4
▁Xicomoyahual	3
▁pitso	3
naka	3
▁nimitzno	3
▁acica	3
anamaca	3
▁timacehualt	3
▁otihue	3
quiyelizmaca	3
▁huehcatla	3
▁nechteylui	3
▁quinextiz	3
▁itestigoua	3
tigo	3
▁notlalco	3
▁ytepan	3
quan	3
notlanehui	3
▁chalchiuhtin	3
▁tlaapachiuh	3
▁unpopoliui	3
▁planeta	3
▁xinechca	3
▁nicnexti	3
tlaytlaniliz	3
xoxo	3
▁ahueli	3
▁mopoua	3
teucal	3
tapa	3
Amatepe	3
▁yhuayol	3
ema	3
reg	3
▁paka	3
▁xaltocameca	3
quimottili	3
▁quimahuizoh	3
tlatohua	3
▁omozcalli	3
totza	3
iitak	3
kajki	3
▁tepanahui	3
bí	3
ualliua	3
▁titlanamacaz	3
acxoya	3
tapayol	3
ordo	3
moquixtilia	3
echipahual	3
▁nezti	3
▁Tonalix	3
bid	3
▁moyeyeco	3
▁connotza	3
momiyo	3
▁momoyaua	3
▁tei	3
▁tocaye	3
▁Mon	3
ouaj	3
▁kiixka	3
▁kimolta	3
emol	3
▁chilt	3
▁tequitihua	3
lhuacan	3
▁anahuacatl	3
▁xuchi	3
▁teiz	3
▁ocuil	3
cante	3
pašalo	3
▁yema	3
▁momo	3
▁tzahtzi	3
temohtinemi	3
eleui	3
onrr	3
▁Toz	3
dov	3
eta	3
▁hualmoteca	3
▁niquimix	3
▁Sepastia	3
ahziz	3
ziuh	3
▁izquic	3
▁quihtoh	3
▁quihtlani	3
uika	3
jtika	3
▁Itzintla	3
quihcuani	3
yor	3
ihcuilhui	3
▁quihua	3
▁itelpuch	3
▁kitlank	3
▁tictenehuaz	3
miyahuatl	3
mihtic	3
tlapallan	3
▁Nonohualc	3
▁necuame	3
▁immih	3
amamachiot	3
napallo	3
kilwis	3
paloa	3
olti	3
▁quimimin	3
PI	3
▁Yh	3
medias	3
cenpohual	3
▁quimonemilili	3
antica	3
▁cinc	3
uenta	3
resaro	3
▁quinyacapi	3
▁Tlahuan	3
▁quitemoa	3
▁tolxacal	3
▁mochanti	3
xquetzalloc	3
▁Ger	3
▁onihual	3
temoc	3
▁tlacauapaua	3
▁intlatul	3
▁titlanauati	3
cexiuh	3
AYOJ	3
▁tocahy	3
tlašiko	3
seis	3
▁kinin	3
enonamican	3
im	3
mechilhui	3
▁ualajk	3
▁tlalchi	3
▁quititlaniz	3
quincahuilitiaz	3
▁Elen	3
▁omochantili	3
▁descomunió	3
▁oraci	3
▁Caxtil	3
rga	3
▁unmotlali	3
camac	3
nello	3
čiki	3
▁čičik	3
izcahuitl	3
alaca	3
centlami	3
teten	3
motzo	3
mixmauhti	3
quequetz	3
▁onmotla	3
ztihuetz	3
▁onmomayauh	3
▁ycuic	3
tocayoti	3
▁mocue	3
▁ticmotlalili	3
▁timoqua	3
pohuaz	3
mocelo	3
▁go	3
lej	3
tzop	3
tzatzayan	3
▁teocaltep	3
itzitzin	3
antli	3
▁monoma	3
▁mitzmaca	3
▁ticmaxcatiz	3
tlanamaca	3
▁Xan	3
atlacomol	3
▁tene	3
neyxca	3
▁mamalhua	3
▁Nahuaqueh	3
▁Azcatlxoch	3
nekij	3
auhtoc	3
▁pajke	3
▁tlamaceu	3
tamachiua	3
cehuizque	3
▁quinmolhuili	3
▁pinol	3
asikiw	3
▁yekwika	3
▁mamatiw	3
▁yekwal	3
uwa	3
▁sewis	3
▁onicmaca	3
▁anauacatl	3
ytech	3
cahuilis	3
ecayotl	3
▁uexotzinca	3
tlaco	3
▁Zazo	3
▁ticualani	3
▁nonia	3
▁cocoyo	3
▁tlazohtlazquia	3
▁uiloua	3
▁hotli	3
▁Santísim	3
▁omotlanaoatili	3
▁oquimixquechil	3
▁nem	3
▁quihualmomaquil	3
▁oquimotoquilli	3
▁intlanel	3
manalo	3
ahzito	3
▁nitlachi	3
▁ticmottili	3
▁mochantlalis	3
▁momatiltis	3
▁nihčiw	3
▁nekwtia	3
tlacahualtiz	3
cihuiz	3
▁mohuic	3
▁onc	3
▁tetzacu	3
▁imetz	3
tlacatiliz	3
erra	3
▁nemech	3
mechtlacahualtiz	3
▁nacaztl	3
▁pitza	3
▁tiuala	3
▁altepetli	3
▁Tlaxcala	3
▁Oti	3
▁omocahua	3
▁otlayohuac	3
▁toktli	3
▁quiahua	3
▁nehnemilizt	3
▁tictocaz	3
▁taci	3
kawili	3
▁oahzi	3
▁conmo	3
▁ticmonequilti	3
▁xicmat	3
▁xictlali	3
pipil	3
huayol	3
▁nechmohuiquili	3
mochihuiliaya	3
▁oconmocaquilti	3
▁cence	3
pixcatzin	3
▁clerigos	3
anke	3
▁mokajk	3
▁Pochot	3
▁Chikometepetl	3
dond	3
▁tlatlapollo	3
▁xitiniz	3
mul	3
▁kualani	3
onoc	3
▁mopapá	3
▁noxuiu	3
das	3
molhui	3
▁xochioctl	3
▁oteyacan	3
▁tlatlam	3
▁Desma	3
parado	3
spital	3
bas	3
▁chiquace	3
▁Meca	3
▁notecu	3
▁nimits	3
▁oticoch	3
▁timonencahua	3
▁onpoliuh	3
nahuacatl	3
▁tzatziua	3
caqui	3
noteyccahuan	3
tlaecolti	3
tepitoto	3
mamaltia	3
çenca	3
tlapacholpan	3
omiyo	3
▁nijku	3
▁izquixochitl	3
ixahui	3
▁tlaten	3
▁kichijk	3
▁Hipo	3
▁quitecati	3
lollin	3
▁oquihuite	3
ava	3
▁Bal	3
▁vis	3
▁pastor	3
▁fue	3
sse	3
tiwala	3
▁kami	3
▁tikisa	3
juez	3
▁obra	3
eros	3
▁tlalilo	3
▁Oan	3
quihyoui	3
▁motollini	3
▁Gra	3
▁tepejxi	3
ouij	3
▁oticto	3
▁taxtahuil	3
▁nochichi	3
▁otechmonahuatil	3
▁Nej	3
ejek	3
▁otimocohui	3
▁Xaltipa	3
ijkak	3
ueyi	3
▁huall	3
ynpan	3
▁oquichi	3
motitlanilili	3
ocalpan	3
otlahtlaco	3
▁conmicti	3
lbar	3
▁posse	3
▁Bart	3
▁Huitz	3
quauhtitlan	3
nimiquiz	3
▁aoh	3
▁Saco	3
▁cor	3
cha	3
▁nahuitzin	3
▁niquixtla	3
▁tlamahuizol	3
yancuilli	3
yttallo	3
▁tlaneltilli	3
octacatl	3
▁mocnopilhuia	3
tiça	3
amacoya	3
▁Cuex	3
tepieli	3
▁chichicahua	3
uilo	3
▁quimoten	3
titlazohtlazquia	3
▁tiitstoke	3
▁titlazohtla	3
▁Yacate	3
▁Iyaca	3
▁teaxca	3
▁quinmauh	3
nopal	3
▁oquitocac	3
▁oquipollo	3
patlahuac	3
▁tlaixnextilis	3
▁totlalnan	3
IV	3
▁quixcahui	3
▁tlatzintile	3
▁Cihuatla	3
çuma	3
▁ixtlamati	3
▁lim	3
▁china	3
nemanalo	3
quinmoteochihuil	3
▁tekua	3
▁pacticat	3
aquauhtlatlachia	3
▁yxquichi	3
mamali	3
▁Joa	3
▁Un	3
▁tipopolihuiz	3
pahcayo	3
▁quipiazque	3
▁chanti	3
hxili	3
▁tlachixtoc	3
▁quitotoc	3
▁yxpoliuh	3
▁Ayop	3
paxialo	3
▁momecahuitec	3
inechmomaquili	3
hualtepotztoca	3
▁Xinechca	3
▁malin	3
▁cuauhtlatol	3
▁tlatetec	3
▁mocuihcui	3
▁motlaxcal	3
▁quinxexel	3
▁tlatzontequili	3
▁Jo	3
▁Fl	3
ahuiya	3
neloa	3
▁Tlaylotla	3
▁cacax	3
▁quiquehquetza	3
ualtin	3
etic	3
▁quimotlaliliz	3
▁Xiuhnel	3
▁Texo	3
huallihua	3
▁ticanazque	3
yez	3
quitoa	3
▁quixtoquiliz	3
▁hualmoxtlahua	3
▁oticui	3
▁CC	3
intli	3
liaj	3
uayo	3
ay	3
▁tlei	3
▁omixiuh	3
▁Ri	3
▁ticallaqui	3
IHTACATL	3
ZA	3
▁Mosco	3
▁yequita	3
▁quinpehualti	3
▁Tran	3
▁quipalehui	3
▁nehtoll	3
xiujyo	3
▁maci	3
totonillo	3
▁kiitato	3
▁ikaya	3
▁oconce	3
quicuauhtzotzon	3
ithual	3
▁Cox	3
▁oneohua	3
▁jor	3
amento	3
▁tlamamauhti	3
▁ihcahuaca	3
yahualtic	3
▁omotlanahoatili	3
▁ycce	3
▁tlatzintill	3
▁omochicauh	3
▁Molin	3
▁ánima	3
▁tecen	3
▁cuauhxi	3
momiquilitzino	3
▁Teo	3
huaco	3
▁omca	3
xcali	3
cahuiz	3
tlayecoltilo	3
matiltis	3
nechicolis	3
▁metztaya	3
▁tohuampoh	3
tlapaltin	3
▁ahhuiya	3
▁clavo	3
nahnamiqui	3
huetzin	3
nmocihuauhti	3
▁Chichicuepo	3
macato	3
▁memet	3
otacique	3
kwaconti	3
motlatlalitia	3
▁Chololla	3
namicoc	3
cuilli	3
▁Xillo	3
▁Quauhtlato	3
tečkaw	3
osen	3
acizque	3
▁Xoxo	3
ctic	3
tepacti	3
mopalehui	3
▁tepexictlac	3
quiya	3
▁cuepo	3
▁pac	3
chihualoc	3
ololti	3
▁tiquinmon	3
▁oticcac	3
▁tok	3
▁kikwas	3
tlačatiw	3
oyohualli	3
quauht	3
enanca	3
ollan	3
tlalnamiki	3
▁tlamina	3
▁tlahtul	3
▁timalihui	3
ztac	3
mihmiqui	3
▁tlacoxi	3
ancopinca	3
ictemotih	3
uicoc	3
uakuou	3
▁mochallani	3
▁callacohua	3
▁sasa	3
tlapaltehuil	3
quitlacanotz	3
▁nociyeliz	3
caquiz	3
▁motlanequiliz	3
▁onechnanquili	3
▁acazo	3
▁motencopa	3
▁mahuiztililo	3
▁neltoc	3
▁kitlali	3
jas	3
Lo	3
konana	3
▁otemic	3
▁españolti	3
tlaliliaya	3
▁ompoh	3
▁ycihua	3
▁tiwe	3
▁anmotlat	3
▁Huicol	3
▁tepi	3
▁fra	3
nsia	3
▁quimomachizti	3
tlahuanque	3
▁otlate	3
maxca	3
▁motoliniz	3
▁ticpiaz	3
tehuazque	3
tlanahuatil	3
▁inmonasterio	3
▁tlacen	3
tilmaht	3
▁tizatl	3
▁Xiquixti	3
▁colua	3
▁tlanamacaqui	3
▁tlatz	3
lxochitl	3
▁onyaz	3
▁itztia	3
▁iquizayan	3
▁pipixauhti	3
▁Hueca	3
▁tlacahuaca	3
▁quenmaniya	3
cochitlehua	3
▁ticah	3
tehuan	3
▁tlanez	3
▁tlathuic	3
▁omatl	3
▁anquichi	3
▁tlaocoya	3
▁cavallot	3
amatzin	3
cedula	3
▁bi	3
▁tlanexil	3
▁kitowa	3
ilihta	3
litih	3
tlamachiotitinen	3
▁Uetz	3
teopancal	3
▁Moquihui	3
▁Coc	3
▁moyolcuiti	3
▁Quachi	3
G	3
mino	3
▁popolohu	3
nehuaz	3
▁Quir	3
tetequi	3
▁oquintlal	3
▁tlamacehualizt	3
▁Mixtlan	3
tlatlamanca	3
▁incel	3
▁konetsi	3
▁huehcatlal	3
▁xicmati	3
▁nemonhua	3
▁oantla	3
cnelli	3
rado	3
cuezal	3
▁icxitl	3
▁Itzco	3
ualajki	3
▁motlaqualti	3
tlahtlani	3
▁cihuateupixqu	3
▁monja	3
etzticat	3
▁Go	3
▁conquistador	3
čan	3
▁mopapan	3
mihiyohuilti	3
▁ameyal	3
poliuiz	3
▁quiualhuica	3
▁totlatla	3
ikate	3
▁kamp	3
▁cocoa	3
▁penk	3
▁wak	3
▁mulata	3
▁morisc	3
irez	3
▁immotozcatlan	3
tlachialti	3
jka	3
▁motoma	3
cocolia	3
▁xihual	3
coltia	3
▁hualpehua	3
▁neçahual	3
PE	3
▁kitsopelia	3
▁motlaz	3
▁kuaj	3
▁quitquitia	3
▁quimahma	3
▁peualo	3
▁noquich	3
▁tlatlaque	3
▁quinchichiua	3
▁quincencau	3
acacic	3
▁ixpoli	3
lamatzin	3
▁Motlali	3
anima	3
aquiz	3
▁Quenotimo	3
▁Tototl	3
ag	3
▁Uitziliuitzi	3
▁moteuhcçauh	3
niquincohuaz	3
etzilacatl	3
▁ayotl	3
▁comon	3
tetzilacacuicat	3
▁tiamic	3
▁Itlac	3
▁oquimanque	3
uicac	3
ahtzin	3
ihtaz	3
▁ohualnen	3
▁mohui	3
▁kipantali	3
▁kakauat	3
oçomo	3
tiloz	3
chicahuaz	3
▁tiquixmati	3
▁tlatataca	3
▁otlatlac	3
extli	3
▁ajsiti	3
▁Metztitla	3
▁itehuical	3
▁mozcalli	3
▁nicneltoc	3
▁quitec	3
▁nimitzcue	3
rdo	3
quinmonanamiquil	3
▁ticcuiz	3
oma	3
▁tlayaca	3
notlazohcamatili	3
tocuepazque	3
▁timotlali	3
▁mocha	3
▁kiiskaltiyaj	3
▁omotlati	3
▁ynnemac	3
▁quitemachi	3
cochca	3
▁nuestr	3
octzin	3
zcoco	3
▁imaçehualtzin	3
mitac	3
ahcito	3
▁mochihuazquiani	3
▁moza	3
omokicki	3
▁otite	3
opan	3
▁quinhuapahuaz	3
▁otioal	3
tlatilolca	3
▁libr	3
tlanahuatiliz	3
▁Ytencopa	3
nehuiyan	3
▁immocxi	3
tzahua	3
▁ahyec	3
▁tlatzillinilo	3
tlaçallo	3
▁yniquin	3
metla	3
▁oquincauhtia	3
▁mimientaj	3
▁tiyas	3
▁mostla	3
lwa	3
▁yauhtlato	3
jmej	3
▁tichoca	3
tinemizque	3
cehcemm	3
▁tact	3
mmitl	3
chili	3
▁tlacochcalcati	3
ehualo	3
quiauh	3
▁huahua	3
▁xiuhton	3
▁Icuic	3
kpak	3
▁kičiwilia	3
▁mald	3
ád	3
aneh	3
▁moixtlali	3
tlaachtopaytt	3
peuhca	3
▁xiuhtlapohua	3
▁xicmocaquilti	3
▁motequipanohua	3
▁XOXOUHQUI	3
▁panela	3
xij	3
achihuani	3
▁ayocuic	3
▁oniquilnamic	3
▁Tezcatl	3
▁tezcatl	3
ux	3
nahualpol	3
▁yteuhctlahtoca	3
▁Nativida	3
▁peohua	3
▁quimonochilli	3
▁motzauhc	3
cihuatlani	3
▁conitlan	3
itepec	3
▁quinmi	3
▁Bartholome	3
▁tsikame	3
ierto	3
▁cuahtla	3
tlamatca	3
huahcan	3
▁tlaneltoc	3
arcab	3
nça	3
▁quimonochili	3
▁pahti	3
ohuihtic	3
▁nictemachi	3
▁ohten	3
tlaocoya	3
tihtlaštlawi	3
▁xiuj	3
mekayo	3
jti	3
▁mollini	3
▁molon	3
▁quihualcen	3
ačiwk	3
▁nitlachix	3
▁noquia	3
tlalamiquilis	3
▁Chicun	3
▁tlacame	3
▁omocala	3
▁cuitlaua	3
▁quimamaca	3
▁quitlamamaca	3
▁contlama	3
weli	3
▁Tzaqual	3
▁tajtaku	3
mikti	3
▁tlacatecollo	3
ythual	3
huiani	3
▁oquintoca	3
▁plantano	3
chantlaca	3
▁quipixca	3
om	3
▁Gos	3
▁Her	3
tlantoncant	3
▁macui	3
▁nechmomaquili	3
▁temoj	3
aventura	3
momachiztilli	3
▁hualmoquetz	3
▁tiquimont	3
▁intlamaceuhca	3
▁nimitzm	3
olhuiliz	3
▁tequipan	3
▁quimamaya	3
sita	3
▁tlanamaco	3
juezgovernadorti	3
▁izcalti	3
▁ocaxi	3
tlatlachia	3
▁quihualtitlan	3
▁tlatequipanohua	3
▁hualtzinti	3
▁Sala	3
▁oquinotz	3
▁quiceli	3
pieli	3
ht	3
huiztic	3
mochtacacallaqui	3
mora	3
moteyttititzino	3
▁ocpa	3
▁huici	3
▁oquite	3
▁conmati	3
▁Oquitlali	3
chotl	3
▁kiixmati	3
tapach	3
▁iehoa	3
▁onicnocohui	3
motlatzontequili	3
maguili	3
▁motlalica	3
ntsi	3
mextin	3
▁xiquih	3
tzico	3
ytlanahuatiltica	3
ngl	3
▁Xopil	3
▁nimitztla	3
cahualtiz	3
▁nicnoc	3
yeco	3
▁moxello	3
▁kiajsisk	3
▁iluikaktli	3
xpollihui	3
quinnotz	3
iquey	3
iloni	3
▁tepitoto	3
cocoton	3
ixtoc	3
ikak	3
tlacatilitzin	3
▁Acallo	3
▁Proffes	3
hospital	3
ecient	3
conitlacoz	3
▁iuhca	3
▁ipal	3
▁nocohuiz	3
▁tlayahualolotia	3
ztlan	3
▁Pila	3
huicac	3
▁hualmote	3
▁tepuztlahui	3
▁pisto	3
▁letras	3
▁nej	3
▁temahtequil	3
▁tetlamaco	3
▁quihualmin	3
▁pilhua	3
▁beata	3
acxoyatl	3
tecpancalt	3
semiya	3
sewis	3
poloz	3
▁motlapololti	3
▁mulcaxi	3
▁techilui	3
▁yquizan	3
▁quimacaci	3
▁nictzotzon	3
▁tezcatzintli	3
ticatzintli	3
quintzatzili	3
▁omotepexihui	3
OCHTLI	3
▁quizaqui	3
▁tlatlahuil	3
▁tikix	3
las	3
ngel	3
liva	3
stitut	3
▁icacall	3
inilli	3
▁oquihualmama	3
alcoual	3
▁cempoual	3
▁hualteyacan	3
▁imomiyo	3
uallonotia	3
aliaya	3
▁nicaqui	3
▁huiya	3
▁ipeuh	3
▁tlatecpant	3
▁tlaqua	3
▁quichihuan	3
▁Quihual	3
quix	3
▁tlapeui	3
▁Tex	3
uapa	3
▁kitema	3
▁kiitstok	3
▁acitimoquetzaco	3
nocahyan	3
▁tlamachtili	3
▁zolli	3
▁otitlanamacaque	3
▁otocui	3
▁tihuallac	3
▁tlaneci	3
▁miz	3
▁Titlacahua	3
▁otahci	3
yamo	3
▁nicnoca	3
corona	3
put	3
▁mochichiua	3
▁Chicue	3
▁momal	3
▁tziuhco	3
mayo	3
▁tlayec	3
▁Momoztlatica	3
▁Xinechmo	3
▁quizti	3
▁tapa	3
▁ompik	3
▁quihuicatz	3
rva	3
▁oquimmicti	3
▁icpa	3
▁oquitlacal	3
ehuaz	3
oyola	3
▁tlatocatlatol	3
▁ololi	3
▁tihca	3
mahuiztic	3
motequipacho	3
▁Ahueli	3
tlatzontequiliz	3
xiccauh	3
▁ontlami	3
▁immac	3
▁tematequil	3
▁teixami	3
▁omitl	3
tlacoyoc	3
▁inteopixca	3
▁amococo	3
ualtiz	3
çatzint	3
amalco	3
icatca	3
▁orna	3
▁pontifical	3
▁camdela	3
▁quihualmotla	3
▁Macues	3
español	3
▁yokikw	3
enti	3
mimictia	3
▁coniya	3
huiliaya	3
▁quitlapalo	3
▁xiuhp	3
pactia	3
▁cuachpani	3
▁pupu	3
niente	3
yc	3
čoa	3
▁compeualtia	3
▁mitotitinemi	3
▁Balde	3
▁tenonotza	3
zotlaya	3
▁ilamat	3
▁tlatzonilpi	3
cuaz	3
▁Ximotla	3
ehcahui	3
▁cuicapiqui	3
oven	3
▁pepetlauhti	3
lomey	3
▁paraxes	3
zon	3
▁quinyec	3
jr	3
uis	3
▁tlahtlayohua	3
▁Tapia	3
▁tlapehpen	3
hualitta	3
tlacuilol	3
▁Izca	3
▁xoxopan	3
palnemohuani	3
▁mociahu	3
ólo	3
▁Vitzilop	3
alo	3
teopixcatzin	3
apantli	3
▁niteixmati	3
▁quauhxinqu	3
▁quipitza	3
	3
coma	3
▁Atezca	3
xonka	3
▁tzoyo	3
tzahtzilil	3
▁netla	3
yolpachihuitia	3
▁tepati	3
tleco	3
ele	3
tíssim	3
▁moetzticat	3
▁Teu	3
▁motlapa	3
▁tlatlatzcuepon	3
pokero	3
pilhua	3
▁tsikat	3
▁kio	3
▁xinach	3
kualanij	3
uhticac	3
▁Xopanizt	3
▁kuoujtajpa	3
▁kipijpixka	3
cochi	3
▁quimonamaquil	3
▁quicahuiliti	3
tlanehti	3
▁yoni	3
▁nauhxiuhtico	3
tami	3
ecu	3
ndari	3
▁onhuetz	3
miki	3
▁poztequi	3
tlahcuilocatzin	3
▁Ixtlil	3
monochilli	3
▁tequitque	3
tlaxtlahuil	3
huiquiliz	3
▁ythoal	3
▁cematl	3
mollini	3
▁quiyahualot	3
▁quihualmamatia	3
▁wanin	3
ueño	3
▁tlaapachohua	3
▁kikuas	3
▁kiuatsa	3
kixtia	3
▁Chiauh	3
mewa	3
quehuac	3
chiquacemin	3
▁tinotzaloz	3
UEL	3
▁muchiuhtzino	3
yeya	3
▁omotequi	3
▁motequitili	3
▁tiquizque	3
vent	3
tlatlauhti	3
▁Jho	3
iro	3
▁bulla	3
▁oquimopiel	3
▁Quimolhuili	3
▁nicnonamaquili	3
▁tlatlacoh	3
▁mopolo	3
▁onmocuep	3
atlan	3
anoce	3
▁kitemaka	3
▁tlatlapana	3
tlacuilolpan	3
▁nomant	3
▁CECEN	3
CAHU	3
▁respo	3
sus	3
▁motema	3
netemalo	3
▁motzacua	3
naltia	3
zonco	3
cihuamon	3
zpan	3
▁tiquiça	3
▁tine	3
uit	3
▁yahya	3
▁tipano	3
▁quimoma	3
▁oconmo	3
▁ilama	3
uanime	3
▁oquittacque	3
tlaniz	3
▁ticalaquiz	3
▁Eli	3
althasa	3
▁ouas	3
▁mage	3
ichkua	3
▁chakay	3
▁ijuezh	3
opalehuizque	3
otemaquixti	3
▁nopaquiliz	3
motiliqui	3
▁quitlaocolti	3
▁ytlaque	3
▁Quimilhui	3
▁amehuan	3
▁semill	3
▁teochihuallo	3
ketsa	3
▁nakat	3
▁macehuallahtol	3
▁quiquizt	3
volu	3
▁mexicatlaca	3
quí	3
▁omanili	3
▁Otlecoya	3
uhtaya	3
▁Quer	3
▁moteki	3
▁mochiuhtoc	3
huecapano	3
▁huipta	3
▁netequipacholli	3
▁iloti	3
zomal	3
cahualo	3
itoloc	3
awilti	3
šišiko	3
quimomictili	3
▁col	3
ñ	3
idor	3
monamiquilli	3
▁quimoyacanilli	3
cuepaz	3
moyollalili	3
▁caquican	3
▁icuiliuht	3
▁Tlac	3
▁tlatecont	3
▁quinmamaca	3
▁otlatlacoltil	3
vic	3
▁Mixcoa	3
▁nete	3
▁quinmihuali	3
chicueylhui	3
mauhtia	3
ecaliliz	3
tson	3
ijyak	3
▁nimixpa	3
▁Minas	3
ycpac	3
xoçi	3
▁Uizil	3
▁quitzohuiz	3
▁ninoteylhui	3
itlapopoloz	3
necoc	3
teuhct	3
rit	3
▁iixco	3
pactli	3
barra	3
quitzatzacu	3
▁oquinquixti	3
otenahuatil	3
▁gracia	3
▁ihcochi	3
tzinotica	3
motlapalhui	3
▁ticpie	3
techcuitlahuilti	3
▁nenenque	3
▁icihuapil	3
▁axtekiti	3
▁hualmoquixti	3
▁Axo	3
coyan	3
▁Chapol	3
kuitaxkol	3
tejko	3
▁kipoyeli	3
ixnamiqui	3
▁niquinmaca	3
nelhuayo	3
▁Tzin	3
tziquitzin	3
oali	3
▁nam	3
▁quico	3
▁oquitz	3
▁xinechmomaquil	3
▁Otec	3
gou	3
▁alcal	3
nechmononochili	3
ichocaya	3
zti	3
pohuili	3
aquin	3
AN	3
▁Pipi	3
▁yezqueh	3
▁tequicehuiliz	3
uidaro	3
▁max	3
▁tlacoyoct	3
▁mango	3
▁netzoll	3
yayaj	3
▁vez	3
vacan	3
▁tlayx	3
▁Tote	3
yaoyahuallo	3
nonotzaliz	3
▁komit	3
▁moloni	3
▁anemizquia	3
imalhua	3
quican	3
▁Gonz	3
▁xinechto	3
auatil	3
▁exo	3
▁tiltike	3
▁ninoc	3
nomati	3
▁tlejkotok	3
▁otlanamacaya	3
moyetzticate	3
▁Aran	3
nezcaliliz	3
▁yquezquilhui	3
▁oquiahui	3
▁ateco	3
▁otitlahto	3
▁mochinti	3
▁quiualhuicac	3
▁tone	3
▁kwi	3
▁tias	3
▁Tleca	3
oehcoc	3
temos	3
xcatl	3
lana	3
▁huica	3
quixtemo	3
▁Cuacua	3
▁imeixt	3
▁ticmocuitlahui	3
▁Topal	3
▁Xayacamacha	3
tenanyo	3
teh	3
padrino	3
▁talcaldes	3
▁Tlilla	3
▁toteu	3
motlaliliz	3
motlateochihuili	3
▁innechichihual	3
▁quicahuazque	3
▁intepachoca	3
▁titlacuazque	3
▁quixin	3
▁quitocamaca	3
laman	3
▁teten	3
▁conmononochilli	3
▁Juli	3
ueuetl	3
ichcatl	3
▁tonnetla	3
ehuilo	3
moketsa	3
▁christiano	3
icamac	3
▁yukon	3
kwi	3
▁xihualmohuica	3
ficiales	3
▁ialtepe	3
cuiti	3
▁oquimonochili	3
▁hey	3
▁tetlazohtla	3
cuicani	3
icomecatl	3
yaoquiça	3
▁ticpou	3
▁moquetzaz	3
▁noteocal	3
tecuh	3
momiquilli	3
▁moteihtiti	3
čičiwa	3
▁mučti	3
zquican	3
▁kimp	3
▁icnoueue	3
▁icnoilama	3
uhtlan	3
▁cencamatzin	3
▁mixtlati	3
▁tenayoca	3
zcapoçalc	3
kipia	3
▁nikoni	3
▁nanki	3
čiwa	3
▁quicuitlacoyoni	3
▁quicoyoni	3
▁Xolotl	3
motequiuhti	3
▁Ayaxca	3
▁kitepeua	3
▁nicpie	3
sti	3
▁mixnami	3
pensaro	3
▁nichalc	3
▁nocihuam	3
huecatlan	3
▁tlachpa	3
chpa	3
▁opapano	3
alhuia	3
▁ceyohual	3
ordado	3
▁quinchiuhti	3
▁pepetlaca	3
▁pipitz	3
▁calacoua	3
▁Cuauhtlehuanit	3
▁Xochip	3
quecizqui	3
▁tlatic	3
ylhuica	3
▁tetonalmaca	3
mac	3
▁ytenco	3
▁ocacic	3
alixko	3
chalco	3
▁Niquito	3
▁oniquicuil	3
amia	3
xeloa	3
▁cuallan	3
▁Tziuacpopocatzi	3
▁Ten	3
mamalihua	3
vani	3
▁Moma	3
auatla	3
▁Yxcoçauhca	3
▁Quaquapitza	3
▁tečp	3
▁Pro	3
itlazohtlazquia	3
▁mixteca	3
quinmonamiquiliz	3
uhtinen	3
▁ontlamini	3
▁ymacehualhua	3
mixnamiqui	3
lcatl	3
▁Xiloxochc	3
▁innechichiual	3
nexin	3
▁necocolo	3
nalquixti	3
manik	3
▁calque	3
▁quimitzt	3
▁motepanti	3
xolo	3
▁incue	3
▁Oncate	3
▁fres	3
▁quimaxcati	3
nemacti	3
▁ylicencia	3
▁conpi	3
▁Ahuax	3
▁simolotl	3
▁nicnocaquilti	3
▁Xopan	3
petlauh	3
uilti	3
cauil	3
cohuili	3
ihneki	3
▁tlamiminalo	3
▁necahualizt	3
▁quitlapacho	3
▁quimocuitlauia	3
▁mictiloz	3
tlaxitla	3
chihuilia	3
cocoto	3
▁atonahuiztli	3
tequilic	3
▁quimoyolloti	3
llico	3
▁Mocihuaicni	3
▁Ra	3
meyal	3
▁Dircio	3
lotzin	3
tetlapopolhuiliz	3
tlasalo	3
pachi	3
▁mimizt	3
totonia	3
▁cuauhchilli	3
quichtl	3
tiuetzi	3
▁xicon	3
maquiztl	3
▁Quech	3
▁Mitoa	3
▁ianima	3
▁cauhtica	3
lnamiquiz	3
▁epoal	3
▁itzcuauht	3
quihtac	3
tequipacho	3
tlamatinime	3
ense	3
▁papa	3
▁Orne	3
▁Xokoyol	3
pina	3
xocpal	3
▁quimac	3
▁quiyacanti	3
yio	3
nenonotzal	3
▁machiyotica	3
tzetzeloa	3
▁quintequi	3
▁quimilpi	3
▁nicca	3
▁Ray	3
▁Cihuay	3
▁Kuati	3
▁tekitiyaya	3
▁titletlali	3
▁titlachpana	3
▁tatli	3
▁tetecuti	3
▁yntepachoca	3
▁motlatlali	3
mokwep	3
▁pwe	3
▁Et	3
▁omotta	3
ichpochtzin	3
huatili	3
▁moyoliti	3
▁Huehcapa	3
▁elis	3
▁tlasencahual	3
atzah	3
tlanequil	3
▁Chicueyi	3
altica	3
▁nochina	3
nechtlaocoli	3
▁mopillo	3
▁quitlecahui	3
▁nesis	3
▁luminari	3
pantlazque	3
quimiloa	3
▁ymahuiztililoni	3
▁ticochi	3
motlalia	3
▁Tiza	3
▁nelle	3
▁nitekiti	3
omo	3
yahual	3
▁techilhui	3
▁amaxo	3
uauhtexpetla	3
▁quí	3
▁quimixotili	3
▁yhuic	3
▁Chá	3
▁mikti	3
▁tomacehual	3
tlacat	3
yaochihua	3
▁toconicxinami	3
zazan	3
zteca	3
▁hualmotla	3
▁noche	3
▁Francis	3
▁Cotolc	3
uace	3
noc	3
▁Cama	3
lpan	3
▁Hue	3
▁motocayo	3
▁itlatocau	3
▁cempoualxi	3
onohualca	3
▁nimitzon	3
otinechmocnelili	3
▁teumecha	3
ve	3
vigilia	3
ttatzin	3
tlahtocattiti	3
uayya	3
▁cenquiça	3
▁tlaxcaltecatl	3
▁quicuitaci	3
teopixcatlahtoca	3
ikana	3
▁divin	3
▁quiualitqui	3
atzi	3
▁reb	3
▁ymeyxtin	3
▁Hi	3
▁cuitlaxcolizta	3
▁yetic	3
▁vict	3
▁Offic	3
▁xili	3
▁oneč	3
walikak	3
▁sasampa	3
pahuilli	3
▁itop	3
▁yexcan	3
▁yhuelitiliz	3
▁tocac	3
▁quitocac	3
onanki	3
olicp	3
nextil	3
▁ga	3
xeloliz	3
huicaz	3
▁yoyol	3
▁huihuilo	3
▁Ment	3
▁motlacohuilte	3
quitzquili	3
▁malli	3
▁tepoçot	3
ntes	3
▁ylpiti	3
celili	3
▁elotla	3
yolli	3
itlaltepe	3
▁quinemiliaya	3
▁toctit	3
▁haca	3
alchiuhcan	3
huil	3
▁cacalac	3
▁oquitlalitia	3
tochtli	3
▁tecciz	3
▁tlahuitol	3
▁quinapalo	3
molco	3
▁anquimot	3
itlaniliz	3
▁decie	3
mocaltili	3
▁Jose	3
▁techmacaz	3
▁ant	3
▁quimopahtili	3
▁tlamahuizolti	3
▁azcat	3
piltont	3
panitl	3
▁quinamic	3
chichina	3
▁Yzquixochiqu	3
▁quauhti	3
ocho	3
▁tetolini	3
kwaltlamotlatewa	3
ahkwe	3
▁onite	3
▁bisi	3
▁quiyeyeco	3
▁ycuitla	3
neteochihual	3
iztzin	3
▁cociuatlani	3
▁Arm	3
ng	3
▁tlachihuall	3
telpocat	3
▁quinhualhuicaz	3
▁nahuatlato	3
▁Cuetlax	3
▁Mut	3
tlehuatza	3
▁huacqui	3
▁monemitiz	3
▁yxhui	3
▁hualquixohua	3
ncuic	3
maicni	3
▁Eg	3
▁tlaceli	3
▁tohuaxca	3
quiça	3
lolca	3
▁niczaloz	3
ntetl	3
moseui	3
tlazocamachilili	3
maquixtili	3
▁exiuhti	3
kayot	3
▁tacua	3
tzinitzcan	3
▁yowal	3
▁achitzinca	3
omolhuia	3
▁temict	3
▁tepetzinco	3
sneki	3
▁tequiua	3
▁tiah	3
▁quipohua	3
▁azoc	3
olhui	3
▁nicochi	3
iachcauh	3
▁inima	3
▁ikši	3
ihto	3
▁Tlacoxi	3
weyak	3
quizaz	3
▁otimitznotil	3
notlapololti	3
▁Omotla	3
▁quihtoz	3
▁quixquetz	3
tekitika	3
▁Asun	3
▁xitechmomaquili	3
▁noquichti	3
▁not	3
▁momahuizo	3
▁intlacam	3
▁nenamictiliz	3
▁Altepeyo	3
▁mosen	3
▁tlatzquitos	3
▁mocalaquis	3
machiliztica	3
catica	3
chihchi	3
anati	3
▁oquinemili	3
▁kitokase	3
nauatilo	3
nacaztla	3
▁tocuic	3
▁mocauhtzino	3
▁kualk	3
ejkolti	3
▁ixama	3
▁etzon	3
mocnoyt	3
▁huepant	3
▁tictemo	3
▁itotonca	3
▁iyamanca	3
naventura	3
▁ychpuch	3
▁Atlitlallacya	3
malcoch	3
▁ichtequi	3
cato	3
▁oquichpil	3
▁quincauhtiquiz	3
▁omopacho	3
quimocencahuili	3
▁otlacualo	3
▁Tlica	3
▁motlaquen	3
yxpan	3
▁motoka	3
▁mopo	3
▁quihualchihua	3
arranc	3
▁Hier	3
camisa	3
▁mocemi	3
▁Tetlacolti	3
▁acicamati	3
acuazque	3
▁anmo	3
iyaua	3
▁ahziti	3
rgado	3
▁momaicni	3
nicmolhuili	3
ximohtili	3
▁tex	3
▁Nocon	3
▁Ayapanc	3
tlanequilis	3
quixtilli	3
▁Xalli	3
atilul	3
▁tiacaua	3
oquichtihua	3
tequipano	3
▁momajkajki	3
▁pololo	3
▁Oyec	3
▁Tictemohu	3
Ozomat	3
▁quipouhti	3
▁otonac	3
▁ytlanahuatilt	3
ekij	3
▁icnauhtetl	3
▁cualantican	3
mantenero	3
difun	3
quilti	3
temicti	3
▁Pantitla	3
▁xomol	3
▁cuicapicqui	3
▁quixmatih	3
olinia	3
▁mocem	3
tlatititzal	3
▁Ichpoc	3
tima	3
albaceas	3
▁otlahto	3
ašan	3
▁onechmonochili	3
mmolhuil	3
▁ipilhuantzitzi	3
▁iistak	3
▁zaca	3
▁uitzmallot	3
▁nochezt	3
▁tlalxocot	3
mottititzino	3
koli	3
allaque	3
xtlauaz	3
uix	3
villa	3
cuecuepotza	3
▁quintlamaca	3
▁tamonahui	3
▁onmaxiti	3
▁micmo	3
oval	3
▁Moteuczoma	3
▁quitle	3
▁xaxamaca	3
hyo	3
XXX	3
pohpul	3
▁onkas	3
▁Ilhuicamina	3
▁quipachohua	3
▁quimoquechiliz	3
▁quiçallohua	3
▁kinilui	3
▁choka	3
▁Yzua	3
nauatia	3
yollotili	3
▁Lib	3
axka	3
▁oquimotil	3
nonnocuiltonohua	3
▁nohpal	3
XO	3
▁tlaxtlahuili	3
▁tlatamachihual	3
tlah	3
▁tequichihuas	3
▁quichiuhti	3
▁nomach	3
▁ninotzalo	3
▁nictzon	3
▁costa	3
▁otitlachi	3
tlacohua	3
iloz	3
tzontecoma	3
▁ig	3
▁xol	3
tiqueh	3
cuacuala	3
▁cuidad	3
▁antlazohtlazqu	3
▁xicualan	3
▁cerro	3
▁ših	3
▁quihualli	3
▁tlatl	3
mopapaquilti	3
▁Guana	3
▁okitla	3
amitl	3
list	3
acapan	3
▁mochiuhtihuitz	3
▁ajsiko	3
▁Quimitalhui	3
▁xontla	3
▁chicuepoual	3
tentimoma	3
▁tlatzacuil	3
▁omocauhque	3
▁ameli	3
testicoti	3
▁Alexand	3
▁nečpa	3
▁motlatlamallia	3
maxalti	3
▁yahui	3
▁amotech	3
ip	3
del	3
▁escuella	3
▁oquimacaque	3
▁teoamoxt	3
▁quicualita	3
ite	3
tlaquaya	3
▁agust	3
tihtaya	3
▁navi	3
motlatitlani	3
mopachilhuia	3
▁notlaçomahuizt	3
▁comun	3
bbad	3
▁ticpix	3
▁omom	3
▁teumil	3
▁tehoa	3
▁um	3
aye	3
▁Quetzaltepe	3
ul	3
lailotlaqu	3
▁quahuixtlahua	3
cay	3
xtlahuatl	3
tlanamacoya	3
▁quimopalehuili	3
▁nicia	3
▁Yohual	3
▁Tecocoltzi	3
▁comi	3
xotzin	3
▁tzi	3
ihtohua	3
ezyo	3
ontlachie	3
motozcatla	3
ax	3
▁ueuetl	3
cuacua	3
▁motecuyo	3
itauhca	3
mocalaqui	3
huiti	3
techiuhcau	3
▁tecpaneca	3
▁Uitzil	3
çon	3
▁mavizpan	3
▁Otiquit	3
▁Matlal	3
▁ohuilo	3
▁hueliti	3
C	3
▁tsoj	3
yak	3
▁išm	3
▁motlapalo	3
▁hualtzin	3
yeheco	3
▁Tecuhyl	3
ixmachilti	3
▁sam	3
cehuili	3
yotoc	3
▁niquimoni	3
▁quimotitlanili	3
sisna	3
▁cuau	3
▁zacatla	3
▁chich	3
▁maltepetlal	3
▁quinchihuili	3
▁iacal	3
▁quicuicati	3
▁tetecuica	3
quitz	3
ncha	3
▁timitzto	3
▁quicnopilhui	3
lasa	3
▁necetochhuil	3
▁quinapallo	3
▁CHICU	3
tolli	3
makas	3
▁hualhuiquil	3
▁kiko	3
▁Kinamaka	3
chhuipil	3
uextecatl	3
llac	3
nivia	3
▁nictoca	3
▁waki	3
aber	3
▁Opeh	3
▁Yztactlalloca	3
teopixcahua	3
tlačičino	3
azqueh	3
edo	3
▁Anauac	3
▁Tlacoch	3
cuia	3
quiztinen	3
▁motilma	3
otla	3
▁nictlazohcamati	3
tlatequipanoliz	3
▁quimotoquili	3
▁Vie	3
▁condes	3
iyaliz	3
tlatlatlauhtiliz	3
▁huelliti	3
ltica	3
▁mohuitequi	3
▁kuati	3
▁motlatlania	3
▁axnijmati	3
lteca	3
▁quihuallali	3
▁tlaneltocaz	3
▁tetzauh	3
▁nictemaca	3
▁mokuapa	3
▁regi	3
kuali	3
▁quicohuaz	3
▁spirit	3
▁tlachiuall	3
▁Otlan	3
▁temauhti	3
▁kitemoua	3
▁huallachixtine	3
▁xan	3
kwaw	3
sare	3
▁cat	3
▁tajta	3
▁Herna	3
pepecho	3
ochin	3
yolime	3
emania	3
▁Edu	3
motequipachilhui	3
▁hon	3
quiztoc	3
▁Basqu	3
ilnamiqui	3
▁tochina	3
▁peniten	3
▁onchicom	3
▁Anglitlal	3
amatini	3
▁Ge	3
rge	3
ederic	3
metz	3
▁yueltiu	3
▁matlacxiuhti	3
▁Bla	3
▁onteixti	3
▁Otomi	3
▁Mexicame	3
▁tecp	3
catitlan	3
kisa	3
▁tlazopilli	3
▁omoca	3
▁Ocellopan	3
titinen	3
▁ontlamin	3
▁nicmacatia	3
▁ycxi	3
▁calehcapo	3
▁oquipolo	3
htinemia	3
▁tipa	3
tlatlauhtilia	3
ticia	3
▁tzicuini	3
▁nenenca	3
▁cahuatemo	3
▁yntlatohuaya	3
▁omitz	3
▁Actopa	3
▁tlepan	3
▁concuic	3
▁onpohualxiuhti	3
quilmaitl	3
inenca	3
ahuique	3
▁icopa	3
tlallolin	3
▁nemacho	3
▁opolihuic	3
▁ayehecat	3
▁atoco	3
▁mattiu	3
▁ixcaui	3
machix	3
▁Ihui	3
ellacuaua	3
vica	3
▁incalcohual	3
▁kintlachili	3
▁tlatlati	3
uetzi	3
matzatza	3
▁ycxitla	3
▁onyohuac	3
ehecac	3
▁quaxomo	3
▁cachi	3
huenchihua	3
pachihuiz	3
▁yepoal	3
xquixti	3
▁anoc	3
xotzi	3
tzitzimit	3
▁quimocahuiliti	3
▁ianiman	3
▁Bea	3
age	3
nemachtiloya	3
▁toztomeca	3
ntaz	3
ub	3
YACA	3
▁ocenquiça	3
artiy	3
▁quimoquechillit	3
provisor	3
▁ahuiltechi	3
miximachili	3
▁omotlacatili	3
oncan	3
▁ycchicuey	3
▁diploma	3
▁onitlacat	3
▁noteyc	3
▁Xochiaya	3
▁oticquix	3
▁Chalchihuitl	3
▁Noyol	3
▁niquinn	3
uatzin	3
▁quicelilti	3
▁xikualani	3
▁ticten	3
▁quiix	3
▁caltequichihua	3
▁oniquim	3
ihtac	3
quizaya	3
▁caltla	3
llano	3
▁imontlamanixtin	3
▁Yhuipa	3
▁yompa	3
▁tlapa	3
mexi	3
LI	3
▁tlachik	3
▁xinechmac	3
▁cenman	3
auil	3
▁amotlatol	3
▁apozonal	3
oncel	3
mixcoya	3
▁rancho	3
▁Xuchmilco	3
▁ocu	3
▁lečon	3
lome	3
tlamaka	3
▁namonan	3
▁totlaakatsii	3
▁moijtó	3
▁quimihua	3
▁ohualmochiuhtia	3
▁ximohuicaca	3
mahuiçohua	3
▁itlahuillanalpa	3
oteoticanan	3
bun	3
▁tlachihuali	3
▁quiixpanos	3
▁Nono	3
▁quineltoca	3
lnamiquillitzin	3
▁quitlacamatiz	3
min	3
yacatia	3
▁Tlallocan	3
motlanika	3
noza	3
▁Xime	3
▁acat	3
icha	3
▁let	3
ablo	3
panahuia	3
▁quintequimaca	3
▁Uey	3
▁nijmati	3
tit	3
undo	3
motsojtsouiteki	3
tinen	3
▁ontlachix	3
▁ahuic	3
▁mohta	3
yotzi	3
kixti	3
lahtolli	3
oztoc	3
▁moteteca	3
▁huilohuaya	3
▁tlacamecayo	3
geni	3
▁quicuili	3
matizque	3
▁oun	3
▁Neçaualco	3
▁mocuiltono	3
▁motlacamati	3
▁quinnotza	3
▁necocollo	3
▁Tlat	3
▁quimopalehuilli	3
▁Ybar	3
tehua	3
huehueyac	3
nahuati	3
▁mie	3
▁tleic	3
cnooquicht	3
cuitlatic	3
▁cien	3
▁otiquimon	3
▁mocehuia	3
▁ixtelolo	3
▁quj	3
▁mizo	3
chixticate	3
▁teua	3
▁Oyuh	3
uiliaj	3
▁ontlatlachi	3
▁otito	3
tores	3
▁onica	3
▁tinocone	3
tecuhtlatoloya	3
▁TLE	3
▁tlachichihua	3
▁onyahque	3
▁timali	3
▁hualaci	3
cuepalloc	3
▁tlakwa	3
sowaw	3
▁točan	3
chollohua	3
▁yqua	3
alihtaya	3
▁onechtlahtlani	3
▁nopi	3
▁noten	3
▁tocontla	3
▁oconcui	3
▁oquimomaca	3
techtekipanouaj	3
▁Titlan	3
▁oquinhual	3
▁notelputz	3
quiza	3
yacahua	3
▁quinmottili	3
huepahui	3
illico	3
mochoqui	3
ninocuiltono	3
▁apizmiqui	3
▁Mader	3
▁cihuachichi	3
▁motlancuaquetza	3
▁wila	3
▁quinmachti	3
šika	3
▁Xoxopan	3
▁weli	3
▁nečkwa	3
▁temoya	3
aquillo	3
tlaquehui	3
nicnopielia	3
▁Napo	3
cepan	3
▁moquequetz	3
quizca	3
▁tlamahuiz	3
▁quimixnamic	3
▁XXVI	3
▁ahkwe	3
OJ	3
▁quimotzatzilili	3
▁KUOUJ	3
teicniuhti	3
▁omixtlapa	3
vir	3
huallolin	3
▁quipehualtia	3
▁Lim	3
▁tiquintlachica	3
▁quicohuil	3
tlapalteo	3
▁xiquihto	3
▁ximohtili	3
ltican	3
catzi	3
▁tleno	3
pital	3
▁patlahuacchilli	3
hcuilo	3
tlatequipano	3
▁oquicah	3
▁napohual	3
▁ommoca	3
tenehuallo	3
▁tetlatzontequil	3
▁yohuala	3
▁Teuhcho	3
▁Sara	3
maxiujyo	3
pehualoc	3
quechili	3
▁zuquichiuhqui	3
▁quitlaz	3
▁niah	3
▁xihui	3
▁quinmachtiz	3
nauati	3
▁ylpito	3
▁tiquihtohua	3
iselo	3
tona	3
▁itepotzco	3
momachtihqueh	3
miyahua	3
tiuala	3
almeh	3
tlachihuali	3
▁quiixnextis	3
▁tequichihuani	3
tlaneltocani	3
▁tocniuhtzi	3
pacti	3
tlaocoli	3
olli	3
▁kamati	3
▁moqu	3
tepeua	3
▁yccenpohuall	3
▁adelant	3
uco	3
hueytlahtoca	3
▁nepacopa	3
▁cocolo	3
▁tlapechpa	3
▁moyec	3
▁distansia	3
▁nacaci	3
htiaque	3
▁ojolol	3
▁chijchi	3
▁Nechca	3
▁tlatechpohuili	3
▁moyaual	3
tista	3
▁xilot	3
▁oconca	3
awi	3
▁notlake	3
▁nictec	3
▁horno	3
tentzone	3
▁oquimote	3
huiyan	3
▁tlamahuiço	3
▁quimanili	3
▁Chicahualis	3
▁Tlahtolchihuali	3
pactzin	3
▁itocayo	3
▁kiitski	3
▁quimaqui	3
lahto	3
aquiltito	3
▁innemiliz	3
ança	3
▁quiteyttiti	3
oquichi	3
▁yxcuichehua	3
▁tet	3
▁Quauhqui	3
▁mopetla	3
▁Omote	3
uiyaj	3
▁oticca	3
▁hehecatic	3
▁tlaquetz	3
▁omotlalitzino	3
▁Pres	3
mimi	3
▁koyome	3
xti	3
pouhtia	3
huaxca	3
▁tlakuaj	3
huiquilli	3
iuapili	3
▁tlamayecam	3
▁otequitque	3
▁tayocoya	3
▁Cuauhtena	3
ijti	3
machilia	3
quinmopilia	3
▁Tolla	3
▁nijp	3
ouas	3
tocato	3
▁netlatilo	3
ntia	3
▁tiquelehui	3
itlahcuilozqu	3
▁omoteca	3
▁noteotica	3
nikanik	3
callaquica	3
cequi	3
tlatete	3
motlaque	3
▁quitemolia	3
▁quichiazque	3
▁aciquiu	3
▁yokisa	3
▁antlanamacazqu	3
▁uhk	3
▁otia	3
▁Niñ	3
youiliz	3
tzaya	3
▁tlamat	3
▁oquitlaco	3
▁tlacuiloz	3
▁kač	3
▁motepewa	3
▁mapoch	3
tzicuini	3
ihuahua	3
▁Tab	3
pas	3
tlapia	3
oyuca	3
▁chichiltique	3
▁cemilhuitlapo	3
▁yokimo	3
▁adi	3
▁timomiquili	3
zemica	3
ençacat	3
▁netlal	3
▁tlalma	3
xiquitta	3
▁ahquique	3
▁Yxquich	3
quimellauh	3
▁kikauili	3
motlayecolti	3
▁omoquatequi	3
▁onpoual	3
▁xihuala	3
▁quimocuicuil	3
▁pixqui	3
▁tikana	3
maestro	3
▁quimmictia	3
▁concau	3
▁nitlahto	3
chiqui	3
▁xical	3
eda	3
▁pina	3
itlanili	3
huallihuallo	3
chiuilis	3
ticnenelo	3
quinnotza	3
chichicha	3
tehuaz	3
▁ommihzo	3
tlacuecuepotza	3
▁ticcemaxcati	3
▁Cá	3
ualla	3
barrio	3
▁Altepechanehque	3
vitaminah	3
teyo	3
tzca	3
▁maldad	3
▁present	3
kipí	3
▁Totonacapa	3
▁netotonaca	3
was	3
itohua	3
▁achcauht	3
▁quitzaqua	3
▁tlamachiliz	3
▁Xol	3
▁inelhuayo	3
cochian	3
tlacoch	3
▁tepetlamimil	3
kueta	3
nš	3
▁quiquiz	3
ecauh	3
perroqu	3
▁tlatzontequi	3
ssion	3
▁mocacayahua	3
▁tiualauij	3
▁kiualik	3
▁palomaxt	3
▁xalte	3
▁Tzonpan	3
▁itilma	3
petlacal	3
▁ueuejkapan	3
maquauh	3
cá	3
▁otlato	3
▁monelchiuh	3
▁oconmocaquiti	3
▁tepeyacac	3
uauitl	3
▁oquicuit	3
iquili	3
axix	3
tenqualac	3
▁Bazqu	3
▁mokakili	3
▁mokoa	3
kuase	3
titihui	3
quilli	3
▁itsinta	3
▁kimachili	3
izqueh	3
▁motl	3
▁quiquaz	3
▁kipixka	3
calahque	3
nochtin	3
omiquiliz	3
▁nomicca	3
achic	3
chihualiz	3
▁itzmolini	3
▁quimittaz	3
huiquilliz	3
anno	3
regla	3
▁timonenequi	3
▁nitlacat	3
yolocacopa	3
▁inchichimeca	3
▁Dom	3
▁oquinahuati	3
▁bo	3
▁nimicmaka	3
▁xochihuehuet	3
huiltiz	3
bi	3
▁castollo	3
quisas	3
uise	3
▁nechcuili	3
▁bote	3
cico	3
▁ticnemilia	3
▁ometzta	3
▁mocuicati	3
▁quinto	3
▁oquinmachti	3
▁tlatetequiz	3
cenquixti	3
ubeta	3
▁tey	3
auhca	3
▁motlallo	3
▁Amuel	3
stre	3
▁moui	3
▁ualeua	3
▁tenemiliz	3
▁Moteucsomazin	3
▁quiyaochihua	3
ycpate	3
▁oipati	3
▁tinechmocahuili	3
▁calxexelol	3
▁hualhuetz	3
iximati	3
anca	3
ilhuitia	3
▁iniquei	3
▁quixtilo	3
▁xochin	3
▁mé	3
xiko	3
niso	3
▁so	3
▁xiquinma	3
▁quiualtza	3
▁Machad	3
quini	3
▁ilpiti	3
▁ontlamace	3
▁nauhyohual	3
huito	3
▁tlalnamiqui	3
▁quitlatlati	3
▁Blan	3
▁ticchioaz	3
iecpa	3
▁tikwa	3
▁komitl	3
▁conanazque	3
zquiah	3
▁ipanima	3
tecuilhuit	3
▁moquich	3
anquimocuili	3
▁cuahto	3
▁tiamico	3
▁ayocm	3
ticcentlali	3
▁icuitlapan	3
cuicuillo	3
huallatocatlalli	3
▁xij	3
▁pak	3
quimotlahtlanili	3
▁Or	3
uizcalpotonqui	3
atomat	3
▁pialo	3
▁onac	3
▁ithuall	3
▁quimonextili	3
▁moyaochihua	3
tetepacho	3
▁Quauhxaya	3
amaque	3
▁motlauht	3
quimilo	3
▁tzatzitinen	3
▁Tetl	3
potonqui	3
▁Mixcoatl	3
cayotia	3
▁macaya	3
cuepcayotili	3
▁ticnanquiliz	3
▁ocontlali	3
▁tehuilotl	3
▁omotocayoti	3
▁chayauac	3
▁Tlah	3
▁hualmoque	3
kriad	3
▁hualqui	3
cayopa	3
cualoc	3
▁tehuica	3
appan	3
▁ihuayol	3
catoton	3
oquipan	3
erico	3
rdia	3
tatauhtia	3
tlacamictiliz	3
nequetza	3
poč	3
▁hueyiatl	3
tetlatlauhti	3
ike	3
cuech	3
▁acallo	3
▁otiquinmaca	3
tiquimoncallaqui	3
▁tep	3
▁ahçi	3
▁cahcic	3
▁Galli	3
▁tzinitzca	3
▁tlaxa	3
▁nopilwa	3
cualicaz	3
▁cualicaz	3
▁quauhtemohui	3
▁xiujt	3
▁Si	3
▁maltizque	3
▁kitson	3
▁yxco	3
tlalcahuica	3
šiyo	3
▁moyaochichiuhti	3
kiw	3
▁quicahualti	3
▁Xo	3
▁omotlatocatlal	3
viz	3
▁perochia	3
ateko	3
tlahueliloc	3
▁kwan	3
▁padr	3
skí	3
bca	3
▁šokt	3
▁nechmolhuili	3
nac	3
matlactlonce	3
tiski	3
poualxiu	3
▁nob	3
▁mosewi	3
▁otechcocoli	3
ztoc	3
▁welik	3
▁quintollini	3
▁tlateneuh	3
▁indu	3
▁ayatilakt	3
▁akwtle	3
▁TLEN	3
▁kitsa	3
▁techhual	3
▁quitemo	3
▁naca	3
quilitl	3
tilizque	3
▁timel	3
▁Cimat	3
▁teoaxochi	3
chihual	3
▁itlatlacol	3
conen	3
imitzmactilia	3
ycxi	3
▁tlacanechicolti	3
▁omotlayahualhui	3
▁ver	3
▁mazayel	3
▁Quemmani	3
noncua	3
▁ximochi	3
hualloto	3
▁pitzo	3
mawak	3
▁tohuehuetla	3
yx	3
elti	3
ntique	3
▁xicmottili	3
▁kix	3
▁nitlahtohua	3
yba	3
▁yyay	3
▁Noj	3
▁tziuac	3
▁tlazoll	3
▁anquiz	3
▁omoxtla	3
▁teonacaz	3
▁ycuiliuht	3
▁ompoual	3
▁titlapa	3
nechchihuili	3
▁nineci	3
icnoitta	3
calti	3
otito	3
tequitihuac	3
▁ángel	3
▁yquizayan	3
mahuiztililoni	3
▁mitoni	3
▁quitequili	3
quallani	3
▁J	3
▁namotla	3
opanoque	3
▁quimonahuatili	3
▁ycapillatzin	3
▁quihuilana	3
▁Ama	3
▁mihtoti	3
▁nise	3
▁Nu	3
icchiuh	3
racione	3
▁manto	3
▁coro	3
▁Anu	3
▁cemm	3
▁innahuatil	3
▁quincahualti	3
tlachiuhtli	3
▁tequixqui	3
sis	3
▁quicxi	3
liuhtoc	3
▁Motenehua	3
▁cocolli	3
▁tlapolo	3
▁quicen	3
watiw	3
▁moso	3
soua	3
barbeč	3
ltikpak	3
▁tlapatio	3
▁huicallo	3
▁euanti	3
▁ninotla	3
▁niqu	3
▁ilnamiqui	3
mique	3
huallaque	3
▁mixcolot	3
ticmati	3
cula	3
▁yxayo	3
▁tipiltzin	3
zontli	3
uito	3
momachiltili	3
ixnamic	3
papalo	3
▁mehuilti	3
▁Huitzill	3
▁nemihua	3
zolin	3
tlacalhuiz	3
▁iayo	3
▁Yuhqui	3
▁tihmati	3
▁techpolo	3
tlapolhui	3
machia	3
▁kipan	3
tocayotl	3
uetz	3
mocaquiz	3
tlayua	3
lhuichihuilil	3
▁tlapancall	3
calpul	3
▁oquinyao	3
lehuia	3
▁ticchiuaz	3
▁quimiximachili	3
tlachichiuhcatzi	3
sal	3
▁Quimon	3
ticateh	3
quixnamiqui	3
acayo	3
maxtlat	3
▁teyao	3
▁mocenquixti	3
pacohua	3
tlatzotzona	3
▁omimi	3
▁tlahuiz	3
▁Mix	3
iuhcan	3
▁cuitia	3
▁cehuetz	3
▁oxoxo	3
▁motecui	3
llitic	3
▁cuacua	3
mohuetziti	3
TEC	3
tzotzona	3
xochicozqui	3
▁padrino	3
layua	3
▁ninoxico	3
▁calacoa	3
▁nechico	3
▁Arí	3
yocmo	3
▁yttoz	3
▁gente	3
▁acali	3
patzac	3
▁otlacuecuepotza	3
▁ualase	3
▁ualquiz	3
▁onotech	3
aliti	3
uitlahuaca	3
ntlamaka	3
tzontlan	3
▁tzotzopi	3
▁nemiliz	3
zquiaya	3
▁mich	3
huehuetlal	3
catiz	3
tlachallani	3
tlalhui	3
payo	3
▁papalo	3
▁quiyancuilli	3
▁mocenma	3
▁oticpolo	3
mučiw	3
▁ytlachi	3
rdó	3
▁poliui	3
▁cuentla	3
▁Cuauhtenco	3
▁yncha	3
▁yajti	3
▁ahuiliz	3
▁mantihui	3
▁potoni	3
▁octepitzin	3
▁quitlaoculia	3
▁moyetzinoticat	3
▁taza	3
tlaihioui	3
tlayahualoliz	3
▁intlacatecolo	3
ilacatzoa	3
ncate	3
tlacuillo	3
▁oquimah	3
omoteochiuhtzino	3
▁moxtlahua	3
▁Ixtlahuapa	3
▁piksa	3
▁ynteopan	3
▁oquimitlanilili	3
▁iyom	3
esor	3
pachilhuiya	3
tificaci	3
sojeto	3
▁tlanel	3
▁otonya	3
▁ixitlan	3
▁innan	3
▁amix	3
▁amocpa	3
echcuiliznequi	3
▁Tlanonotzalo	3
▁omotlan	3
▁Ompo	3
▁kiuiuita	3
luz	3
▁onechmaca	3
pano	3
tekis	3
▁tetlamamaca	3
▁tentiman	3
calac	3
pohui	3
cauhtehuazque	3
▁mel	3
tihuac	3
▁Nencio	3
▁cihuacuacua	3
▁onchicuei	3
▁toyaca	3
▁nipo	3
tenque	3
inko	3
▁inchinan	3
quimimacaci	3
▁nicte	3
▁quiquetzaz	3
olot	3
palehuiliz	3
▁Oquipix	3
istli	3
▁ximocaquiti	3
▁tlatepoz	3
▁quitemaz	3
teu	3
▁motlatito	3
▁quimaman	3
quincahua	3
▁tlalmatini	3
lant	3
▁texoh	3
▁ycchiuhcnahui	3
▁tlaapacho	3
▁nicnamaca	3
tetequiz	3
avi	3
▁ichcame	3
▁moteponaço	3
▁tecuanotza	3
tlamelahua	3
tetlatzontequili	3
▁oquimottilli	3
▁nochcalco	3
▁Maça	3
topil	3
▁tatemp	3
▁wey	3
▁iama	3
miento	3
▁org	3
▁molcaxi	3
caltema	3
▁okwika	3
iayah	3
▁quemma	3
quihuicaya	3
▁macho	3
▁teopixcatlahto	3
huiliz	3
▁Xochit	3
▁tlatilo	3
▁oquimaci	3
▁quitlallica	3
latzopeliloni	3
kwik	3
ixnextia	3
▁quichihuilia	3
ypan	3
▁Bi	3
▁niquincen	3
▁domíni	3
tlaxtlahualo	3
kitaj	3
▁tlaquauh	3
▁tlayocoya	3
pho	3
▁Ciencia	3
teuhctlatol	3
▁Techca	3
▁ximomauhtica	3
▁temal	3
conde	3
mactili	3
▁ximocuepa	3
patlanaliz	3
▁tijchijto	3
▁couixca	3
▁kuo	3
QUE	3
▁ymachcauh	3
pantalon	3
tlachicauili	3
quintlayecolti	3
▁Plat	3
▁tajtol	3
ijkuiloj	3
▁tlacatica	3
▁onmoxtla	3
▁quitzotzon	3
▁nie	3
laixhuasan	3
▁tiquihtozque	3
▁axala	3
▁anauaca	3
▁mochiuhtzinohua	3
▁cathólic	3
▁panoh	3
tlatepacho	3
▁quitzontequi	3
▁chilnanaca	3
▁mocuica	3
ahuayo	3
▁iexca	3
otlatolcuepaz	3
▁sikera	3
petla	3
▁ajachi	3
tlatoltecatlalia	3
nechpaleui	3
nochi	3
cihua	3
▁provinciales	3
▁Ahua	3
tzalpan	3
antoj	3
▁tlatzacui	3
ahuitzin	3
elelquixtiz	3
▁kioya	3
▁fr	3
jtsili	3
▁oiuhquimocaqui	3
tlamachtia	3
uauj	3
▁anmonelchihua	3
▁quitztilti	3
ttalli	3
▁quitlatiz	3
▁calacecahuil	3
▁sacerdote	3
▁Yollo	3
oxa	3
▁tihualaz	3
olelo	3
▁inyel	2
▁onitlanamac	2
▁Tetz	2
▁nopiltzintzin	2
iquiztihuetzi	2
▁arrieros	2
▁Otlananquil	2
tetzavit	2
▁tivi	2
centeutl	2
▁xikuatlejko	2
izahui	2
lacah	2
▁oticmatque	2
▁tohuehue	2
▁tlacayotl	2
▁uejkapanti	2
nezque	2
▁quimonauatilli	2
▁quipatahuaz	2
▁titzicuini	2
otencopa	2
tlatzacui	2
▁maquiztin	2
▁Pastor	2
tapetanilo	2
NONOTZALL	2
▁xeliuhtica	2
lalica	2
▁techhuica	2
▁Tiju	2
kase	2
▁inyolloco	2
▁yonic	2
tonhuia	2
tennamiqui	2
digo	2
▁xiquinmo	2
▁quetzaloco	2
itlahpali	2
▁tzotzoyo	2
▁tzatzapalti	2
moquichito	2
itlaltemoli	2
▁teocuitlaco	2
yoltoto	2
oquimixquechilli	2
hualmochihuilli	2
titiquiz	2
▁ximotomint	2
moyomahuil	2
andas	2
ujet	2
motecpantzino	2
redo	2
▁hor	2
▁resibiro	2
▁tocue	2
▁Ypalnemohuani	2
imotztimoquetz	2
▁tlaocoxque	2
toneuh	2
▁ahco	2
popollo	2
▁oquelimic	2
qualti	2
atzony	2
xka	2
uijto	2
▁Xitlachi	2
yati	2
▁ninapa	2
▁toye	2
▁tlamicti	2
▁oq	2
▁icuama	2
tlatl	2
▁temachtica	2
▁oquinmilhui	2
▁Nanqui	2
▁namota	2
▁incaltenpa	2
▁motlatla	2
▁nepan	2
▁chicu	2
cozacatl	2
icopal	2
▁ymeca	2
quinmopalehuilia	2
▁iku	2
▁tlaamahui	2
▁teuit	2
▁mixaya	2
▁kipisiloua	2
hilacach	2
AMO	2
HTLI	2
NOH	2
lacatecolotl	2
icmati	2
▁titocniu	2
▁oahzito	2
hcahuan	2
▁conit	2
omachiyoti	2
▁motlapachilhuit	2
▁Icompa	2
chichihualo	2
▁Resure	2
cti	2
▁mohuitequiz	2
uwi	2
freseroti	2
areglaro	2
▁miccailhuitl	2
xco	2
▁popu	2
ihualoya	2
▁titenantsi	2
▁ocehuetz	2
▁patlaniz	2
totomoc	2
ersa	2
▁quimopouhilili	2
quimomelauh	2
iuhcayotzin	2
quimahuizoh	2
tiamico	2
▁kone	2
niezquia	2
▁axcatillo	2
▁moxaxakualó	2
▁ineteochi	2
▁quihualmot	2
▁quimahuizo	2
▁SOYO	2
QUELITE	2
▁oçequi	2
pantlaza	2
▁ticnexti	2
tlatlaniz	2
cuitlatzayan	2
ilpitoc	2
▁igovernaci	2
zotilma	2
▁compehualti	2
▁omitzmo	2
tlacoz	2
▁mitzitta	2
▁mitztlat	2
ká	2
▁Xtechtayocoli	2
▁tlalcaui	2
auatl	2
▁touelti	2
lcaua	2
tlapalo	2
kitenamik	2
imaman	2
iwala	2
▁tlaehec	2
▁quinnexti	2
mimin	2
▁Tatat	2
molhuilia	2
tlaneltocaz	2
▁quihuallac	2
totonti	2
▁hualchichiuhtia	2
cuitlalpia	2
▁quilpia	2
caquitillo	2
▁quitlacatilli	2
▁Mia	2
▁tlamatque	2
▁zayo	2
nkwakeca	2
▁quicha	2
nehualiz	2
▁nemican	2
▁quimahua	2
▁quinmahuizpol	2
cuicuitla	2
▁mocaltiz	2
UAUJKILIT	2
TI	2
familiar	2
▁inxacal	2
▁omik	2
▁Xexelih	2
ikpak	2
ntika	2
chalaniz	2
▁kitentlapo	2
▁tlazcaltil	2
▁TEN	2
▁tocomaca	2
▁noyecol	2
▁siawi	2
▁moyot	2
▁Ycnotl	2
▁omitalhui	2
▁ymix	2
▁tlahmac	2
▁ilacatziuh	2
▁Oquimp	2
nehua	2
▁Conchit	2
motetlacolili	2
tlatzontequili	2
▁tlatzillin	2
▁Conde	2
▁tehhuan	2
▁quinmotla	2
çili	2
uauhtli	2
▁tocuil	2
▁api	2
▁atotol	2
▁hualix	2
motilquetz	2
▁tzinquiz	2
intoma	2
xexeloa	2
▁chichileui	2
mamalhuaz	2
▁mitztolini	2
pinauhtiz	2
huilana	2
▁yepohuall	2
acatenco	2
▁Capoltitla	2
▁kentsi	2
▁maxca	2
▁melahuacayoti	2
▁nezca	2
panahuillo	2
tlatetzotzon	2
▁moteyc	2
▁pohpo	2
pachoua	2
▁ixto	2
▁omtlanahuatil	2
▁quich	2
▁cahuiti	2
▁quezquipohualxi	2
▁oquipix	2
▁yoquita	2
pito	2
axihuac	2
▁içiu	2
▁itlatla	2
•	2
▁teocnenemi	2
▁tzaocti	2
▁tlajtoli	2
▁tequichihua	2
▁chicuase	2
▁altepechaneh	2
▁quitlapehpeni	2
▁tequihu	2
▁xachocaca	2
▁xoconmati	2
ayye	2
▁Kil	2
▁elto	2
▁tlapapa	2
▁mimiliuh	2
▁tlapoyau	2
▁tlaacaltemalo	2
▁ciriales	2
motlaehualhui	2
▁honm	2
tenyotiz	2
▁otlayahua	2
tlaxillacalpa	2
quitequixtili	2
▁quinamacaya	2
▁upa	2
▁nepanixti	2
▁amechmomaquili	2
petlac	2
▁ahuach	2
tonnameyot	2
nictehtequit	2
nimitznomacquili	2
▁ticmihtlanili	2
netitlaniz	2
▁xicmo	2
▁quicualitas	2
▁axcual	2
eltoc	2
▁nechicolis	2
▁quipano	2
▁timotzotzona	2
▁ihtolo	2
▁tenehualo	2
matiliz	2
▁ualoui	2
▁tihualmo	2
▁immi	2
ehualoc	2
▁otiqu	2
opeuh	2
xiuhpohualtzin	2
▁ohacic	2
▁hualm	2
motzicalhui	2
allito	2
▁ymacehual	2
▁tlachichihuallo	2
xiuhquechol	2
▁mopampa	2
epohualxiuhti	2
▁Quimona	2
nonohua	2
▁xahuen	2
▁tlatzcacua	2
▁mahuiltiz	2
▁monechicoz	2
▁mononotzazque	2
mitztlahtlani	2
▁tichicuace	2
acicamati	2
▁mopil	2
▁huepahua	2
▁ib	2
omohuepah	2
cahuah	2
▁notelpoch	2
▁noye	2
cecel	2
▁Istak	2
okili	2
▁timuč	2
konoa	2
▁titechpinauhti	2
pehua	2
mitalhuia	2
chiliz	2
tzoyo	2
quichihuazque	2
▁totopixque	2
▁Nochin	2
▁tlaxcalo	2
elotl	2
▁tlahtohca	2
teopixqu	2
▁quintlatlauhti	2
▁anoz	2
▁quintequipacho	2
▁imix	2
mpilcatinemi	2
▁imicniuh	2
▁techyahual	2
▁Acamapi	2
▁hualtem	2
lilih	2
quitehtequi	2
conmocuili	2
▁quihualmotemil	2
▁otlaco	2
▁quiuall	2
▁tiquitztiaz	2
▁quinqua	2
▁callixa	2
▁cenyolo	2
htitili	2
icmotoquilih	2
▁ticuahcuahui	2
▁mochichihuaz	2
▁Quih	2
natzin	2
▁oyxp	2
▁Comsep	2
rida	2
▁otlamachiyoti	2
▁otlatlal	2
▁porter	2
çolli	2
tlaquauhnahuati	2
▁motlaxtlahu	2
▁moxiujyoti	2
▁tani	2
▁ueuejti	2
nelpa	2
lacua	2
ohuilli	2
▁quimotequilli	2
tlatlalili	2
▁quimocehuiliz	2
cencaua	2
▁ueuechiua	2
tetlajpalo	2
tlayxiptlayot	2
tzocuazhui	2
▁oquititlani	2
xopapac	2
▁tatapa	2
▁otechtiti	2
▁tepinauhti	2
▁tlatechpohuil	2
tlalis	2
▁Mopiali	2
▁ahc	2
▁xochinca	2
tlenamaca	2
▁motlaecoltia	2
▁Vo	2
▁titequi	2
▁yxtla	2
▁naval	2
imilco	2
▁tipeuhque	2
▁nimitsuikas	2
▁nohuic	2
ahuayotl	2
▁omatla	2
▁CeCouat	2
▁Oanquipi	2
momextin	2
notiachcahuan	2
▁tinoci	2
nepapan	2
ototome	2
liujtok	2
▁Tull	2
▁Mexco	2
▁chollol	2
tequitizque	2
▁xop	2
temolia	2
xuiuh	2
▁Port	2
▁imahtlacome	2
▁mopilo	2
▁Ezhuahuacatzin	2
onmoquetz	2
▁yyaca	2
▁Amantla	2
ambi	2
▁Estr	2
ella	2
ssen	2
busc	2
▁portal	2
▁judío	2
▁cer	2
▁imacaci	2
tlacauapaua	2
titlakwa	2
▁teahuan	2
▁nepaniuh	2
moquetzaz	2
ocontlalcaui	2
▁tiquimon	2
cauhtiaz	2
▁tlamamalo	2
ixpantili	2
urre	2
laskamati	2
▁iquechcua	2
calacoaya	2
micmomantenerwis	2
▁kitachipau	2
▁Kualtsi	2
▁tanikuakopa	2
cicihua	2
tlalliloc	2
miquani	2
▁Xihualmohuica	2
xitl	2
icohoa	2
▁oticce	2
▁tictocui	2
▁onecacay	2
▁omohuetzi	2
▁xonokuo	2
palak	2
otechquimocauil	2
▁oniquimacac	2
asal	2
mochantlali	2
▁quihualmopatil	2
▁otlah	2
oce	2
ichtequi	2
vo	2
▁yanqui	2
hoaz	2
▁Chicahuac	2
▁tlatzintil	2
lizpeuhca	2
mictilli	2
nanamiquilliz	2
lalcocomoc	2
matitlan	2
▁noconcau	2
tlamaquixtil	2
▁otitotla	2
▁çihuapill	2
▁Malitz	2
▁cristiano	2
macues	2
tilmatzin	2
nmetzticateh	2
▁nequeque	2
▁Quicen	2
▁macoman	2
▁quicnocau	2
topille	2
▁otlatzi	2
▁colex	2
▁axo	2
texa	2
ixhuasanis	2
tequihuetlalis	2
▁tlatzqui	2
itzqui	2
▁Tlapi	2
emaquixtiliz	2
tlaxtlaui	2
▁vica	2
▁xalli	2
▁quincenpopoloz	2
▁quitlaecolti	2
mantok	2
▁temitok	2
▁cihuateupix	2
quimopehualtilli	2
▁timic	2
▁neehual	2
▁mopilia	2
▁mopanolti	2
▁tlayaualo	2
▁Serra	2
yequita	2
mamatla	2
acatzin	2
▁Tozmacuex	2
▁Axayanca	2
▁tlaocox	2
aocmo	2
occepa	2
▁tenan	2
xtlamachtia	2
nesesi	2
tlaštlawia	2
▁tijmakas	2
igas	2
▁otepe	2
momoz	2
▁quinquixtiliz	2
▁tlaxoti	2
▁quixotia	2
▁nehnenti	2
▁quicahcahua	2
nechuikaka	2
▁Kiman	2
▁omocema	2
▁quitlacatil	2
oliva	2
▁necehuiliz	2
▁Amantec	2
mahuizo	2
▁tiezquia	2
hcahua	2
▁tonahui	2
echnahual	2
▁titekiti	2
▁Japhet	2
▁quitenehuil	2
▁onmoçahua	2
▁quimahuiztili	2
▁quicahuilli	2
timitzita	2
hten	2
▁oquimita	2
▁omomat	2
ltlaixtlapantli	2
▁incepanyan	2
▁ticonc	2
▁Tlalte	2
quitentia	2
▁quiyacati	2
ixtelolo	2
▁necentlal	2
▁titenochca	2
▁quichichiu	2
▁tlatlaman	2
oquimonamicti	2
▁Mimixco	2
leui	2
▁anquichihua	2
amechaniliz	2
▁Xiccaquica	2
▁Tzilin	2
▁xiquito	2
elik	2
toke	2
tlamelauh	2
▁tebpix	2
yezquiaya	2
▁ninetlamati	2
▁ceman	2
▁titotene	2
▁kitsetseloua	2
itok	2
kilwi	2
tlazohtlac	2
tsontek	2
ikotona	2
▁kikalaki	2
▁Yejua	2
▁motzontecon	2
chilposo	2
▁kitapa	2
▁tlaocolchoca	2
▁tlanahuatia	2
tlatzontequilli	2
▁iyama	2
▁tr	2
sterio	2
anaco	2
▁tenechico	2
▁tiyazque	2
huehuetzi	2
LHU	2
AH	2
▁Anqui	2
oixpolo	2
ipilohua	2
▁tepillo	2
teotlatecpan	2
octacanemiliz	2
▁regla	2
▁quinoc	2
omonamicti	2
netetzanhuil	2
▁oč	2
awe	2
moloni	2
▁planta	2
▁oquipanahui	2
▁conacopaytta	2
▁tetlatia	2
▁mokauat	2
▁iteupan	2
▁Concep	2
lipe	2
▁tlacamacho	2
▁oquitzacu	2
▁ytlanextil	2
uitoca	2
▁yohuih	2
▁tianqui	2
▁Bus	2
aciones	2
tepantlahtoca	2
tlapopolhuiliz	2
▁yndul	2
collo	2
▁pilcatia	2
▁Lign	2
▁quiteilhuia	2
▁oquineh	2
▁semzon	2
▁tinemizqueh	2
equitl	2
pixauhtiuh	2
tlachilis	2
atza	2
▁ahuiltzonc	2
▁toyecmati	2
▁motzacuilti	2
monečiko	2
▁kolexi	2
▁tinechi	2
▁mokawa	2
▁Totomihuacan	2
▁nihšiyu	2
▁tlacuillohua	2
ihuitlatzti	2
▁oquihualma	2
cuauhtic	2
▁acht	2
auiyaya	2
ollini	2
ualtitlan	2
▁ichichi	2
▁oquixmat	2
▁TAL	2
▁Tepeteopa	2
ntlaca	2
▁otimochica	2
▁Nixochitecutl	2
▁niocelotl	2
matli	2
▁otechtla	2
▁omopo	2
▁oquitlanic	2
quitquiz	2
▁icu	2
▁manen	2
ahuiayac	2
welili	2
▁oquitlauh	2
ET	2
cahuaca	2
▁quitetzo	2
tlaueliloca	2
▁onema	2
echteca	2
▁Tozpan	2
▁Ue	2
xixicoz	2
tlatoz	2
▁motelchi	2
▁quitquitica	2
▁yaoyahual	2
eheo	2
▁calohti	2
▁caloltilcal	2
huaznequi	2
necehuiloya	2
▁ypil	2
tetel	2
▁cahcocui	2
▁Eua	2
auat	2
liuhque	2
▁motlayaca	2
kikišti	2
wiw	2
ilana	2
tlacallaquilizqu	2
▁amechmacaz	2
▁onquiztiqui	2
itlaxtlahuaz	2
▁Laz	2
▁Red	2
▁omoteilhuit	2
▁ynhuehue	2
▁oquitlalili	2
▁quichtec	2
hualhuiquili	2
▁Mayan	2
yocoxti	2
▁namoahtapal	2
▁oquimix	2
eponi	2
▁teyomi	2
tsojtso	2
pek	2
▁notlaxil	2
caltian	2
▁Onechilhuih	2
mochiuhililiz	2
hyocoya	2
▁manozo	2
echtequipano	2
acame	2
▁nictlapi	2
▁Kiix	2
tlapallicuillo	2
▁tlenamaquili	2
▁Xitla	2
▁mantlazohtla	2
▁xochipa	2
scua	2
surrecci	2
onero	2
oyuh	2
lemañi	2
oltizque	2
popolhuiz	2
napalo	2
▁Uicoltepe	2
▁tepil	2
▁oquimiztlaca	2
▁ticahuilquixt	2
palehuiz	2
xhuihua	2
▁yxtoma	2
▁ontlayahuallo	2
▁motlatzontequil	2
▁ichtilma	2
concouh	2
▁quicuicuili	2
▁otitlat	2
▁tinechpi	2
ahchan	2
moca	2
▁Oniqui	2
▁quinamaquilti	2
▁mantlanamaca	2
ompopoliuh	2
xochitla	2
▁tlexocht	2
▁mocuitlapilti	2
tzauhc	2
▁ytlapehualtil	2
tlatzintil	2
temiqui	2
▁tach	2
cohcol	2
alajki	2
▁pilokichpi	2
itsi	2
▁nemis	2
oliniz	2
▁teot	2
excalco	2
uazque	2
yaua	2
▁xiquiçaca	2
▁quimopiali	2
▁itlapal	2
icxitla	2
nohnochili	2
▁xiual	2
kiya	2
▁tzatzic	2
axe	2
ipanok	2
▁oquintzacua	2
tlatzacual	2
hčia	2
▁nečtlatlawelia	2
▁nikona	2
kwalika	2
▁serbi	2
▁elect	2
camiquiliz	2
acalcatl	2
▁Papalo	2
lifo	2
emplo	2
mamauhtia	2
▁Chimalpopocatzi	2
▁moquechmecani	2
▁Teuhtleuaca	2
nocniuh	2
▁Titemo	2
▁hualmocen	2
teotica	2
▁cenquizcacual	2
tlaneltoquilizt	2
▁fe	2
▁pillo	2
cpacpa	2
tlamahuichihchih	2
▁xochicuzca	2
chololti	2
▁ninocencahuaz	2
otollapan	2
▁Guil	2
ermo	2
▁moteyacanil	2
▁motepachilhui	2
▁tenemachti	2
▁imichca	2
▁onene	2
▁connemili	2
cehual	2
▁anquimaca	2
▁axtimokuitlaui	2
nimokauas	2
tlanamacazquia	2
▁quimotzacuil	2
xpa	2
▁quimixtlamachti	2
▁mocetoch	2
tlatocatilma	2
xoxom	2
▁cuad	2
▁quimopalehuiliz	2
▁Bartha	2
zal	2
aldo	2
▁nicmelau	2
huicquili	2
nonochili	2
▁quimochiyalit	2
tlani	2
momachiti	2
tepetzin	2
▁conmanil	2
sentilijtoke	2
pillohua	2
▁xochiyohua	2
▁quiuallito	2
▁namechmac	2
▁uapaual	2
▁prob	2
▁cualanican	2
▁tonalme	2
▁itlaçomahuiz	2
▁Oquihuica	2
omayana	2
▁UITS	2
SO	2
▁CHA	2
YOT	2
▁asito	2
▁nikanka	2
uesalteka	2
▁tictlal	2
▁provi	2
▁Iciuhca	2
▁chicaua	2
moxelhuia	2
▁oquimomoc	2
emasca	2
ltico	2
mochihuilli	2
eka	2
kokotoc	2
čton	2
okatika	2
▁dur	2
omochiuh	2
huepahque	2
cuauhtin	2
capulcua	2
▁otlanonotzalo	2
emoa	2
pijpitsa	2
▁kasi	2
▁soma	2
kostik	2
čipa	2
chihuani	2
ononochiliz	2
▁moquichnene	2
onal	2
▁contlacahualti	2
ahciz	2
motlani	2
▁xiccui	2
▁otinechhual	2
uixtoc	2
ecentlaliliz	2
▁timochin	2
▁ahuilti	2
huellamachtiz	2
▁tlanama	2
▁mokištili	2
anakamej	2
▁nanquipa	2
▁nanquipiazqu	2
matlapal	2
▁tlamacehualiz	2
▁Zacua	2
cuecue	2
▁tzontec	2
elel	2
XOXO	2
▁XAL	2
IJ	2
K	2
▁quiquani	2
chicpal	2
▁portuguest	2
hueyaten	2
nde	2
▁motonal	2
huatza	2
kualtsi	2
▁tekitini	2
▁kintemo	2
▁quipitz	2
▁tiquimoni	2
▁Tecoco	2
icemaxca	2
▁mixpolo	2
ačo	2
▁koni	2
ikwali	2
lkaw	2
▁tlachichihual	2
▁ycmatlactl	2
▁quauht	2
centecpant	2
▁quimonilpi	2
cuicayeye	2
▁ninene	2
▁Teuhct	2
▁yejyektsi	2
▁cax	2
cuihcui	2
▁quiualnauati	2
▁axkiajsi	2
▁Miccacalcat	2
▁otimotla	2
▁tlacace	2
▁motestig	2
▁otemachti	2
▁tepachohua	2
kolex	2
▁quilcahua	2
▁tor	2
bicitleta	2
▁kipixk	2
mamatac	2
▁ticnequia	2
▁Cece	2
▁ramita	2
iztlacati	2
tlatlania	2
▁tlacotiz	2
tlachichihuili	2
motlamachititiuh	2
caltempa	2
▁mocayahuaz	2
neski	2
▁totomi	2
▁tlapaliuhcat	2
▁Toto	2
▁omoçahua	2
▁oquimohue	2
lcaquiti	2
▁oquitlaocul	2
▁Metztli	2
▁quincoco	2
▁nicnochi	2
cauaca	2
quimoneltoquitia	2
▁nechtlapololti	2
▁caxtiltlahto	2
quintlacachiuh	2
▁titlay	2
itta	2
▁titepehua	2
▁Vas	2
caquitilo	2
lnamictiz	2
mocauhque	2
▁xicmellauaca	2
▁taj	2
chikte	2
▁Zatlatz	2
▁Ohuecauh	2
loa	2
▁timotequipano	2
inoque	2
cemi	2
quechcotona	2
▁ref	2
▁iyat	2
jtsel	2
▁kalteno	2
tiquihiyo	2
▁otiquimic	2
▁ticcacqu	2
▁moceui	2
chihuiliz	2
▁timitztemo	2
▁taçiti	2
.	2
moteca	2
catepec	2
ecato	2
mellahuaca	2
▁tlalpa	2
quauhtlalli	2
chiyelli	2
euhca	2
▁nimitznotlalca	2
mozeuhit	2
peua	2
▁seyo	2
▁quinma	2
mochtin	2
enoj	2
▁iixik	2
ostin	2
▁oumi	2
▁quinhuihuite	2
▁moqueque	2
uillana	2
irwia	2
▁quintocayoti	2
▁tocihua	2
▁quinameti	2
▁atatac	2
anaz	2
tlacamati	2
▁ylpiloz	2
▁tlaquil	2
▁yxquetzalo	2
▁motza	2
▁imechkuesó	2
▁tihualquiza	2
▁timot	2
tlayohuatimomana	2
tlaçot	2
quintlaçotla	2
▁mocuicui	2
calnamaca	2
namaca	2
omotlanamaquilli	2
▁huitzil	2
▁mocuecuepa	2
▁quinah	2
▁axki	2
▁ximoyol	2
ečmol	2
▁ontlatoca	2
baxe	2
▁quimololo	2
▁mopupuxoti	2
maceval	2
▁quetzalpetla	2
poztoca	2
formacio	2
ziuhtla	2
conihto	2
tlaocul	2
maceoalti	2
techmomaquili	2
oaca	2
omome	2
hmelahua	2
mechmotlahpalhui	2
nanamiqui	2
acia	2
timalihui	2
▁huellaz	2
empanahui	2
▁pepetlac	2
▁quimina	2
▁itlanexyo	2
▁ayauhcozamalo	2
oras	2
▁omotlapololti	2
mošiša	2
ahcahuas	2
ahuih	2
▁quichih	2
▁tohuen	2
▁ixnesis	2
nelchihua	2
▁apachihuil	2
▁ixacal	2
▁moxacalti	2
▁motlah	2
tizqueh	2
▁oniqu	2
hene	2
OL	2
▁koch	2
niman	2
▁tlapohualiztl	2
▁tipanozque	2
▁apocyo	2
▁necu	2
▁nitahtani	2
▁oyec	2
ecciz	2
▁Tlatohuani	2
▁titlamati	2
▁concallaqui	2
▁poerta	2
▁talmanic	2
espan	2
▁cuecuetlac	2
▁cuicuitla	2
▁miectlamant	2
▁conquetza	2
▁contema	2
▁Tequalo	2
caxiltia	2
▁štoka	2
lahpalo	2
▁mocuecuetzo	2
temohti	2
▁tocaitl	2
▁otiquimac	2
▁matlacxiuh	2
▁xottla	2
mohuani	2
▁mopitzin	2
▁kikixti	2
▁Español	2
▁ytenanami	2
huihuillan	2
NACATL	2
▁hualquizaz	2
zencauh	2
euhaz	2
azquiani	2
▁quezquipa	2
▁otitonamihqueh	2
motlahpalhui	2
yoyo	2
mopahpaquiltil	2
▁ahquihua	2
yehyeco	2
▁omotlatenehui	2
mopopolihuitiz	2
▁taxiujyo	2
komo	2
mekayoti	2
uj	2
▁takt	2
pixka	2
▁tlanki	2
acapech	2
malhua	2
▁Lobo	2
ocaya	2
huihuitequi	2
motlaya	2
poliwk	2
quaquamiminallo	2
▁mitstemoua	2
▁coyo	2
▁niyol	2
chiquace	2
▁notio	2
▁oquinman	2
ayauhqui	2
▁quincuepil	2
acallaqui	2
cinko	2
kwakwalto	2
▁kiixmatis	2
▁nictla	2
mohuitec	2
▁Const	2
▁nane	2
▁kits	2
▁quintlaocol	2
▁quexquichca	2
acoc	2
otiz	2
icnequi	2
▁totlac	2
▁conehui	2
▁namoma	2
▁cala	2
▁ixtil	2
▁kitlasojtlayaya	2
nande	2
▁nicnomaquilli	2
▁monemac	2
▁oquilca	2
▁omotemachtil	2
▁Par	2
ehuazque	2
motlayecoltiliz	2
▁Tziu	2
▁Ohuan	2
patlaz	2
titzinoz	2
▁toteuhc	2
tztita	2
momaehiti	2
▁ichpocato	2
▁mopilohtzin	2
▁niquilhuia	2
▁niquihta	2
iemolhuili	2
til	2
tetlahuical	2
▁moyaotlaya	2
lact	2
mozcalili	2
▁Yompo	2
nexexelolo	2
tlaixmati	2
itznotlahcuilhui	2
pacholloc	2
pupu	2
▁toncuetlahui	2
quitzoualpepecho	2
▁quitzonteconti	2
▁Opuch	2
▁kimač	2
▁curr	2
opohuilli	2
▁quinmama	2
ylpi	2
ef	2
▁quimotocti	2
▁mopapatla	2
ihuatzitzinti	2
▁oquimomachilti	2
quisidor	2
ío	2
cuitlahui	2
xaxamani	2
▁Tocen	2
▁Ar	2
tepacholiz	2
nechmopopolhuili	2
quitlalcahui	2
tepeuhtitlali	2
nimechtenehuilli	2
ichtaca	2
▁qujz	2
▁cemilhu	2
▁moquequez	2
tlakuaka	2
▁chocho	2
▁totlatlauhtia	2
▁quimotztili	2
▁visurre	2
▁Xochpoyo	2
▁cenpohuallonchi	2
nauhxihui	2
▁oquiqua	2
otilli	2
▁onechitac	2
papac	2
▁pozoni	2
▁atlapozon	2
▁tlacuazque	2
▁yepazo	2
▁nimantsi	2
ayot	2
▁piltoktsi	2
▁Ate	2
▁kiijtoua	2
▁niitstok	2
▁quimixnamicti	2
calnahuac	2
▁momacazque	2
huallitztia	2
emachilliz	2
▁Bernaldin	2
cocoz	2
coyo	2
notlamati	2
▁iyyo	2
llotzin	2
▁acazomo	2
▁nimitzonno	2
toquilli	2
ualmuica	2
hcuepa	2
▁huehuetz	2
▁otlami	2
▁Macuilxochitzi	2
kiko	2
netlapololtiliz	2
pepechtzin	2
▁ymomexti	2
overnador	2
▁techcahuillitia	2
emente	2
temmohui	2
▁hualmotztilito	2
▁teporingo	2
▁hueylhui	2
chihualiztli	2
▁tlacuillol	2
▁llave	2
▁nemachtil	2
nemilia	2
ochitl	2
mahma	2
▁quitlamitehuaz	2
▁Delgad	2
▁Maçur	2
riba	2
▁nonotzalo	2
mihto	2
miccatlap	2
▁motozcatlan	2
nacaztzo	2
▁acatic	2
▁Ven	2
▁gas	2
▁Cons	2
uelo	2
▁yatia	2
toltica	2
pet	2
▁hualmoma	2
ečkawtewa	2
▁niquinchi	2
▁nenenti	2
▁tlahuenchi	2
▁pimienta	2
▁oquinyollotil	2
yauhque	2
yetl	2
▁motztiliti	2
cuauhcal	2
▁teylpi	2
▁Xochipetlat	2
▁mitztlatlauhti	2
▁camanal	2
toltecatl	2
▁tlacuica	2
▁kualank	2
▁Cipactonal	2
▁otlatec	2
▁toyolocacopa	2
▁xelhuaz	2
mauizzot	2
▁imah	2
yectene	2
ozquiva	2
iztapalati	2
▁quimoxina	2
tlaliliz	2
ahque	2
▁omopepeto	2
▁CUA	2
TA	2
TAPA	2
▁onotzal	2
momakak	2
apats	2
▁kisak	2
tema	2
ificaci	2
▁intern	2
acion	2
»	2
tokay	2
inajsij	2
▁plantas	2
tiles	2
▁Alf	2
inia	2
tavo	2
▁Ol	2
azco	2
nga	2
▁Biolog	2
NAM	2
challaniz	2
nimomiquili	2
▁ayaxca	2
aztlacapal	2
tlahuic	2
▁mixtlapa	2
▁nacatla	2
▁concuiliz	2
▁motlanahuatili	2
▁opochma	2
acini	2
tzetzeliuh	2
papalocal	2
▁omocuepa	2
hualmotitlani	2
▁nu	2
iquincemaxca	2
cecenman	2
hualmonapalhui	2
▁opeh	2
▁otomite	2
▁zapoteca	2
▁oquiyol	2
otemow	2
iba	2
▁milacatzoa	2
▁omocacaiauh	2
▁toxoch	2
ayacac	2
▁mouicaca	2
▁motlatzon	2
▁Vespas	2
▁motzoncui	2
▁tlalpolli	2
itoa	2
▁Ayoqu	2
lacatzo	2
tocuilehui	2
▁noconahuilti	2
▁NONOTZALIZTLI	2
▁Gr	2
▁iyaxca	2
▁quimotecpanil	2
▁iamatlacuilol	2
▁Jac	2
▁tononotza	2
▁tiko	2
nextis	2
ameyal	2
quitquilitiu	2
▁nicmohtili	2
▁mehuitihtaya	2
▁cempouali	2
▁totazque	2
▁tlayohuatiaz	2
▁oquipatla	2
conetl	2
techtlacoli	2
▁Manozo	2
mahuilti	2
▁Tlalticpaque	2
▁otiquiht	2
pantla	2
▁estudi	2
▁tocommati	2
tlanamacazquiaya	2
mit	2
▁Onechtla	2
cehuiti	2
onca	2
mira	2
▁iyetl	2
▁otle	2
▁oquicau	2
opaleuil	2
rosi	2
▁Maçatl	2
▁onictlalli	2
huicontica	2
▁neneli	2
yecmati	2
quimol	2
▁zantle	2
▁Cempualli	2
ši	2
▁CHICHIME	2
OJET	2
▁onmic	2
olini	2
uchitl	2
▁tlahtla	2
metralladora	2
tlazohtlayah	2
▁cuilo	2
▁tictemaca	2
▁otlac	2
actia	2
ehuican	2
yahuiz	2
noquetzal	2
moli	2
▁ximaqui	2
cacocui	2
quiquani	2
▁tenanyoc	2
▁oztoticpactlaca	2
▁xijtlapo	2
xtinemi	2
▁tlacoti	2
▁Tur	2
tepanitlazal	2
oyokilit	2
▁Kini	2
▁anchal	2
▁ycye	2
▁mocomoni	2
altiaya	2
pauac	2
uhtoya	2
tlahtocateopixca	2
▁morad	2
▁quimotquilit	2
huilili	2
▁quimonamiquili	2
hepoual	2
▁diabl	2
skal	2
ayun	2
▁kw	2
entes	2
▁Tlalcoz	2
techtahuilia	2
catlalli	2
nepohual	2
▁kinkuiliaj	2
▁tlenamacoya	2
otlatoca	2
▁ximotequitil	2
▁ximotlacotil	2
▁serillo	2
▁tlael	2
xayaca	2
▁tlalxictentica	2
pit	2
▁tlahuelmat	2
▁tahyohui	2
econteuh	2
▁kik	2
▁carre	2
ontra	2
lalia	2
▁tlatzacua	2
▁quinenquixtia	2
▁copaltemal	2
monamiqui	2
▁Auitzo	2
miquania	2
▁tlanaliuht	2
▁cemp	2
▁iyoca	2
cenhuica	2
▁Tehuehueltzin	2
poliuis	2
alia	2
▁Be	2
▁yntlaquen	2
▁mose	2
palan	2
tlauhco	2
▁meya	2
tequipachohua	2
ore	2
▁Serv	2
ció	2
chichihual	2
▁xinechon	2
yollocopa	2
▁tonac	2
▁Quenami	2
▁reglar	2
tocontlalmaca	2
▁Chiapan	2
▁oquicuillo	2
kuesojk	2
▁itzine	2
▁onen	2
▁mopiltlazohtla	2
rim	2
tlachi	2
▁hualcen	2
▁Hez	2
▁Moteuhc	2
temato	2
chicahualo	2
▁tepach	2
▁quinxel	2
▁nechicol	2
▁exc	2
▁Xuchi	2
▁Tiya	2
liuiz	2
tlatoliz	2
aol	2
▁tlatotoniaya	2
huetzca	2
tsapot	2
amotlatewa	2
šulwas	2
mixpan	2
huapahuaz	2
▁omixnami	2
▁Moquiuis	2
▁ohti	2
▁hualmacallaqui	2
guel	2
▁cuauhtlato	2
▁icpal	2
▁concauhtia	2
▁Tinech	2
echualliua	2
▁uetski	2
▁ichkat	2
onew	2
▁moyaochiuhticat	2
quihualtzauhc	2
▁Tetsijtsilin	2
ayekan	2
kauj	2
▁Cora	2
▁Espin	2
▁moijkuilo	2
▁otlatla	2
rá	2
▁Ib	2
america	2
huican	2
tlaaquil	2
▁ontzonxi	2
▁matlacpohualxi	2
abo	2
gado	2
▁itepancal	2
▁tecuh	2
▁Alva	2
tlaxtlahuiz	2
oria	2
▁quiquinaca	2
kipiš	2
olin	2
▁tepoztlahui	2
▁citin	2
▁tetex	2
ollantzinc	2
▁sejse	2
▁kieua	2
pitsa	2
▁Chicomaca	2
▁motlaçulteuui	2
tetlacahualti	2
▁motac	2
▁Nihuinti	2
▁nimitzqualti	2
mitzmomaquili	2
▁quihualqu	2
▁CENCA	2
▁mahuiztillil	2
▁omopanolti	2
miactin	2
▁omop	2
▁tecuecue	2
arado	2
motequitilia	2
lacha	2
metzontequi	2
▁omonemiti	2
techpolo	2
▁totzotzoma	2
▁axkaneli	2
▁Rive	2
▁Firma	2
Otinechmocnelili	2
ahuatil	2
bes	2
▁omohuelitil	2
tlatouani	2
▁nocalpati	2
▁moixtlalihto	2
moquequetz	2
▁tlacuechahua	2
chca	2
▁ontemo	2
▁Cuah	2
tecpac	2
tlapech	2
▁TEQUIMAQUI	2
▁teuantik	2
▁mochiuj	2
▁ininchan	2
kauan	2
kilis	2
tajtani	2
▁rayo	2
▁nitlawe	2
čoka	2
▁telle	2
▁ythatzi	2
▁Yaui	2
▁Lutel	2
▁Pr	2
▁PUCH	2
YAHU	2
AC	2
ILIZ	2
▁PRA	2
ontlamanixti	2
TAXKAL	2
▁Oneltic	2
▁tlexi	2
exic	2
▁tepatla	2
pehualtia	2
chaneque	2
▁tichristiano	2
nemachiyotil	2
egun	2
yaotlato	2
▁oconma	2
ayoca	2
capayo	2
caxic	2
▁ticalac	2
▁tiquimix	2
imacaciz	2
▁tihuetzca	2
▁immohua	2
yolque	2
alma	2
▁nemini	2
icos	2
▁niquinnahuati	2
uatili	2
▁Zaz	2
▁tlalcua	2
▁Xali	2
▁pix	2
▁nihueli	2
▁oticchiu	2
▁topallehuil	2
▁teohuamoxtl	2
▁motlay	2
echmomaquixtilli	2
onomat	2
naci	2
▁yopanoque	2
▁tlatlaxi	2
▁Tlahtohuani	2
▁xicmotlaocol	2
▁Xiquintequi	2
▁xiquim	2
▁Ex	2
elot	2
▁timotequipacho	2
camapa	2
▁incochian	2
uhtihuitze	2
▁decis	2
ete	2
▁Opapano	2
▁ixoloc	2
hcue	2
▁pantal	2
▁icuila	2
noyolitlaca	2
▁Mor	2
quecho	2
▁kimolonti	2
▁monentlamati	2
▁ticmat	2
▁omotolini	2
opowtiw	2
uetque	2
necuepal	2
anilia	2
jtlachili	2
▁atlajt	2
mohnica	2
teputz	2
pía	2
▁tinemizquiaya	2
mayan	2
nacaztitlampa	2
pew	2
▁onacic	2
calmimilol	2
▁ahhuel	2
▁niccentlami	2
com	2
nemiliaya	2
▁quimotenehui	2
▁tlazul	2
teutiz	2
iciuhca	2
polo	2
▁nitlanamacaz	2
▁Missa	2
▁avia	2
▁oquimonpeuh	2
malli	2
ltequi	2
▁quinpepetlau	2
▁ycno	2
▁kinwal	2
▁kimakake	2
▁ynetlecahuili	2
tlacuilhui	2
lota	2
▁tlacualchihua	2
quaquahu	2
▁cepayauh	2
chcame	2
mamaliz	2
▁nictop	2
▁cemil	2
▁doct	2
▁opehuallo	2
▁contra	2
▁oquinchololti	2
▁pachantok	2
▁tlatlacauh	2
yxtlapan	2
juika	2
▁tlahuiyaqui	2
▁oquixnamic	2
▁Amatla	2
▁quimonan	2
▁yequintzin	2
uitil	2
tepos	2
talilia	2
gob	2
AJ	2
▁Ahuin	2
machilti	2
▁Tlatzotzonizcat	2
xcuecuetzi	2
▁ylhui	2
▁quitzohui	2
pixtia	2
zaco	2
▁crucifixo	2
▁tlayacan	2
▁cuecuetzo	2
▁quipias	2
iasica	2
▁Tlalti	2
▁ymach	2
▁quimah	2
erederos	2
▁nema	2
ctu	2
▁uppa	2
alwi	2
▁timi	2
▁tlamahuizal	2
oto	2
cuiliznequi	2
▁tlatlaca	2
▁kwakwawi	2
▁aš	2
▁nihkwa	2
lihta	2
▁timotamacazqueh	2
▁totlapal	2
techmopil	2
▁XO	2
TEM	2
▁yueltiua	2
iciu	2
piezque	2
▁topile	2
▁huallato	2
lehuiliztzin	2
▁impopolo	2
▁tlalpil	2
▁kipolo	2
▁quichihuili	2
cocoxca	2
▁Tete	2
▁Yauhtepe	2
▁Tepu	2
cuacuil	2
▁Chontalco	2
pucht	2
▁Xilotepe	2
▁Cuauht	2
ochco	2
▁mom	2
kseki	2
▁nokta	2
tzatzayana	2
▁quicuitlalpi	2
nechichiual	2
▁kimapat	2
itikoketsa	2
uela	2
▁mantequi	2
maxcatiliz	2
▁conmotlatquiti	2
▁motlanauatil	2
otlanauati	2
quixo	2
▁nitlananquili	2
▁tequimaco	2
vandera	2
▁otlamac	2
ahcia	2
▁Oni	2
tzompilahui	2
▁tlalitztiayan	2
mahuiztiliz	2
motlatlauhtiliz	2
▁motemaquixti	2
ottatzin	2
mooraciones	2
▁moradito	2
▁kitsopeli	2
▁quentel	2
▁xiuhquechol	2
▁yocoya	2
▁Ximohua	2
▁huetzic	2
echnotlaytlanili	2
mixquechili	2
quitecaquilti	2
quimiyequilli	2
▁axcatiloz	2
▁nemachtilcal	2
machtique	2
uatequi	2
▁motlapaloa	2
▁onmixquetza	2
▁tlatocamaca	2
▁Esteba	2
▁tonili	2
tlak	2
▁nicalaquiz	2
pahpaquilti	2
atla	2
▁TLAHTO	2
▁Cholo	2
tsintsaku	2
▁Xinechin	2
▁mocohuili	2
▁owa	2
tlapaktoka	2
tlamat	2
▁tsaj	2
▁axkik	2
nechmach	2
▁ixi	2
etay	2
▁yekin	2
▁tapani	2
antiak	2
▁xitlanamaca	2
▁imax	2
otoli	2
çoya	2
▁Ticateh	2
necuiltonol	2
iteyacana	2
▁ticchia	2
▁axkinejki	2
▁omotlal	2
▁tlatlalchipahua	2
▁Acue	2
tequipanohua	2
▁itei	2
▁pijpi	2
▁Keman	2
▁kipantaliIia	2
▁xoxohui	2
▁amill	2
▁Motelchiu	2
▁acatitla	2
▁nechquechili	2
anechtoca	2
úl	2
▁cart	2
▁namehuan	2
▁Camp	2
equizque	2
▁mis	2
oaltzin	2
xicmonequilti	2
▁huapahuaz	2
kuauitl	2
▁amocxi	2
uilican	2
▁tonyati	2
▁Tonall	2
▁tliletl	2
▁tetepeton	2
▁omochihuili	2
▁atlauht	2
▁tlaocoyalo	2
xtlaua	2
icamapo	2
pouh	2
dado	2
▁patlanalazt	2
fú	2
▁Xquin	2
▁kiuik	2
cencahualloc	2
▁canonigos	2
tlananquili	2
▁Petlac	2
lericos	2
▁kiualtit	2
kikicki	2
▁MI	2
AMA	2
tezcauh	2
▁macuiltonal	2
▁tlilpotonque	2
mokaua	2
▁toconihta	2
pahpaquiliz	2
▁mocihuauh	2
yollopachihui	2
icteihtiti	2
▁milchiua	2
chioa	2
▁Teyolcocoua	2
▁tlamacehual	2
iztlacahui	2
popol	2
quinmictiti	2
▁quimomaquilia	2
▁timotolini	2
▁ticmahuilti	2
yya	2
▁yztlacati	2
cipil	2
mociauilti	2
anquihiyoui	2
tayotzin	2
tzitzquitica	2
nmocuaatequilli	2
▁tentlapi	2
tecaquilti	2
▁caltepachol	2
▁tiquint	2
poderoso	2
▁tiquetza	2
▁Yztacmixcohuatz	2
uazqueh	2
▁ingleses	2
▁xictlalli	2
▁moxic	2
▁Ticpiazquia	2
▁rego	2
▁camaquen	2
htiaya	2
▁Citlallat	2
▁ontzatzi	2
▁mocnomat	2
xochimac	2
▁tihneki	2
ristiano	2
▁analo	2
ualquixtia	2
tecpanchan	2
▁quitlaqual	2
▁mocquipa	2
cahualoz	2
▁xima	2
▁ytlacatiliz	2
▁quitlaxili	2
▁ixilla	2
▁onhue	2
cahuac	2
▁tlakwawi	2
motemollitihui	2
▁xaxal	2
▁cera	2
tzonpan	2
▁tzonpan	2
▁Ciuateucal	2
lac	2
neltoca	2
▁kipanolti	2
▁Quiualhui	2
▁quimonnamic	2
▁tlalcahual	2
tlananquiliz	2
▁xicmocaquitica	2
ntlalticpac	2
ztacmixcohuatzin	2
ximacho	2
▁ximotlalli	2
▁nit	2
▁Chichilquau	2
▁tlananquili	2
cuitlacoyoni	2
hiliz	2
nahuatih	2
tlecco	2
ictehtequi	2
▁ticyollo	2
niquihtlanili	2
▁moya	2
omiquilli	2
▁cuicapihqueh	2
tiayah	2
▁papano	2
mahuizihta	2
ahcihcamach	2
▁nikintlamaka	2
▁omonamiqui	2
▁yacat	2
▁oquincauh	2
▁Quahelot	2
▁Moquiuix	2
▁Ber	2
▁Tr	2
acicamatiz	2
ktij	2
kiaj	2
▁Chiuhcna	2
▁tlacuepa	2
iluia	2
techmocnelili	2
tel	2
▁acolua	2
▁motenochca	2
çaç	2
▁coyouaca	2
▁motlamiya	2
čiwas	2
▁ór	2
▁tokomid	2
▁exiuhtic	2
▁quihualtemo	2
▁tetzcuc	2
▁monamictzin	2
▁oticteneuh	2
itolinilo	2
▁ypalnemoa	2
niwi	2
▁Niquimelehui	2
▁ocual	2
tlachpana	2
▁caltem	2
imoamapohu	2
▁monemilti	2
▁Aoc	2
▁Juanito	2
moxexelhui	2
▁tlanco	2
▁momanahuiz	2
qualnexti	2
pielo	2
▁tlacualizpa	2
cauhtica	2
▁cecente	2
popoca	2
htequi	2
▁mocnomati	2
▁quittiti	2
▁xihpa	2
sancto	2
▁achka	2
▁quince	2
lapapatiliz	2
▁Almo	2
▁oylhuilo	2
piallo	2
▁quizto	2
▁tlaquaz	2
▁atliz	2
▁yewey	2
▁ypilhua	2
ahuic	2
sil	2
hcuani	2
^	2
▁tlacanacayo	2
▁Cuetzpal	2
močiwa	2
nechpaleuis	2
▁manxinemi	2
▁quinhualmic	2
▁mocaltzac	2
▁momalhuia	2
ficia	2
ichavazteca	2
▁ynneyxcahuil	2
puerta	2
▁chocola	2
ahuilquixti	2
▁Kichijk	2
▁atempaneca	2
tlantiuitz	2
▁imahuiztla	2
▁quimopohuil	2
▁posteki	2
▁Yni	2
▁auetsiltia	2
uical	2
uitzilopoch	2
▁quiyoyo	2
moyaua	2
▁tehten	2
▁Asump	2
gost	2
▁nauhpohualxi	2
calzon	2
▁Tecpayo	2
▁toney	2
▁acalot	2
▁Fuen	2
▁Nocone	2
▁tinečendrogaro	2
quimonequilti	2
▁pahpac	2
▁quaquanmi	2
▁oquimopi	2
▁inquisidores	2
▁tlachipaht	2
▁tlacemi	2
▁tlanamacaque	2
tlamachti	2
▁necah	2
▁oquitemohui	2
milagroso	2
neltocaz	2
▁oquimopo	2
▁titequitiz	2
▁mitzchi	2
quichtin	2
lteuhc	2
▁momimi	2
▁hehe	2
quimotlaxill	2
▁Tamp	2
▁techtlayohuil	2
▁Inoyuho	2
▁teopixcacoyo	2
▁quipepen	2
▁Kar	2
▁otitlazohtla	2
▁quinnamiqui	2
kinitski	2
▁naual	2
▁iteopan	2
zaliuh	2
otlaya	2
▁nappoal	2
▁oyektok	2
pecht	2
iquimitac	2
▁titlacua	2
▁toro	2
timayana	2
chipahua	2
mexicatl	2
ixcahuiz	2
mocuitlahuiz	2
hicuac	2
▁quimomachti	2
▁monomahui	2
▁cuetlan	2
teixuih	2
▁tlaxexelo	2
▁tameua	2
▁chilar	2
▁nechon	2
tlauhtil	2
▁tlauhtil	2
▁nichoc	2
KUA	2
PITS	2
lhuil	2
ocualanca	2
mehuatiquetz	2
▁yollococo	2
matzayana	2
▁iyaouh	2
▁yole	2
▁Lateran	2
noce	2
▁quimocepan	2
kojko	2
moteocaltica	2
▁notzti	2
▁contecuiliz	2
▁contetlalili	2
▁teicpaltzin	2
▁niuala	2
cuiloua	2
▁xicmaca	2
▁Moqu	2
etzalizquixochi	2
kí	2
▁Ehecat	2
▁Pav	2
cuiz	2
▁nechcahuilitia	2
▁ximeuakaya	2
cticatca	2
▁omoxexelo	2
cuitlahuiz	2
▁titlaqua	2
▁tetloc	2
▁tihuecahua	2
queman	2
▁timotlaco	2
▁tzotzomah	2
quico	2
▁concauhtehua	2
▁yewal	2
blo	2
▁inganin	2
▁plantita	2
nenehuilli	2
▁quimotlapa	2
ntocat	2
▁axc	2
pahtic	2
▁piltzintzin	2
kuwas	2
▁xiquinmoh	2
mouhti	2
▁quenonamican	2
echmomachtili	2
▁tlecoc	2
▁tlačik	2
▁imetl	2
▁ticpehualti	2
▁cou	2
elpan	2
▁Maxtla	2
▁awel	2
ikintlapopowi	2
▁nentlaca	2
▁nennemi	2
▁moyohual	2
▁mahtlacce	2
xitini	2
▁mestiços	2
▁tlax	2
▁moyaomani	2
▁techcuili	2
▁quimotemaquilli	2
▁techia	2
hcopecht	2
chijchiui	2
▁ymanca	2
polliuiz	2
▁nanchi	2
▁nicocht	2
▁nenanam	2
metzticate	2
▁meme	2
▁nonpehua	2
▁ayah	2
auilo	2
▁Cohuaxo	2
▁akuakuajtli	2
kualanis	2
▁yezquiah	2
chialoya	2
▁kiwikan	2
yollapalti	2
ncahcahuazque	2
nochtitlan	2
▁Tecp	2
oyotl	2
maquizque	2
onchixt	2
ipox	2
▁yxa	2
chintin	2
onquiquiza	2
mitzmolhuili	2
monemilizti	2
▁quihuallit	2
tzitzil	2
▁Rat	2
ntlaxillacalti	2
aquill	2
▁quimotlalilili	2
▁Cozcaquauh	2
pahpaqui	2
kitij	2
tisi	2
tennamiquili	2
▁immoma	2
teoxiuh	2
▁Nottatzin	2
▁moxocha	2
▁otlayahuallolo	2
tlahtocatlallit	2
xkal	2
▁Moc	2
▁chololtecatl	2
▁quimopohuili	2
tequitiz	2
hualtoquilli	2
ihuic	2
▁kikualan	2
idores	2
omotlananamiquil	2
tlamanquiztica	2
▁Yxp	2
▁Xochiquetzal	2
▁quic	2
chicuacemi	2
▁hehecat	2
ldes	2
illoque	2
▁quitlanili	2
netlamachtil	2
▁onenen	2
ictemaca	2
cauhca	2
▁Abr	2
▁candella	2
▁quitzitz	2
▁xonmo	2
auhcanpa	2
▁uicallo	2
▁mochoquiliti	2
▁mocuepti	2
zinoa	2
imacehualti	2
▁tonmi	2
tlapouhti	2
▁quimopielili	2
tlaçottatzi	2
hualmotlalili	2
▁iyxu	2
▁Cuacualtzi	2
▁Tlak	2
▁cenm	2
licpi	2
luis	2
▁omopantlaz	2
▁octzitziquitzi	2
ixotia	2
▁piome	2
▁tlalcahualtiti	2
▁salv	2
tlapach	2
gamo	2
▁xicmomachilti	2
▁tohua	2
▁Bu	2
▁quiualto	2
▁calquetza	2
▁kisato	2
nicpouh	2
xeliuhcama	2
table	2
▁tlaytlani	2
pialo	2
▁Xochimi	2
▁patiz	2
pozihpotoc	2
▁cihuamizt	2
▁toneixca	2
▁niquinno	2
nauhtla	2
▁Teço	2
▁tlamalo	2
tapalol	2
▁chantiz	2
tetlaquehui	2
▁oquintlaqueh	2
▁mocah	2
tizquia	2
▁tlacotia	2
▁oquitlapal	2
tlauhti	2
▁xinemi	2
▁Miyahuatoto	2
▁matzopetzt	2
cicuilli	2
xilot	2
chacha	2
uiyac	2
aquito	2
▁popolihuiz	2
ohti	2
▁Aqui	2
▁capol	2
▁descalça	2
vila	2
▁yehuati	2
otecuioan	2
tepalehuili	2
ntlatlachia	2
▁quimottititzino	2
▁quittatiuh	2
xpantiz	2
▁quinohnotza	2
▁oquimopa	2
quinhualyacantia	2
moteoti	2
▁quihualmanilli	2
uitzin	2
hu	2
tidan	2
quihualmohuiquil	2
tequipanozque	2
▁oceloti	2
▁momiquiz	2
▁tlatequipanolo	2
▁Kist	2
▁inqua	2
▁tamayahui	2
chicauac	2
mauizoltia	2
▁omictacic	2
▁NO	2
▁IZ	2
▁oquilpi	2
▁tlamia	2
mihtalhuit	2
▁onchicona	2
citlaltepozacalt	2
▁Tlalticpac	2
▁tlayocoyal	2
quanmimi	2
▁xitla	2
▁tzitziquitzi	2
▁Ribe	2
mocuili	2
▁oquimanilli	2
▁ayohhuach	2
zcalia	2
▁Nitlayocoya	2
▁quichicua	2
tzé	2
▁toquicht	2
▁Ytzcui	2
▁inetoquiliz	2
▁iyach	2
▁yp	2
rimo	2
quihualmonamicti	2
▁yajto	2
▁ompolihui	2
CP	2
uican	2
teyccauh	2
▁quinotz	2
▁oconcau	2
ipto	2
çolco	2
▁CHICOME	2
ATL	2
▁otlachihualti	2
alhuitia	2
▁tlapachiuhti	2
apal	2
▁ichcapix	2
▁tlatlayme	2
xtililoz	2
▁ynpanpa	2
▁cuezal	2
▁cuitlatexo	2
▁puchtecati	2
cigarro	2
dia	2
cehualcal	2
mixquechilli	2
▁tzonpanqua	2
▁tequixquiçacatl	2
▁yemi	2
tlapak	2
mopale	2
▁ijkat	2
▁mohuenti	2
▁oquimotenehuili	2
▁oquimocuepili	2
▁quintzacuili	2
▁oquiquixtili	2
▁Em	2
▁ihi	2
▁totecuy	2
▁imati	2
▁teoxiuht	2
▁zaquan	2
ualtiaya	2
kwep	2
▁nihuellamati	2
▁catle	2
▁Macuilxochit	2
▁quauhtlahtol	2
▁Rica	2
quilnamic	2
tlahto	2
hualmocueptzino	2
▁Xaltil	2
▁Teocal	2
equiliztli	2
kuakopa	2
▁Gal	2
uerta	2
▁mokoui	2
▁tlana	2
makak	2
quihioui	2
pul	2
pehpena	2
▁tlahpal	2
▁Xoquahu	2
▁nexe	2
huehuet	2
▁Teopixcat	2
lahtoani	2
enanyocanpa	2
opina	2
▁quimone	2
▁quichiu	2
aumewilo	2
▁yoti	2
šilo	2
▁ocuel	2
▁tahciz	2
icpolo	2
▁xicuica	2
hcuilhui	2
tzicuehualton	2
ixcopin	2
▁miquiltiti	2
▁cacoqui	2
▁amotet	2
apalehuil	2
▁chiktej	2
▁kimoyaua	2
xinech	2
mocencahuili	2
maxiltili	2
imochihuiliz	2
▁timotlac	2
mihtilhui	2
nechicos	2
▁monahuati	2
▁quinyecana	2
▁Secretaría	2
▁tlahtolp	2
pehpechtiliz	2
▁tecuini	2
▁itlamachtil	2
▁tinauhxiuhti	2
▁tlaiua	2
▁nochpo	2
▁XOCHITL	2
uiuitequi	2
uilizapan	2
anis	2
▁alte	2
▁petl	2
▁tlamimi	2
▁ktia	2
▁tamechtahtanili	2
▁Caxtolp	2
▁moteuhctitlan	2
▁yntencopa	2
▁camohtli	2
tzinti	2
illan	2
amechititiz	2
tlatlahco	2
scribano	2
▁tlazintla	2
▁oquimocalaqui	2
▁Tolti	2
tempan	2
▁otlanamacaque	2
▁quitlaca	2
▁quitzotzo	2
pitzticac	2
▁tonca	2
▁tinotlacachi	2
oal	2
▁tinotla	2
tlacatilili	2
tlapalli	2
iximachiliz	2
xixil	2
▁otetla	2
▁oquimoyocol	2
icmonochili	2
▁xitlaoco	2
▁netequi	2
▁xicmochihuili	2
mitzmochihuili	2
▁And	2
onio	2
▁tlamachio	2
▁onichantia	2
▁otlamimihti	2
▁xiuhtlapohual	2
gido	2
kači	2
▁mop	2
lwia	2
▁oqualla	2
▁omoxiuh	2
tequihti	2
▁monemiti	2
▁Bar	2
kol	2
▁nicnamacaz	2
▁ticnonqua	2
tlalizque	2
memoria	2
▁quicaquiznequi	2
▁horació	2
▁omomoquil	2
▁Quix	2
timoquetza	2
itlachia	2
▁nicuicani	2
▁kuitlatsayantok	2
▁saba	2
momiquiliz	2
▁ontlatocamaca	2
▁tinechmo	2
▁tinechmotla	2
tonaltzin	2
▁tepozcalmimilol	2
▁nanquili	2
čo	2
tlantoca	2
otecuio	2
ihuitia	2
▁quicalaquia	2
▁motzicoaya	2
▁kiitas	2
temaquixti	2
▁quimotemohuili	2
▁quipalehuiz	2
quinmotemohuilia	2
iquixtilizque	2
oltin	2
▁tetlacualtia	2
Cipact	2
colo	2
▁tiqu	2
ehuatiquetzaya	2
porin	2
masiso	2
▁inglestlahto	2
▁tlalticpa	2
▁Axkineki	2
▁monamikti	2
▁totecuiyohuan	2
xitili	2
▁quipixticat	2
▁Chima	2
▁piello	2
▁tecaquitillo	2
ALL	2
▁motlapaltili	2
▁umpoualxiu	2
ayohtoton	2
▁tzilacayohtoton	2
mulpi	2
maxitiz	2
▁unc	2
kompadre	2
papatauak	2
▁tijti	2
▁tlatoua	2
quetzallo	2
ltó	2
kaltsi	2
▁hualmotlah	2
▁tinechmihua	2
tequipachoz	2
▁oumomiquil	2
▁conana	2
xochitzi	2
▁Moch	2
atezcauh	2
ardena	2
otlaakatsii	2
▁tlayohuaya	2
▁chollohua	2
▁Mira	2
▁omocen	2
nauhcanhui	2
ixtin	2
▁ichcapixca	2
moneltoquitia	2
▁quinchihua	2
▁itlanequiliz	2
tlalililo	2
▁tlacacalat	2
mahuis	2
▁mocenyeliz	2
čolo	2
nečmikti	2
▁Quauhximalpa	2
icoltiliz	2
mopieli	2
quiani	2
unka	2
▁rato	2
tetlaçotla	2
▁tre	2
aqualli	2
excan	2
▁oquitliquechi	2
▁oquinquitzqu	2
alhuian	2
▁tlatoqueh	2
▁axcahoa	2
▁pes	2
▁hallar	2
▁adorar	2
compañero	2
kani	2
lwi	2
mitzmocnelili	2
tlahuelilocati	2
▁mitzpan	2
▁ximakuitlaui	2
okowi	2
▁yew	2
▁quiyocuxqu	2
tlaxtlahuili	2
calla	2
mottitia	2
▁quiytztinen	2
▁teohuateuhcti	2
momecati	2
▁chikuase	2
▁kitlachilito	2
▁ixuajka	2
tlazohtlacan	2
▁quitequipano	2
mokueso	2
moneltoquiti	2
inon	2
oconihto	2
▁amatlamatqu	2
▁quiyolloti	2
quichtacamicti	2
▁epíst	2
▁akak	2
pixtok	2
▁oquimacicacaqui	2
▁mellahua	2
▁manxitlazohtla	2
▁mopaj	2
metztic	2
momayanalti	2
KOS	2
EJ	2
▁cenpohuallo	2
▁itequih	2
▁tlaixpa	2
▁tlaciahu	2
▁nouai	2
▁motlahtlat	2
▁nelpa	2
▁techmictia	2
timaniz	2
▁oquiça	2
▁mih	2
mococohtzino	2
nenahuatil	2
▁omomiqui	2
quimohuaxcati	2
▁icuitlapil	2
▁temolcax	2
matlaquilhuit	2
nmehuan	2
▁imicni	2
▁xiquinpi	2
ONTE	2
topa	2
▁texcalla	2
tohtonti	2
loctzi	2
xixiquipil	2
▁CeCo	2
geli	2
▁Chilla	2
tihkak	2
▁moyollali	2
alquizque	2
▁micti	2
▁bla	2
kitlak	2
▁Mesica	2
▁tictlatlauhtit	2
apalla	2
xoquiuh	2
▁machiyoti	2
▁tlachichiuh	2
quinenehuilli	2
▁oncaxtol	2
▁quinoma	2
▁otlay	2
tlaxillo	2
unes	2
▁kech	2
▁tenemac	2
▁ohtlica	2
tlahuelilocamat	2
atlakui	2
▁Xicadivinaro	2
▁quihquiz	2
▁kitata	2
mota	2
▁okuili	2
nictecpan	2
gas	2
tep	2
▁tlase	2
▁kowi	2
▁kangani	2
▁Atecpan	2
chco	2
tlaliaya	2
▁Tzinc	2
▁imay	2
▁motlipichise	2
piani	2
lacuilo	2
▁Corne	2
▁teixiptla	2
ectilia	2
▁oanqui	2
▁tziz	2
▁quihuallihua	2
▁Fu	2
▁latintla	2
amapohua	2
empan	2
▁xquinmaca	2
▁quimotlacoliliz	2
mantel	2
quimoteotitzino	2
▁ohualmocuep	2
▁ontlamomotla	2
▁tzonizta	2
▁conmocahuil	2
momachiztili	2
▁noyollopachi	2
echinan	2
▁patlantinemi	2
per	2
tlahpaloqui	2
▁Oticpiaya	2
nko	2
▁tole	2
▁Vic	2
▁tlakawi	2
▁malinal	2
▁nitlatata	2
poal	2
▁Chichimecateutl	2
▁otiquinca	2
uato	2
▁moquimil	2
▁izta	2
▁italtqui	2
etlamachtil	2
yece	2
▁itlalmiltzi	2
tzihuan	2
▁Xontlacaqui	2
▁moixtlalis	2
▁oquiximatque	2
▁omahuiço	2
▁poc	2
icualita	2
HU	2
▁esdantarde	2
▁mahchi	2
▁ititla	2
▁Acoluaca	2
Tla	2
▁toneua	2
▁otlahtocat	2
▁caquiz	2
copinal	2
neci	2
▁tlatoc	2
otlayecchichihu	2
quinpixtihuia	2
▁techmoma	2
quixtilitzino	2
▁chiki	2
mocnellili	2
▁ap	2
yotia	2
nt	2
▁tonahuia	2
▁tlapatla	2
▁conechichi	2
nahuilti	2
▁contemaca	2
enquiz	2
conmacac	2
rot	2
tlazomahuiz	2
▁otlalhuiqui	2
cuacualaca	2
▁oquincocolli	2
▁otlatamachiuh	2
▁teotlama	2
▁ytenpan	2
▁quimocuepil	2
▁yneyxcahuil	2
▁philosoph	2
▁oquinamiqui	2
MIMI	2
XCO	2
▁INCUI	2
petici	2
▁icalcohoal	2
ualcallaqui	2
▁mika	2
▁tlakoyok	2
▁teyx	2
▁quixexelotia	2
▁mocacauhti	2
▁maxilti	2
▁toconmati	2
▁ahual	2
▁ontlayec	2
nappa	2
▁mokuetlani	2
TIK	2
▁ET	2
▁cahuayoh	2
oaltica	2
▁Toltecaacal	2
tlatepeualti	2
muztlay	2
▁hualhuiquili	2
▁omotlahtocatili	2
▁yhu	2
▁omiqui	2
▁chalchiuhti	2
ontlalilo	2
▁Zau	2
▁Texa	2
▁Quiza	2
panoc	2
acaltica	2
▁zatlatz	2
quiquixti	2
youal	2
▁quintepotzt	2
▁tlahtoaya	2
▁ahcazo	2
monequiltia	2
▁lpalnemohua	2
mozcalti	2
▁quinnemacti	2
posesio	2
▁xichual	2
▁Villag	2
▁Quentimo	2
NOJ	2
▁axkichi	2
▁mopuw	2
mamal	2
aka	2
cuaatequi	2
▁tlakatki	2
▁kikaj	2
taxkal	2
kelpachoua	2
teuatsa	2
uaki	2
▁Kualan	2
▁nechpalehui	2
▁sent	2
xochiquaxoxo	2
▁quintzatzacu	2
▁nitlana	2
quetztia	2
▁namocni	2
▁kip	2
cuauhtzon	2
▁omocuecuepotza	2
▁Omoc	2
▁matlan	2
▁Acalcal	2
▁kičiwilis	2
tlaxikouaj	2
▁tecpanto	2
▁yaotachcau	2
▁uiui	2
▁mozcallia	2
▁Nest	2
▁Temazcalti	2
▁Aman	2
teotlatquitl	2
▁ontlato	2
▁Tlacatecca	2
▁otelhui	2
echpactia	2
▁Ximocalt	2
▁oquicen	2
▁oquixexelo	2
▁motlapialia	2
▁ben	2
▁ommo	2
titlanilihqueh	2
uhaz	2
cuepcayoti	2
▁quicauhtehua	2
▁tetzacuall	2
▁niquitaz	2
▁quihualpehualti	2
▁MACUIL	2
tlacahuillo	2
▁ocontlapo	2
maytl	2
▁yntlahuillanal	2
ltecaz	2
▁Ameque	2
▁tichuic	2
▁teochihualo	2
▁conquistadores	2
chihuillia	2
neacatlalliaya	2
▁quauhtl	2
▁momotla	2
▁cihuateopixca	2
▁anentlaxi	2
▁tlaxamanil	2
▁nah	2
▁kitso	2
▁techpoyomicti	2
▁yomoht	2
▁tiquiixmatizqu	2
▁cuicat	2
ipia	2
▁nokuñad	2
aros	2
▁tiquinpehua	2
▁Tlecuil	2
lapaneca	2
▁conmin	2
enquiça	2
momachtizque	2
▁namotlaque	2
▁necohui	2
▁xitlamati	2
▁tictoca	2
▁cocotz	2
▁tepitz	2
▁chikom	2
poliviz	2
▁cuavivitl	2
▁xochit	2
antihui	2
icpaltzin	2
▁Quetzalp	2
▁xoconmaca	2
▁kikechko	2
jkotona	2
▁tehhuellamachti	2
tlazoh	2
▁tlayeyecol	2
kauili	2
tzacuazque	2
ME	2
KAT	2
▁Tlacateco	2
▁itsmolini	2
▁icalpanpil	2
tečse	2
▁sacra	2
▁teiyemac	2
▁nameh	2
ania	2
tlacuicuilli	2
▁amatenonotz	2
▁kaxi	2
tzihua	2
kwitlapa	2
▁techcahua	2
chapol	2
▁niez	2
itlamahuizoz	2
callo	2
ontlatlatla	2
▁mitzon	2
▁Niquihto	2
▁quiquiça	2
▁aculhua	2
▁Mes	2
potonca	2
copina	2
▁xocpal	2
▁quinmotocayotil	2
▁tlau	2
▁mocenteca	2
▁avi	2
▁Ima	2
htlacan	2
huclca	2
paccazeli	2
nechmonahuatilih	2
▁nimitznottili	2
nicnihtlanilili	2
▁onechm	2
▁paleuilo	2
▁tequit	2
▁princip	2
▁calend	2
iwinti	2
▁rabia	2
▁oconpehualti	2
▁quinmottiti	2
▁quimelau	2
▁tlamattinen	2
poçahua	2
▁oquitequi	2
tecu	2
▁traytor	2
ualpolo	2
itlanauatilua	2
▁Ticpiaz	2
año	2
▁Isa	2
konteneroaya	2
▁wala	2
tlaytlani	2
ilacatzo	2
▁ahuatzapotl	2
bel	2
▁caf	2
iruela	2
▁Islas	2
▁gal	2
▁netlalolo	2
▁tzicuin	2
▁Ocuil	2
▁tlaqualli	2
tlachichihuiliz	2
timoyolchicahua	2
▁quauhtematla	2
▁matlaquilhuiti	2
▁miktoke	2
aneci	2
▁isoldado	2
▁oquiyect	2
onehui	2
▁tlatzotzonque	2
▁tlacuepon	2
onetech	2
▁quimotecaqui	2
▁Tom	2
▁iniqu	2
▁apachiohuac	2
amechhuica	2
chilhuia	2
▁Agur	2
▁neç	2
izquia	2
▁mopolihuilti	2
▁mopohuaz	2
▁notzaloz	2
ocnoteca	2
▁ohualtlathui	2
▁xel	2
▁toconcui	2
▁Nuñ	2
▁perah	2
▁timocalaquia	2
▁quichica	2
▁moteuicalti	2
huillan	2
▁tlanonotzalo	2
ometztequiti	2
▁quipanahuia	2
▁huellac	2
cenquizcahueyt	2
acaquin	2
▁quipohuaz	2
huilliz	2
▁timokoko	2
temoya	2
▁Q	2
▁cuauhci	2
▁quimocuitlauiti	2
▁hualtepehui	2
▁otlanamacac	2
otenextillitzino	2
▁monoltit	2
▁ytlahtocamahuiz	2
▁iccentlamant	2
▁maquilti	2
▁cass	2
▁tlaçote	2
epyol	2
bonete	2
▁borla	2
olog	2
blero	2
▁tlamellauhca	2
cuepilli	2
mahtlactetl	2
▁moyolnonotza	2
tlaoculi	2
hueyo	2
▁Tenochti	2
poçalc	2
hiltique	2
▁pepenalo	2
▁telpup	2
chtotonti	2
▁qujn	2
tlamacaz	2
quiye	2
▁quinmotlaqua	2
▁quauhtincha	2
▁Tecuh	2
▁puchtecayo	2
▁tiza	2
▁ynemacpa	2
tlacamecayohua	2
tlacatilli	2
marr	2
▁nicnocaqui	2
▁tlaxaxantil	2
▁kichiu	2
ré	2
tamento	2
opolo	2
gí	2
motlacualtiz	2
▁ximoma	2
▁timoquequelo	2
▁Basti	2
▁amuel	2
▁itequi	2
▁kitemi	2
onilnamiqui	2
▁iquetlamant	2
cuauhtlapech	2
▁hualilpit	2
hchica	2
▁itloe	2
mozalhui	2
▁omotlaeatili	2
huahtzin	2
▁omixcu	2
▁tima	2
cazomo	2
▁Matlatzinca	2
▁kek	2
▁Xay	2
ecazin	2
▁Queza	2
▁ciuatzitzinti	2
▁timote	2
htocan	2
▁tlasesekayotl	2
notsk	2
metztica	2
▁techcuil	2
▁motlatzquilihto	2
▁noawelit	2
▁štokaka	2
▁cacaxt	2
▁mahco	2
▁mohuihui	2
quechtli	2
▁oquinm	2
ayocmo	2
▁tlatocatla	2
▁ley	2
▁onahuatil	2
▁oquinmononochil	2
▁onechnonotz	2
▁ATOL	2
▁axkiita	2
moquequetza	2
▁quinmahuiço	2
▁micoua	2
▁nanatzca	2
panoque	2
tzintitla	2
▁nitlapal	2
▁nitlaueliloc	2
▁niquit	2
▁cuep	2
▁coua	2
▁tlalticpatli	2
▁tsojpi	2
euhtzino	2
▁Tzinanca	2
timitznochili	2
cxipetla	2
▁nequamet	2
▁ymehuatilma	2
▁tetlatlauhti	2
moncalaqui	2
tzatzac	2
▁otlapi	2
▁itstoskí	2
▁iki	2
▁mokam	2
akun	2
rea	2
▁grande	2
▁tzopi	2
esti	2
▁čičikawak	2
▁tekitis	2
tzetzel	2
▁quinmahuiztili	2
▁moxinacho	2
▁hualhuico	2
tzaqua	2
▁wip	2
▁nimitspaleuis	2
▁timitznexti	2
ikon	2
segir	2
erafi	2
▁ouay	2
huicalti	2
hahuan	2
▁titoto	2
mot	2
titimani	2
amallacachotihui	2
▁Xaltepek	2
▁Gén	2
▁manxitlanamaca	2
▁cucul	2
▁tlatlanonotza	2
zazaz	2
▁motlahtlani	2
▁Tri	2
▁tequihuaque	2
▁CHI	2
nextilia	2
cuepon	2
▁Rus	2
	2
icniuhyaoyo	2
▁ypetlacal	2
▁Ayauhcal	2
▁Joh	2
geral	2
buena	2
▁Mononotz	2
▁tlahtocatilma	2
amal	2
cuicuit	2
ctique	2
▁Quauhn	2
▁icorona	2
elciciui	2
ocaquiztilili	2
▁Amehuan	2
yeyeco	2
▁timaloa	2
quetzalmaquiztla	2
tepalehuic	2
▁ytem	2
▁macehuall	2
amiento	2
hitic	2
loltiliz	2
hilpitzahuac	2
▁motatzin	2
▁tlapolol	2
▁teoit	2
▁Cuauhxical	2
▁tzompa	2
ntitlan	2
▁cihuatequitqu	2
▁oquitlall	2
ikí	2
esma	2
hualcallac	2
▁yau	2
▁ooo	2
espera	2
nzas	2
▁riko	2
▁asienda	2
▁Couatepe	2
▁chicuhnauh	2
ahuahuilo	2
▁toconchiu	2
▁Cuauhtlato	2
miya	2
huallachia	2
▁onitlazohtla	2
▁conmocaquiti	2
▁termi	2
▁tequannahual	2
▁itoloca	2
▁congre	2
iquanilo	2
▁yyollocacopati	2
limp	2
icayo	2
tlachilti	2
▁quitenyoti	2
▁cuacuauh	2
▁quiyahualoa	2
▁popocatepe	2
▁ontlayohua	2
▁xuchimilca	2
▁conmonamiquil	2
antas	2
V	2
▁bianco	2
TLAMAN	2
▁Bra	2
▁cihuacuacue	2
▁izquipa	2
tlahtolchixt	2
loapa	2
▁Tepetly	2
▁napohualxiuhti	2
▁Itzc	2
elchiquiuh	2
▁momachiyoti	2
▁itzinpeuhcayo	2
▁micmotla	2
nechual	2
iliaj	2
xochimaca	2
▁moquatequiti	2
ititi	2
▁quinencu	2
olchicahua	2
▁mopialia	2
▁Ixtlahua	2
▁mohueyi	2
▁tlatoznequi	2
▁cos	2
▁Yxtlil	2
▁tlaixpiya	2
▁amechontla	2
▁imorral	2
▁mamo	2
▁momicca	2
▁momiquilia	2
▁momouhti	2
nihmati	2
tehpouhalo	2
▁kiiitouaj	2
▁michihuauhtli	2
▁novi	2
tador	2
▁mocenpouh	2
▁yximacho	2
▁tetlamachti	2
▁mococotzinoti	2
▁huiptlatica	2
▁xiquimilhui	2
▁nauhyo	2
▁maquiza	2
leo	2
çe	2
amatlacuillo	2
bert	2
teicnelil	2
▁Quinanquil	2
conchiuaz	2
chihuiliaya	2
▁Ocpa	2
katsi	2
zcat	2
▁nihpa	2
▁niquitzt	2
ehuas	2
▁tijtlachili	2
caxoxocti	2
ztic	2
▁cioa	2
tlazaltia	2
▁quimocueti	2
▁tecuictlatoloya	2
tecuyo	2
▁tlapanaui	2
▁oquintlali	2
▁teteoc	2
▁oquinpacho	2
▁titlanapoualti	2
▁nankim	2
▁Ticana	2
▁tocepan	2
tlauhtia	2
▁tetlauhtilo	2
▁homp	2
quixtocaz	2
ztapala	2
imman	2
▁onitlace	2
▁ipilohtzin	2
▁onhuetzi	2
ITLA	2
CUA	2
▁tictequipano	2
celic	2
pitz	2
▁Alex	2
itohuaya	2
▁motemoa	2
▁tetlatemoli	2
▁tetlatlanil	2
teuh	2
pilol	2
quistili	2
aualloc	2
tollin	2
▁kompadr	2
▁npil	2
▁Teuhtleua	2
tenquixti	2
▁oninocuep	2
▁tenohnotz	2
▁nentlamat	2
quich	2
▁nimitzonma	2
tlaza	2
tlalili	2
▁tinechmomaquili	2
▁panhuetzque	2
▁yiollo	2
miequili	2
▁tenamitl	2
▁quitopeu	2
altoton	2
ichiuhque	2
▁onyeti	2
ititie	2
tlaškalo	2
quitlatocatlali	2
▁ahuehue	2
▁Onmant	2
▁kapol	2
▁ixcoya	2
▁molnamiqui	2
moquaxoch	2
▁itsonteko	2
kuajkua	2
▁tí	2
▁timitzon	2
▁moyecan	2
ixmachilia	2
▁ytepantlahto	2
▁ilpil	2
▁huixto	2
▁quihualmonochil	2
tzonquixtilli	2
hualhuetz	2
▁immona	2
▁immotta	2
ehichi	2
ihnecui	2
hcuania	2
▁oquichchichi	2
▁tlachichi	2
▁quichie	2
▁tlachi	2
▁quixoua	2
▁quimomachitoca	2
pantzin	2
▁Cec	2
▁Yti	2
▁Calpilc	2
quitiaz	2
▁uentzi	2
iyaj	2
▁quiualca	2
▁ajsit	2
onamaquilli	2
▁tlanamacani	2
ochihuaca	2
motecac	2
▁techicalli	2
mpo	2
▁kap	2
▁Tiezquia	2
▁omochiuhtinen	2
▁oquimoneltili	2
ikini	2
▁sokiayotl	2
▁ump	2
▁ISTAK	2
NANAKAT	2
▁XON	2
ONANAKAT	2
▁ikechselo	2
▁moquetzinoti	2
tlachialtihti	2
ontequizt	2
imani	2
netotilo	2
leon	2
quiquiztia	2
▁moyaochichiuh	2
▁kipiki	2
▁quimohu	2
ecapanilhui	2
ciembre	2
▁otieya	2
id	2
▁quimoquechilli	2
▁imi	2
▁trey	2
kicakwili	2
KIN	2
▁inoma	2
tlayahuallochti	2
▁quinpilo	2
OT	2
nacaio	2
▁quincui	2
▁coneua	2
▁cualnez	2
▁quipactia	2
ehuiti	2
▁ohualpeuh	2
▁ohuehueti	2
▁Amatl	2
tlalmaseuhqu	2
▁Xaltepetl	2
matla	2
▁Quap	2
▁Quezaltepe	2
▁ocsequi	2
omito	2
▁icnotzitzin	2
tonia	2
▁Sop	2
caltica	2
▁Chalchiuhnene	2
▁kipano	2
▁kiiluijke	2
iikni	2
▁kitlachiltinemi	2
▁Gio	2
var	2
▁ipoxa	2
▁onyezque	2
nchiuh	2
▁temalaca	2
▁Tiçuntzicantzi	2
▁huitzillihuit	2
kinamak	2
▁mizahui	2
▁tck	2
▁tiwalpanu	2
▁tika	2
inis	2
achtli	2
▁popuxt	2
▁xoconcui	2
▁onitetlahtlan	2
▁nicuell	2
▁suldados	2
▁Motecu	2
▁huallapacho	2
motonalpoui	2
▁atencopa	2
ocallo	2
▁moseui	2
auti	2
▁nimechm	2
▁anmexi	2
ttiti	2
▁hualmoyaca	2
▁cahchi	2
chichihua	2
htoton	2
▁onemauhtilo	2
▁quixtlahua	2
▁quicaht	2
cepa	2
▁yç	2
▁oninote	2
▁nicnemili	2
itlahtlachix	2
quitolinizque	2
▁yahual	2
ziuhcohuac	2
nmahmauhti	2
mauhcamicti	2
▁quiquixtilizque	2
▁contlec	2
quiah	2
▁Xixi	2
tlatlacoltiloc	2
▁tlayxmanal	2
huexo	2
aqui	2
cenquiza	2
puchtecatl	2
▁aoquic	2
nglater	2
quihualcihuamaca	2
▁izquilhui	2
▁timit	2
▁moyao	2
▁onitle	2
tleheo	2
hta	2
ecanan	2
▁Tlahuizcall	2
▁yeloa	2
▁niquinpia	2
▁pochikt	2
▁ocach	2
TLAHUA	2
motecuhzoma	2
yeh	2
▁oninemia	2
▁ylpillo	2
chihuallo	2
▁yoyolli	2
motlaecolti	2
micon	2
▁inmatla	2
mechtahtanilihto	2
iktok	2
▁rá	2
▁isistat	2
cauilliti	2
▁quinnamaquilti	2
tlalma	2
▁otlalmace	2
▁Ylama	2
▁Nexpa	2
▁chololiztli	2
▁šim	2
▁amatla	2
▁tequichihualis	2
camanal	2
auhque	2
▁Quezalma	2
▁omotepant	2
▁Yntlatol	2
▁nicah	2
▁kuesijke	2
▁xihuit	2
▁miauat	2
▁cahuallo	2
▁quimotemol	2
▁iahhu	2
▁NANAKAT	2
▁TI	2
afen	2
▁omocauhtzino	2
▁mopopo	2
▁Aztaca	2
▁malinti	2
▁quetzalxi	2
▁iztalectic	2
ihčiwa	2
▁inhuehue	2
šiw	2
▁yauij	2
▁mokone	2
▁tikalaki	2
yectenehua	2
▁quicocolia	2
▁ytenyo	2
cuicçumatzi	2
▁Acolnahuac	2
▁otitlazohtlaya	2
caci	2
governador	2
▁acxoya	2
mexica	2
etla	2
▁oquichiuhqueh	2
▁teoyoticat	2
ahtli	2
▁kuauitl	2
▁One	2
▁oamech	2
moztlacahui	2
huicaznequi	2
mat	2
yolpatzmi	2
icuil	2
motemaquiliti	2
▁Axaka	2
▁Yeca	2
▁tzotlan	2
▁nihuehue	2
▁tlahue	2
machtilcal	2
mmopillo	2
▁techtlanextilia	2
▁tlacatec	2
uhçi	2
▁Quauhtlatoua	2
▁quimotlatla	2
▁Maxi	2
huetzi	2
tleyo	2
▁melazti	2
▁mozohhua	2
ihpotochuic	2
▁quechpo	2
▁Tlemac	2
▁tzatzitiquiz	2
▁omocochit	2
▁macehualaltepe	2
▁mixtecatl	2
▁tonalhuac	2
▁Armenia	2
ochimilco	2
alten	2
mili	2
▁ohoala	2
ihkwaw	2
popusteki	2
▁tlako	2
▁kinex	2
▁nauhcapay	2
itecoc	2
▁tlatlatzin	2
quiahui	2
▁tetza	2
xikojke	2
▁oquinmamaca	2
ridad	2
▁xiyot	2
▁Quetzalma	2
▁teonca	2
▁moyecmati	2
xiyot	2
tía	2
catia	2
quechcoton	2
▁otlatlani	2
▁onahuat	2
▁nitano	2
▁tlaxtlahua	2
▁carmelita	2
cenyo	2
emat	2
▁xelihui	2
▁kasti	2
iaj	2
▁Xtechcualcuili	2
▁Quiuica	2
yot	2
▁moteonequi	2
▁monahualmati	2
lajki	2
▁quihuicca	2
▁oitech	2
▁quiti	2
▁tlahtoh	2
▁otlana	2
▁yopica	2
lpolli	2
▁texochimac	2
itz	2
▁Cahuetz	2
▁mochiuhti	2
egas	2
achca	2
yuhki	2
lani	2
▁oquihualli	2
htoque	2
tomaçehuitzinoca	2
▁motecaz	2
cateuhct	2
achcauhchiuhtiaz	2
▁coyoua	2
▁tlamatca	2
miti	2
▁topale	2
cone	2
tentiman	2
uchco	2
quimotlatquitoca	2
▁concahuiti	2
▁tlacallaqui	2
▁Ahuiyen	2
▁Mos	2
uizna	2
▁intlalpa	2
tlatza	2
trer	2
▁difondo	2
amacazqui	2
▁ticchiua	2
▁hueyaten	2
▁quihuallalli	2
▁moyaotla	2
▁yekim	2
▁kašili	2
▁kim	2
tlalito	2
quinhualtitlanqu	2
▁kitokili	2
okichpil	2
▁onyezquiayah	2
▁teteachca	2
▁rosa	2
kobrar	2
▁nicui	2
▁quallani	2
loco	2
▁moneltokayaya	2
mopehualtilli	2
▁quimote	2
▁moteylhuiya	2
rnman	2
▁icen	2
yollamachiliztli	2
tlauco	2
tlapa	2
▁Ypalnemo	2
▁carpamimichtin	2
tamali	2
▁otiezquiaya	2
▁titomati	2
▁yayatimani	2
tsakti	2
tiquinpopolo	2
▁onacti	2
▁Tal	2
▁onicmati	2
▁yoniki	2
▁Sur	2
▁Campech	2
ora	2
▁Tam	2
au	2
▁Yucat	2
▁Zazoca	2
▁ticaquiti	2
▁toconi	2
▁oquicaqui	2
▁itlat	2
▁cualhuica	2
▁Calme	2
▁Tlaloc	2
▁timilacatzo	2
matca	2
macazqui	2
onilhuizolo	2
▁teotlatolli	2
quichp	2
inantzin	2
▁yhuel	2
▁hualhuillohua	2
▁initlaxikouaj	2
▁omocuecuep	2
▁otlam	2
▁theop	2
▁hualne	2
▁huil	2
▁quinquimil	2
▁pankiski	2
▁tepehualizt	2
pallehuia	2
▁axkikauili	2
▁Mahtlacp	2
▁colol	2
▁motlatoquilti	2
motzacuiltitia	2
▁solda	2
▁timay	2
quimitta	2
ahuaya	2
▁Tezcatlamiaual	2
taueli	2
▁kiauiltia	2
posteki	2
tasí	2
▁ualmoman	2
xipetz	2
istro	2
huelita	2
▁wasik	2
▁iškič	2
ihtek	2
▁Temilo	2
▁contenti	2
▁huelaçot	2
▁anmoh	2
▁ayaj	2
▁quintlapalo	2
▁šk	2
▁Toztecaci	2
favor	2
teocalchal	2
▁teocalmamal	2
▁Cala	2
ztlacatini	2
▁arnm	2
quentilli	2
▁iyatenyo	2
▁Onicpi	2
imocxitlatlahuit	2
▁timoquetz	2
▁timotlaz	2
tataca	2
kowili	2
▁quitza	2
▁Eztlo	2
ocelo	2
▁axiua	2
▁ineyxc	2
enevi	2
▁Quetzalquauh	2
▁tikon	2
nepilhua	2
tlacaxinacho	2
▁yotlacua	2
▁šimo	2
▁ixqui	2
▁tlayol	2
mara	2
ocencahualo	2
ahpalehuil	2
▁XXXVII	2
iliznequi	2
▁chimaltitla	2
▁quimoxoti	2
▁sihua	2
▁calce	2
quipiazquiah	2
▁tlamini	2
ilihuiz	2
▁tehuic	2
▁teyac	2
▁icchicue	2
▁Cuitlachco	2
▁huelpeuh	2
▁Kiuik	2
▁nicán	2
tajtay	2
chilposon	2
▁tlaolmamal	2
▁yekimaka	2
▁tlatzacu	2
▁quinyacanti	2
▁Tecuic	2
▁Ometochtitla	2
mpan	2
oxiuhco	2
cualo	2
▁cathedr	2
▁neneliuh	2
maniltiti	2
quechque	2
▁machio	2
▁totlan	2
ztitla	2
▁tlamiminallo	2
▁quaquamiminal	2
▁pactinemi	2
▁Ycome	2
▁quimoyahua	2
pehuaz	2
▁ihuicatl	2
▁calma	2
▁ča	2
tikwa	2
▁cenpeuh	2
▁temoa	2
▁omochololti	2
▁oytzti	2
altepepan	2
lapallan	2
▁icchico	2
▁concua	2
itztica	2
ohuah	2
nemiltia	2
▁yhiyo	2
cahui	2
▁queninami	2
the	2
cost	2
tlaxil	2
▁Tictlal	2
tlamaceu	2
▁mocahuayo	2
▁estado	2
▁dist	2
rito	2
▁vera	2
▁Acatlyacapa	2
▁pahtilil	2
agu	2
▁motlaocol	2
▁Nopal	2
▁ciauh	2
▁omopac	2
▁tlehuaqui	2
acaxton	2
tocatlalli	2
zouh	2
xanoticac	2
▁patihua	2
momahmana	2
▁quinnacaz	2
axiliz	2
ecolli	2
pouilia	2
▁yetinemi	2
▁Tepiltz	2
otzomatzin	2
▁innetequipachol	2
▁netimalol	2
hualmonamiquilli	2
chalani	2
▁quihue	2
huetzquiliz	2
cuitlahuia	2
▁kanasta	2
motzotzona	2
melahuaca	2
kilia	2
tlačpana	2
▁Couacal	2
▁tlatzonte	2
▁blan	2
egro	2
tzaccayo	2
▁tequiuhtilo	2
▁ticcaqui	2
▁titlazotla	2
▁nichpoc	2
▁Mochpoch	2
▁ticmotlazo	2
tapalcamahuilti	2
nahuiltia	2
▁hualcepa	2
▁Mallinal	2
▁timotlapololti	2
hmac	2
xeliuh	2
▁mocehuico	2
▁nahuaque	2
anexilot	2
▁mits	2
kauaski	2
ticalaque	2
almimilol	2
▁ancax	2
pal	2
caxipe	2
toniliti	2
malinal	2
▁icye	2
▁nocontlaza	2
ehuili	2
topeuh	2
itzto	2
osto	2
▁Icniuh	2
▁onameč	2
▁tipahti	2
▁tocelo	2
xillampa	2
deskomponer	2
▁tipactica	2
ihcuac	2
▁nocn	2
mozohuahti	2
▁oquintlalli	2
▁hualloli	2
▁quipo	2
▁tlaceman	2
▁quixto	2
tlatemoliz	2
ahcihcamat	2
▁TENONOTZALL	2
viyan	2
nonelo	2
▁ciuaua	2
moquichua	2
▁ymamatlacuilol	2
mocallaquilli	2
▁machoc	2
hcatepec	2
▁telpuchtl	2
uizoz	2
▁Mun	2
▁Asupcio	2
▁otlayi	2
aquetzta	2
▁tlica	2
▁namotat	2
▁uma	2
▁motew	2
inoma	2
▁mociyauh	2
▁quipopolo	2
lotica	2
▁Toloca	2
▁Tzinacantepe	2
▁Calimaya	2
panouayan	2
▁Cuezcomatl	2
▁Cueçal	2
▁Occetepe	2
nemiliznehtolti	2
▁yoctacat	2
motlayancuilili	2
motlapahpatilli	2
▁Kime	2
▁itztica	2
▁itzcal	2
▁omomanque	2
juanti	2
viern	2
▁quimixcahui	2
▁tlacateca	2
juezgovernadores	2
▁tlatlehuatz	2
▁kikonank	2
▁Sar	2
ixpanti	2
caquiztili	2
▁nenen	2
▁macuilpa	2
▁tlaqualiz	2
▁quimitt	2
▁tlacatecolo	2
stok	2
▁mački	2
▁Achtotipa	2
tlatoca	2
▁quauhxical	2
▁tenami	2
▁huicontica	2
▁teocuitlaxochi	2
▁Tiquimona	2
▁tlatleycuil	2
▁quihualma	2
tlamanahuili	2
▁tetlatzacuilti	2
mokwalti	2
mahman	2
▁niteita	2
nimas	2
ezquia	2
tzitzicuehualton	2
▁moyetzinotica	2
▁monemiliz	2
motemaquili	2
▁tercero	2
▁otlapo	2
▁Quauhtexpetla	2
▁kiteka	2
sejsé	2
ichpoka	2
▁cemixquich	2
▁yteopanc	2
▁quice	2
otica	2
▁quinoz	2
momotla	2
huiteque	2
▁axnik	2
chiuas	2
abonti	2
otonalhuac	2
▁conchichi	2
▁otemo	2
azareno	2
▁quincentlalli	2
papaquilti	2
▁quinenemiltia	2
tlalliaya	2
▁tetzahuitl	2
iac	2
▁nueb	2
ajch	2
oltik	2
▁tletlali	2
▁quinmacac	2
tene	2
oñ	2
▁ycniuh	2
alpi	2
quimetzhuitec	2
▁iax	2
▁ninohcuania	2
▁moyolcehui	2
▁poch	2
▁yaotl	2
▁tonnemi	2
▁tam	2
tlauh	2
tetlahpalo	2
ichpuch	2
▁nemizqueh	2
▁amehuanti	2
nonotzaquiu	2
ocauhque	2
▁quitetla	2
▁quicahuatihu	2
▁necahual	2
▁Ycon	2
▁Chiqu	2
▁honca	2
▁chiquiuh	2
▁tequixquizacatl	2
nicpiellia	2
milhuitzin	2
▁Jud	2
▁Tocoltzi	2
▁huacax	2
▁otiquiman	2
mopepen	2
moititili	2
peka	2
▁Naca	2
ancaza	2
zontima	2
▁tlamaco	2
▁antetecui	2
▁tlatecpan	2
▁Yoya	2
tenpan	2
▁nemach	2
▁xicana	2
▁yectlacual	2
▁mopaquili	2
atenquiça	2
momachitiz	2
▁ninoce	2
▁titlanel	2
▁Iesu	2
▁kañ	2
ala	2
yes	2
▁ticochizque	2
▁quimopallehuil	2
čanka	2
tlaw	2
tequimaco	2
▁totepantlahtoca	2
▁criyoyos	2
petzco	2
▁caxa	2
▁hiei	2
quimacicaytta	2
tlamatini	2
▁callactihuetz	2
mantlan	2
capan	2
teyolcuiti	2
▁quitzatzac	2
▁xiquimolhuili	2
▁nechacicamati	2
▁istaga	2
▁Quiualilhuia	2
▁icenca	2
▁itlahueyi	2
lquahuitl	2
▁motenext	2
▁chiaua	2
namechaxcatiliti	2
▁cavallotlatlal	2
lochti	2
▁tlatsilini	2
▁xie	2
uiloua	2
kimatis	2
▁oquimac	2
▁Xquinta	2
uiliztli	2
▁amiquiz	2
tzo	2
iammiquiliz	2
ueñ	2
▁Resurre	2
▁tlanotzal	2
huetziti	2
▁ihuallali	2
▁yohuan	2
▁pewa	2
kwili	2
▁čikw	2
▁čik	2
▁kaštoli	2
▁kaštolon	2
▁kašto	2
catiaya	2
▁conmac	2
tlatzonilpi	2
cuaxoch	2
▁quinamacazquia	2
▁Crist	2
▁quetzalte	2
yolot	2
▁Marty	2
▁tetz	2
▁nietaz	2
cecuiz	2
mocualtiz	2
hualhuica	2
quixtihtaya	2
▁opo	2
▁Ytztol	2
amian	2
ontlachia	2
▁yemocawa	2
▁kiniuik	2
mitzmonanquilili	2
▁tiquihta	2
titlananquili	2
▁omitzchi	2
▁Hin	2
▁niespíritu	2
▁Tey	2
▁Tlacu	2
▁Coatonal	2
▁tont	2
▁Cilia	2
▁imaco	2
quauhcoz	2
itetlamamac	2
onicac	2
▁calaco	2
▁timopahti	2
polihuiz	2
▁noconit	2
▁tlahuel	2
tlaxili	2
▁nitlač	2
kia	2
▁nitlači	2
▁quitleccahui	2
xtoc	2
ahuachyo	2
▁moyectlali	2
▁quitataca	2
▁capachoz	2
▁amonca	2
tlamanixti	2
itztic	2
▁cecuiz	2
▁nocupix	2
▁cahuah	2
cohcotoc	2
yolyamani	2
altiz	2
▁tem	2
pohpouh	2
▁kikekelo	2
▁omaltepetlali	2
▁Coua	2
▁Tentli	2
▁quimonpeuh	2
culhuaca	2
tlahpalhui	2
▁krus	2
▁titoylhui	2
netlalilo	2
titili	2
quimilhuia	2
▁xonahui	2
▁omuchi	2
▁oquimoquixtili	2
▁omaqui	2
▁yomic	2
▁omicuania	2
xitla	2
▁icoche	2
tlachia	2
▁Tlilli	2
tlatop	2
▁mopalehuis	2
▁quiihtohua	2
▁tlayeyecoli	2
▁quinmactili	2
ticchi	2
▁Nichoca	2
▁onechhuica	2
▁omotemachtili	2
▁ohualyetia	2
tewa	2
▁nomatla	2
▁Coanacotzi	2
▁tečtlamaka	2
▁noconnoc	2
culia	2
▁Anyaxca	2
ixtocaz	2
antlanamacazquia	2
▁tetecu	2
atique	2
▁moyolcoco	2
▁motlapallo	2
▁melah	2
▁temahuiz	2
▁Ytech	2
▁moyectlaliz	2
▁quiuicaltia	2
▁inehto	2
ičpokato	2
▁caxcan	2
zcaltiz	2
▁Oticpix	2
▁toqui	2
▁celia	2
▁Bá	2
rbar	2
▁compatla	2
ilpili	2
▁tlaquenti	2
yaxca	2
▁quellehui	2
llia	2
uatzi	2
ioti	2
▁nitlaneltil	2
▁tiy	2
mahuiztlachihual	2
motlecuillan	2
hualmeh	2
▁Tlali	2
ixpa	2
▁sehca	2
ixpolihui	2
witiw	2
▁tineč	2
oprendah	2
tlahuelcuit	2
ahcicamati	2
▁nechnequi	2
chihualtiz	2
nitlapolo	2
▁XOCHI	2
▁ayi	2
▁kipejpen	2
▁tikitas	2
obres	2
ahuilloc	2
▁Tlamacaz	2
▁Yxtlahu	2
▁Ing	2
alat	2
atlanih	2
▁quehuac	2
▁titehuanti	2
▁Tie	2
▁nimitztahtani	2
▁zazanil	2
piel	2
▁cost	2
odia	2
▁aguaceros	2
▁huihuito	2
▁nomica	2
ontequilia	2
▁immal	2
▁mochiu	2
tenehuaz	2
▁pen	2
▁motete	2
▁tikilui	2
tlacu	2
antia	2
▁Azcapotzal	2
▁taceliya	2
▁mocuitlalpia	2
mononochili	2
▁yxquetzallo	2
▁mewa	2
▁ticmacazque	2
tzoma	2
icmotenehuili	2
mecan	2
zohcamachililiz	2
▁tocahuazque	2
▁tziquitzi	2
▁nechpachani	2
▁hualah	2
tsintla	2
▁Tlejko	2
▁quauhquixti	2
▁xihualhuiya	2
cxoyatzin	2
▁yewa	2
laka	2
▁ycon	2
modesayun	2
▁motalilia	2
▁Tecol	2
zacatlaca	2
alitic	2
▁omotzauh	2
alguacil	2
▁trae	2
▁mapil	2
▁otical	2
▁quihtoa	2
tepilhuan	2
mix	2
tzauhcti	2
tlaneltocato	2
▁šteč	2
▁tlaxipe	2
▁nocihuaicni	2
▁nequetzalo	2
xtlahua	2
cito	2
▁Noco	2
xtlahui	2
quetzaz	2
KUOUIT	2
mate	2
nicnotlatlauhtil	2
cemaxcatillo	2
▁semintera	2
▁niš	2
▁tempo	2
mas	2
▁tiemo	2
ixpopolo	2
▁Tiço	2
▁notlaca	2
▁quitlatlauhtili	2
▁cale	2
▁onquizto	2
▁tiquix	2
namictia	2
▁cuetlaxteca	2
tlatzacuiti	2
nahnamic	2
halchiuhcal	2
quetzalcal	2
▁xiuht	2
▁tiquilnamiqui	2
miktia	2
▁ratito	2
popochhuil	2
metzhui	2
cahualtillo	2
▁descum	2
▁tocafen	2
▁Mé	2
atohuani	2
▁xotla	2
▁oquinonotz	2
tzque	2
omotlancuaquetza	2
techtlaocoli	2
onitztica	2
▁hualquixti	2
▁quimotzicalhui	2
quinititi	2
ahqueh	2
nechmomachiotili	2
▁notec	2
macuiltetl	2
catihui	2
▁intlaçotlat	2
▁nochipayok	2
▁anpopoli	2
▁mociuauati	2
▁mopiluati	2
tu	2
uexozincotlaca	2
▁hualmotlahtocat	2
ohuayxtlahua	2
▁tepetlamimilol	2
▁tlayohuati	2
▁contoquilli	2
▁kuakuoujnaka	2
▁Tzonim	2
▁cacava	2
▁ocahci	2
▁conmomaquil	2
htiti	2
▁concuili	2
teocuitlapan	2
▁poyon	2
▁Texcal	2
ttilique	2
▁otoma	2
▁Vin	2
tlamia	2
▁titlanamaca	2
LNANACATL	2
▁AH	2
TON	2
OTLA	2
Y	2
▁timopo	2
▁noconchi	2
▁contlaliz	2
▁ope	2
omatia	2
▁tzontecon	2
▁nimayana	2
ktok	2
▁cuetzpal	2
borr	2
ueltiuatzi	2
▁iztayo	2
▁ictechicu	2
▁oniquiz	2
▁onicne	2
etoquilli	2
tlahuel	2
cahuiliz	2
mahcehui	2
tepo	2
chtzin	2
▁omonono	2
▁omonemilili	2
izti	2
zhuayo	2
▁momallacacho	2
▁tlacanechico	2
quezquilhui	2
▁Tlatlau	2
lanco	2
▁Pantlan	2
▁Xochtla	2
▁Amaxtla	2
hiuhcan	2
▁Teocuitla	2
▁Xolotla	2
▁Ui	2
▁quipiazquia	2
ynnemac	2
xtillilo	2
xikose	2
▁moyahual	2
ciz	2
▁poxact	2
▁cenquizto	2
monetolti	2
momachilti	2
tlaquauhtzotzona	2
ocuilteca	2
huatlan	2
▁quauhtlapech	2
▁techyahualloti	2
iliztica	2
▁Calpan	2
altiloya	2
▁otechcauh	2
▁momayahui	2
▁kokwi	2
▁oninomiquil	2
▁quintehtequil	2
▁quinmacpalt	2
mamalo	2
hualmotitlanili	2
▁awelit	2
tlahtoa	2
cuecueyoca	2
▁quinpopolloz	2
▁omocacaya	2
nemia	2
▁oconman	2
▁teuhyo	2
tlaneltililiz	2
▁kitaluia	2
▁toquich	2
mahuiztililizt	2
▁mocalacti	2
▁nikininauatí	2
ixtoquiliz	2
▁tocentlali	2
▁tlayecoltilo	2
tennonotz	2
yeyecalhui	2
motamachihuili	2
tepotz	2
▁cent	2
▁nimitsmak	2
tlacacitimani	2
ztotl	2
ll	2
▁tzimp	2
titonechico	2
▁toyalhuayo	2
cniuhti	2
chiuhqueh	2
tihuitzeh	2
▁tiquihtaz	2
yolyamaniliz	2
▁occam	2
▁bien	2
▁fiesta	2
▁repar	2
▁hecho	2
▁cualica	2
quintlahyel	2
poca	2
iquizcalti	2
ecatli	2
▁ytlacotia	2
▁Temalaca	2
ameh	2
▁ixtililoni	2
quili	2
▁moteuh	2
kakauat	2
▁maxiujyoj	2
guardi	2
anís	2
▁ocahuatemo	2
hpac	2
▁tecah	2
▁ochoca	2
▁oquicuaman	2
gua	2
▁nicnomaquil	2
chiuaz	2
kuij	2
▁yacatiu	2
tlaaltil	2
▁necentlali	2
▁Tzonmol	2
tlapachoua	2
▁motlaxeal	2
▁amoxtl	2
inio	2
▁cenchihuall	2
isio	2
▁segon	2
▁Redemptió	2
mitspaleui	2
▁mosuerte	2
tepotztocca	2
▁ytlanauatilt	2
▁omotlalo	2
▁motemitia	2
▁atlalilli	2
melawa	2
▁igual	2
▁timayana	2
tlacua	2
▁yomaxiti	2
▁notza	2
htzinoa	2
yezquiani	2
▁piz	2
▁ticquixti	2
▁sobre	2
▁oconqui	2
▁cenpohuallonce	2
oconmamanaca	2
tictocayoti	2
tequilia	2
▁hualleuh	2
▁tlaixnextilotl	2
▁Kichiu	2
▁manoz	2
▁ohuetzi	2
▁tlatotonilo	2
▁tlati	2
▁Xihuala	2
quimocelili	2
▁yotimo	2
▁totlaso	2
▁technexicoli	2
uña	2
marques	2
motlaucol	2
popollihuiz	2
anyan	2
▁ber	2
▁ichantzin	2
motonalquechili	2
▁quichali	2
▁nom	2
tetzoncui	2
kwawi	2
kuouj	2
▁tiotla	2
moyaual	2
tlatocamacac	2
yoltequipacholli	2
mauhtilli	2
tlatlatil	2
monahnahuati	2
▁tetlaca	2
▁moteneh	2
ecia	2
pahcayohui	2
caltenpa	2
▁tlatzitzilica	2
tlapoh	2
uizquia	2
latoa	2
▁conmitalhuia	2
▁xiquimon	2
▁Atlixel	2
▁totlaxilacaltia	2
elpuch	2
▁Inoyuh	2
▁chacal	2
cuilolli	2
▁teocuitlax	2
ilotl	2
cozcati	2
▁totoloti	2
▁Ocelo	2
▁Tlauizcalpo	2
tonqui	2
▁tiot	2
tečmantenero	2
▁moponhua	2
sewitiw	2
motlapacho	2
▁quimomecati	2
▁Gonzal	2
▁Aço	2
atlapan	2
nacazitzti	2
conkal	2
caltzauhc	2
▁molinik	2
otlatzonilpil	2
kitiwa	2
▁KO	2
▁mitznemactitih	2
▁tlacohcolli	2
pelicula	2
▁nehne	2
elí	2
▁tlap	2
hopin	2
▁Choquiz	2
popozo	2
▁quimictizque	2
atoc	2
▁cuelpachiu	2
liuhqui	2
▁nexochi	2
▁quinhualcauhti	2
▁omotlananquili	2
ptió	2
▁ytlaquetzal	2
avallero	2
▁cuetlaxtl	2
quitzaqua	2
latol	2
chihualti	2
titlamochya	2
▁otitotlal	2
▁teyolmelauaz	2
▁cacatzacti	2
▁Ver	2
▁mahuiçol	2
▁immah	2
▁huitzitzil	2
lpitia	2
▁Ayc	2
▁Espirit	2
▁ytlat	2
▁quiyec	2
▁nauhcam	2
▁Chil	2
▁mocentlamantil	2
rios	2
escapulario	2
▁iey	2
tilitzin	2
hualicnotlamati	2
hualmocallaqui	2
tlanahuatiltica	2
▁quimochi	2
mocallaqui	2
▁quimocelili	2
▁onicte	2
quechpano	2
yahuitzin	2
▁tepozpitzqu	2
▁quiquixtia	2
▁otinemia	2
▁cempanahui	2
▁Huitzillop	2
▁Cinteutl	2
▁quipoloz	2
▁techmopalehuili	2
▁tocahu	2
▁pisilchil	2
ecuhtli	2
bones	2
▁noquito	2
uechilli	2
uali	2
▁pexo	2
▁tepetli	2
Te	2
▁pachihui	2
quinamacaz	2
cax	2
cahuayo	2
▁motzacuaz	2
▁Piltzi	2
▁otlaocox	2
xihua	2
quinezcayoti	2
▁cicihuam	2
▁oquinexti	2
nçaçalo	2
▁tipewas	2
▁motlapachojkí	2
sfiguraci	2
▁titlananquili	2
toctli	2
▁quitemoz	2
▁intepallehuilli	2
▁otinechmolhuil	2
tinechmomaquili	2
▁yamanca	2
uiltitie	2
▁hualteyacana	2
zcuecuex	2
▁xiuhcac	2
echpazoloh	2
XIPOJNANAKAT	2
▁tikilwi	2
▁moquetzacan	2
totopucht	2
▁quipantlaz	2
▁tempalan	2
totop	2
▁Huehca	2
accan	2
▁omonamic	2
ikos	2
tlatul	2
tlatlauhtilico	2
tlatlapant	2
tlaxilacal	2
yolotli	2
▁quitlacahualtia	2
▁xiti	2
▁quinyaochihua	2
iauh	2
uexotl	2
▁Tlapal	2
▁iyaca	2
zhuahua	2
▁cihuatzin	2
▁mixtlapo	2
quixtzacuilli	2
▁miquani	2
▁hualmoquetzino	2
▁iva	2
importar	2
▁quimahuiço	2
▁moparka	2
▁Oquimamaya	2
▁netlaliloya	2
▁motei	2
▁motequ	2
poztequi	2
▁Xtech	2
▁quincuitla	2
uipilti	2
ualuica	2
▁quinmotlallili	2
▁ME	2
▁caltza	2
▁quinoqui	2
▁anoquil	2
tezcatl	2
▁cuacuahui	2
▁otetzacua	2
▁yohuehue	2
▁axno	2
lonti	2
▁mocac	2
▁yoloxochi	2
▁xinechmocahuil	2
▁tetlahtocatlal	2
▁Zazoqu	2
▁techicahual	2
▁valma	2
▁motonacay	2
▁techiahuaca	2
ilh	2
▁xquinezcayotili	2
▁netequipacholo	2
huillana	2
▁uallicatia	2
▁motekipacho	2
moxicohua	2
wika	2
tocauh	2
huehuetlamatiliz	2
chie	2
▁nihualno	2
▁makili	2
▁ymeixti	2
▁mococoxca	2
▁quihualaha	2
chialo	2
▁itleyo	2
▁ninoma	2
▁quitocatlalihto	2
tlahtlacol	2
▁miltequit	2
▁quinmohtili	2
▁Caxtiltlahtoca	2
▁neua	2
▁Tsi	2
▁kajsi	2
▁masa	2
▁janu	2
▁contlatocatlali	2
▁ixillan	2
▁otioali	2
▁Tzitziquitzi	2
▁Balb	2
▁necacaya	2
▁tikajsi	2
▁quinmocahuili	2
cuiyo	2
MIZ	2
quentique	2
▁hualitztia	2
▁mahci	2
neses	2
▁mimichti	2
▁cacatl	2
▁Tlejkok	2
▁ticchi	2
uen	2
▁kij	2
▁chian	2
▁amonan	2
▁kikakatso	2
▁xiquiht	2
▁mochicahua	2
▁concahua	2
▁buen	2
▁Notlatzi	2
▁chiquaçemil	2
ihyohui	2
motlaneltilili	2
▁hualcocolilo	2
▁tzacualo	2
ók	2
cuitlahuilti	2
xcal	2
RI	2
IH	2
temaco	2
huati	2
▁Auitzontzin	2
caxilti	2
▁oquilhuiquixti	2
ixpopoyo	2
▁calixa	2
▁quinual	2
cahque	2
tonalpohual	2
chiya	2
▁sintokaj	2
eoculhua	2
naoatili	2
▁oquitlan	2
xtoço	2
▁achiti	2
▁contlachiyelti	2
▁tlamauhti	2
▁quicalti	2
caltique	2
▁mochoquiz	2
petlahuiltihti	2
quimotzitzquil	2
tis	2
▁nicawa	2
▁ohuacall	2
▁otiquinm	2
▁yntlaquetzal	2
▁ychpo	2
iwi	2
cahyantic	2
motechicaua	2
▁Yol	2
▁Epcouat	2
▁Ajsit	2
tsilini	2
ihuian	2
omoquixti	2
▁ximopanoltican	2
techmolhuili	2
▁cahualo	2
cochque	2
▁Tatatzin	2
▁nict	2
ikni	2
▁mušulwaswi	2
quanilo	2
▁Teteo	2
▁tamachti	2
▁Colo	2
▁notechmo	2
▁tictequa	2
▁tictla	2
▁Noih	2
▁tlamamani	2
onotza	2
▁awk	2
▁nacaztlachie	2
▁nicnextiz	2
▁anquitla	2
▁oquimocahuil	2
alolti	2
▁maltepe	2
▁Yaocivatzin	2
▁tecoua	2
▁tetlaxima	2
nunci	2
popoloz	2
▁oquimotlapolhui	2
▁totom	2
▁necaualo	2
▁nonotza	2
▁titokas	2
ualkui	2
masca	2
▁teoaxochioct	2
▁Arg	2
yauallo	2
▁matzal	2
▁motetzil	2
▁apozonalten	2
cahuiaya	2
▁nicnamacazquia	2
naran	2
tetecui	2
chicahuaca	2
▁momacehui	2
tazque	2
prend	2
▁tohuanpo	2
▁tlacenmati	2
▁motlami	2
cuahcual	2
▁Yniquic	2
▁niyon	2
ITZ	2
▁oahcia	2
quechpozahua	2
▁cocolis	2
▁motecaqui	2
▁TSOJPI	2
▁vend	2
▁NIC	2
UH	2
▁anyolque	2
tocac	2
huilloc	2
▁oquipehualtihqu	2
▁tihuetz	2
nitlacua	2
▁anmopi	2
quixtiliz	2
tetzonteco	2
tlatoltia	2
▁quimotocayotil	2
acicamachi	2
lah	2
yolloh	2
desayun	2
▁Nechtsotsomot	2
yollohua	2
ictlazohtla	2
quinmomaquili	2
▁uch	2
▁tocontocaz	2
▁ualo	2
ticmauiz	2
▁oninoquetza	2
▁ticmoyo	2
▁momomo	2
▁quitlaocol	2
▁tlauizcal	2
▁nochpochtzé	2
ovall	2
▁xipe	2
IL	2
AKAY	2
▁tatlakwi	2
▁kanto	2
tualmuica	2
▁mixihui	2
▁quitemato	2
▁kues	2
▁tokaw	2
▁dieci	2
▁pinauhtiz	2
cniuhtla	2
▁Yajk	2
▁noxochihu	2
niqui	2
▁kinejk	2
uauh	2
▁teyacantia	2
▁quinmottiliz	2
UE	2
lohuac	2
▁nokni	2
▁kualanke	2
▁coma	2
quitica	2
▁ocelilo	2
▁iyectenehual	2
uro	2
P	2
▁italhuil	2
yuh	2
▁amontla	2
tiliztica	2
mixco	2
▁nechal	2
▁ihuin	2
▁notlaço	2
ycniuh	2
▁quimotocayoti	2
▁QUEHQUICH	2
NON	2
▁AMO	2
▁huelipan	2
ejne	2
▁nitlača	2
▁Apóstol	2
kixmat	2
▁tomaseual	2
▁kuesala	2
▁techo	2
▁kitojtomili	2
▁quinmotzacuil	2
▁xinechkekelo	2
motenehui	2
tonehua	2
▁ichp	2
petani	2
yayá	2
▁canaz	2
▁tlazohtlaz	2
mocetili	2
▁tepoztlahuilan	2
lali	2
tetlaneuhti	2
tlacalhui	2
▁quimoteyt	2
▁onquiza	2
▁mojmorado	2
▁tlaikuiloli	2
▁comis	2
tlatetemolli	2
▁quimecahuitec	2
▁chanchiuhtica	2
▁quauhtitlancal	2
ltitlan	2
▁chicuhnauhteca	2
▁Tepechpa	2
▁quimotocayotili	2
palehuil	2
▁tlayhiyohui	2
takuechauj	2
▁ayauhcoçamal	2
uejueyi	2
tojtoka	2
▁NEHUA	2
▁toy	2
nicahci	2
ô	2
▁tetlamacaz	2
▁onmomana	2
▁cacitimoman	2
▁nop	2
▁otim	2
ixpetlahual	2
cueponaltil	2
cuicho	2
tlanahuatia	2
huexiuh	2
xixini	2
alocan	2
▁Apatlac	2
▁ichicome	2
echichino	2
tlahuelmati	2
ikano	2
quinmocalaquilia	2
locatzin	2
▁Cemacachiqui	2
▁Poya	2
▁ocualan	2
tetetzo	2
tetzilo	2
▁oquinmandaro	2
▁nitlazohtla	2
▁Xoya	2
ticmellau	2
▁monec	2
mozcaltili	2
▁otechmozcaltili	2
▁ymic	2
lliaya	2
▁quinteu	2
▁yehuehca	2
▁nipolij	2
▁tlateca	2
tlauhtiz	2
▁Xiuhtem	2
▁kitis	2
axolotl	2
▁mocalcohui	2
▁omalti	2
škwal	2
▁Tecuichpu	2
▁nau	2
▁anali	2
▁caxilti	2
▁omopapanolti	2
▁Caxil	2
▁ciento	2
▁otexexel	2
chtin	2
tepeuhtoc	2
▁quiyacatiti	2
▁quixe	2
▁quihuall	2
axiltia	2
▁titononotzque	2
okičiw	2
▁nicnotlapal	2
▁calle	2
quiyauhtiman	2
yohcal	2
▁Uizilopoch	2
▁potoxt	2
▁nequatequiliz	2
mačye	2
▁tzoyonp	2
tlaqual	2
▁chien	2
▁quimomahuiztil	2
▁quimololhui	2
▁quinmoma	2
▁oquichihuilli	2
▁Muchi	2
mopechteca	2
kauak	2
▁bentana	2
aquili	2
nomaceual	2
yauchiua	2
▁Tecuantepec	2
▁quintlapallo	2
quintlacazcaltil	2
▁quintlacahua	2
▁cahuahcal	2
mopalehuiliaya	2
▁anene	2
▁tenotza	2
▁acacuau	2
▁tlahcotonal	2
▁tlatzca	2
▁tlayamani	2
▁MEXI	2
AYOPE	2
▁tlamalin	2
▁ticaqui	2
▁Ahuel	2
▁quixtia	2
▁kipanti	2
xki	2
▁evangeli	2
▁noconn	2
tlaocolli	2
▁niquixtlahua	2
uhctzin	2
ajsi	2
▁PRI	2
▁iyaotlatqui	2
▁Nicnamaca	2
kwitlapan	2
tlačal	2
conmotlapalhui	2
mopachohua	2
yacatequi	2
huazque	2
▁quinhualtoca	2
▁xiualla	2
▁anquit	2
▁tlapalolo	2
▁yacahui	2
quani	2
▁quicallaqui	2
onicuilo	2
▁enti	2
ende	2
cuepi	2
▁mopajuia	2
TE	2
seño	2
▁netl	2
▁totolime	2
▁tlatvi	2
▁niconiz	2
cahuillitia	2
▁quinyaotla	2
▁neinemi	2
▁tlapachohua	2
▁Chan	2
huehuetlahtol	2
▁Guada	2
tlamanitilliz	2
tsayan	2
tsalan	2
▁nimitzt	2
Martin	2
▁tlanahuatiani	2
▁quitlepanitas	2
tlatlepanitalis	2
▁motemaca	2
quipaccaceli	2
▁tlayamania	2
yoma	2
▁mahuizzot	2
▁kitexima	2
▁kuoujte	2
teuhcyo	2
iyal	2
▁quixpa	2
▁tlecuahuit	2
▁mixyayahual	2
▁meltecque	2
▁Xalla	2
itznac	2
tihuacan	2
▁iccaxtol	2
▁notlan	2
cuauhcuezco	2
▁yatihuitz	2
▁tequitican	2
▁Henrri	2
nenehuilia	2
empoual	2
▁techyaca	2
▁axkin	2
▁nikilpis	2
iqueh	2
▁chiuhpetlacal	2
ond	2
mote	2
kuik	2
▁titlaku	2
▁tlakat	2
▁teči	2
celilti	2
▁kikomponero	2
▁tlalyahuallo	2
emaquixtil	2
lizhuellitillizt	2
▁iyomane	2
rimoni	2
▁bali	2
▁titlaome	2
štla	2
tlapouh	2
▁quimoncauh	2
petz	2
▁caciz	2
▁ytomin	2
▁omomana	2
▁kit	2
▁cit	2
▁yteopancal	2
▁ticalaqui	2
temoliti	2
▁tzoca	2
iccohua	2
▁onechtla	2
▁cuahcua	2
motlanaoatili	2
titiuh	2
ocehuico	2
tlachichihual	2
▁mapipitzo	2
nyezque	2
tepetla	2
▁noquetzal	2
uilise	2
tsakuase	2
▁fundadores	2
▁tepantlatza	2
▁Techich	2
▁Cuauhpo	2
entlamati	2
huelcaquili	2
▁uakt	2
▁tiwa	2
ocentlali	2
htihuitzah	2
▁TIMI	2
▁TICNE	2
TOCA	2
Z	2
▁ygovernador	2
▁tlazohtotome	2
tozqui	2
alhuiaca	2
ehoa	2
micohua	2
cuechahua	2
▁anpopolli	2
uizque	2
▁mexicatlahto	2
konihta	2
▁nim	2
[...]
