<unk>	0
<s>	0
</s>	0
▁,	-3.04012
▁de	-3.36264
▁.	-3.47296
s	-3.47956
▁	-3.7054
▁y	-3.77833
▁que	-3.95503
▁a	-3.97704
▁la	-4.03608
▁el	-4.1113
▁se	-4.1318
▁en	-4.13992
▁los	-4.24767
o	-4.32048
n	-4.86474
ó	-4.88677
▁;	-4.96532
1	-5.02009
a	-5.0212
▁no	-5.14406
▁su	-5.16833
▁lo	-5.22324
▁por	-5.24099
▁las	-5.27568
es	-5.2767
▁del	-5.38619
▁con	-5.39187
i	-5.4919
▁para	-5.51917
▁al	-5.58856
▁:	-5.61546
▁un	-5.65255
▁Y	-5.6893
on	-5.77845
▁año	-5.80829
▁es	-5.8346
os	-5.91581
▁ya	-5.93443
▁A	-5.95148
▁como	-5.96138
▁le	-5.97769
▁En	-5.9823
2	-5.99717
▁una	-6.01375
▁años	-6.05153
▁mi	-6.10679
▁San	-6.10777
do	-6.15527
▁este	-6.17117
ron	-6.19387
▁El	-6.20616
▁cuando	-6.20788
▁tierra	-6.22104
e	-6.2293
▁sus	-6.2528
▁señor	-6.2843
0	-6.28691
▁?	-6.29168
¿	-6.2957
as	-6.31157
▁fue	-6.31348
6	-6.31353
3	-6.33168
▁si	-6.34082
4	-6.35602
5	-6.35602
▁don	-6.38118
▁porque	-6.38527
▁donde	-6.43987
▁casa	-6.44325
▁así	-6.4519
▁tu	-6.47133
▁nuestro	-6.48018
▁T	-6.4967
▁[	-6.49995
▁me	-6.50325
an	-6.51821
▁]	-6.52054
▁México	-6.54177
▁ha	-6.55048
ón	-6.5696
▁te	-6.57535
▁allá	-6.59239
▁aquí	-6.60449
▁era	-6.60629
▁también	-6.61371
▁dicho	-6.64708
9	-6.65927
▁luego	-6.66991
tzin	-6.68489
▁Juan	-6.68597
ólo	-6.70632
▁está	-6.71213
▁todos	-6.71294
▁esta	-6.71322
mos	-6.71741
se	-6.72026
que	-6.72496
▁Se	-6.73189
aron	-6.73309
▁les	-6.73652
r	-6.73758
▁o	-6.74545
▁ciudad	-6.75723
▁muy	-6.76561
▁dos	-6.77058
▁fueron	-6.77252
8	-6.78252
ndo	-6.79718
▁había	-6.80233
▁e	-6.80734
▁mexicas	-6.80816
▁(	-6.82511
co	-6.82525
▁todo	-6.84032
▁yo	-6.85961
▁)	-6.86514
▁vez	-6.87034
▁Francisc	-6.87322
▁tlatohuan	-6.87426
7	-6.87469
▁padre	-6.87708
▁bien	-6.88838
▁agua	-6.91159
▁No	-6.91758
▁esto	-6.92962
▁dijo	-6.94676
▁L	-6.95709
▁pero	-6.95963
▁pues	-6.96276
▁s	-6.96324
▁tiene	-6.96404
▁sobre	-6.97211
▁estaba	-6.99045
▁allí	-6.99245
ando	-7.00216
▁nos	-7.00596
en	-7.01479
ción	-7.02363
ieron	-7.03327
▁ahora	-7.03657
▁entonces	-7.04536
▁tiempo	-7.06826
▁quien	-7.06931
▁ellos	-7.07615
▁son	-7.09083
l	-7.09157
“	-7.0917
▁él	-7.09297
mente	-7.10161
▁gente	-7.11586
▁mucho	-7.12369
eron	-7.1456
▁más	-7.14917
▁dicha	-7.16163
é	-7.16406
¡	-7.16534
▁desde	-7.16645
▁ante	-7.16684
▁español	-7.1674
▁toda	-7.17296
▁!	-7.17629
nte	-7.17828
▁”	-7.17896
▁mes	-7.19867
▁día	-7.19978
▁Lo	-7.20175
án	-7.20415
▁muri	-7.22842
▁casas	-7.23437
▁Por	-7.2364
te	-7.24594
▁mismo	-7.24923
c	-7.25137
▁La	-7.25163
▁tres	-7.25581
▁hizo	-7.26042
▁lleg	-7.27015
z	-7.27289
▁habían	-7.27909
▁C	-7.284
y	-7.28588
▁hijos	-7.29381
▁lugar	-7.29518
▁otra	-7.29601
▁Pedro	-7.3043
▁eso	-7.3052
sta	-7.315
▁da	-7.32034
catl	-7.32245
▁nombre	-7.3407
▁hay	-7.35967
▁D	-7.36321
▁Dios	-7.36854
▁nuestra	-7.38161
▁Té	-7.38327
▁hacer	-7.3949
▁E	-7.3969
aban	-7.41691
▁dura	-7.43394
▁llegar	-7.43611
▁llamado	-7.43912
▁iglesia	-7.44015
▁Per	-7.44165
▁hace	-7.44349
▁Miguel	-7.44712
▁alcalde	-7.45778
▁flores	-7.46004
▁después	-7.46521
▁nada	-7.46855
zin	-7.46966
▁señores	-7.4718
▁mis	-7.47447
▁días	-7.47739
▁cual	-7.48156
cpatl	-7.48422
▁peso	-7.48605
ambién	-7.49335
▁sabe	-7.49414
ban	-7.50018
▁qué	-7.50412
▁gobern	-7.50511
▁verdad	-7.51088
amente	-7.51311
ía	-7.51575
á	-7.51606
▁uno	-7.51749
▁hijo	-7.51819
▁S	-7.52584
▁Tenochtitlan	-7.52778
▁va	-7.53243
▁Al	-7.53984
▁sin	-7.54125
í	-7.56579
▁ella	-7.56978
can	-7.57105
ta	-7.57121
▁cuatro	-7.57212
▁Calli	-7.57756
▁t	-7.58119
▁ser	-7.58176
▁nosotros	-7.58207
▁corazón	-7.58551
▁d	-7.59206
emos	-7.59342
▁Dieg	-7.59502
▁otros	-7.60051
▁ni	-7.60276
▁otro	-7.6038
▁Tochtl	-7.60551
▁dios	-7.60931
▁gran	-7.60992
▁mayor	-7.61798
▁tenía	-7.61817
uego	-7.61943
▁Colhuaca	-7.61993
▁llama	-7.62322
▁nadie	-7.62636
▁cómo	-7.63292
▁Ya	-7.63428
▁religioso	-7.64657
lo	-7.6629
▁mí	-7.68495
▁tú	-7.68575
▁junto	-7.69021
▁están	-7.69086
▁eran	-7.69543
▁barrio	-7.69606
ún	-7.69779
▁virrey	-7.6999
▁parte	-7.70238
▁Maria	-7.7069
▁he	-7.70791
▁pueblo	-7.71425
▁chichimeca	-7.71952
sí	-7.72512
▁De	-7.72515
▁madre	-7.73002
-	-7.73123
▁ver	-7.73756
▁España	-7.74123
▁guerra	-7.74156
▁Martin	-7.75565
los	-7.75687
▁hacía	-7.76389
▁Señor	-7.76576
▁mano	-7.76733
▁testigo	-7.76971
▁tlato	-7.77322
▁Es	-7.79893
▁iban	-7.8098
▁Sant	-7.81847
▁cinco	-7.82026
▁P	-7.82147
da	-7.82299
▁ir	-7.82638
▁camino	-7.82927
▁hacia	-7.8303
▁rey	-7.83425
▁Que	-7.84186
▁Marí	-7.84397
▁comer	-7.85389
▁Acatl	-7.85453
▁fra	-7.85531
▁sol	-7.85567
▁vinieron	-7.85583
▁poco	-7.86555
▁Yo	-7.86625
▁entre	-7.87654
▁mil	-7.87879
▁Si	-7.90124
▁venía	-7.90856
▁orden	-7.91266
d	-7.91284
▁decir	-7.91362
▁primero	-7.91487
la	-7.91554
▁Mexic	-7.91614
▁muchos	-7.91616
▁has	-7.91678
▁pone	-7.91983
gún	-7.92553
más	-7.93386
▁vino	-7.93459
amos	-7.93709
▁Pablo	-7.94866
▁justicia	-7.94886
▁mucha	-7.96298
▁pasado	-7.96308
▁Luis	-7.96629
dos	-7.97253
▁mujer	-7.97277
▁Huehue	-7.97389
▁Amaqueme	-7.98102
iendo	-7.98499
▁antiguo	-7.98558
▁llevaba	-7.99173
▁aun	-7.99246
▁fiesta	-7.99614
▁c	-8.00105
▁Este	-8.00587
ado	-8.00638
ían	-8.00677
▁Antoni	-8.00877
▁alguna	-8.01366
▁fuera	-8.01585
▁llamaba	-8.0164
▁dio	-8.01786
▁Le	-8.01873
▁enseñore	-8.02225
▁noche	-8.02241
me	-8.02393
mismo	-8.02434
▁arriba	-8.02778
nes	-8.0283
▁dar	-8.02975
▁tal	-8.02987
▁algunos	-8.03008
▁puede	-8.0309
▁dice	-8.03209
▁asi	-8.03485
▁fuego	-8.03527
▁sali	-8.03594
▁han	-8.03623
▁hija	-8.04178
▁arzobispo	-8.04734
ió	-8.05124
▁tomar	-8.05391
tl	-8.05645
▁gobernador	-8.0594
▁ti	-8.06407
▁soy	-8.0666
▁hecho	-8.06742
ante	-8.06843
▁voy	-8.07123
▁siempre	-8.07155
▁H	-8.07765
▁usted	-8.07909
▁siete	-8.07918
▁Chalc	-8.08274
▁hombres	-8.0848
▁dicen	-8.08527
▁niño	-8.08836
▁llamada	-8.09136
▁Ana	-8.09182
ras	-8.09328
▁todavía	-8.09761
▁Sol	-8.10578
▁hub	-8.11494
▁tlaxilacall	-8.11581
quí	-8.11715
▁veces	-8.11799
▁sal	-8.12303
▁segundo	-8.12792
▁Qué	-8.13199
▁algo	-8.13227
és	-8.14067
▁señora	-8.14468
▁comenz	-8.14812
▁juez	-8.14823
▁ve	-8.14823
▁iba	-8.14882
▁Santo	-8.14909
ación	-8.14992
▁braza	-8.153
▁ese	-8.1548
tli	-8.15653
go	-8.15729
tonces	-8.16269
de	-8.16299
cia	-8.16371
▁partes	-8.16477
▁procesi	-8.16938
▁Cruz	-8.17572
latelolc	-8.17976
▁van	-8.17998
▁viene	-8.1831
cada	-8.18706
ecas	-8.19316
▁maíz	-8.19582
▁tarde	-8.19743
cas	-8.19902
▁m	-8.19977
▁dónde	-8.2025
▁frente	-8.20341
▁pus	-8.20371
▁hombre	-8.21344
▁venido	-8.22746
▁personas	-8.22927
seguida	-8.23036
▁cosas	-8.2304
▁O	-8.23543
▁palabra	-8.23607
▁digo	-8.23652
▁mujeres	-8.24061
▁F	-8.24321
▁teng	-8.24628
▁solo	-8.24803
▁ochenta	-8.24885
▁cuales	-8.25648
▁domingo	-8.25674
▁V	-8.25915
▁escrivano	-8.26455
▁Cuan	-8.26546
▁primera	-8.26708
▁llega	-8.2738
ín	-8.27571
▁Con	-8.27928
▁cosa	-8.27963
▁Hernandez	-8.28048
▁hermano	-8.28421
▁M	-8.28437
▁ocho	-8.29136
▁sí	-8.29322
éste	-8.29604
▁nuevo	-8.30106
▁santo	-8.3013
▁cerro	-8.30252
▁hicieron	-8.30533
▁vida	-8.30609
▁sea	-8.31036
▁escribano	-8.3132
▁cielo	-8.31323
▁grandes	-8.31663
▁mient	-8.31969
▁dias	-8.32334
▁qual	-8.3252
▁dieron	-8.32865
▁persona	-8.33319
▁primer	-8.33428
▁natural	-8.33498
▁quiere	-8.33823
▁grande	-8.34332
▁haga	-8.34542
▁será	-8.34678
▁vecino	-8.34724
al	-8.34798
▁mando	-8.3557
▁dichos	-8.35633
el	-8.35666
▁dejó	-8.3603
▁chalca	-8.36181
▁cuerpo	-8.36416
▁sucedió	-8.3648
▁piedra	-8.36522
▁medio	-8.36535
ones	-8.3686
ba	-8.36994
▁dur	-8.37095
ez	-8.37108
▁forma	-8.37243
le	-8.37827
▁sitio	-8.37886
▁qu	-8.38032
dor	-8.38701
▁seis	-8.38891
▁cabeza	-8.39083
▁ca	-8.39173
▁esposa	-8.39251
▁negro	-8.3927
▁cuanto	-8.4074
espués	-8.4084
▁acá	-8.41233
▁Esto	-8.41259
▁I	-8.41384
▁mañana	-8.418
encia	-8.42011
is	-8.42142
▁siembra	-8.42239
▁nueva	-8.42262
▁come	-8.42927
or	-8.43476
▁muerte	-8.43662
caso	-8.43668
▁templo	-8.43791
nos	-8.44028
▁re	-8.44056
▁Todo	-8.44374
▁pie	-8.44765
ntonces	-8.45115
▁mundo	-8.45982
▁Doming	-8.46001
rás	-8.46234
▁ello	-8.46261
▁quin	-8.46465
▁diez	-8.46556
▁cruz	-8.46773
▁Garc	-8.46865
pan	-8.47033
▁bueno	-8.47329
Chichimecateuctl	-8.47538
▁mand	-8.47559
ientos	-8.47656
▁lado	-8.477
▁manera	-8.47781
las	-8.47958
antes	-8.48398
▁llegado	-8.48572
▁Cua	-8.48613
▁dejar	-8.48771
ahí	-8.48818
▁Xuare	-8.48841
les	-8.48872
▁estuv	-8.4977
ero	-8.49802
▁Para	-8.49867
épec	-8.50148
▁águila	-8.50455
▁Mi	-8.50501
▁traficante	-8.50517
huatl	-8.50639
ido	-8.51469
▁abril	-8.51519
▁llam	-8.51528
▁mayo	-8.52109
▁nombrado	-8.5346
▁volunta	-8.53654
▁haber	-8.53738
▁modo	-8.5377
▁plumas	-8.54309
remos	-8.5435
tin	-8.54474
▁estar	-8.54587
▁caña	-8.54625
▁tanto	-8.55166
▁Cu	-8.55582
li	-8.55595
▁nunca	-8.55618
▁dix	-8.56205
▁Ha	-8.56289
▁presente	-8.56301
▁Tenanc	-8.56386
▁muger	-8.56672
▁p	-8.56909
ar	-8.56945
▁monte	-8.56983
na	-8.57397
▁Huitzil	-8.57402
res	-8.57615
ra	-8.57806
▁Nuestro	-8.57868
▁fin	-8.59137
▁misa	-8.59859
▁vaya	-8.59897
▁Te	-8.59963
▁muerto	-8.60201
▁largo	-8.60286
▁cuenta	-8.6067
▁oro	-8.60711
▁José	-8.61044
▁dinero	-8.61049
er	-8.61115
▁ninguna	-8.61196
▁pusier	-8.61231
ión	-8.61515
▁Santiago	-8.62174
▁llevar	-8.62208
▁comida	-8.62316
▁Agust	-8.62597
▁decía	-8.6276
▁ten	-8.62771
▁tomó	-8.62782
▁lleva	-8.62821
ador	-8.62885
▁Re	-8.6312
▁cargo	-8.63229
▁Nueva	-8.63752
▁habla	-8.63768
lante	-8.63853
▁gobernar	-8.63941
▁vivir	-8.64227
▁Moteuczoma	-8.64458
rse	-8.64744
idad	-8.65038
▁vier	-8.65305
▁eres	-8.6539
▁...	-8.65615
titlan	-8.65724
▁Hay	-8.65738
▁toma	-8.66518
▁mencionado	-8.66539
▁fe	-8.66677
▁llev	-8.66762
ste	-8.66782
▁Azcapotzal	-8.66829
▁sacerdote	-8.67136
▁clase	-8.67265
▁fuerte	-8.67294
▁Ante	-8.67552
▁est	-8.6784
▁Angel	-8.68035
▁cuarto	-8.68061
▁gobierno	-8.68095
sino	-8.68163
▁difunto	-8.6836
▁vamos	-8.68515
▁blanco	-8.68547
▁Ahor	-8.68866
brero	-8.69181
▁venir	-8.69277
▁preciosa	-8.69305
▁puesto	-8.6931
▁obispo	-8.69367
▁causa	-8.6962
▁segund	-8.69919
▁nació	-8.7002
▁final	-8.70159
acaso	-8.70392
▁buena	-8.70405
▁hacen	-8.70427
huitl	-8.70557
▁dijer	-8.70646
▁murieron	-8.70749
▁contra	-8.71098
▁h	-8.71282
embre	-8.71518
▁noble	-8.71687
▁J	-8.72439
▁tuvo	-8.72783
ás	-8.72884
▁principio	-8.72999
▁hoja	-8.7348
chez	-8.73785
rtículo	-8.73833
▁Z	-8.73983
▁asentar	-8.74048
▁Chicom	-8.74359
▁hora	-8.74828
▁morir	-8.75022
▁Esta	-8.75286
▁mío	-8.75361
▁salió	-8.75435
▁llaman	-8.75753
▁Pas	-8.75884
aba	-8.7636
▁di	-8.76391
▁G	-8.76439
no	-8.76547
▁doctor	-8.76799
▁tenochca	-8.76843
▁pregon	-8.76922
▁Pues	-8.77105
▁adonde	-8.77264
▁papel	-8.77383
▁trabajo	-8.77412
io	-8.77516
▁vuestra	-8.77997
▁macehual	-8.78056
▁aquel	-8.78111
▁estas	-8.78158
▁Huitzilopochtl	-8.78181
lco	-8.78314
▁Me	-8.78362
▁podrá	-8.78441
ztoc	-8.78485
▁dije	-8.7853
▁media	-8.78635
dentro	-8.78961
▁azteca	-8.79412
rez	-8.79734
▁com	-8.79901
▁chile	-8.80129
▁saber	-8.80224
ia	-8.80277
▁mar	-8.80509
▁jefe	-8.80733
ales	-8.80797
▁partieron	-8.80939
▁Un	-8.81015
▁vende	-8.81018
▁Tú	-8.81022
▁ancho	-8.81171
▁Aztl	-8.81597
▁hermana	-8.82044
▁Testigo	-8.82108
▁Su	-8.82212
to	-8.82228
▁dan	-8.82363
▁anda	-8.82392
ca	-8.82402
t	-8.825
▁asent	-8.82723
arzo	-8.8286
▁palabras	-8.83017
▁derecho	-8.83275
▁regres	-8.83698
razón	-8.83829
▁quedaron	-8.84089
tepec	-8.84115
▁señal	-8.84279
ciones	-8.84344
▁Cuahuitzat	-8.84907
▁merced	-8.85023
▁habitante	-8.85067
za	-8.85315
▁Mend	-8.85492
▁ésto	-8.86165
▁alguacil	-8.86334
▁sábado	-8.86335
éis	-8.86403
▁Castill	-8.86405
▁quetzal	-8.86424
▁ést	-8.86621
▁principales	-8.86622
▁vive	-8.86658
huacan	-8.86716
▁Atenc	-8.8687
taron	-8.86943
▁haya	-8.86998
▁posesion	-8.87084
▁ofrenda	-8.87275
▁jueve	-8.8783
▁amigos	-8.87928
▁testamento	-8.8794
otolimpan	-8.87979
atl	-8.88198
▁oidor	-8.88291
▁tan	-8.88319
▁dado	-8.88687
llí	-8.88787
▁favor	-8.89038
▁ma	-8.89083
▁lune	-8.89176
oza	-8.89203
▁palacio	-8.89281
▁quién	-8.89337
▁posesi	-8.89342
▁siguiente	-8.89354
ita	-8.89418
▁carne	-8.89443
uando	-8.89495
▁carta	-8.89628
▁f	-8.89693
poco	-8.89956
▁cantos	-8.89968
▁cerca	-8.901
▁septi	-8.90361
▁vuestro	-8.90438
I	-8.90502
▁verde	-8.90602
▁quizá	-8.9075
▁sola	-8.91064
onso	-8.91077
▁buen	-8.91179
▁tlatoan	-8.91406
maquemeca	-8.91618
▁ajo	-8.91839
lan	-8.92249
▁Martín	-8.92265
Tlailotlacteuctl	-8.92305
▁traer	-8.92317
▁governa	-8.92576
▁costa	-8.9276
▁nieto	-8.92771
oña	-8.93068
▁Vi	-8.93252
▁quales	-8.93279
dó	-8.93333
▁enfermedad	-8.93802
ro	-8.93816
▁jade	-8.93856
▁canto	-8.94077
▁establecer	-8.94159
▁visto	-8.94819
▁caballo	-8.94826
▁pena	-8.94967
▁dic	-8.95288
▁Xochimilc	-8.95407
▁mas	-8.95503
▁cebolla	-8.95519
zacualtitlan	-8.95612
▁tlatelolca	-8.95751
▁Lu	-8.95956
ubre	-8.96063
▁tom	-8.96152
▁quería	-8.96314
▁andaba	-8.9642
▁consig	-8.96636
ito	-8.96776
dad	-8.9683
▁Vel	-8.96908
▁Di	-8.96912
udiencia	-8.96975
entos	-8.9721
sión	-8.97535
iembre	-8.97666
▁habría	-8.97836
▁flor	-8.97901
▁nueve	-8.98084
▁entrar	-8.98134
▁co	-8.98432
▁veinte	-8.98453
▁termin	-8.9849
▁marido	-8.98633
▁debe	-8.98638
▁pleito	-8.98708
▁naturale	-8.99203
▁l	-8.99475
▁oct	-8.99483
▁perro	-8.99594
teuctl	-8.9977
asco	-8.99896
miento	-8.99977
▁entr	-9.00222
▁morada	-9.00329
▁poner	-9.00376
ces	-9.00632
▁mejor	-9.01321
▁quier	-9.01348
▁Com	-9.01524
▁Asi	-9.01622
▁N	-9.01687
▁quini	-9.01926
▁mandado	-9.02139
▁pres	-9.02159
▁tam	-9.02563
ani	-9.02663
▁muchacho	-9.02872
▁marqu	-9.0297
▁alto	-9.03001
▁At	-9.03082
▁precio	-9.03097
▁semilla	-9.03388
▁monasterio	-9.03562
▁libro	-9.03598
▁príncipe	-9.03625
▁Cuauh	-9.04002
ú	-9.04203
▁misma	-9.04252
▁mexicanos	-9.04528
▁Balta	-9.04609
▁escudo	-9.04696
▁hongos	-9.04846
jaron	-9.04853
▁mag	-9.05058
▁propiedad	-9.05286
▁declar	-9.05295
▁sesenta	-9.05331
▁agost	-9.0548
▁tercero	-9.05512
▁aquello	-9.05642
▁maestro	-9.05674
▁señorío	-9.05839
▁vio	-9.06597
▁ustedes	-9.06702
ada	-9.06723
▁animal	-9.06839
▁papá	-9.07032
▁lengua	-9.07038
▁firma	-9.0719
▁fruto	-9.07285
▁rojo	-9.07288
▁Nuestra	-9.07313
▁sé	-9.07383
áhua	-9.07535
▁palo	-9.07564
▁ju	-9.08171
respondió	-9.08187
▁igual	-9.08265
▁Jes	-9.08466
▁poder	-9.08529
atro	-9.08815
▁Quién	-9.08821
▁Ximene	-9.08868
▁regidor	-9.09064
▁Aca	-9.0914
▁hab	-9.09199
▁flecha	-9.09274
ús	-9.09319
▁calle	-9.09425
ina	-9.09531
▁trabajar	-9.09744
▁color	-9.09877
oh	-9.10036
▁to	-9.10085
▁matar	-9.1012
llá	-9.10286
▁hará	-9.10343
▁muertos	-9.1042
▁esa	-9.10591
jo	-9.10636
▁rostro	-9.10642
▁Tollan	-9.107
▁ambos	-9.10721
▁general	-9.10853
estad	-9.10959
▁alguno	-9.1113
▁Real	-9.11205
▁mal	-9.11215
▁manta	-9.11242
▁ido	-9.1129
▁árbol	-9.11962
▁Ma	-9.12054
▁conejo	-9.12086
po	-9.12231
▁daba	-9.12318
▁clérigo	-9.1249
▁mamá	-9.125
▁carga	-9.1253
▁viejo	-9.12547
▁cuyo	-9.12574
▁empezó	-9.12632
▁Gas	-9.12748
▁Alta	-9.12771
par	-9.12796
▁escuela	-9.12936
▁enviado	-9.12945
▁obra	-9.13043
▁sacar	-9.13142
▁puerta	-9.13481
pil	-9.13755
ac	-9.13761
▁He	-9.1383
▁deja	-9.13924
▁hemo	-9.14164
▁Tetz	-9.14337
▁Bueno	-9.14526
▁punto	-9.14747
▁Xoco	-9.14839
▁árboles	-9.14926
▁habrá	-9.15115
▁q	-9.15199
▁estado	-9.15327
▁ven	-9.15534
▁mur	-9.1625
▁pequeño	-9.16251
▁Bautista	-9.16301
▁patio	-9.16305
▁Estado	-9.16378
▁madera	-9.16417
coco	-9.16418
▁sale	-9.1643
edad	-9.1651
▁cautivo	-9.16531
▁presen	-9.16684
▁oficio	-9.16724
▁encontrar	-9.16827
▁quinto	-9.17019
▁acerca	-9.17228
mo	-9.17498
▁ning	-9.17784
huatzin	-9.178
erónim	-9.17936
▁colhua	-9.18072
▁esos	-9.1812
so	-9.18211
▁aqui	-9.1827
▁menor	-9.18331
▁mercado	-9.18371
▁muchacha	-9.18459
▁juli	-9.18525
acatzin	-9.18587
▁amigo	-9.18778
▁jun	-9.1891
▁menos	-9.18918
▁Có	-9.19029
▁ley	-9.1903
▁estoy	-9.19094
▁querido	-9.19139
rá	-9.19311
▁aposento	-9.19498
▁v	-9.19794
eque	-9.19993
▁comprar	-9.20073
▁carrancista	-9.20262
▁pregonero	-9.20324
bal	-9.20475
▁aquella	-9.2069
▁cierto	-9.20695
ados	-9.20708
▁echa	-9.20756
▁frío	-9.20797
h	-9.208
ónde	-9.20887
era	-9.21032
oy	-9.2107
▁real	-9.21193
▁milpa	-9.21231
▁tortillas	-9.21233
ego	-9.21692
▁hierve	-9.2178
▁parece	-9.21959
altzin	-9.22022
▁diga	-9.22104
▁b	-9.2226
▁noticia	-9.22299
▁Acamapichtl	-9.22305
▁licenciado	-9.22534
cxoteca	-9.22903
oles	-9.23422
▁caso	-9.23861
ten	-9.24057
▁traj	-9.24204
▁imagen	-9.24381
▁Ud	-9.24397
▁diablo	-9.24448
▁tlahto	-9.2445
▁gusta	-9.24486
▁lejos	-9.24518
▁vosotr	-9.24666
ocan	-9.24722
▁Don	-9.249
▁tendrá	-9.24924
▁vi	-9.25355
érc	-9.254
▁podía	-9.2542
rán	-9.25567
▁corta	-9.25753
▁abuelo	-9.25812
▁pasa	-9.26179
▁mexi	-9.26471
▁Padre	-9.26509
▁cuauhtlato	-9.26512
▁presidente	-9.26543
▁zapatista	-9.26561
▁doce	-9.26597
▁Sebastian	-9.26703
ecuanipan	-9.27081
venta	-9.27121
▁pasó	-9.27147
▁abajo	-9.27512
u	-9.27557
stad	-9.27917
▁hablar	-9.27924
▁present	-9.27991
▁cre	-9.28049
▁vieron	-9.28089
nado	-9.28333
▁Fue	-9.28531
quiera	-9.2861
▁esté	-9.28628
▁ocelote	-9.28683
▁collar	-9.28684
▁autoridad	-9.28686
▁pes	-9.28847
▁varios	-9.28895
medio	-9.29228
▁leña	-9.29539
▁pasar	-9.30046
zar	-9.30082
ines	-9.30278
▁man	-9.30571
▁monja	-9.30834
▁camellon	-9.31088
▁propia	-9.31096
▁planta	-9.31203
▁mira	-9.31276
▁algui	-9.31359
▁gracias	-9.31369
▁sup	-9.31852
▁enfermo	-9.32029
claro	-9.32141
▁boca	-9.32414
▁conocer	-9.32682
▁pu	-9.33015
▁nomás	-9.33017
▁lluvia	-9.33182
▁Tlaco	-9.33201
▁momento	-9.33263
▁blanca	-9.33273
▁caliente	-9.33329
▁único	-9.33633
▁nacido	-9.33696
▁verdadero	-9.34118
▁marcha	-9.34379
iano	-9.34579
▁brota	-9.34716
▁Maldo	-9.34798
▁pájaro	-9.355
▁centavo	-9.35502
▁bosque	-9.35503
▁reverendo	-9.35517
▁estrella	-9.35518
▁fuimos	-9.35567
tlaca	-9.35652
▁capit	-9.35687
▁recibi	-9.35714
▁ánima	-9.3574
▁comenzar	-9.35778
▁habló	-9.35941
▁comienza	-9.36089
▁venta	-9.36203
▁juntos	-9.36712
▁Está	-9.36973
▁tercera	-9.37042
▁escrito	-9.37063
▁haciend	-9.37068
▁hijas	-9.37187
▁orient	-9.37191
▁hubiera	-9.37193
ya	-9.37265
▁muele	-9.37653
▁Sebasti	-9.37667
ga	-9.37876
▁pedernal	-9.37883
▁camisa	-9.37912
▁Hernando	-9.37969
▁preguntado	-9.38129
▁campo	-9.38165
▁Una	-9.38357
▁mage	-9.38367
▁isla	-9.38385
apan	-9.38587
ran	-9.38626
ntes	-9.38664
▁poblado	-9.38735
▁ponien	-9.38903
▁Itz	-9.3891
▁somo	-9.38973
guien	-9.39094
▁Tlil	-9.39175
▁Flore	-9.3945
▁pereci	-9.39977
▁ésta	-9.39981
▁llevado	-9.402
▁parti	-9.4022
▁Nos	-9.40248
▁Crist	-9.40254
▁Geronim	-9.4032
▁interior	-9.40336
▁lava	-9.40362
▁sabía	-9.40419
▁ribera	-9.40444
▁entrada	-9.40525
▁ayuda	-9.40645
▁kilo	-9.40671
▁ropa	-9.40887
▁tío	-9.40973
▁pintado	-9.41026
▁cuidado	-9.41176
▁III	-9.41383
▁baja	-9.41452
.	-9.41472
▁tener	-9.41508
▁in	-9.41635
doy	-9.41905
▁frijol	-9.41996
val	-9.42129
▁seguía	-9.42187
▁comen	-9.42399
altar	-9.42613
▁Cortés	-9.42823
▁campana	-9.42837
▁Tierra	-9.42857
▁cayó	-9.43044
▁apenas	-9.43059
▁veía	-9.4314
lla	-9.43161
▁llamar	-9.43171
lli	-9.43216
▁llevan	-9.43247
▁vendrá	-9.43446
▁vano	-9.43497
▁conoce	-9.43616
▁pa	-9.43648
▁Fe	-9.43727
huayan	-9.43849
▁pies	-9.43855
▁mie	-9.43862
▁levant	-9.44009
ramento	-9.44032
▁casi	-9.44063
▁Mate	-9.44096
ómo	-9.44103
▁mart	-9.44109
▁Axay	-9.44265
▁salud	-9.44431
capan	-9.44556
▁estuvier	-9.44643
▁Sí	-9.44887
▁cocer	-9.44965
▁principal	-9.44989
▁do	-9.45187
itl	-9.45313
▁Chapoltépe	-9.45575
▁Ah	-9.45697
▁siendo	-9.45726
▁Eso	-9.45991
▁bandera	-9.46035
▁tercer	-9.46047
▁X	-9.46137
▁estará	-9.46146
tlan	-9.46216
▁pariente	-9.46692
▁cumpl	-9.4677
tes	-9.46819
cima	-9.46936
iento	-9.47183
▁falta	-9.47231
▁sacerdotes	-9.47258
▁queda	-9.47394
▁ponía	-9.47675
renz	-9.47704
▁vieja	-9.47731
▁dará	-9.47785
ré	-9.47972
▁epazote	-9.48017
▁Huexotzin	-9.48088
▁cacao	-9.48134
▁orilla	-9.48166
▁vas	-9.48177
▁mu	-9.4823
▁suplico	-9.48232
▁hambre	-9.48242
▁levantar	-9.48294
▁vendían	-9.48347
▁halla	-9.484
▁sexto	-9.48429
▁pulqu	-9.48613
▁pequeña	-9.48698
pública	-9.48915
▁escuchar	-9.49386
▁perecier	-9.49397
rió	-9.49406
▁corte	-9.49565
▁Joa	-9.49624
▁To	-9.49688
tzinco	-9.49822
rían	-9.49915
▁necesita	-9.5005
▁niñito	-9.50271
zo	-9.5034
ce	-9.50449
▁sigue	-9.50601
▁tenga	-9.50663
▁suya	-9.50686
▁Nadie	-9.50712
▁título	-9.50716
▁izquierd	-9.50718
▁Tziuhtlacauhqu	-9.50719
▁manteca	-9.5081
▁venimos	-9.50829
lalmanalc	-9.50997
▁sirve	-9.51012
▁cal	-9.51109
decían	-9.51139
▁vey	-9.5114
▁pluma	-9.51396
▁rumbo	-9.514
huac	-9.51436
in	-9.51677
▁hiciera	-9.51863
▁Compañ	-9.52107
▁adelant	-9.5216
▁dirá	-9.52261
▁dé	-9.52295
▁cualquier	-9.5262
ábamos	-9.53001
▁asentado	-9.53103
endo	-9.53154
▁Algun	-9.53173
▁difunt	-9.53455
▁serpiente	-9.53494
▁alegría	-9.53625
▁Coyo	-9.53806
mitad	-9.53933
▁cueva	-9.5399
▁Santísim	-9.54087
▁Dueñ	-9.54209
▁santa	-9.54227
▁empieza	-9.54283
▁Guerr	-9.54317
▁vuelta	-9.54377
▁hongo	-9.54379
▁limpia	-9.54396
sido	-9.54703
gora	-9.54905
▁Ja	-9.54911
▁Co	-9.55338
▁Valer	-9.55362
tienen	-9.55489
▁trae	-9.55657
ojos	-9.55877
én	-9.55915
▁bienes	-9.55931
luz	-9.56184
▁termina	-9.56275
▁divina	-9.5639
▁Segund	-9.56394
▁llanto	-9.56421
▁haz	-9.56471
mitl	-9.56556
▁sepultado	-9.56779
▁taba	-9.56831
▁señorial	-9.56934
▁China	-9.57043
▁Tal	-9.57067
▁anciana	-9.57087
▁triste	-9.57153
▁Popocat	-9.57237
▁antigu	-9.57263
▁escuch	-9.57292
▁my	-9.57295
▁Ella	-9.57325
▁suelo	-9.57339
▁salier	-9.57345
▁tras	-9.57494
▁turquesa	-9.57641
tecatzin	-9.57792
ura	-9.57883
ino	-9.57955
▁seguida	-9.58127
▁labio	-9.58436
▁vender	-9.58478
▁pro	-9.58711
▁quieren	-9.58757
atzin	-9.58862
▁encuentra	-9.58898
▁nombran	-9.59068
▁celebrar	-9.59083
arse	-9.59104
▁joven	-9.59233
▁espalda	-9.59289
▁calpul	-9.5929
▁tolteca	-9.59296
yotl	-9.59309
▁pudiera	-9.59386
▁entender	-9.59416
▁Axayaca	-9.59476
▁necesario	-9.59617
▁tomi	-9.59671
▁ave	-9.5979
▁demanda	-9.6002
▁susodicho	-9.60089
rio	-9.60242
▁entierr	-9.60366
▁espiritual	-9.60557
▁viento	-9.60617
▁florea	-9.60674
▁tomado	-9.60732
▁verá	-9.60771
llos	-9.60858
lena	-9.61564
▁cas	-9.61636
▁terminar	-9.6164
▁emper	-9.61674
tenta	-9.61698
va	-9.61742
▁Ahuitzot	-9.61745
tonal	-9.61763
enes	-9.6195
itos	-9.61968
órd	-9.62087
▁Col	-9.62264
▁albacea	-9.62318
▁país	-9.62326
▁sacrificio	-9.62341
▁revestido	-9.62449
▁pared	-9.6257
xó	-9.62815
▁pecho	-9.62824
▁sangre	-9.6296
▁nombra	-9.62961
▁acuerdo	-9.62982
▁frijoles	-9.62983
pez	-9.63025
▁sac	-9.63071
alá	-9.63288
▁canoa	-9.63344
▁dueño	-9.63448
▁manda	-9.63832
▁cuya	-9.63869
noch	-9.64043
▁nuev	-9.64057
▁Jacob	-9.64299
▁beber	-9.64352
▁Jo	-9.64433
das	-9.64435
▁terreno	-9.64523
pa	-9.64578
▁aya	-9.64626
▁traía	-9.64912
▁cantor	-9.64915
iremos	-9.64979
▁licencia	-9.65089
▁xochimilca	-9.65152
▁propio	-9.65235
▁rama	-9.6544
▁Joven	-9.65443
▁Jesucristo	-9.65445
▁Anton	-9.65493
▁regresar	-9.65825
▁regresa	-9.66038
huexotl	-9.66068
▁pan	-9.66126
▁Bartolom	-9.66351
▁quedado	-9.66402
osotros	-9.6648
v	-9.66606
xo	-9.66609
▁viven	-9.66935
▁Chichimeca	-9.67017
ubo	-9.67115
ña	-9.672
ándose	-9.67344
▁cantar	-9.67344
▁po	-9.67625
residente	-9.67629
moc	-9.67824
j	-9.68331
▁pong	-9.68344
▁fund	-9.68352
sar	-9.68401
▁japon	-9.68666
▁Coxcoxtl	-9.68668
▁Teohuateuctl	-9.68671
▁cofradía	-9.68704
▁mensajero	-9.68814
▁quiso	-9.6884
▁hacerlo	-9.68933
scal	-9.68983
▁tepanecas	-9.69184
▁pagar	-9.6921
tor	-9.69216
▁derrotad	-9.69297
▁Tia	-9.6946
▁calzada	-9.69529
▁tlatocapi	-9.69561
▁Tiene	-9.69611
▁roja	-9.6962
▁acaba	-9.69772
▁recibir	-9.69902
▁salía	-9.70171
▁abri	-9.70372
▁quieres	-9.70382
▁ciento	-9.70407
lí	-9.70518
ray	-9.70633
▁pose	-9.7082
▁soldado	-9.71054
▁cristiano	-9.71158
▁Leon	-9.71273
▁inmediat	-9.71436
▁compañero	-9.71591
htli	-9.71832
náhua	-9.71852
▁teomama	-9.72
▁disposici	-9.72001
▁inquisidor	-9.72002
▁tlaxcalteca	-9.72002
▁Cuacuauhpitz	-9.72002
▁Toteociteuctl	-9.72004
▁Cuepopa	-9.72005
▁servicio	-9.72118
▁región	-9.72124
▁Roma	-9.72162
▁anterior	-9.72163
▁semana	-9.72241
▁lados	-9.7237
ete	-9.72457
▁pali	-9.72471
chitl	-9.72472
▁suyo	-9.72502
▁andan	-9.72538
▁entendido	-9.72719
▁yndio	-9.72813
▁mexica	-9.72887
▁esclavo	-9.72902
paz	-9.73074
▁estén	-9.73094
ate	-9.73177
▁cab	-9.73388
▁Andr	-9.7345
dez	-9.73459
pón	-9.73509
▁capa	-9.73777
▁quedar	-9.73785
▁Sa	-9.73814
cho	-9.73889
▁levanta	-9.73912
▁Ant	-9.74032
▁precioso	-9.74064
▁cuart	-9.74066
▁Tla	-9.74124
▁Nuev	-9.7415
▁celebr	-9.74278
▁Otro	-9.74368
spués	-9.7464
▁cabi	-9.7478
ma	-9.75047
▁Mar	-9.75072
▁florida	-9.75119
▁B	-9.75175
riano	-9.75341
▁Lun	-9.75418
▁Congreso	-9.75448
▁comendador	-9.7545
▁Maxtlat	-9.75451
▁pronto	-9.75521
▁suerte	-9.75528
▁falda	-9.75577
▁pusie	-9.75618
▁tributo	-9.75785
▁mía	-9.75843
▁gusto	-9.75882
▁agrega	-9.75896
▁gobernaba	-9.75917
▁cara	-9.76058
tos	-9.76096
▁pas	-9.76145
▁cumpli	-9.76345
▁vengan	-9.76354
▁fina	-9.76415
▁bajo	-9.76451
▁fui	-9.76503
iga	-9.76554
▁march	-9.76581
▁tallo	-9.766
▁Sal	-9.76647
it	-9.76671
▁fi	-9.76677
▁pued	-9.7668
▁tenanc	-9.76692
▁Cuánto	-9.76713
▁presentar	-9.76803
imos	-9.76863
▁alegra	-9.76881
▁pedazo	-9.76912
▁abuela	-9.76913
▁hoy	-9.76925
▁apareció	-9.76971
▁venado	-9.77115
▁Sus	-9.77186
▁venga	-9.77259
▁masa	-9.77367
ardo	-9.77573
mi	-9.77629
lauhtecatlteuctl	-9.77652
▁Malin	-9.77668
▁ocurr	-9.77668
▁Chalchiuhmomoz	-9.77737
▁pobre	-9.77825
▁Otra	-9.77888
▁nombr	-9.77971
▁tuvier	-9.78022
m	-9.78339
▁Termin	-9.7853
▁rico	-9.78697
▁vivía	-9.7877
▁bajar	-9.78784
ario	-9.78785
dizque	-9.78814
▁Melch	-9.78995
▁paso	-9.78998
▁tarea	-9.79
▁número	-9.79016
▁cuaresma	-9.79018
▁chinampa	-9.79029
▁alrededor	-9.79037
▁tristeza	-9.79038
▁Junto	-9.79043
▁Quine	-9.79054
▁honor	-9.79099
▁amanecer	-9.79166
auhtli	-9.79191
▁tamales	-9.79206
▁Yaotl	-9.79265
▁dispus	-9.79269
▁amarillo	-9.79272
▁mata	-9.79361
▁tlalmantl	-9.79548
▁aver	-9.79653
imiento	-9.79734
▁enferma	-9.79786
▁recuerd	-9.79793
ir	-9.79921
▁reino	-9.79971
▁pregunt	-9.80017
épet	-9.80067
▁total	-9.80165
calco	-9.80207
▁guarda	-9.80228
▁dij	-9.80287
▁vendedor	-9.80363
parte	-9.80396
catzin	-9.80573
▁busca	-9.80622
▁ancianos	-9.80626
▁verlo	-9.80956
▁na	-9.80987
▁zapat	-9.81054
errito	-9.81107
▁territori	-9.81201
▁comprador	-9.81496
lcatl	-9.81636
▁quiene	-9.8164
▁enter	-9.82056
ipe	-9.82186
x	-9.82358
ch	-9.82505
▁fruta	-9.82643
▁Isabel	-9.82714
▁escritura	-9.82725
ólito	-9.82769
▁asunto	-9.82774
▁Huehueteuctl	-9.82779
▁proces	-9.82792
▁bastante	-9.82793
▁pudieron	-9.82872
▁náhuatl	-9.82903
▁audiencia	-9.8292
▁acabó	-9.8297
▁signo	-9.82992
▁tigre	-9.83011
az	-9.83079
▁Marqu	-9.83121
▁aviendo	-9.83125
▁echar	-9.83195
▁cazuela	-9.83217
acramento	-9.8332
▁Marin	-9.83334
eras	-9.83458
ldo	-9.8352
▁gobernado	-9.8361
cio	-9.83617
arás	-9.83742
▁encuentro	-9.83781
▁cortan	-9.83897
▁río	-9.84004
▁honra	-9.84062
▁cortar	-9.84131
▁ade	-9.84135
▁so	-9.84195
valor	-9.84329
alco	-9.84466
ecatzin	-9.84503
▁mexicano	-9.84561
▁tra	-9.84633
▁contento	-9.84961
▁sustent	-9.85004
▁olla	-9.85167
▁corresponde	-9.85177
▁pon	-9.85235
tas	-9.85242
▁pertenece	-9.85306
▁comi	-9.85327
▁míos	-9.85378
▁erigi	-9.85444
▁Pe	-9.85538
▁Xochi	-9.85582
▁haré	-9.85633
▁per	-9.86051
▁poquit	-9.86119
▁Uni	-9.86182
ponen	-9.86472
▁quisiere	-9.86541
▁Des	-9.86545
▁cáscara	-9.86545
▁necesidad	-9.86546
úñ	-9.86548
▁tempran	-9.8655
▁Guadal	-9.8656
▁arma	-9.86582
▁Chalma	-9.86585
▁Tlatilu	-9.86601
cción	-9.86604
▁Za	-9.86676
▁plaza	-9.8671
▁habl	-9.86739
▁yerno	-9.86931
▁diversos	-9.86967
▁descalzo	-9.8706
ría	-9.87078
▁podría	-9.87088
▁Era	-9.871
▁florido	-9.87247
▁Pé	-9.87258
dió	-9.87364
guna	-9.8739
▁Madre	-9.87423
▁vista	-9.8759
itlan	-9.87647
▁sabroso	-9.87805
quez	-9.8783
▁tr	-9.87883
lina	-9.87921
ópol	-9.88038
illo	-9.88108
▁entra	-9.88128
▁pens	-9.8813
▁establecier	-9.88196
volu	-9.88364
damos	-9.88488
▁agarra	-9.88514
▁venden	-9.88679
▁teocall	-9.88736
▁hag	-9.88878
▁Ve	-9.88934
▁naci	-9.89124
▁tome	-9.89457
ilpa	-9.89635
▁mandar	-9.89732
▁volvi	-9.89781
▁Fern	-9.89826
stos	-9.89922
▁hablaba	-9.90081
▁camin	-9.9019
▁Aqu	-9.90229
▁seguir	-9.90401
▁Cámara	-9.90545
▁término	-9.90545
▁Joseph	-9.90564
▁grupo	-9.9057
▁penitencia	-9.9057
▁Gerónim	-9.9057
▁ciertamente	-9.90588
▁crece	-9.90607
bispo	-9.9062
▁II	-9.90666
▁escucha	-9.90715
inos	-9.90716
▁trabajan	-9.90723
▁ayate	-9.90824
▁Cada	-9.90973
▁Uno	-9.90976
▁huye	-9.9124
▁Acolnahu	-9.91371
▁Agua	-9.91374
▁séptimo	-9.91411
▁Casa	-9.91588
▁sabios	-9.91667
▁Primer	-9.91704
▁guardi	-9.91715
▁refiere	-9.9177
▁u	-9.91932
▁dicie	-9.92084
▁DE	-9.92128
▁estuviera	-9.92181
▁var	-9.92195
▁antigua	-9.9229
▁Mo	-9.92355
▁tía	-9.92425
▁ama	-9.92513
▁hallaba	-9.92998
▁Va	-9.93148
▁darle	-9.9339
▁trabajos	-9.93433
altitlan	-9.93605
▁elote	-9.93658
▁caer	-9.93696
▁andar	-9.93746
cpac	-9.93859
▁llor	-9.93902
▁Chalchiuhtlat	-9.93955
▁guardian	-9.93974
▁Hu	-9.93997
▁origina	-9.9401
pareció	-9.94105
▁conform	-9.943
▁Quizá	-9.94712
▁aquél	-9.94855
residencia	-9.94903
▁encomiend	-9.94989
▁abandon	-9.94999
bo	-9.95024
▁Ten	-9.95076
▁corona	-9.95098
▁ocurri	-9.95119
▁viaje	-9.95123
▁Quetzalcó	-9.95143
ad	-9.95165
▁buscar	-9.95191
▁pueda	-9.95201
▁pod	-9.95204
sabel	-9.95214
▁caudillo	-9.95224
▁octavo	-9.95231
▁estás	-9.95286
▁llora	-9.95307
▁cerr	-9.95324
▁abad	-9.9541
▁comerciante	-9.95447
▁solicit	-9.95497
▁especial	-9.95562
sotros	-9.95735
▁ninguno	-9.95753
▁ansi	-9.95788
▁traían	-9.9579
▁efecto	-9.95838
▁nieta	-9.96063
▁Mucho	-9.96158
qui	-9.9618
▁provis	-9.96213
▁As	-9.96459
▁último	-9.96496
▁sembrar	-9.96769
ente	-9.96879
L	-9.96899
▁anduvier	-9.96926
▁an	-9.96945
▁tortilla	-9.9696
▁Hace	-9.9701
▁compra	-9.97138
han	-9.97172
▁cocol	-9.9734
▁Tzompa	-9.97475
▁Moy	-9.9753
▁enojo	-9.97641
▁Topil	-9.97662
▁quitar	-9.97744
▁pe	-9.97839
▁irá	-9.97903
▁pre	-9.98057
▁lavar	-9.98102
▁sentencia	-9.98139
▁Lleg	-9.98166
ejo	-9.98274
▁quiera	-9.98453
▁tla	-9.98576
▁Cuauhc	-9.98613
vieron	-9.98655
uitzin	-9.98717
yan	-9.98844
lotzin	-9.9895
▁Concepci	-9.99059
▁cascabel	-9.99059
▁Guzm	-9.99059
▁huexotzinca	-9.99059
▁albarrad	-9.9906
▁criollo	-9.9906
▁Iglesia	-9.9906
▁Nicol	-9.99061
▁placer	-9.99075
▁Mocel	-9.99082
▁enemigo	-9.991
▁quince	-9.99101
▁Hernán	-9.99119
▁mandato	-9.9917
▁Nada	-9.99174
▁acequia	-9.99184
▁maguey	-9.99273
ospital	-9.99282
▁posible	-9.99287
▁Ecatzin	-9.99336
▁humo	-9.99409
mbre	-9.99473
ynte	-9.99498
▁encontr	-9.99505
▁tenido	-9.99511
▁goberna	-9.99527
▁Toda	-9.99585
▁Capit	-9.99604
▁canal	-9.9963
maron	-9.99697
▁grit	-9.99706
▁saludar	-9.99732
▁hermosa	-9.99789
▁recto	-9.99857
▁ba	-9.99947
tró	-10.0012
▁barranca	-10.0015
dónde	-10.0021
▁federal	-10.0023
▁avia	-10.0034
▁Tlacopan	-10.0035
▁dispuesto	-10.0051
▁Gran	-10.0052
once	-10.0059
eses	-10.0067
▁viendo	-10.0067
▁bautiz	-10.0069
▁descend	-10.0072
▁Pa	-10.0072
▁público	-10.0075
▁R	-10.0086
▁calma	-10.0093
uatro	-10.0094
▁alma	-10.0095
▁pris	-10.0118
tus	-10.0127
▁Ato	-10.0145
▁golpe	-10.0162
gloria	-10.0175
▁Había	-10.0189
▁cár	-10.019
▁Ay	-10.0194
▁Tu	-10.0201
▁Buen	-10.0201
▁dando	-10.0209
vió	-10.0215
▁Tiza	-10.0216
▁Cuetlax	-10.0217
▁comenza	-10.0224
▁compr	-10.0225
▁Bartolome	-10.0229
▁deseo	-10.0239
▁ordinario	-10.0255
ára	-10.0256
alan	-10.0268
▁divers	-10.0269
ecec	-10.027
▁U	-10.0276
▁nopal	-10.029
adas	-10.0297
▁llorar	-10.0304
▁Aqui	-10.0305
▁Tam	-10.0307
nta	-10.0307
panecas	-10.0316
▁hu	-10.0318
yotzin	-10.032
▁sacrificado	-10.0337
▁ayude	-10.0337
▁mensaje	-10.034
▁tod	-10.0347
▁magnifico	-10.036
▁Zapat	-10.0361
▁hábito	-10.0361
irás	-10.0361
▁mat	-10.0366
▁viviendo	-10.0366
▁casilla	-10.0367
▁veras	-10.0368
▁cuello	-10.0368
▁Contr	-10.038
▁raí	-10.0381
▁oscur	-10.0383
▁Bal	-10.0388
▁Dicen	-10.0389
▁vestido	-10.039
▁llovi	-10.0392
▁Hip	-10.0405
▁alta	-10.0407
▁nubes	-10.0407
▁xocht	-10.0427
cían	-10.0436
▁Totolt	-10.0442
▁hierba	-10.0443
▁iré	-10.0448
ntras	-10.0454
▁Dij	-10.0457
▁meter	-10.0465
▁edific	-10.0469
▁casado	-10.0471
▁trata	-10.0484
▁artículo	-10.0485
▁at	-10.0486
bre	-10.0486
▁Cer	-10.0487
▁ordenado	-10.0487
▁servidor	-10.0508
▁reunier	-10.0512
temoc	-10.0518
cel	-10.0522
▁Cata	-10.0538
▁nace	-10.0561
avel	-10.0562
▁quita	-10.0567
▁bi	-10.0572
▁Tlaca	-10.0578
▁estera	-10.058
▁yerba	-10.0591
▁llena	-10.0603
ranscurrido	-10.0628
▁pud	-10.0636
▁Cuitlat	-10.0641
▁noven	-10.0648
▁Carlo	-10.0649
erna	-10.0664
▁dia	-10.0667
▁quelite	-10.0674
▁Itzco	-10.0675
▁lleve	-10.068
▁Maza	-10.0681
▁Senado	-10.0693
▁solar	-10.0698
▁dejado	-10.0712
odavía	-10.0759
▁Cuetz	-10.0776
zatzin	-10.0785
▁cola	-10.0789
▁dello	-10.0802
▁espera	-10.0811
zaro	-10.0818
▁vin	-10.0828
▁Tlilt	-10.0831
ztlan	-10.0833
▁alguazil	-10.0837
▁jitomate	-10.0837
▁mazorca	-10.0837
▁inciens	-10.0837
▁navío	-10.0837
▁teotenanc	-10.0837
▁Constitución	-10.0837
▁vivimos	-10.0839
▁tlacochcalca	-10.0839
ara	-10.0843
▁razon	-10.0849
ollan	-10.0852
▁esquina	-10.0857
▁buscando	-10.0861
▁Ayocuan	-10.0861
▁Hasta	-10.087
▁niebla	-10.0871
ngel	-10.0871
▁predic	-10.0872
▁Est	-10.0875
▁fuerza	-10.0883
▁gana	-10.0899
▁Ca	-10.0902
▁saca	-10.0904
▁camote	-10.0908
▁primeramente	-10.0915
▁arroj	-10.0918
▁semillas	-10.0944
▁provincial	-10.0946
▁extiende	-10.096
▁volver	-10.0962
▁vivo	-10.0974
itzin	-10.0975
▁sueño	-10.0976
▁bonito	-10.0993
bajo	-10.0998
▁pr	-10.1004
▁oreja	-10.1007
▁Mart	-10.1012
▁viniera	-10.1022
lip	-10.1032
▁Tepe	-10.1034
▁aire	-10.1035
▁perecer	-10.1036
▁os	-10.1046
▁Cuitl	-10.1049
▁toca	-10.1055
téotl	-10.1057
▁part	-10.1072
▁empezar	-10.109
ntro	-10.1096
▁teo	-10.1112
▁pos	-10.1112
▁bailar	-10.1114
▁certificar	-10.1114
▁Rodrig	-10.1124
▁administra	-10.1132
tztlacozauhca	-10.1142
▁nac	-10.1143
qué	-10.1144
▁anciano	-10.115
▁espina	-10.1157
▁Na	-10.1166
▁vayas	-10.1182
tras	-10.1185
▁Tlacateot	-10.1194
anos	-10.1207
▁Duran	-10.1213
iablo	-10.1216
▁Ju	-10.1244
▁Mich	-10.1253
▁be	-10.1255
▁Acolhua	-10.1269
reinta	-10.1275
▁So	-10.1276
▁bañado	-10.1277
▁llegaba	-10.1284
▁mill	-10.1301
▁entera	-10.1302
▁Quetzalma	-10.131
▁norte	-10.1311
▁venda	-10.1316
asta	-10.1318
▁inund	-10.1328
▁pleyto	-10.1337
▁Toribi	-10.1337
▁Chimalpopoca	-10.1337
▁teuctlato	-10.1337
▁Tizoc	-10.1337
▁cafetal	-10.1337
▁jardín	-10.1337
▁anochecer	-10.1338
▁cuarenta	-10.1341
▁mandamiento	-10.1344
▁coche	-10.1348
▁lindero	-10.1356
▁Zacatla	-10.1357
▁traslad	-10.136
▁construir	-10.1368
▁All	-10.1371
▁bajó	-10.1375
▁estaca	-10.1384
▁conquist	-10.1384
▁Fech	-10.1386
▁caja	-10.1386
▁saldrá	-10.1396
spíritu	-10.14
▁contar	-10.1407
▁cuidar	-10.1426
▁firmaron	-10.1427
▁pertenecía	-10.1442
▁fecha	-10.1445
▁baño	-10.1445
▁situada	-10.1447
ál	-10.145
▁Xocóyo	-10.1456
▁pedir	-10.146
▁corazon	-10.1466
▁castigado	-10.1473
▁caiga	-10.1481
▁Tezozomoc	-10.1519
▁Vin	-10.1542
atlteuctl	-10.1547
▁estan	-10.1549
▁solicitar	-10.1557
atzacualc	-10.156
▁cabello	-10.156
mas	-10.1561
▁cuece	-10.1563
▁varia	-10.1572
▁perdi	-10.1574
▁bella	-10.1575
▁vezino	-10.1576
▁abr	-10.1577
fama	-10.159
▁llevaro	-10.1594
▁refugiar	-10.1598
▁dej	-10.16
▁Mag	-10.1609
migo	-10.161
ay	-10.1614
ti	-10.1622
▁Tenía	-10.1632
▁arc	-10.1636
ue	-10.164
pilla	-10.1642
▁trasladar	-10.1664
▁encontraba	-10.17
▁esper	-10.1704
ros	-10.1707
▁impus	-10.1711
▁preocupa	-10.1718
▁relaci	-10.1737
▁Día	-10.1743
▁provincia	-10.1743
▁gobierna	-10.1744
▁Itzc	-10.1746
njo	-10.1746
▁caf	-10.1768
ida	-10.177
▁Teocal	-10.1772
aca	-10.1774
▁alimento	-10.1784
▁fiera	-10.18
▁cosecha	-10.1807
▁canta	-10.181
▁oj	-10.181
▁esperar	-10.1815
▁tapa	-10.1821
▁religios	-10.1824
poca	-10.1826
▁partir	-10.1833
▁oy	-10.1845
▁perder	-10.1854
vel	-10.1856
▁Luca	-10.1862
tura	-10.1862
▁leónportilla	-10.1863
▁peregrin	-10.1863
▁bezote	-10.1863
▁Ilhuicamina	-10.1863
▁ejemplo	-10.1863
▁tlacatéc	-10.1864
▁gallina	-10.1864
▁Muñ	-10.1864
▁Huexotla	-10.1865
▁pensamiento	-10.1866
▁treynt	-10.1867
▁chilpo	-10.1868
▁ejote	-10.187
▁querer	-10.1871
▁piens	-10.1877
▁Oj	-10.188
▁Cohuatlic	-10.1883
icatzin	-10.1885
▁jura	-10.1895
▁conde	-10.19
ltzin	-10.1903
▁conozc	-10.1905
▁preguntaron	-10.191
▁decimo	-10.1912
▁Mexica	-10.1926
▁sujeto	-10.1927
▁nopales	-10.193
▁nacional	-10.1932
cohua	-10.1938
▁junta	-10.1947
▁Ba	-10.1949
▁cocina	-10.1954
▁tranquili	-10.1967
zonte	-10.1977
▁establecido	-10.1995
▁daño	-10.1996
▁quanto	-10.1998
▁parecía	-10.2
cohuatzin	-10.2009
▁Mucha	-10.2014
▁cultura	-10.2014
▁limpiar	-10.2014
▁huy	-10.2024
▁estableci	-10.2045
▁coloca	-10.2049
▁pinturas	-10.2057
▁Tomas	-10.2063
▁cocido	-10.2065
▁medida	-10.2068
▁salida	-10.2085
▁salie	-10.2098
talla	-10.2098
▁veinti	-10.2109
llas	-10.2112
lhuacan	-10.2115
▁responde	-10.2129
▁brujo	-10.2142
▁firme	-10.2159
▁caballero	-10.2168
▁bonita	-10.2171
▁gobernante	-10.2176
▁piel	-10.2182
▁dezi	-10.2194
xoch	-10.2218
nacio	-10.2225
cá	-10.2229
▁tembl	-10.2229
▁dueños	-10.2236
▁cuesta	-10.2241
▁inform	-10.2244
p	-10.2257
▁burla	-10.2266
cuauhtzin	-10.228
van	-10.2288
spues	-10.2291
arenta	-10.2294
▁taza	-10.2303
▁pelo	-10.2307
íhui	-10.2327
▁desembarcar	-10.2327
iones	-10.2337
▁cumplir	-10.2348
▁instrucci	-10.2351
▁abandonar	-10.2363
tar	-10.2368
dores	-10.2378
ana	-10.2415
▁Tezcatlipoca	-10.2419
▁nonohualca	-10.2419
▁Aguila	-10.2419
▁comunidad	-10.2419
▁creatura	-10.2419
▁merecimiento	-10.2421
▁metate	-10.2423
▁jacal	-10.2427
▁escond	-10.2428
▁plata	-10.2429
ztli	-10.243
▁sobrina	-10.2434
▁Sanct	-10.2436
▁reunir	-10.2437
▁Tezcatzon	-10.2438
▁vendía	-10.2438
▁Chalchiuh	-10.2454
▁otorg	-10.2457
▁Tlá	-10.246
anohuayan	-10.2461
▁respeto	-10.2483
▁huesos	-10.2492
▁Teuc	-10.2497
▁grueso	-10.2498
pe	-10.2503
▁salga	-10.2505
▁hera	-10.2505
▁Ven	-10.251
▁vendan	-10.2512
▁recibido	-10.2518
ve	-10.2519
▁gan	-10.2526
▁encargo	-10.2536
▁suplicar	-10.2538
▁produce	-10.2541
▁Tecu	-10.2546
▁oír	-10.2549
nas	-10.2549
▁cubierto	-10.2561
▁Quetzalc	-10.2566
▁legítimo	-10.2566
▁guía	-10.2572
▁sobrino	-10.2582
▁familia	-10.2586
▁recordar	-10.2586
▁ruego	-10.2588
▁pase	-10.2603
▁cu	-10.2609
▁mete	-10.2611
enta	-10.2611
▁Cohuaz	-10.2618
sa	-10.2623
▁visitar	-10.2626
▁confirmar	-10.2639
▁precisa	-10.264
ble	-10.2648
▁rodea	-10.265
▁toman	-10.266
▁Teoc	-10.2664
▁Aquel	-10.2665
tó	-10.2682
▁amo	-10.2687
▁fría	-10.269
estos	-10.2694
▁region	-10.2697
▁pi	-10.2698
uca	-10.2705
▁dedic	-10.2714
▁Alvar	-10.2718
▁azotea	-10.2725
▁tronco	-10.2732
▁rel	-10.2742
▁repart	-10.2743
▁Virg	-10.2749
▁derrota	-10.2752
re	-10.276
▁desea	-10.2764
▁quinta	-10.2771
iéndo	-10.2773
▁divino	-10.2774
▁prestar	-10.2782
ngo	-10.2784
▁mostr	-10.2788
▁descans	-10.279
▁cad	-10.2791
▁pintura	-10.2795
▁sacrificar	-10.2806
echo	-10.2808
▁agregan	-10.2814
▁Boni	-10.285
▁Tezozomoctl	-10.2855
▁entregar	-10.2861
▁algun	-10.2863
ohuatzin	-10.287
▁visita	-10.2872
▁i	-10.288
▁mole	-10.289
▁seca	-10.2898
▁auto	-10.29
erca	-10.2902
anza	-10.2903
▁Ysa	-10.2922
achcauh	-10.2923
chichimeca	-10.2924
▁Tepo	-10.2927
▁mencionada	-10.2929
▁escapar	-10.2937
▁hombro	-10.2951
▁In	-10.2953
▁acompaña	-10.2959
▁Quetzal	-10.297
▁Mas	-10.2975
▁puesta	-10.3006
▁bejuco	-10.3007
▁historia	-10.3007
▁Cuauhtliquetzqu	-10.3007
▁linaje	-10.3007
▁Nauhyoteuctl	-10.3007
▁riqueza	-10.3007
▁Cacamatzin	-10.3008
▁Cuauhtlehu	-10.3009
▁azcapotzalca	-10.3009
▁dormir	-10.301
▁Huitzilihuit	-10.301
▁desapareció	-10.3017
▁poseedor	-10.3018
▁remedio	-10.3019
▁cumbre	-10.302
▁tambor	-10.302
▁diario	-10.3025
▁ángel	-10.3028
▁veng	-10.3037
▁perdido	-10.304
▁conocimiento	-10.3042
▁común	-10.3044
▁adentro	-10.3048
▁traído	-10.3049
▁escribir	-10.3052
▁servía	-10.3065
▁teul	-10.307
▁magueyes	-10.3083
▁Federal	-10.3085
▁mont	-10.3113
▁diferentes	-10.312
▁colegi	-10.3126
▁mori	-10.3133
oco	-10.3142
▁cuero	-10.3148
ic	-10.316
▁novi	-10.3167
▁caye	-10.3178
▁guerreros	-10.3186
▁Gre	-10.3187
▁tlatoc	-10.3187
▁atabal	-10.3197
▁muestra	-10.3212
▁enfrente	-10.3231
▁pago	-10.3236
▁Tepet	-10.3249
▁acompañan	-10.3264
gar	-10.3274
▁servir	-10.328
sen	-10.3311
▁entrega	-10.3315
▁pide	-10.3318
▁asiento	-10.332
▁Atlauht	-10.3342
▁entreg	-10.3347
tole	-10.3354
▁aprender	-10.3364
▁reci	-10.337
▁grama	-10.3375
▁existe	-10.3382
▁rayo	-10.339
▁trabaja	-10.3392
▁sentar	-10.3409
▁Hue	-10.3409
▁caus	-10.3412
▁hall	-10.3414
▁decirle	-10.3418
▁niña	-10.3423
tlac	-10.3427
▁vecin	-10.3432
▁regular	-10.3434
enza	-10.3437
▁atol	-10.3439
▁sabros	-10.3442
▁viud	-10.3444
tzqui	-10.345
bamos	-10.3471
▁rumbos	-10.3472
▁enterrar	-10.3499
▁sub	-10.3504
ías	-10.3511
ton	-10.3514
iyahuizt	-10.3519
▁brote	-10.3522
▁Sá	-10.3552
▁colocar	-10.3559
▁Coyoac	-10.356
▁fué	-10.3569
▁petici	-10.3569
ablo	-10.3574
▁recibirlo	-10.3583
▁borreg	-10.3583
▁asentaro	-10.3584
▁salid	-10.3588
▁descansar	-10.3599
▁cuánto	-10.36
ándolo	-10.3604
▁regal	-10.3609
▁precis	-10.3613
▁pregone	-10.363
▁tlacochc	-10.3631
▁jóvenes	-10.3632
▁primavera	-10.3632
▁Atlixeliuhqui	-10.3632
▁faldell	-10.3632
▁diputado	-10.3632
▁Pasqual	-10.3632
▁tilma	-10.3632
▁militar	-10.3633
▁Tecpayo	-10.3634
▁cihuacó	-10.3634
▁carb	-10.3634
▁merino	-10.3634
▁adobe	-10.3636
▁Jal	-10.3637
▁Muy	-10.3637
▁convento	-10.3639
▁temor	-10.3642
▁Gra	-10.3642
▁voz	-10.3643
▁siglo	-10.3644
▁Ig	-10.3644
▁temblor	-10.3646
▁Moyotla	-10.3648
▁Oax	-10.3648
▁apregon	-10.3648
▁echan	-10.3648
ediano	-10.365
▁ceniza	-10.3654
▁llover	-10.3655
▁ciri	-10.3657
▁diera	-10.3659
▁importante	-10.3662
▁acolhua	-10.3665
▁Mad	-10.3666
▁Vera	-10.3667
▁pollo	-10.3672
eza	-10.3673
▁delgado	-10.3674
▁Acol	-10.3675
▁pequeños	-10.3677
olco	-10.3678
▁Hijo	-10.3686
▁vayamos	-10.3686
▁combatir	-10.3689
▁pague	-10.3692
▁Atlix	-10.3693
▁patr	-10.3697
▁elegido	-10.3709
S	-10.3713
▁arco	-10.3714
▁Cohua	-10.3726
▁guiaba	-10.3726
▁Texcalco	-10.3726
▁mirar	-10.3728
▁medicinal	-10.3733
▁hermoso	-10.3738
▁fa	-10.374
▁fraile	-10.3741
▁metal	-10.3745
▁traye	-10.3763
▁fundador	-10.3763
▁derecha	-10.377
bían	-10.3778
▁embriaga	-10.3782
rey	-10.3787
▁Son	-10.3797
▁Acxit	-10.3802
▁autorizaci	-10.3802
gen	-10.3804
▁yndi	-10.3804
▁llueve	-10.3804
▁inspec	-10.3807
ncia	-10.3809
▁voto	-10.3809
▁fuese	-10.3812
▁negocio	-10.3817
▁ocote	-10.3819
ermo	-10.3834
▁Quiere	-10.3837
▁inunda	-10.3838
▁pensaba	-10.3848
▁Acacitl	-10.3859
▁reina	-10.3859
▁nahual	-10.3874
ímal	-10.3877
miran	-10.3889
▁tecpan	-10.3894
▁aparece	-10.3898
cimiento	-10.3899
acán	-10.3899
▁Cuá	-10.3901
▁Cristo	-10.3905
▁limpi	-10.3911
▁recta	-10.3936
▁combati	-10.3958
ixo	-10.396
▁pura	-10.3977
▁quebr	-10.3978
▁detuv	-10.3985
▁centr	-10.3985
▁Xalt	-10.4009
▁alla	-10.4009
▁cumplier	-10.4025
▁sube	-10.4027
▁cant	-10.4052
▁firmó	-10.4053
má	-10.4064
▁ab	-10.4067
▁malo	-10.407
unos	-10.4072
▁preocup	-10.4076
▁hilo	-10.4078
▁barr	-10.4083
▁nov	-10.4084
▁moría	-10.4106
▁Despu	-10.4107
nto	-10.4114
▁Tecua	-10.4121
▁llegue	-10.4125
▁capi	-10.4125
inas	-10.4152
▁Hab	-10.4176
▁medicina	-10.4192
▁eleva	-10.4194
lá	-10.4201
lág	-10.4205
rimas	-10.421
▁r	-10.4212
▁pid	-10.4216
▁dada	-10.422
aje	-10.4221
▁Cuauhté	-10.4226
▁Xoloc	-10.4229
▁ponga	-10.424
▁despu	-10.4241
▁hervid	-10.4244
▁cin	-10.4245
▁conpr	-10.4248
▁abrir	-10.4271
▁Gobern	-10.4274
tuvo	-10.4278
▁tren	-10.4282
▁Xac	-10.4286
▁tacha	-10.4289
oz	-10.4289
hí	-10.4293
ANTO	-10.4298
▁Tlalyztacapa	-10.4298
▁canónigo	-10.4298
▁columna	-10.4298
▁insignia	-10.4298
▁chalchihuite	-10.4298
▁calabaza	-10.4299
▁costumbre	-10.4299
▁hambruna	-10.4299
▁ocasión	-10.4299
▁temascal	-10.4299
▁otomí	-10.4299
▁capítulo	-10.4299
▁llanura	-10.43
▁balazo	-10.43
▁siervo	-10.43
▁espejo	-10.4301
▁sombrero	-10.4301
▁cort	-10.4301
▁Tlamaoc	-10.4301
▁nombramiento	-10.4303
▁ex	-10.4303
▁Cuauhtleque	-10.4304
▁descendiente	-10.4304
▁Can	-10.4316
▁metían	-10.4316
▁varon	-10.4319
▁par	-10.4323
▁ech	-10.4329
▁bebida	-10.434
▁sagrado	-10.4341
▁habido	-10.4344
▁Car	-10.4348
alpan	-10.4356
▁Nauhyot	-10.4357
▁aflijo	-10.4366
▁Niño	-10.4375
▁secreto	-10.4376
▁creado	-10.4377
▁mover	-10.4379
▁Mont	-10.4392
▁camina	-10.4396
▁plumajes	-10.4398
▁Huixt	-10.4408
▁olvid	-10.441
▁braz	-10.4417
▁tendré	-10.4418
▁visitado	-10.4418
▁vivían	-10.4431
▁firm	-10.4432
▁acabado	-10.4446
▁pescado	-10.4451
▁custodia	-10.4456
▁danza	-10.4458
mó	-10.4463
▁tuesta	-10.4464
▁traiga	-10.4467
▁muchachit	-10.4472
▁Mie	-10.4484
▁enseñar	-10.4492
nidad	-10.4492
▁carg	-10.4497
▁Ayotzin	-10.45
▁sepultar	-10.4502
▁mestizo	-10.4502
O	-10.4512
llan	-10.4538
▁caza	-10.4545
▁Ga	-10.4546
▁mostraba	-10.4546
▁Aun	-10.4566
kat	-10.4572
▁Sali	-10.4582
tequihua	-10.4588
▁subir	-10.46
▁firmo	-10.4606
aciones	-10.461
▁Mil	-10.4614
▁cumpla	-10.464
▁española	-10.4643
▁Il	-10.4645
▁Citlal	-10.4663
▁ciudadano	-10.4674
▁Mal	-10.4678
▁voce	-10.4699
▁irse	-10.4702
calli	-10.4708
▁última	-10.4711
▁niñ	-10.4719
torio	-10.4726
▁edificada	-10.4729
▁n	-10.4736
▁Mat	-10.4741
▁Xo	-10.4766
eríodo	-10.4775
▁blancos	-10.4796
▁instal	-10.4803
▁xica	-10.4805
▁guerrero	-10.4806
obo	-10.4806
▁larga	-10.4807
▁recib	-10.4816
▁Llega	-10.482
▁preg	-10.4822
ica	-10.4827
▁libre	-10.4836
▁ja	-10.4837
▁Temil	-10.4865
▁entraba	-10.4866
man	-10.4869
▁Cal	-10.4876
▁labra	-10.4876
▁capita	-10.489
▁Mon	-10.489
▁bendi	-10.4892
▁enseñ	-10.4894
▁Gar	-10.4911
▁paga	-10.4921
▁acept	-10.4923
chinan	-10.4924
▁alcanza	-10.4948
chtl	-10.4953
▁embar	-10.4954
▁Po	-10.4974
una	-10.4988
▁hazi	-10.4991
▁silla	-10.4996
▁declara	-10.5009
▁tíos	-10.5009
eros	-10.501
▁carmelita	-10.5013
▁garganta	-10.5013
▁Guill	-10.5013
▁minuto	-10.5013
▁Nezahualcóyotl	-10.5013
▁Nezahualpilli	-10.5014
▁remoja	-10.5014
▁vasallo	-10.5014
▁universal	-10.5015
▁aceite	-10.5015
▁mediodía	-10.5015
▁hilera	-10.502
esencia	-10.5023
▁orejera	-10.5025
▁parcialidad	-10.5026
▁yglesia	-10.503
▁Macuex	-10.5031
▁pascua	-10.5037
▁Vie	-10.5044
▁espada	-10.5044
▁tocar	-10.5044
▁cueza	-10.5048
▁Om	-10.505
▁arena	-10.5055
▁espos	-10.5058
▁vendió	-10.5061
▁cien	-10.5061
▁sufr	-10.5063
▁Ley	-10.5063
▁crea	-10.5067
▁muchachas	-10.5073
▁vendemos	-10.5074
▁doncella	-10.5075
▁teje	-10.5076
stedes	-10.5081
vi	-10.5087
▁Tol	-10.509
▁motivo	-10.5091
▁presentado	-10.5097
▁ta	-10.5097
▁alegr	-10.5098
▁cuñado	-10.5105
▁Chalchiuht	-10.5106
▁levánta	-10.5113
▁oficial	-10.5129
▁sab	-10.5132
▁respondi	-10.5143
▁espacio	-10.5145
▁sepa	-10.5145
dura	-10.5148
C	-10.5157
▁hecha	-10.516
▁salvar	-10.5172
▁aparecer	-10.5176
▁Tepi	-10.5179
▁costado	-10.5184
▁Canto	-10.5194
▁rec	-10.5198
▁acompañar	-10.5217
▁bebe	-10.5227
▁suceder	-10.5231
▁pescados	-10.5235
equihua	-10.5237
▁permanec	-10.5237
uma	-10.5243
▁rela	-10.5245
ntli	-10.5253
▁estudiar	-10.5259
onco	-10.5263
▁delito	-10.5263
▁tenia	-10.5263
▁décimo	-10.5264
▁marchar	-10.5273
▁encubierto	-10.5275
▁admirar	-10.5285
▁lagun	-10.5295
rigen	-10.5297
rate	-10.53
▁acudier	-10.5303
▁mor	-10.5308
▁destruy	-10.5311
tigo	-10.5311
huani	-10.5313
us	-10.532
▁Ni	-10.5321
einte	-10.533
ará	-10.5333
▁Tepeyac	-10.5333
▁brilla	-10.5353
▁teat	-10.5354
obre	-10.5371
mono	-10.539
▁Tizat	-10.5394
▁madura	-10.541
▁tí	-10.542
▁mide	-10.5429
yendo	-10.5431
▁extranjero	-10.544
▁pedazos	-10.5456
etzin	-10.5465
▁fr	-10.5476
▁bend	-10.5479
▁cierta	-10.5491
▁mulato	-10.5491
▁comprado	-10.5499
▁hirvie	-10.5501
▁acudi	-10.5504
▁salen	-10.5507
▁cer	-10.5513
▁Moquihui	-10.5525
▁cerrar	-10.5531
▁quitan	-10.5537
▁cay	-10.554
igo	-10.5544
▁corr	-10.5551
▁dig	-10.5552
▁vuelve	-10.5554
rrey	-10.5555
▁representa	-10.5566
▁pag	-10.5569
upe	-10.5569
▁papa	-10.5581
▁bello	-10.5581
mbros	-10.5583
▁guardar	-10.5587
ihui	-10.5605
▁leye	-10.5606
▁bautizar	-10.5607
▁deberá	-10.5608
▁anima	-10.561
▁Tezca	-10.5618
▁sería	-10.5621
▁cuida	-10.5641
▁Itzt	-10.5646
▁tirar	-10.5652
▁cargan	-10.5657
▁ladr	-10.5664
▁vol	-10.5676
▁comía	-10.568
▁existen	-10.568
▁plena	-10.5698
illa	-10.5698
he	-10.5702
▁zacat	-10.5717
ombre	-10.5718
▁Ram	-10.5722
▁azul	-10.5722
▁Tepozt	-10.5726
▁negra	-10.5733
▁destruir	-10.5736
▁movier	-10.5738
▁capell	-10.5745
▁debía	-10.576
▁Papa	-10.5761
pulc	-10.5773
▁apóstol	-10.5782
▁polvo	-10.5782
▁destruye	-10.5782
▁Tetzauh	-10.5782
▁Ciudad	-10.5782
▁vasija	-10.5783
▁Cuatlec	-10.5783
▁Tozcuecuextl	-10.5783
▁embajador	-10.5784
▁tortuga	-10.5784
▁aten	-10.5784
▁mayordomo	-10.5785
▁culhuacan	-10.5785
▁Cuacuauhtzin	-10.5785
▁pierna	-10.5785
▁demasiad	-10.5786
▁oraciones	-10.5786
▁Yohual	-10.5787
▁comid	-10.5788
▁ruido	-10.5789
▁Puede	-10.5795
▁IV	-10.5796
▁semejante	-10.5799
tu	-10.5802
▁cebad	-10.5804
▁padrino	-10.5805
ci	-10.5805
▁vacante	-10.5806
▁rancho	-10.5806
▁acompañ	-10.5808
oyó	-10.5809
▁sagrada	-10.581
▁rega	-10.5812
▁Noche	-10.5813
▁barcas	-10.5815
▁logró	-10.5819
yo	-10.582
▁músic	-10.5821
▁vivió	-10.5828
mí	-10.5835
▁recoger	-10.5838
▁inicia	-10.5847
▁estuvie	-10.585
▁ventana	-10.5851
zquic	-10.5852
▁Carr	-10.5857
▁Chimalhuac	-10.5861
cita	-10.5865
sario	-10.5876
▁indígenas	-10.588
▁salvo	-10.5881
▁Tenay	-10.5882
▁fundar	-10.5892
andes	-10.5893
▁Corte	-10.5894
▁llano	-10.5902
▁Mí	-10.5903
▁Valle	-10.5907
▁frito	-10.5917
otzin	-10.5918
▁perecie	-10.5921
▁dí	-10.5921
▁ag	-10.5925
▁conquista	-10.5927
▁limpiarl	-10.5939
ojes	-10.5941
uani	-10.5952
▁vara	-10.5957
bién	-10.596
▁llevarlo	-10.5962
▁reunido	-10.5973
▁pregunta	-10.5976
▁é	-10.5978
ano	-10.5983
latón	-10.5983
▁Tzo	-10.5989
▁hormiga	-10.6001
▁conprar	-10.6004
▁excavar	-10.6023
▁concluy	-10.6025
,	-10.6047
▁ofrece	-10.6048
ua	-10.6069
▁vos	-10.6076
▁tira	-10.6091
cuanipan	-10.6106
▁formado	-10.611
▁toc	-10.611
▁guardia	-10.6111
▁Vale	-10.6116
▁tuyo	-10.6118
▁inventa	-10.6121
▁fie	-10.6121
▁nací	-10.6135
▁Tri	-10.614
ohua	-10.6147
▁construy	-10.6149
▁molesta	-10.6151
ándole	-10.6158
rdo	-10.6165
▁deb	-10.6177
▁Eca	-10.6188
▁nuestr	-10.6189
▁novie	-10.6195
▁abandona	-10.6211
▁variad	-10.6218
▁tomaba	-10.6218
▁salvado	-10.6218
▁Iba	-10.6221
▁colocado	-10.6225
unca	-10.6231
▁Toma	-10.6234
ria	-10.6236
cito	-10.6238
idos	-10.6242
▁Juare	-10.6254
▁quede	-10.6256
alli	-10.6259
iempre	-10.626
▁Xó	-10.6261
▁usa	-10.6265
▁rato	-10.6268
chcauh	-10.6271
▁edificar	-10.6273
▁benda	-10.6277
▁Xic	-10.6278
▁conquistas	-10.6284
▁habé	-10.6285
▁castig	-10.6289
▁repicar	-10.6291
▁Estaba	-10.6291
▁pintada	-10.631
▁echado	-10.6312
euctl	-10.6317
▁acabar	-10.6317
▁tocan	-10.632
▁mostrar	-10.6328
▁Tlaxcala	-10.6335
▁cucharada	-10.6337
▁desta	-10.634
▁considera	-10.6344
▁vini	-10.6354
ntzin	-10.6355
▁disgust	-10.6356
▁preciosos	-10.6366
▁descubrir	-10.6372
▁acaudill	-10.6374
spuesta	-10.6382
▁arregla	-10.6389
▁cuidand	-10.6393
ali	-10.641
▁siguien	-10.6415
▁mala	-10.6418
▁arreci	-10.6424
▁sabio	-10.6433
▁gui	-10.6434
sto	-10.6436
▁form	-10.644
▁desayun	-10.6449
dán	-10.645
▁car	-10.645
▁vendo	-10.6459
▁Ro	-10.6461
▁contest	-10.6465
▁levantaba	-10.6466
▁Del	-10.6482
▁sigui	-10.651
▁acto	-10.6525
▁cargar	-10.6527
▁Tezozomoct	-10.6528
▁nave	-10.6545
▁Guerrer	-10.6558
▁repartido	-10.6571
▁desempeñ	-10.6572
▁hi	-10.6572
▁educa	-10.6573
▁dirigir	-10.6582
▁Cuauht	-10.6584
iente	-10.6594
▁Hernan	-10.6603
▁bal	-10.6604
▁lleno	-10.6608
▁Tacuba	-10.6615
▁facultad	-10.6615
▁matrimoni	-10.6615
▁pañete	-10.6615
▁zopilote	-10.6615
▁Tochinteuctl	-10.6615
▁cobija	-10.6616
▁obsidiana	-10.6616
▁lograr	-10.6617
▁plantita	-10.6617
▁fogata	-10.6617
▁cantidad	-10.6618
▁prisionero	-10.6619
▁reuni	-10.6619
▁malvado	-10.662
▁fog	-10.662
▁trece	-10.662
▁Aten	-10.662
▁crezca	-10.6622
▁Gracia	-10.6624
▁crecía	-10.6624
▁hospital	-10.6624
▁pinta	-10.6627
▁establezca	-10.6627
▁Chiconqui	-10.6628
▁huevos	-10.6628
▁lu	-10.6629
▁Xochiquen	-10.6633
▁cofre	-10.6633
▁cumple	-10.6634
tla	-10.6634
▁verg	-10.6635
▁experiencia	-10.6643
▁nieve	-10.6644
▁civil	-10.6645
ridad	-10.6648
▁Dami	-10.665
▁biejo	-10.6651
▁vestía	-10.6652
▁cinqu	-10.6653
▁Aman	-10.6655
▁conocía	-10.6655
▁cuál	-10.6658
▁criada	-10.666
▁Hacía	-10.667
▁met	-10.6673
▁nari	-10.6674
▁yunta	-10.668
▁hablan	-10.6683
hiconcóhua	-10.6697
▁Acxotla	-10.67
▁entran	-10.67
réis	-10.6702
▁representante	-10.6702
▁median	-10.6703
▁peticion	-10.6708
▁Salom	-10.6708
▁Teuhtl	-10.6712
▁Ahu	-10.6713
LO	-10.6714
▁sombra	-10.672
▁sentado	-10.6733
▁vivirás	-10.6742
olme	-10.6743
▁Atlauh	-10.6747
▁comprada	-10.6752
▁partido	-10.6756
▁acompañado	-10.6766
LX	-10.6767
▁cae	-10.6767
▁pondrá	-10.6774
tenco	-10.6776
▁coloc	-10.6778
▁qued	-10.6786
▁cuento	-10.6794
je	-10.6816
fé	-10.6824
che	-10.6826
▁Francis	-10.683
▁má	-10.6833
ame	-10.6837
▁pedi	-10.6847
tenanc	-10.6854
iztli	-10.6854
▁Mira	-10.6856
▁conducido	-10.6858
curso	-10.6867
▁importa	-10.6876
▁brotaba	-10.6879
▁encendier	-10.6881
áca	-10.6895
▁ci	-10.6902
acas	-10.6903
luvi	-10.6905
▁g	-10.6909
zco	-10.6917
▁querid	-10.6918
▁tanta	-10.6919
▁valía	-10.6921
▁china	-10.6928
▁crecer	-10.6928
▁pastor	-10.6933
▁berdad	-10.6934
▁Cec	-10.6942
▁nacer	-10.6946
▁humano	-10.6946
eño	-10.6949
▁destino	-10.6954
uh	-10.696
▁humilde	-10.6963
▁pila	-10.6974
▁necesit	-10.6977
▁apoder	-10.6977
▁arrojar	-10.6981
▁acaudillar	-10.6982
▁dexa	-10.6983
▁amb	-10.6989
▁Mexican	-10.7003
▁permaneci	-10.7008
▁medi	-10.7011
▁arrastra	-10.7014
il	-10.7019
▁ce	-10.7026
▁merecer	-10.7026
▁Llevaba	-10.7029
▁amado	-10.703
▁Bi	-10.7034
▁piensa	-10.7036
▁perec	-10.7041
vaca	-10.7047
vimos	-10.7057
▁disciplina	-10.7065
▁Cuauhtlato	-10.707
tlán	-10.7071
▁senador	-10.7072
▁barrer	-10.7074
▁derrot	-10.7082
▁hume	-10.7083
guas	-10.7096
rida	-10.7103
▁diente	-10.7103
có	-10.7106
▁Xiuht	-10.7106
▁pux	-10.7115
▁ejerci	-10.7129
tépe	-10.7133
▁Lá	-10.7137
hule	-10.7141
▁pec	-10.7152
▁establec	-10.7172
pico	-10.7177
xokoyoli	-10.7181
▁design	-10.7181
▁Tlailotlac	-10.7189
▁Agustin	-10.7189
▁Ahuat	-10.7191
llo	-10.7193
▁quitarle	-10.7203
ahualtzin	-10.7206
▁candela	-10.7215
▁Iztact	-10.7223
▁tierna	-10.7224
▁morirá	-10.7235
▁sed	-10.7237
▁Comi	-10.7238
▁mo	-10.7245
biendo	-10.7251
▁subi	-10.7254
▁volv	-10.726
▁Part	-10.728
▁Yopi	-10.7282
▁rode	-10.7283
▁pensa	-10.7289
▁guajillo	-10.7289
▁jugo	-10.7293
cos	-10.73
▁movie	-10.73
▁atavío	-10.7311
▁siguie	-10.7317
dito	-10.7321
▁lloraba	-10.7324
▁Oy	-10.7324
alia	-10.7328
▁chica	-10.7331
entro	-10.7334
▁huir	-10.7337
yao	-10.7339
▁sigu	-10.7345
▁atlauhteca	-10.7354
ien	-10.7356
▁chiquito	-10.736
isco	-10.7369
▁Entre	-10.7373
rlo	-10.7376
▁tomate	-10.7384
egún	-10.7403
▁haría	-10.7412
▁ador	-10.7413
▁Rosa	-10.7415
vez	-10.7418
▁Mora	-10.7419
U	-10.7431
▁demas	-10.7453
▁verdadera	-10.746
▁reparti	-10.7463
▁fríe	-10.7474
▁vic	-10.7476
▁Xiuh	-10.748
▁junt	-10.7487
▁estren	-10.7491
▁aderez	-10.7497
ezontlalnamacoya	-10.7501
▁Huitzilopoch	-10.752
▁angustia	-10.7522
▁Maximilian	-10.7524
▁Tecucizteca	-10.7524
▁flauta	-10.7524
▁plegaria	-10.7524
▁esmeralda	-10.7524
▁mariposa	-10.7524
▁campesino	-10.7524
▁definitiva	-10.7524
▁Cilcu	-10.7524
▁solicitud	-10.7525
▁Chapul	-10.7525
▁diciéndole	-10.7525
▁méxico	-10.7525
▁juicio	-10.7525
▁Bernardino	-10.7525
▁Consejo	-10.7525
▁enseñanza	-10.7526
▁menesteroso	-10.7527
▁Torre	-10.7527
▁Diputa	-10.7527
▁limpian	-10.7527
▁Tlalocan	-10.7528
▁Teotenan	-10.7528
▁perteneciente	-10.753
▁codorni	-10.7535
▁contesta	-10.7535
▁baile	-10.7536
▁feliz	-10.7537
▁conduc	-10.7537
cha	-10.7543
▁cohet	-10.7546
ernánd	-10.7547
▁festejo	-10.7549
▁palma	-10.755
▁fatigado	-10.7553
▁respect	-10.7553
▁merecido	-10.7554
▁defender	-10.7555
ze	-10.7556
▁helada	-10.7556
▁corregidor	-10.7562
OS	-10.7565
▁Viene	-10.7566
▁azúcar	-10.7567
▁estés	-10.7568
▁Franci	-10.7569
▁Nec	-10.7569
▁trein	-10.7574
▁comiendo	-10.7579
▁solía	-10.7585
▁consagrado	-10.7585
▁muere	-10.7586
▁bate	-10.7586
alidad	-10.7586
▁Tlatil	-10.7587
▁respondie	-10.7589
▁estrado	-10.7591
▁azules	-10.7592
▁escritor	-10.7593
▁toros	-10.7599
▁Matlal	-10.7608
▁suele	-10.7617
▁deje	-10.7617
▁regla	-10.7619
gustin	-10.7624
▁desempeñar	-10.7625
almente	-10.7628
▁enojados	-10.7635
año	-10.7638
▁dejando	-10.7641
▁platic	-10.7641
▁mercader	-10.7644
▁aparecerá	-10.7645
▁ocupar	-10.7648
▁abia	-10.7652
▁divisa	-10.7663
trá	-10.7667
▁afligía	-10.7669
yaot	-10.7676
▁pint	-10.768
ilia	-10.7681
nario	-10.7724
▁solemne	-10.7727
▁admira	-10.773
rzo	-10.774
▁abuelito	-10.7759
▁espantoso	-10.776
▁rocí	-10.7765
ol	-10.7767
xochitzin	-10.778
▁cambio	-10.7784
▁and	-10.7789
▁disfrazado	-10.78
▁tales	-10.7801
▁inter	-10.7812
▁continu	-10.7829
▁dirigi	-10.7829
▁Están	-10.7835
▁habita	-10.7836
▁Marc	-10.7836
▁fila	-10.7844
tlix	-10.7844
nrique	-10.7849
▁quisiera	-10.7849
▁electo	-10.7851
ocho	-10.7851
▁marcharo	-10.7857
eltzin	-10.7858
▁intens	-10.7878
▁ch	-10.7881
▁ho	-10.7883
▁escribi	-10.789
bió	-10.789
▁pobla	-10.789
▁litro	-10.7899
▁macho	-10.7909
▁coman	-10.7916
▁engaño	-10.7917
▁profet	-10.7919
artes	-10.7919
enero	-10.7921
▁divid	-10.7925
tro	-10.7925
▁bienaventurad	-10.7933
▁espinoso	-10.7937
tquic	-10.7938
▁reverencia	-10.7946
▁dava	-10.7951
ior	-10.7956
▁pesca	-10.796
emoc	-10.7961
zacate	-10.7968
▁madero	-10.7968
▁questa	-10.797
▁Vive	-10.7973
un	-10.7975
▁única	-10.798
▁Empez	-10.7982
cieron	-10.7983
▁pasaba	-10.7984
▁descubri	-10.7998
▁aflige	-10.8001
▁Federa	-10.8006
▁digno	-10.8007
A	-10.8008
▁India	-10.8008
▁punta	-10.8012
▁mol	-10.8013
▁informar	-10.8016
añas	-10.8017
▁Malinalc	-10.8027
▁enseña	-10.8039
▁duda	-10.8039
▁cient	-10.8043
▁kua	-10.8048
yáca	-10.8049
▁Monte	-10.8052
▁Nezahualc	-10.8063
▁caía	-10.8063
▁suave	-10.8074
lotépe	-10.8078
▁Azta	-10.8093
ores	-10.8101
vo	-10.8107
men	-10.8107
▁Sin	-10.8115
▁Montes	-10.8119
▁encerrar	-10.8121
otl	-10.8131
▁du	-10.8137
▁tanbi	-10.8164
▁comprende	-10.8167
▁hallar	-10.8168
▁falt	-10.8174
▁estab	-10.8182
▁Tula	-10.8186
▁Tehuac	-10.8202
orita	-10.8202
▁enoj	-10.8207
▁luna	-10.8209
▁invita	-10.8217
▁lavan	-10.8218
▁conversa	-10.8221
▁Toch	-10.8222
▁dispersar	-10.8227
▁enviar	-10.8232
▁anhel	-10.8245
▁cuidador	-10.8256
▁Vo	-10.826
▁expres	-10.8261
▁fuere	-10.8263
▁gust	-10.8271
uso	-10.8272
▁engendrar	-10.8272
▁nev	-10.8282
egó	-10.8293
panohuayan	-10.8293
▁Jer	-10.8294
▁aflic	-10.8295
rna	-10.8306
uauhtzin	-10.8311
▁satisfecho	-10.8314
▁gracia	-10.832
ujer	-10.832
▁pur	-10.8321
▁Tote	-10.8323
▁llov	-10.8325
▁empeza	-10.8333
▁brazo	-10.8339
▁tierno	-10.834
▁embriagan	-10.8342
▁dex	-10.8343
hora	-10.8348
▁necesaria	-10.8351
▁trá	-10.8352
ogía	-10.8382
emimilolc	-10.8389
▁fuente	-10.8398
▁camar	-10.84
▁hervir	-10.8402
▁posey	-10.8404
▁amarg	-10.8407
▁viva	-10.8415
▁hila	-10.8421
▁saliera	-10.8421
N	-10.8424
cillo	-10.8431
f	-10.8444
▁tlaxilacal	-10.8461
▁pedía	-10.8462
▁clav	-10.8475
ja	-10.8478
▁ro	-10.8485
cuenta	-10.8491
▁Vá	-10.8495
xochitl	-10.8498
▁Parec	-10.8499
▁calentar	-10.8508
▁bol	-10.8512
▁Rodr	-10.8512
▁cofrad	-10.8515
▁Ocelotl	-10.8516
▁breve	-10.8518
▁prest	-10.852
▁médico	-10.8524
▁primogénit	-10.8524
▁víspera	-10.8524
▁oyamel	-10.8524
▁Xicomoy	-10.8524
▁jaguar	-10.8524
▁patriarca	-10.8524
▁simple	-10.8524
▁petaca	-10.8525
▁canela	-10.8525
▁Tlotli	-10.8525
▁ahuehuete	-10.8525
▁Escoba	-10.8526
▁respetable	-10.8526
▁algodón	-10.8527
▁esfuerz	-10.8527
▁etc	-10.8527
▁hechura	-10.8528
▁Bárb	-10.8529
▁Toyaot	-10.853
memoria	-10.853
▁grave	-10.8531
▁maldad	-10.8532
▁plátano	-10.8532
rofesa	-10.8533
▁poeta	-10.8533
▁Gonzal	-10.8534
▁Zum	-10.8534
▁mueve	-10.8537
▁Quauhtli	-10.8538
▁lumbre	-10.854
▁constante	-10.854
▁contrario	-10.8542
▁Quien	-10.8543
▁hiciste	-10.8544
▁manifestar	-10.8544
▁atender	-10.8545
kil	-10.855
▁Jim	-10.8551
▁vapor	-10.8552
▁fu	-10.8553
▁macana	-10.8561
▁capital	-10.8565
▁brasas	-10.8565
▁reunión	-10.8575
▁ynformacion	-10.8578
▁horno	-10.858
▁petate	-10.8583
icue	-10.8584
▁sacramento	-10.8585
▁juego	-10.8591
▁ayer	-10.8594
▁veré	-10.8598
▁tendido	-10.86
arán	-10.8602
▁mexicana	-10.8602
▁subido	-10.8604
▁alza	-10.8607
▁amaneci	-10.8611
troni	-10.8615
▁Blanca	-10.8615
▁pecado	-10.8619
▁cri	-10.8619
firi	-10.8626
▁entendi	-10.8631
▁susodicha	-10.8632
▁tienda	-10.8641
▁darme	-10.8642
▁col	-10.8646
▁Muri	-10.8646
▁pegaba	-10.8651
▁tendría	-10.8653
▁regala	-10.8658
▁ofrecer	-10.8662
▁segun	-10.8664
tiene	-10.8669
▁tien	-10.8672
▁Mani	-10.8672
▁pidi	-10.8674
▁Atla	-10.8676
▁Tepete	-10.8678
▁invit	-10.8679
▁sementeras	-10.8679
▁caminan	-10.868
▁cald	-10.8688
▁Nonohu	-10.869
izo	-10.8694
▁chichimec	-10.8695
▁gentil	-10.8696
▁Tra	-10.87
tada	-10.87
▁bendij	-10.8701
▁Tolteca	-10.8703
▁callej	-10.8704
▁dolor	-10.8704
▁compraba	-10.8705
tando	-10.8708
▁bar	-10.8713
▁inicio	-10.8714
ocolhuaca	-10.8717
▁Paul	-10.872
nsí	-10.8721
▁mon	-10.8728
▁yendo	-10.8731
▁dispersa	-10.8735
E	-10.8735
▁gruesa	-10.8741
▁Xochitecutl	-10.8746
▁cor	-10.8749
▁alzaba	-10.8755
▁meti	-10.8757
▁pasta	-10.876
▁rápid	-10.8765
▁edificio	-10.8766
ayan	-10.877
▁conocido	-10.8775
▁dixer	-10.8776
eme	-10.8788
▁autoriza	-10.8801
▁quedan	-10.8807
▁lanza	-10.8811
▁Tho	-10.8814
omb	-10.8815
▁levantado	-10.8817
▁religiosa	-10.882
▁dispers	-10.8829
▁justo	-10.8829
▁sucede	-10.8838
▁cama	-10.8848
▁Totol	-10.8849
caron	-10.8853
▁desnudo	-10.8853
▁cuartillo	-10.8856
▁bast	-10.8859
▁bist	-10.886
▁Jua	-10.8862
▁encino	-10.8863
▁espanta	-10.8864
▁agarr	-10.8866
▁bord	-10.8877
ligo	-10.888
▁sienta	-10.8881
▁Sot	-10.8882
▁seguido	-10.8884
▁publica	-10.8884
▁consejo	-10.8886
ama	-10.8888
cuchill	-10.889
▁mandan	-10.8891
ento	-10.8893
chtlan	-10.8898
▁llegan	-10.89
▁conquistador	-10.8901
pi	-10.8904
uebla	-10.8905
▁Tamo	-10.8912
▁sur	-10.8918
▁oído	-10.8922
▁hici	-10.8923
▁Monter	-10.8927
▁Qui	-10.893
fa	-10.8949
▁convirti	-10.8971
▁curar	-10.8975
▁convertid	-10.8991
▁embriagado	-10.8992
tálo	-10.8992
▁humana	-10.9009
emia	-10.9011
▁Chalchiuhtl	-10.9019
▁derrib	-10.9035
alta	-10.9038
▁pagará	-10.9038
▁Sanche	-10.9053
pedes	-10.906
▁envuelto	-10.9072
chin	-10.9091
▁gar	-10.9092
▁brotan	-10.9092
▁Rey	-10.9093
poderoso	-10.9093
▁contiene	-10.9094
▁Tlazo	-10.9094
TU	-10.9106
▁frag	-10.9108
▁rebel	-10.9116
▁aparec	-10.9117
▁ancha	-10.9122
darse	-10.9123
▁pobres	-10.9125
▁determina	-10.9127
▁significa	-10.9133
▁acus	-10.9136
▁dejan	-10.9139
▁salv	-10.9142
ración	-10.9145
▁ocasione	-10.9145
▁vea	-10.9158
▁papele	-10.9163
▁derrotar	-10.9168
▁conserva	-10.9175
bi	-10.9182
▁escuche	-10.9184
▁logra	-10.9185
▁horadad	-10.9185
▁Apa	-10.9188
lmeca	-10.9197
▁concha	-10.9197
▁tradici	-10.9199
▁atri	-10.9203
▁her	-10.9206
▁It	-10.9211
▁nueb	-10.9216
▁san	-10.9216
lán	-10.9221
cateuctl	-10.9221
▁niñit	-10.9222
ecatl	-10.9225
▁estava	-10.9229
▁codo	-10.9229
▁direcci	-10.9232
vedo	-10.9234
cué	-10.9237
▁encerrado	-10.9239
▁extend	-10.9247
▁bailaba	-10.9258
oj	-10.926
▁Tlacaté	-10.9265
lor	-10.9267
▁pretende	-10.927
▁bende	-10.9276
▁mad	-10.929
▁respond	-10.9294
uhtli	-10.9295
▁reg	-10.9298
torce	-10.93
▁Coyohu	-10.9321
▁esperan	-10.9323
tocan	-10.9326
▁Escucha	-10.9339
▁pica	-10.9346
▁resto	-10.9353
tieron	-10.9353
▁separa	-10.9357
ur	-10.9358
▁guarde	-10.9365
jes	-10.9368
▁empezaba	-10.9368
▁mataba	-10.9372
uror	-10.9388
loc	-10.9396
▁hel	-10.9399
▁Pá	-10.9401
oso	-10.9407
▁alegrar	-10.9407
ielo	-10.9408
mora	-10.9414
▁pul	-10.9416
▁diferente	-10.942
▁lim	-10.9422
ambo	-10.9429
▁esperaba	-10.9432
▁rig	-10.9437
del	-10.9438
▁hijito	-10.945
tech	-10.9453
jas	-10.9453
iz	-10.9454
▁traje	-10.9464
▁ut	-10.9473
iste	-10.9474
▁hene	-10.9489
▁judío	-10.9489
▁herede	-10.9494
▁indu	-10.9501
▁comerci	-10.9506
edes	-10.9515
▁alcanzar	-10.953
▁surgi	-10.9534
▁venid	-10.954
▁có	-10.9554
▁tributar	-10.9561
▁paresci	-10.9562
▁aflij	-10.9562
▁perece	-10.9573
▁estuvi	-10.9575
▁Mex	-10.9579
▁corregi	-10.9584
▁much	-10.9589
tinta	-10.9597
auhtzin	-10.9599
▁Só	-10.9604
▁demandan	-10.9604
▁olor	-10.9608
tzompa	-10.9616
ficio	-10.9619
▁Opochhua	-10.9621
▁trajer	-10.9621
▁chico	-10.9622
forzado	-10.9628
▁Resurrecci	-10.9635
▁jurisdicci	-10.9635
▁Tlaxilacall	-10.9635
fortuna	-10.9635
▁Guatemala	-10.9635
▁Ministro	-10.9635
▁difícil	-10.9635
▁manantial	-10.9635
▁ortiga	-10.9635
▁pirámide	-10.9635
▁Mazorca	-10.9636
▁eclips	-10.9636
▁excremento	-10.9636
▁matlatzinca	-10.9636
▁cuetlaxteca	-10.9636
▁nahuatlato	-10.9636
▁escobeta	-10.9636
▁actividad	-10.9636
▁resonar	-10.9636
▁Temizt	-10.9636
▁superior	-10.9636
▁Motecuhzoma	-10.9636
▁césped	-10.9636
▁pertenencia	-10.9636
▁montículo	-10.9636
▁PRES	-10.9636
▁discurso	-10.9636
▁correspondiente	-10.9636
▁exhorta	-10.9637
▁virgen	-10.9637
▁Tonalli	-10.9638
▁diariamente	-10.9638
▁lentamente	-10.9638
▁sufrimiento	-10.9639
▁contradiga	-10.964
enitencia	-10.9641
▁altepetl	-10.9641
▁ajorca	-10.9642
▁Tlaqui	-10.9642
▁caracol	-10.9642
▁lloviendo	-10.9642
▁completamente	-10.9644
▁qui	-10.9644
▁Matlaccó	-10.9644
▁copal	-10.9646
▁Huitznáhua	-10.9648
▁admirable	-10.9651
▁conduj	-10.9652
▁Motelchiuh	-10.9654
▁Tezcacohu	-10.9656
▁predicador	-10.9656
▁vivido	-10.9656
▁):	-10.966
▁construcción	-10.9661
▁inundar	-10.9663
▁asesinado	-10.9665
▁piso	-10.9668
▁cámara	-10.967
▁tratar	-10.967
▁]:	-10.967
▁Au	-10.9672
▁especie	-10.9672
▁sand	-10.9672
▁perez	-10.9674
▁quedaba	-10.9676
▁Ningun	-10.9676
▁molido	-10.9677
▁compran	-10.9677
▁calen	-10.9682
▁diese	-10.9686
▁vis	-10.9688
opan	-10.9688
▁Atzacual	-10.9694
▁Zoqui	-10.9695
▁jur	-10.9698
▁EN	-10.9705
hueitlato	-10.9705
▁gobernan	-10.9706
▁baña	-10.9706
▁Ayotla	-10.9712
▁metros	-10.9715
▁construido	-10.9723
▁disponía	-10.9724
▁ayudar	-10.9725
▁seno	-10.9728
▁endulza	-10.973
▁Hueim	-10.9732
▁comun	-10.9736
▁sa	-10.9737
▁amarillas	-10.974
▁grita	-10.974
▁corola	-10.9747
▁oblig	-10.9747
▁recibe	-10.9751
▁diá	-10.9756
▁cansado	-10.9759
▁escondido	-10.976
▁daré	-10.976
mento	-10.9764
▁dormí	-10.9771
tillo	-10.9771
▁guajolotes	-10.9781
▁Cuauhte	-10.9781
▁apoyo	-10.9785
▁Cuauhtzin	-10.9791
▁lucha	-10.9793
▁Ben	-10.9796
▁Ta	-10.9797
▁regresaba	-10.9799
▁gast	-10.9806
▁nombrar	-10.9809
glar	-10.981
▁escrib	-10.9811
▁objeto	-10.9825
bio	-10.9828
▁estaría	-10.9828
▁parecer	-10.9828
▁Chi	-10.9829
▁Lope	-10.9831
▁hac	-10.9836
mió	-10.9839
▁vaca	-10.9842
▁actual	-10.9848
▁descarnad	-10.9849
▁Atezcapa	-10.9851
di	-10.9854
▁hiz	-10.9855
ejas	-10.9865
▁arroja	-10.9865
icos	-10.9868
bas	-10.9869
▁chicos	-10.9871
uz	-10.9879
▁diz	-10.9879
bido	-10.9881
▁cambi	-10.9884
▁és	-10.9885
▁capturado	-10.9886
▁satisfechos	-10.989
▁avanz	-10.9903
▁papas	-10.9906
citos	-10.9907
▁Cast	-10.9909
et	-10.991
ierra	-10.991
▁brot	-10.9913
peuh	-10.9918
▁comunicar	-10.9924
▁encuentran	-10.9925
ben	-10.9925
▁señalar	-10.9927
▁viejit	-10.9928
▁torn	-10.9928
▁confesar	-10.9928
aría	-10.9935
prést	-10.9937
▁combate	-10.9937
▁Cuauhtitl	-10.9938
▁venerado	-10.994
ui	-10.9943
▁Acxocu	-10.9944
▁des	-10.9947
grado	-10.9951
NEST	-10.9952
acional	-10.9954
▁resulta	-10.9964
des	-10.9965
▁traig	-10.9969
▁intent	-10.9974
▁utiliza	-10.9975
▁Ej	-10.9978
▁sacan	-10.9979
▁Haz	-10.9984
▁labr	-10.9986
▁sentía	-10.9986
▁Oso	-10.9987
gamos	-10.9988
iles	-10.999
▁ofrecía	-10.9994
▁tuya	-10.9995
▁condici	-11
cameca	-11.0002
▁saluda	-11.0005
▁lun	-11.0008
cal	-11.0014
▁acostumbraba	-11.0015
▁busc	-11.0016
▁mandon	-11.0016
▁apareci	-11.0023
▁Aztaxo	-11.0024
▁Tlaxcal	-11.0028
▁atraves	-11.0028
▁informa	-11.0028
▁arte	-11.0031
▁Chol	-11.0038
▁det	-11.0048
ctez	-11.0057
▁negras	-11.0061
▁canasta	-11.0061
▁congrega	-11.0065
▁pein	-11.0075
▁gato	-11.0081
iencia	-11.0086
▁aber	-11.0086
▁cautiv	-11.009
▁deten	-11.0096
▁echaba	-11.0103
▁dibuj	-11.0105
▁lavado	-11.011
▁enfrentar	-11.0113
▁duro	-11.0113
▁cobr	-11.0115
▁dexar	-11.0119
▁inclin	-11.0124
▁siente	-11.0128
▁burle	-11.0136
▁maravillosa	-11.0141
árra	-11.0157
▁estima	-11.016
▁Sim	-11.0165
cuex	-11.0167
epec	-11.017
enzo	-11.0171
▁consta	-11.0172
▁acompañaba	-11.0177
▁preguntar	-11.0191
tenía	-11.0202
▁Mot	-11.0212
▁agarrar	-11.0216
▁moyo	-11.0217
tón	-11.0221
▁llen	-11.0227
▁Dej	-11.0234
▁Ama	-11.0238
▁encontra	-11.0239
▁colgar	-11.0239
cocolc	-11.0241
▁hoj	-11.0243
▁Coco	-11.0246
▁regir	-11.0247
▁tranquil	-11.0257
▁tambi	-11.0259
▁choc	-11.0276
taba	-11.0284
▁maravill	-11.0286
▁am	-11.0287
▁Alf	-11.0288
ái	-11.0294
▁ordenar	-11.03
rita	-11.0304
hua	-11.0305
▁querella	-11.0311
AG	-11.0311
pid	-11.0316
▁compasi	-11.0316
istrito	-11.0322
pol	-11.0324
▁comercia	-11.0327
▁Ce	-11.0327
▁político	-11.0331
▁tuvie	-11.0334
▁capturar	-11.0339
▁envía	-11.0342
ES	-11.0344
si	-11.0345
▁perd	-11.0347
tlatl	-11.0348
verar	-11.0354
▁tratado	-11.0356
teca	-11.0356
jer	-11.0363
alabras	-11.0365
rtir	-11.037
▁aument	-11.037
erv	-11.0377
▁dispone	-11.0378
dero	-11.0379
▁envol	-11.0381
ixco	-11.0381
▁maduro	-11.0385
▁caro	-11.0397
▁circund	-11.0398
var	-11.0403
▁averigu	-11.0404
▁Vaya	-11.0407
▁cabell	-11.0414
▁ciment	-11.0418
lló	-11.0418
rante	-11.0421
▁ningun	-11.0421
▁Epcoat	-11.0431
entes	-11.0432
▁enfrent	-11.0433
▁bautizado	-11.0439
▁acuerd	-11.044
▁Nanahuat	-11.0442
▁qua	-11.0454
eocolhua	-11.0459
▁vean	-11.0469
décimo	-11.0473
▁enferm	-11.0483
▁mang	-11.0488
sos	-11.0503
popoca	-11.0505
▁familiar	-11.0506
jugar	-11.0511
rgen	-11.0512
▁techo	-11.0514
▁beberá	-11.0527
▁poc	-11.053
▁preparar	-11.0533
dimos	-11.0534
fecho	-11.0545
▁parec	-11.0546
▁caminar	-11.0548
▁quite	-11.0553
▁Aco	-11.0558
bé	-11.0563
▁Tziuh	-11.0566
▁Tep	-11.0567
IO	-11.0582
zón	-11.0595
mpa	-11.0595
▁castellano	-11.0598
▁envi	-11.06
▁quisier	-11.061
▁cambiar	-11.0614
▁fallecid	-11.0621
▁dixe	-11.0623
▁maestr	-11.0624
▁corría	-11.0626
▁Estuv	-11.0628
oyan	-11.0636
▁Coatla	-11.064
lara	-11.0641
▁preparado	-11.065
▁som	-11.0656
▁ben	-11.0669
▁Ip	-11.0681
▁replic	-11.0691
g	-11.0695
▁hombr	-11.0696
▁Eh	-11.0704
▁siti	-11.0706
▁Ac	-11.0708
▁acaudilla	-11.0708
▁derrumb	-11.0718
▁Parti	-11.072
ráct	-11.0722
▁confirm	-11.0732
▁hiciere	-11.0734
cedió	-11.0735
▁caíd	-11.0738
nquisi	-11.0742
b	-11.0752
▁podrido	-11.0756
toria	-11.0768
amiento	-11.0773
▁bajan	-11.0773
▁avanza	-11.0777
umbre	-11.0778
▁cont	-11.078
eynos	-11.0782
▁uso	-11.0789
▁movi	-11.0789
alvado	-11.0793
▁chapul	-11.0801
movido	-11.0803
pósito	-11.0804
▁Chiapa	-11.0808
▁cuán	-11.0814
dieron	-11.0819
▁peligro	-11.0821
etas	-11.0828
▁cost	-11.083
▁coral	-11.0832
polla	-11.0833
▁Achit	-11.0833
xi	-11.0834
cántar	-11.0836
capul	-11.0841
azar	-11.0844
▁ata	-11.0845
▁sext	-11.085
▁tocaba	-11.0859
▁Berna	-11.0859
▁tule	-11.0861
éndolo	-11.0865
uitl	-11.0872
▁sufri	-11.0879
▁contado	-11.0879
▁Yacapi	-11.0882
▁Faustin	-11.0885
▁Tecayehuatzin	-11.0885
▁mojonera	-11.0885
▁recipiente	-11.0885
▁cuauhnahuaca	-11.0886
▁responsabilidad	-11.0886
▁incensador	-11.0886
▁particular	-11.0886
▁guirnalda	-11.0886
▁cacahuate	-11.0886
▁Tequixquipan	-11.0886
▁jilote	-11.0886
▁Suprem	-11.0886
▁fronter	-11.0886
cordia	-11.0886
▁permiso	-11.0886
▁criatura	-11.0886
▁numeros	-11.0886
▁limosna	-11.0886
▁Permanente	-11.0886
▁Thori	-11.0886
▁amaranto	-11.0886
▁Prepara	-11.0886
▁dificultad	-11.0886
▁duodécim	-11.0886
▁Mixcó	-11.0886
▁sabiduría	-11.0886
▁tablilla	-11.0886
▁endereza	-11.0887
cajete	-11.0887
▁plática	-11.0887
▁otorgamiento	-11.0887
▁Tequic	-11.0887
▁Ocelopan	-11.0887
▁tetzcoca	-11.0888
▁integra	-11.0888
▁Vizca	-11.0888
▁CON	-11.0888
▁pipián	-11.0888
▁Secretario	-11.0888
▁trozo	-11.0889
▁estandarte	-11.0891
▁paño	-11.0894
▁huerta	-11.0895
▁gusano	-11.0895
▁bañarse	-11.0895
▁Amo	-11.0896
▁yergue	-11.0898
▁doscientos	-11.0898
▁opin	-11.0899
mática	-11.09
▁Ocelotlteuc	-11.09
▁sufre	-11.0904
té	-11.0904
▁Pobre	-11.0908
▁individuo	-11.0908
▁Tlacahuepan	-11.0909
▁jovencito	-11.0909
▁Vengan	-11.0911
▁acerc	-11.0911
▁vivieron	-11.0915
▁volvier	-11.0916
▁administr	-11.0916
rnes	-11.0918
▁duele	-11.0921
▁penacho	-11.0922
▁Xí	-11.0925
▁comis	-11.0926
▁bon	-11.0927
▁amor	-11.0928
▁vencer	-11.0928
▁obliga	-11.0931
aremos	-11.0931
▁impuest	-11.0932
▁Ayot	-11.0933
▁Ome	-11.0935
▁travies	-11.0938
hicomoztoc	-11.0938
aspar	-11.0938
mago	-11.094
▁contaba	-11.0941
▁documento	-11.0942
▁);	-11.0942
chi	-11.0943
▁estancia	-11.0944
▁tuviese	-11.0946
▁habré	-11.0947
dario	-11.095
▁Marg	-11.0952
rte	-11.0952
▁cominos	-11.0952
▁Itzcahua	-11.0955
tió	-11.0957
▁espíritu	-11.0958
▁designado	-11.0959
▁teniente	-11.0959
bida	-11.096
anitzi	-11.0964
▁tamal	-11.0965
▁ataviado	-11.0967
▁vale	-11.0968
▁guardado	-11.0968
huehue	-11.0968
ecutivo	-11.0969
▁naranja	-11.0971
▁prueba	-11.0973
▁midieron	-11.0974
▁Suchi	-11.0978
▁sentir	-11.0978
▁monj	-11.0979
▁Mej	-11.098
▁escoba	-11.0984
rmas	-11.0988
▁arbol	-11.0989
▁tlaco	-11.099
▁crecido	-11.099
moloc	-11.0991
mada	-11.0992
▁Atlacu	-11.0992
▁hubier	-11.0993
▁nahuas	-11.0994
spacio	-11.0996
▁correr	-11.0997
▁elev	-11.0997
▁sonaja	-11.1003
teko	-11.1006
▁vivan	-11.1011
▁chil	-11.1011
▁conducía	-11.1015
▁magnífico	-11.1021
▁dorada	-11.1026
▁alzar	-11.1029
▁ah	-11.1031
▁altura	-11.1036
▁dies	-11.1036
▁derriba	-11.1038
▁corrida	-11.1038
▁cha	-11.1045
▁vendiera	-11.1047
▁cansan	-11.1047
▁montañas	-11.1052
▁sorprendi	-11.1053
emente	-11.1056
▁descuartizado	-11.1059
▁determinará	-11.1063
▁ánimo	-11.1065
▁dominio	-11.1071
uto	-11.1074
▁segu	-11.1074
▁Milla	-11.1077
▁tiza	-11.1081
aves	-11.1084
▁colga	-11.1085
▁Ace	-11.1088
irán	-11.109
▁colocaba	-11.1097
▁instruye	-11.1099
▁logr	-11.11
▁prestado	-11.1119
▁perdonar	-11.1127
▁revuelve	-11.1129
milco	-11.1134
eopan	-11.1137
▁envia	-11.1139
▁escondi	-11.114
▁letra	-11.1142
▁mencionar	-11.1152
▁vete	-11.1161
▁dale	-11.1165
▁dejaba	-11.1168
chada	-11.1176
▁dirig	-11.1182
▁horca	-11.1182
▁envío	-11.1184
▁edificado	-11.1185
▁quedará	-11.1187
▁oía	-11.1187
▁invent	-11.1196
▁comerá	-11.1199
▁danzar	-11.12
▁Xochitl	-11.1204
rancisc	-11.1216
▁pasan	-11.1224
▁borde	-11.1227
▁tendr	-11.1227
lté	-11.1243
▁res	-11.1245
▁intern	-11.1245
tzotl	-11.125
▁arzobisp	-11.1254
▁pusi	-11.1257
▁domini	-11.1259
▁estorb	-11.126
▁Atl	-11.1265
ega	-11.1265
▁dejaro	-11.1268
imac	-11.1269
▁acab	-11.1281
▁aviéndol	-11.1288
esía	-11.1288
▁desgrana	-11.1291
▁espant	-11.1299
cuil	-11.13
▁elevado	-11.1306
▁cansa	-11.1322
▁viniere	-11.1324
▁enojar	-11.1333
▁mandaba	-11.1337
▁dedica	-11.134
▁reconocer	-11.1341
rtista	-11.1344
▁cualquiera	-11.1345
▁Ys	-11.1348
▁ardía	-11.1351
▁envuelve	-11.1352
▁merecier	-11.1355
▁descarg	-11.1362
pre	-11.1364
▁construyer	-11.1375
emáza	-11.1387
▁xiu	-11.1388
▁inmediata	-11.1392
tecatl	-11.1396
▁Cas	-11.1396
▁retirar	-11.1396
▁llevará	-11.1404
▁pretendía	-11.1412
▁Feder	-11.1414
huá	-11.1415
olito	-11.1415
▁funda	-11.1417
rú	-11.142
▁acaban	-11.1421
▁agri	-11.1422
▁Tl	-11.1427
▁Atoto	-11.1434
▁Villa	-11.1435
▁coyo	-11.1442
latl	-11.1444
late	-11.1446
AT	-11.1451
▁duerme	-11.1456
ázar	-11.1457
▁pensar	-11.146
▁cerrada	-11.146
quita	-11.146
▁vencido	-11.1462
uit	-11.1464
amo	-11.1468
▁captur	-11.1479
▁madr	-11.1482
▁dize	-11.1484
lonia	-11.1487
▁Respondi	-11.1493
▁Pascua	-11.1493
▁chi	-11.1518
uch	-11.152
uc	-11.1525
peli	-11.1528
▁ard	-11.153
▁emprende	-11.1533
▁list	-11.1535
mundo	-11.1544
▁Iztacal	-11.1545
▁ilumina	-11.1556
▁firmas	-11.1561
▁acercar	-11.1572
rég	-11.1573
▁Tod	-11.1582
mia	-11.1585
▁apoderar	-11.1593
▁Tzon	-11.1594
▁comenzaba	-11.1597
▁asist	-11.1607
▁estudi	-11.1608
▁cumplido	-11.1617
▁tiende	-11.1621
▁dividi	-11.1627
▁caminante	-11.1627
▁seguirá	-11.1628
▁morador	-11.1632
rando	-11.1637
ula	-11.1647
▁esas	-11.1654
▁Cuáuh	-11.1658
▁Cre	-11.1659
iquipil	-11.1663
eli	-11.1674
bles	-11.1675
▁golpear	-11.1677
▁empeñ	-11.1679
▁oscurec	-11.168
▁Sabe	-11.1686
▁espiritu	-11.1688
chon	-11.169
▁portal	-11.1691
guez	-11.1694
▁certifica	-11.1694
▁muro	-11.1696
▁secó	-11.1699
▁tene	-11.1704
▁fuer	-11.1707
diencia	-11.1709
abrie	-11.171
nieto	-11.1715
fico	-11.1721
ec	-11.1722
forma	-11.1725
▁descansa	-11.1739
▁arrastr	-11.1742
▁amarra	-11.1744
▁humea	-11.1746
zopi	-11.175
for	-11.175
▁huérfano	-11.176
alén	-11.1761
deras	-11.1764
▁chinam	-11.1769
▁Er	-11.1771
▁Tenan	-11.1771
▁muer	-11.1776
▁ande	-11.1781
pu	-11.1785
▁enredad	-11.1809
litros	-11.1818
quihua	-11.1818
manera	-11.1831
lmente	-11.1832
▁Cali	-11.1834
cruz	-11.1836
▁Justi	-11.1839
tlixc	-11.1844
▁morado	-11.1845
▁pretend	-11.1847
▁depositar	-11.1851
▁hier	-11.1856
▁pen	-11.1859
▁obedece	-11.186
quinto	-11.1861
▁hacerle	-11.1864
▁subier	-11.1874
▁arreglar	-11.1877
▁sede	-11.188
▁funcion	-11.1881
▁muera	-11.1882
▁trabajas	-11.1884
quecholl	-11.1885
Serpiente	-11.1888
▁roca	-11.1891
redo	-11.19
▁repartía	-11.1907
uenta	-11.1908
▁perverso	-11.1911
▁contestar	-11.1922
▁ahorcar	-11.1922
alla	-11.1928
▁exhibi	-11.1929
▁ocurrir	-11.1929
▁red	-11.1934
▁juntaba	-11.1941
▁canasto	-11.195
▁pode	-11.1951
▁Tzihuac	-11.1957
▁fija	-11.1959
▁Vien	-11.1961
▁Tuv	-11.1963
con	-11.1983
▁reside	-11.1984
▁Vini	-11.1984
▁Ade	-11.1985
irve	-11.1987
xtli	-11.1988
▁captura	-11.1991
▁Má	-11.1993
▁impid	-11.1993
▁solemn	-11.1996
▁Bel	-11.1998
tado	-11.2003
▁lista	-11.2003
▁hor	-11.2012
▁criado	-11.2027
▁rosa	-11.203
imen	-11.2032
▁Atezca	-11.204
▁Mari	-11.2041
conos	-11.2042
▁rodean	-11.2043
▁deleit	-11.206
lera	-11.2064
▁puxa	-11.2065
▁obsta	-11.2069
▁dardo	-11.2076
cosa	-11.2083
▁Gr	-11.2092
▁sementera	-11.2098
▁plumaje	-11.2099
▁honr	-11.2106
▁cinc	-11.2109
▁navega	-11.2115
▁séptim	-11.2117
orque	-11.213
ren	-11.2133
▁asenta	-11.2139
▁prohibi	-11.2139
▁colocan	-11.2141
▁tuviera	-11.2146
▁otorgar	-11.2156
▁arde	-11.216
▁limpio	-11.2162
acan	-11.2165
▁ago	-11.2174
afa	-11.2174
ver	-11.2176
máza	-11.2179
▁ahorcado	-11.2195
▁falsa	-11.2212
▁azote	-11.2218
uvo	-11.222
ber	-11.2221
be	-11.2223
▁raspa	-11.2224
tra	-11.2234
echó	-11.2237
▁necesitaba	-11.2238
▁Acall	-11.225
▁trabajaba	-11.2254
▁bajaba	-11.2254
▁flechar	-11.2267
uple	-11.227
mentos	-11.227
gencia	-11.2272
▁decidi	-11.2272
▁soport	-11.2276
▁semill	-11.228
▁conoc	-11.2282
rme	-11.2284
▁Mazatl	-11.2284
▁sépt	-11.2284
eda	-11.2286
▁sembr	-11.2296
▁rapad	-11.2309
▁Tziuht	-11.2312
omo	-11.2313
▁DIALOGO	-11.2314
▁Teotihuacan	-11.2314
▁arcabuce	-11.2314
▁chololteca	-11.2314
▁conflicto	-11.2314
▁círculo	-11.2314
▁inútil	-11.2314
▁mercancía	-11.2314
▁Huitznec	-11.2314
▁idioma	-11.2314
▁propietario	-11.2314
▁resplandor	-11.2314
▁resucit	-11.2314
▁Cruci	-11.2314
▁deliberar	-11.2314
▁trux	-11.2314
▁línea	-11.2314
▁Palacio	-11.2314
▁femoral	-11.2314
▁Brota	-11.2314
▁rajita	-11.2314
▁viruela	-11.2314
▁Ayopocht	-11.2314
▁libertad	-11.2314
▁pajarito	-11.2314
▁Favor	-11.2315
▁cristal	-11.2315
▁maseual	-11.2315
▁celest	-11.2315
▁colibrí	-11.2315
▁pruden	-11.2315
▁Empieza	-11.2315
gatorio	-11.2315
▁escalera	-11.2315
▁Jhoa	-11.2315
▁afán	-11.2315
▁felicidad	-11.2315
▁Igual	-11.2315
▁ratific	-11.2315
▁agriet	-11.2315
▁máscara	-11.2315
▁católic	-11.2315
▁repentina	-11.2316
▁valiente	-11.2316
▁requisito	-11.2316
zonco	-11.2316
▁comience	-11.2317
▁madrina	-11.2317
▁pelear	-11.2317
▁Tonaca	-11.2318
▁arroz	-11.2318
▁desaparecer	-11.2318
▁monument	-11.2318
▁Ingl	-11.2318
▁patria	-11.2318
▁requería	-11.2319
▁juzgado	-11.232
▁azulejo	-11.232
▁requiere	-11.232
▁provey	-11.2321
JOL	-11.2321
▁cuexteca	-11.2322
▁apesta	-11.2322
▁explica	-11.2322
▁cabecera	-11.2322
▁descuid	-11.2322
▁vientre	-11.2323
▁Totomihua	-11.2323
▁obedecían	-11.2325
▁Asunci	-11.2325
▁sustituy	-11.233
ajara	-11.233
▁tlacotenc	-11.2331
▁propus	-11.2332
▁Metzt	-11.2332
▁vestidura	-11.2333
▁Acuec	-11.2336
▁humear	-11.2336
▁tezcaco	-11.2337
▁expresado	-11.2337
▁merecedor	-11.2338
ni	-11.2338
mbar	-11.2338
▁entrara	-11.2339
▁ultim	-11.234
▁conjunto	-11.2342
▁sabor	-11.2343
▁linde	-11.2345
▁futuro	-11.2345
▁grandeza	-11.2349
▁suficiente	-11.2349
▁respectiva	-11.2349
eneral	-11.235
▁VI	-11.2355
▁muchísimo	-11.2361
▁serranos	-11.2361
▁famoso	-11.2366
▁Topant	-11.2367
sentimiento	-11.237
▁Quiero	-11.237
▁trabajadores	-11.2373
▁deshace	-11.2375
▁venerad	-11.2379
▁guisado	-11.2381
▁terrena	-11.2382
▁ocurrido	-11.2382
▁esforzado	-11.2384
faci	-11.2385
▁cuartel	-11.2385
▁majest	-11.2386
▁Eu	-11.2388
▁baj	-11.2389
▁gasta	-11.2391
▁asediado	-11.2391
▁cree	-11.2392
▁cuidados	-11.2392
armen	-11.2393
▁tepixque	-11.2393
▁magno	-11.2395
▁Beat	-11.2395
▁baba	-11.2396
▁traerlo	-11.2396
▁nazca	-11.2397
▁Mor	-11.2397
▁enterrado	-11.2398
▁Du	-11.2398
▁denominada	-11.2401
▁espiga	-11.2402
▁mencion	-11.2403
▁Matlatzinc	-11.2404
▁ganar	-11.2408
▁originario	-11.2412
▁florece	-11.2414
prés	-11.2415
▁entré	-11.2416
▁Nace	-11.2427
▁Mis	-11.2427
▁listo	-11.243
▁juntaron	-11.2431
▁corre	-11.2432
ible	-11.2433
▁Tlachc	-11.2435
▁torcido	-11.2443
▁volvía	-11.2444
▁fatiga	-11.2445
▁ajena	-11.2447
▁duque	-11.2449
soma	-11.245
ños	-11.2454
▁haciéndo	-11.2454
adora	-11.2457
▁deber	-11.2462
▁perturbe	-11.2462
▁previa	-11.2464
zate	-11.2467
uhca	-11.2468
▁hechicero	-11.247
▁extra	-11.247
▁tlacatecpan	-11.2472
▁gritos	-11.2475
▁cuela	-11.2481
▁conduci	-11.2483
▁participar	-11.2484
▁fibr	-11.2486
▁cierra	-11.2487
▁descubr	-11.2494
ño	-11.2498
▁compus	-11.25
▁direc	-11.2502
▁tiangui	-11.2504
▁Chic	-11.2504
▁bula	-11.2505
▁puercos	-11.2506
▁cacto	-11.2507
meca	-11.2511
▁pintor	-11.2513
▁Aquella	-11.2515
nio	-11.2518
▁permanece	-11.2519
▁corporal	-11.2522
illos	-11.2525
▁erguir	-11.2528
▁aparecía	-11.2528
▁afligir	-11.2529
igno	-11.2544
▁fundado	-11.2545
gan	-11.2547
ér	-11.2551
▁dejará	-11.256
▁confirma	-11.2563
▁tlenam	-11.2564
▁acostumbra	-11.2564
cerrado	-11.258
▁realiz	-11.2582
▁moler	-11.2583
▁obligado	-11.2584
▁mirad	-11.2586
▁Cuat	-11.2587
irme	-11.2587
▁apodera	-11.2588
▁afligi	-11.2591
▁cuánt	-11.2591
▁elecci	-11.2596
▁ocult	-11.2614
▁buscaba	-11.2617
▁coge	-11.2619
▁buscan	-11.2619
▁Xihuiton	-11.2621
▁bas	-11.2623
▁pesado	-11.2635
▁prosigui	-11.2636
▁construye	-11.2638
▁id	-11.2644
uéx	-11.266
▁tiernos	-11.2665
▁sano	-11.2673
▁abre	-11.2676
▁dedicado	-11.2678
▁Ozoma	-11.2683
pasado	-11.2683
▁Regin	-11.2689
▁responder	-11.2692
▁persiguie	-11.2704
▁respondier	-11.2706
▁acostar	-11.2708
til	-11.2713
▁tard	-11.2714
▁disponer	-11.2715
▁Tepoz	-11.2737
▁vuel	-11.2737
▁confi	-11.2745
▁perecerá	-11.2748
▁Esc	-11.2749
▁falleci	-11.2751
▁realiza	-11.2752
▁partida	-11.2753
▁erguid	-11.2754
▁asisti	-11.2763
homa	-11.2764
iba	-11.2767
vecina	-11.2767
▁Cihua	-11.277
▁puerto	-11.2781
▁cuadra	-11.2782
nia	-11.2783
▁ayud	-11.2784
necas	-11.2785
iza	-11.2786
▁estuviese	-11.2791
▁Pro	-11.2793
▁hazlo	-11.2794
▁oscurecer	-11.2799
▁iniciar	-11.2799
ctor	-11.2802
▁aguja	-11.2806
▁indica	-11.2815
cé	-11.2818
▁espantosa	-11.2822
▁nonbre	-11.2829
▁tirado	-11.2832
▁tri	-11.2834
▁podré	-11.2838
▁haba	-11.2838
▁convoca	-11.2839
▁rog	-11.2841
▁supie	-11.2845
eran	-11.2846
▁decreto	-11.2853
tino	-11.2854
▁tem	-11.2856
▁Ap	-11.2859
rrito	-11.2859
▁tañe	-11.286
lgunos	-11.2865
latzin	-11.2865
▁invocar	-11.2868
▁educado	-11.2871
▁nombrada	-11.2884
▁Tozcu	-11.2899
▁Coru	-11.2909
tonc	-11.292
▁Nanal	-11.2926
▁provoca	-11.2932
áramos	-11.2932
▁honrado	-11.2936
lanc	-11.2948
▁cuant	-11.2953
▁j	-11.2962
▁salva	-11.2966
▁topar	-11.2968
▁xi	-11.2972
atican	-11.2973
pesar	-11.2981
noche	-11.2981
▁tiró	-11.2982
aré	-11.2983
nac	-11.2984
▁renovar	-11.2988
xcoc	-11.2998
ué	-11.3005
zca	-11.3007
▁completa	-11.3008
▁asust	-11.3012
vall	-11.3018
▁Tlacate	-11.3021
hui	-11.3026
▁afirman	-11.3029
▁elevar	-11.3029
▁sujet	-11.3034
▁venas	-11.3035
rugada	-11.3035
▁gustaba	-11.3039
▁arrecia	-11.305
éramos	-11.3054
▁Xal	-11.3066
onati	-11.3067
▁confes	-11.3077
▁vestir	-11.3099
▁paró	-11.3103
▁Fi	-11.311
ugada	-11.311
▁necesitar	-11.3119
gate	-11.312
vido	-11.312
▁arreglo	-11.3126
▁aguel	-11.3127
▁anduv	-11.3132
▁recibí	-11.3137
donado	-11.3137
▁cru	-11.314
▁viste	-11.315
esos	-11.3151
▁valeroso	-11.3152
▁terminad	-11.3161
▁escog	-11.3165
▁tor	-11.3166
rnos	-11.3169
▁puro	-11.3174
▁gru	-11.3177
▁separado	-11.3178
▁recatado	-11.3182
RI	-11.3187
cientos	-11.3189
▁ejecut	-11.3199
▁reparar	-11.32
gente	-11.321
ix	-11.3213
▁llevada	-11.322
▁trataba	-11.3224
▁escrita	-11.3224
raje	-11.3228
▁nonbrado	-11.3235
▁proce	-11.3236
ró	-11.3239
▁desayunar	-11.3241
▁padeci	-11.3252
▁combat	-11.3256
▁atacar	-11.3259
tal	-11.3263
▁chalc	-11.3264
ería	-11.3265
xic	-11.3267
▁vigila	-11.3273
zó	-11.3275
poc	-11.3279
▁sucio	-11.3284
achado	-11.3285
ímit	-11.3287
sencia	-11.3288
íz	-11.3293
pas	-11.3295
▁á	-11.3301
▁aparecie	-11.3309
▁Mix	-11.331
lia	-11.3311
tento	-11.3315
culto	-11.3319
▁Sería	-11.332
▁complet	-11.3321
▁envidia	-11.3325
▁Tepan	-11.3329
pul	-11.3332
▁univers	-11.3341
▁cap	-11.3345
yaote	-11.335
▁quit	-11.3351
avan	-11.3355
▁sirv	-11.3357
▁maya	-11.3375
▁cena	-11.3378
▁robar	-11.3381
▁Ozto	-11.3384
mez	-11.3392
▁consum	-11.341
▁tranquilo	-11.3416
lva	-11.3427
ár	-11.344
▁sangr	-11.3441
▁determin	-11.3442
untad	-11.3443
▁sepulta	-11.3443
▁tomará	-11.3452
ipilt	-11.3452
▁alivi	-11.3453
stro	-11.3453
tlacozauhca	-11.3463
uez	-11.3465
aterra	-11.3465
fijo	-11.347
azo	-11.3471
▁volverá	-11.3472
iel	-11.3475
▁situad	-11.3482
▁Ent	-11.3482
▁doctrina	-11.3483
▁supier	-11.3483
▁obedecer	-11.3488
▁naveg	-11.3496
pide	-11.3497
▁dal	-11.3498
ráfic	-11.35
viene	-11.3507
▁enterar	-11.3508
▁pública	-11.3508
▁seré	-11.351
▁Teng	-11.3512
▁ayuno	-11.3514
▁Fui	-11.3514
illas	-11.3516
erable	-11.352
▁Merc	-11.352
▁bordada	-11.3523
▁cima	-11.3526
yerba	-11.3534
escuela	-11.3534
tán	-11.3544
▁vinie	-11.3545
átic	-11.3546
gori	-11.3551
▁hundi	-11.3561
▁gir	-11.3562
ora	-11.3563
▁someter	-11.3567
donde	-11.3576
▁pequeñas	-11.3585
▁cuchar	-11.3595
▁honrar	-11.36
▁corrien	-11.3604
▁pasear	-11.3613
▁oí	-11.3614
ilco	-11.3615
▁compre	-11.3617
▁guardaba	-11.3619
▁prosigu	-11.3619
▁aconteci	-11.3624
▁olvida	-11.3626
oluca	-11.363
▁Da	-11.363
sistir	-11.3631
ias	-11.3633
▁Tico	-11.3634
▁Xihuit	-11.3638
▁instalar	-11.364
▁Presid	-11.364
▁descarga	-11.3643
cto	-11.3648
▁ordinari	-11.3651
▁opini	-11.3657
▁trig	-11.3663
▁faltaba	-11.3665
▁cura	-11.367
▁amenaza	-11.3673
▁ofreci	-11.3674
ísimo	-11.3675
nuevo	-11.3675
▁Gua	-11.3677
▁ordena	-11.368
▁avis	-11.3692
▁arrib	-11.3693
▁Tzompahua	-11.3702
▁cuartill	-11.3704
▁despid	-11.3707
▁inundaci	-11.3707
riente	-11.3708
▁Gu	-11.3708
siete	-11.3711
▁insisten	-11.3715
▁Moquihuix	-11.3718
iré	-11.3726
guel	-11.3731
▁empez	-11.3735
▁correo	-11.3738
▁admir	-11.3738
▁vivirá	-11.3745
▁Coatlic	-11.3747
dula	-11.3749
▁guajolote	-11.376
▁montaña	-11.376
▁puerco	-11.3763
▁indígena	-11.3763
▁Yaca	-11.3764
▁tepaneca	-11.3765
▁caudill	-11.3765
dic	-11.3775
▁Dad	-11.3776
viern	-11.3777
▁hueso	-11.3785
ju	-11.3788
▁figura	-11.3792
▁juntar	-11.3795
▁despidi	-11.3802
chan	-11.3802
▁fiel	-11.3803
▁levantan	-11.3804
▁Cuitlahua	-11.3804
▁leche	-11.3807
▁falso	-11.3811
ebre	-11.3814
él	-11.3815
▁Tenoch	-11.3821
▁hinca	-11.3828
▁padece	-11.383
▁mir	-11.3832
itud	-11.3834
▁doncell	-11.3838
▁afana	-11.384
▁germin	-11.3842
▁creer	-11.3844
ice	-11.3858
▁Sub	-11.3859
▁viviría	-11.3859
▁volte	-11.3859
▁cortado	-11.3864
▁arrodill	-11.3868
quen	-11.3869
acto	-11.3875
▁desgarra	-11.3877
▁domin	-11.3879
▁Será	-11.388
▁alcanz	-11.3884
ilio	-11.3884
▁just	-11.3886
▁cubrir	-11.3894
▁benefici	-11.3898
▁Ixtlil	-11.3898
terna	-11.39
▁molesto	-11.3907
▁cobra	-11.3922
▁Poder	-11.3922
▁bautiza	-11.3927
▁Respond	-11.3931
▁vendiese	-11.3932
oc	-11.3946
▁cambia	-11.3947
rgant	-11.3951
ed	-11.3953
jército	-11.3957
▁Has	-11.3962
▁Gonz	-11.3966
▁comunic	-11.397
▁Cop	-11.3971
▁orig	-11.3975
áculo	-11.3978
▁Mamalhuaz	-11.3981
▁Christo	-11.3981
▁silencio	-11.3981
▁Chikomexochitl	-11.3981
▁Quauhtzetzel	-11.3981
▁Tetlepanquetza	-11.3981
▁acantilado	-11.3981
▁arbusto	-11.3981
▁cazoleta	-11.3981
▁célebre	-11.3981
▁parroquia	-11.3981
▁popular	-11.3981
▁poyauhteca	-11.3981
▁privilegio	-11.3981
▁proyecto	-11.3981
▁práctica	-11.3981
▁próxim	-11.3981
▁unoaconej	-11.3981
▁virreina	-11.3981
▁víctima	-11.3981
▁Tzapotla	-11.3981
▁luminaria	-11.3981
▁virtud	-11.3981
▁deshierba	-11.3981
▁Apepe	-11.3981
▁científico	-11.3981
▁género	-11.3981
▁embriaguez	-11.3981
▁Mimich	-11.3981
▁temporal	-11.3981
▁pimienta	-11.3981
▁diferencia	-11.3981
▁inspecciona	-11.3981
▁Totoquihua	-11.3981
▁Yacatecu	-11.3981
▁Huax	-11.3981
▁oportunidad	-11.3981
▁beatifica	-11.3981
▁Moteuc	-11.3981
▁superfici	-11.3981
▁Cuetzpal	-11.3981
▁aparezca	-11.3981
▁instancia	-11.3981
▁túmulo	-11.3981
▁Chiucnauht	-11.3982
▁erija	-11.3982
▁Jusep	-11.3982
▁rasura	-11.3983
▁desdichado	-11.3983
▁tribunal	-11.3983
▁Temilotzin	-11.3983
▁acontecimiento	-11.3983
▁misterio	-11.3983
▁Orden	-11.3984
▁procedimiento	-11.3984
▁electoral	-11.3984
▁crey	-11.3984
▁cajón	-11.3984
▁arenga	-11.3984
▁jueces	-11.3985
▁mujercita	-11.3985
▁becin	-11.3985
zaqualc	-11.3985
▁Chimalma	-11.3985
▁garant	-11.3986
▁social	-11.3986
tablo	-11.3986
▁avía	-11.3986
▁teuhctl	-11.3986
▁váya	-11.3987
▁Bernald	-11.3987
ámac	-11.3987
▁florecita	-11.3987
▁pedregal	-11.3989
▁resoluci	-11.3989
▁retroced	-11.3989
▁quiebra	-11.399
▁entidad	-11.399
▁timbal	-11.399
brica	-11.3992
▁escudilla	-11.3993
▁introduj	-11.3994
isa	-11.3994
úb	-11.3995
▁adueña	-11.3997
▁nivel	-11.3997
▁Chá	-11.3998
▁secarse	-11.3998
▁malinalca	-11.4
▁Justo	-11.4
▁Poste	-11.4
▁registr	-11.4001
hueyo	-11.4001
▁abeto	-11.4002
▁distrito	-11.4004
▁Opoch	-11.4004
▁Teopan	-11.4005
▁evitar	-11.4007
▁atributo	-11.4008
máx	-11.4008
▁Crece	-11.4008
▁devorado	-11.4008
▁gastar	-11.401
▁desarrolle	-11.401
▁mozo	-11.4012
▁Uta	-11.4013
▁Tecoco	-11.4014
▁corriente	-11.4016
▁director	-11.4016
arrio	-11.402
▁corredor	-11.402
▁viviente	-11.4024
antí	-11.4025
▁vigil	-11.4026
▁conquistad	-11.4027
ahui	-11.4028
▁guardan	-11.4028
▁bolsa	-11.4029
▁Cuitlahuac	-11.403
▁tropa	-11.4031
▁vendido	-11.4032
▁semi	-11.4032
▁herba	-11.4035
▁bulto	-11.4041
▁Dan	-11.4042
▁trabajen	-11.4044
▁vendieron	-11.4045
▁contenido	-11.4047
▁fortaleza	-11.4047
▁observar	-11.4047
▁Baz	-11.4048
▁molino	-11.4051
▁cántaro	-11.4052
▁abati	-11.4052
▁olvidar	-11.4054
▁Tlapan	-11.4058
▁coger	-11.4059
▁viviremos	-11.4064
▁avanzaba	-11.4066
▁Cohuatzin	-11.4066
▁banquete	-11.4068
▁afuera	-11.4071
▁enojaron	-11.4075
▁abundante	-11.4076
▁ingles	-11.4076
▁Tepetla	-11.4081
▁Tlacochc	-11.4086
▁Tecuan	-11.4088
jos	-11.4089
▁sacado	-11.4091
▁paresc	-11.4094
▁buscó	-11.4095
ció	-11.41
▁Dioni	-11.41
▁trabajaban	-11.4101
ropa	-11.4102
▁aprobaci	-11.4104
▁sufrir	-11.4105
▁Venía	-11.4105
lteuctl	-11.4106
▁intest	-11.4106
▁pieza	-11.4108
▁valen	-11.4108
▁matas	-11.4112
▁veintena	-11.4116
ovimiento	-11.4118
ex	-11.4119
▁estudios	-11.412
▁Cie	-11.4122
▁pesada	-11.4122
▁represent	-11.4126
▁calidad	-11.4126
▁instalado	-11.4127
▁nuera	-11.4131
fianza	-11.4133
▁Florid	-11.4133
arios	-11.4133
▁tuv	-11.4134
▁regocija	-11.4137
▁Call	-11.4138
▁colgado	-11.4139
id	-11.414
▁oydo	-11.4141
cadena	-11.4142
▁Cuetlaxtl	-11.4142
▁Yacahuetz	-11.4143
▁estimado	-11.4144
▁preocupaba	-11.4146
▁Ur	-11.4148
▁vend	-11.4149
cuech	-11.4152
▁portentos	-11.416
▁..	-11.4163
▁ofrec	-11.4164
▁estimaba	-11.4164
▁maravilloso	-11.4171
▁Habla	-11.4172
nesto	-11.4172
iana	-11.4175
▁afligirá	-11.4178
▁comunal	-11.418
▁hon	-11.4181
▁Estamos	-11.4183
hu	-11.4184
▁prima	-11.4185
▁orna	-11.4187
▁bes	-11.4192
▁trai	-11.4194
▁dijera	-11.4196
▁Universi	-11.4198
ercole	-11.4203
▁Qu	-11.4204
▁sabia	-11.4208
▁nosotr	-11.4209
▁regalar	-11.4209
ntaron	-11.421
firmó	-11.4211
▁preparaba	-11.4218
▁escuchen	-11.422
▁señorita	-11.4222
▁enju	-11.4224
▁peligroso	-11.4225
▁movió	-11.4227
▁Cuauhcó	-11.4229
▁mentiroso	-11.4229
▁cañada	-11.423
iuh	-11.4231
▁sacaba	-11.4231
▁XI	-11.4233
▁herida	-11.4234
▁pequeñita	-11.4238
▁zacu	-11.4243
▁encender	-11.4245
ezca	-11.4249
lpa	-11.4249
▁apart	-11.4256
como	-11.426
▁responden	-11.4262
▁tocado	-11.4265
bilo	-11.4266
▁cría	-11.4266
▁realizar	-11.4268
▁pertenezca	-11.4271
▁algu	-11.4277
at	-11.4278
crimina	-11.4278
▁creada	-11.4282
▁pelot	-11.4283
▁oscureci	-11.4284
▁sala	-11.4284
▁verdura	-11.4285
▁fresco	-11.4287
azón	-11.4287
▁arruin	-11.4289
▁dieci	-11.4293
▁Cerro	-11.4295
▁Dur	-11.4304
años	-11.4316
▁jú	-11.4318
▁Quetzaltépe	-11.4318
▁divide	-11.4325
▁Tzompan	-11.4328
▁alegre	-11.433
▁preocupe	-11.4331
▁pé	-11.4331
▁derech	-11.4333
▁Huacal	-11.4333
▁milagros	-11.4334
▁empuña	-11.4335
lotl	-11.4337
bien	-11.4351
▁aprend	-11.4354
▁perfecta	-11.4357
▁Axol	-11.4358
▁repartir	-11.4363
ución	-11.4365
▁timbre	-11.4368
der	-11.4369
▁trab	-11.4371
▁Ix	-11.4382
▁desp	-11.4386
▁concluid	-11.4387
irrey	-11.4388
▁uña	-11.439
▁enojes	-11.4395
▁Balt	-11.4395
▁empuj	-11.4396
▁causaba	-11.4398
aller	-11.4405
ducto	-11.4409
▁hijit	-11.4411
▁vuelto	-11.4412
▁Pres	-11.4413
▁desatin	-11.442
▁atravesa	-11.4421
▁castigar	-11.4423
▁reun	-11.4424
▁dirigía	-11.4426
▁marquesa	-11.4429
▁acer	-11.4435
avian	-11.4435
▁goz	-11.4436
▁tomates	-11.4438
▁Cohuat	-11.4441
artieron	-11.4455
▁estim	-11.446
▁Acolm	-11.4464
▁poca	-11.4472
▁estuvieran	-11.4484
▁cubre	-11.4485
▁encerraba	-11.4497
▁ceñido	-11.4498
▁clar	-11.4504
▁trat	-11.4506
▁degoll	-11.4512
▁Llegar	-11.4514
▁can	-11.4515
ico	-11.4516
▁entrevista	-11.452
uchitl	-11.452
▁or	-11.4526
▁Regres	-11.4536
▁observa	-11.454
▁retir	-11.4546
▁ocupará	-11.4549
▁aposent	-11.455
▁edifica	-11.4552
▁decimos	-11.4552
méri	-11.4559
▁disparar	-11.4572
▁pequeñito	-11.4575
▁Chap	-11.458
▁ataca	-11.4585
▁Orti	-11.4588
cac	-11.4593
▁Tzompahuaca	-11.4595
▁ejerc	-11.46
▁saludarlo	-11.4613
▁abandonado	-11.4619
▁distinta	-11.4625
▁Teo	-11.463
cordó	-11.4637
▁convers	-11.4643
▁probab	-11.4643
▁gira	-11.4644
▁preso	-11.4651
▁Atli	-11.4652
▁adornado	-11.4655
▁cuna	-11.4656
▁desampar	-11.4658
▁sacarla	-11.4663
▁plen	-11.4666
▁adorn	-11.4666
TE	-11.467
ortuga	-11.4675
rve	-11.4683
▁desconoce	-11.4685
▁extensi	-11.4686
▁quemar	-11.4689
▁gr	-11.4692
bren	-11.4695
▁Cuauhn	-11.4697
far	-11.47
▁goza	-11.47
▁vendi	-11.4705
▁Tlacot	-11.4706
piña	-11.4709
▁cauda	-11.471
▁Quauhtepe	-11.4711
▁Huá	-11.4712
▁suplic	-11.4715
▁cuest	-11.4718
▁expedi	-11.4719
▁penado	-11.4733
▁destruirá	-11.4739
▁Noch	-11.4746
▁mostra	-11.4752
▁pierde	-11.4763
quieta	-11.4776
▁cierre	-11.4776
▁Nu	-11.4784
▁decí	-11.4784
▁empe	-11.4798
aíz	-11.48
▁amaría	-11.4801
▁responso	-11.481
pitza	-11.4811
▁plazo	-11.4821
▁despaci	-11.4826
▁Q	-11.4832
▁ar	-11.4836
▁sabrá	-11.4839
▁escuchado	-11.4846
tañed	-11.4848
▁tosta	-11.4849
▁profes	-11.4851
matlá	-11.4852
▁vendría	-11.4852
▁tlalhu	-11.4861
▁pega	-11.4862
▁pasad	-11.4864
▁amarga	-11.4873
▁ayudaba	-11.4877
▁pondr	-11.4878
▁tort	-11.4881
▁suceda	-11.4883
III	-11.4883
rado	-11.4886
▁falte	-11.4886
uitzo	-11.4886
▁manojo	-11.4893
▁segur	-11.4898
lxoch	-11.4899
▁directa	-11.4905
huan	-11.4916
st	-11.4924
▁redondo	-11.4927
▁desarrolla	-11.4927
▁rebelar	-11.4929
▁calz	-11.493
▁Amigo	-11.4931
▁ofend	-11.4934
▁poblad	-11.4937
jus	-11.4938
▁merec	-11.4939
▁tomas	-11.4942
▁narra	-11.4952
▁rodead	-11.4953
▁Yu	-11.4954
acatl	-11.4956
▁tomarla	-11.4958
omás	-11.4965
laga	-11.4967
▁cometa	-11.4968
▁flech	-11.4968
íamos	-11.4975
▁aliment	-11.4975
serra	-11.4976
▁cita	-11.4976
uras	-11.4977
▁Tomatl	-11.4977
▁bot	-11.4977
▁deste	-11.4981
able	-11.4981
▁caminaba	-11.4985
▁pareci	-11.4989
▁clara	-11.4993
tzca	-11.4995
▁desciende	-11.4996
▁Tenga	-11.5004
▁asu	-11.5005
▁Cohuatl	-11.5006
▁curaba	-11.5013
▁congreg	-11.5017
▁pagan	-11.5018
▁claro	-11.502
cimientos	-11.5037
▁Quauh	-11.5038
▁obsequi	-11.5038
▁franc	-11.5038
▁escap	-11.5044
licu	-11.5045
▁corn	-11.505
▁ant	-11.5062
▁obsequiar	-11.5074
resa	-11.5081
▁pelea	-11.5082
tadas	-11.5086
▁encarg	-11.5087
itlán	-11.5089
iebre	-11.5096
▁prepara	-11.511
▁escud	-11.511
▁comp	-11.5112
puesta	-11.5115
▁crear	-11.5116
cu	-11.5116
▁platicar	-11.5127
▁jam	-11.5129
▁enton	-11.5129
▁conquistar	-11.5134
▁hem	-11.5134
▁consider	-11.5151
▁Tech	-11.5154
sistía	-11.5157
▁sopla	-11.5164
vino	-11.5165
dijo	-11.5173
fri	-11.5174
Tenochtitlan	-11.5182
▁separar	-11.5187
fo	-11.5189
▁tuvi	-11.5193
▁repent	-11.5193
▁enfrenta	-11.5195
▁acompañante	-11.5202
cic	-11.5203
▁Tecuani	-11.5204
▁quieras	-11.5205
▁hiel	-11.5205
riz	-11.5205
▁nob	-11.5216
▁Teat	-11.5221
gantes	-11.5224
▁genera	-11.5245
▁asentad	-11.5252
▁derrama	-11.526
aventura	-11.526
▁Ocuil	-11.5262
▁turb	-11.5264
▁Escuche	-11.5271
am	-11.5273
▁Eje	-11.5277
▁iría	-11.5278
▁Amilc	-11.5281
dido	-11.5283
▁guard	-11.5287
▁remat	-11.5288
eco	-11.5298
▁humill	-11.5308
rios	-11.5309
yauhtzin	-11.5314
por	-11.5327
daron	-11.533
▁asustado	-11.5332
▁conci	-11.5336
▁Bu	-11.5337
abri	-11.5342
▁continua	-11.5347
▁Comenz	-11.5348
▁tema	-11.5349
▁aparta	-11.5356
▁reale	-11.5361
▁distinto	-11.5365
▁redond	-11.5365
alqui	-11.5366
▁propone	-11.5372
▁gra	-11.5374
▁cá	-11.5376
▁mande	-11.5376
▁Buena	-11.5381
laman	-11.5384
fes	-11.5386
▁pasará	-11.5389
▁Decía	-11.5402
▁pat	-11.5404
▁profund	-11.5404
ingo	-11.5406
▁dich	-11.5423
▁avisar	-11.5426
▁Mund	-11.5427
erse	-11.5431
▁firmado	-11.5431
ólotl	-11.5434
▁go	-11.5435
▁defini	-11.5447
▁fall	-11.545
▁conservar	-11.5455
▁hil	-11.5461
▁desperdicia	-11.5462
▁Tet	-11.547
▁romp	-11.5494
▁indio	-11.5504
▁serio	-11.5504
▁aprehendi	-11.5507
▁verla	-11.5508
malinal	-11.5509
▁oíd	-11.5511
▁situa	-11.5513
▁afrenta	-11.5517
ha	-11.5519
▁trabaj	-11.5519
▁dirige	-11.5521
▁Iztacc	-11.5521
▁cerc	-11.5523
▁declarad	-11.5526
▁manifesta	-11.5529
▁desnuda	-11.5532
▁escuchad	-11.5532
chas	-11.5534
▁pasto	-11.5538
▁encamin	-11.5545
▁devo	-11.5557
hinampa	-11.5558
▁Tlacatec	-11.5561
▁dis	-11.5562
▁forjado	-11.5564
▁ple	-11.5565
uet	-11.5565
stre	-11.5565
▁milagro	-11.5567
▁tempest	-11.557
▁estrena	-11.5574
▁tabla	-11.5575
▁ent	-11.558
▁Huitz	-11.5581
tanto	-11.5583
▁celebra	-11.5591
▁espes	-11.5592
▁cala	-11.5595
▁dign	-11.5597
▁ocup	-11.5602
▁cuide	-11.5605
efe	-11.5607
▁convocar	-11.561
ancha	-11.561
sic	-11.561
qu	-11.5618
▁Acatla	-11.5625
▁encomend	-11.5626
▁sabido	-11.5629
▁cog	-11.563
lancu	-11.5632
▁adorna	-11.5633
▁obscur	-11.5635
usan	-11.5641
xotl	-11.5642
▁Queda	-11.5643
tolimpan	-11.5662
nile	-11.5663
▁crecie	-11.5664
▁tarda	-11.5664
▁residen	-11.5667
▁siga	-11.5667
▁viviera	-11.5672
▁materia	-11.5674
mág	-11.5678
▁Tecuicho	-11.5682
▁Tzihuactl	-11.5683
elo	-11.5688
tam	-11.569
▁pegar	-11.5691
zque	-11.5693
vie	-11.5695
río	-11.5702
ven	-11.5706
▁volviera	-11.571
▁puebl	-11.571
alina	-11.5711
▁liber	-11.5714
▁cuidará	-11.5719
tzpan	-11.5725
▁ahorc	-11.5736
▁catedr	-11.5736
▁nube	-11.5737
▁mudar	-11.5738
▁Regi	-11.5742
▁tomarlo	-11.5744
▁consist	-11.5748
rador	-11.575
uhquil	-11.5757
▁servid	-11.5759
eca	-11.5763
ndia	-11.577
▁Oztot	-11.5774
▁Fuer	-11.5776
▁Van	-11.5776
creció	-11.5778
▁Polo	-11.5778
ísima	-11.578
eresa	-11.5782
lvaro	-11.5788
yce	-11.5799
▁yace	-11.5805
▁enojado	-11.5807
▁teoc	-11.5808
▁exclam	-11.5813
▁sesion	-11.5814
▁viej	-11.5814
▁causado	-11.5819
▁Año	-11.5821
▁atrevi	-11.5822
tiva	-11.5828
▁revol	-11.5834
cutivo	-11.5842
▁extraordinaria	-11.5843
añana	-11.5846
▁oculto	-11.5853
nca	-11.5855
tín	-11.5856
▁dá	-11.5856
braba	-11.5865
yó	-11.5872
▁renombr	-11.5873
▁juntan	-11.5875
▁Chimal	-11.5876
▁estudio	-11.588
▁cuñad	-11.5886
▁Tan	-11.5886
uda	-11.5887
parentes	-11.5893
otor	-11.5893
ahua	-11.5901
▁Tzi	-11.5902
▁Yao	-11.5902
▁int	-11.5903
uame	-11.5903
▁octav	-11.5907
▁marc	-11.5908
▁rodear	-11.5914
▁tela	-11.5916
▁atribu	-11.5917
▁precipita	-11.5921
▁Cinc	-11.5924
pondrá	-11.5926
idó	-11.5931
▁tibi	-11.5935
astre	-11.5939
▁engañ	-11.5942
prete	-11.5951
▁pronuncia	-11.5954
colnahu	-11.5957
▁amonesta	-11.5961
▁torna	-11.5965
▁fastidi	-11.5966
ictin	-11.5967
▁acud	-11.5968
▁entristeci	-11.5974
▁guiar	-11.5975
▁menester	-11.5976
▁afirma	-11.5977
▁peniten	-11.5979
rí	-11.598
▁Toteoci	-11.598
ILIT	-11.5981
▁Acuezcóma	-11.5981
▁Celestial	-11.5981
▁Techichiquil	-11.5981
▁cosquillas	-11.5981
▁cuitlahuaca	-11.5981
▁europeo	-11.5981
▁guacamaya	-11.5981
▁jubileo	-11.5981
▁nixtamal	-11.5981
▁película	-11.5981
▁presagio	-11.5981
▁verdolagas	-11.5981
▁víbora	-11.5981
proxim	-11.5981
▁Legislativo	-11.5981
▁agobiado	-11.5981
▁atemoriza	-11.5981
▁braguero	-11.5981
▁hordinario	-11.5981
▁Gutierre	-11.5981
▁Xaquin	-11.5981
▁estricta	-11.5981
▁apedrea	-11.5981
▁itacate	-11.5981
▁clausula	-11.5981
▁Arranca	-11.5981
▁chiltep	-11.5981
▁circunvecin	-11.5981
▁gremio	-11.5981
▁obedezca	-11.5981
▁mezquite	-11.5981
▁Coanaco	-11.5981
▁Otompa	-11.5981
▁cuída	-11.5981
▁Ixcuecu	-11.5981
▁Teocuitla	-11.5981
▁útil	-11.5981
DO	-11.5981
▁cañaveral	-11.5981
▁Ixcozauh	-11.5981
▁débil	-11.5981
▁jard	-11.5981
▁Painal	-11.5981
▁Cotolco	-11.5981
▁inspir	-11.5982
▁conveniente	-11.5982
▁hierbita	-11.5982
▁decimotercer	-11.5982
▁entroniza	-11.5982
▁instrumento	-11.5982
▁pantal	-11.5982
▁ampli	-11.5982
▁Huítz	-11.5982
▁ausencia	-11.5982
▁amarillear	-11.5983
▁aguacero	-11.5983
▁almacen	-11.5983
▁absol	-11.5983
palcate	-11.5983
tlalac	-11.5983
▁evangeli	-11.5983
▁lienzo	-11.5983
▁ymagen	-11.5984
▁orgulloso	-11.5984
▁dormida	-11.5984
▁trasuntado	-11.5984
▁averg	-11.5984
▁Esfuér	-11.5984
▁Cuauhtenco	-11.5985
▁rodilla	-11.5985
▁poema	-11.5985
▁inflama	-11.5985
▁torpe	-11.5985
▁castillo	-11.5985
▁Hermos	-11.5985
▁conseguía	-11.5985
▁desgracia	-11.5986
▁Reden	-11.5986
▁protesta	-11.5986
▁peñasco	-11.5986
▁Itztlotzin	-11.5987
fisca	-11.5987
▁xalto	-11.5987
▁reforma	-11.5988
▁esperanza	-11.5988
▁irrita	-11.5988
▁barbech	-11.5989
▁Aztasuchi	-11.5989
▁disip	-11.599
▁trescientos	-11.599
▁aplaque	-11.599
▁Piens	-11.5992
▁movimiento	-11.5995
▁reún	-11.5995
▁Xipe	-11.5995
▁Josepe	-11.5996
▁prefect	-11.5996
▁Tlilté	-11.5996
▁ladrar	-11.5997
▁mastle	-11.5997
▁tlailotlaca	-11.5998
▁recomenda	-11.5999
▁merecie	-11.5999
lanca	-11.6
▁asan	-11.6001
▁desató	-11.6002
▁Maz	-11.6003
▁vendería	-11.6004
rubia	-11.6006
▁della	-11.6008
▁exigía	-11.6009
▁matan	-11.6011
▁xoconostles	-11.6011
▁Tzinacant	-11.6012
▁perdón	-11.6013
▁huacales	-11.6014
▁permanente	-11.6014
ekat	-11.6015
▁mercadería	-11.6015
quitl	-11.6019
▁compadre	-11.602
▁corregido	-11.6021
sita	-11.6021
▁visible	-11.6021
▁trecho	-11.6022
▁presidencia	-11.6022
dependencia	-11.6022
rancisca	-11.6023
▁obtuv	-11.6025
▁trueno	-11.6025
▁Bernard	-11.6026
▁Ramir	-11.6026
▁Tendría	-11.6027
▁tamboril	-11.6028
▁itzcuauht	-11.6029
▁notific	-11.6029
panco	-11.6032
▁invocado	-11.6034
▁peones	-11.6034
AP	-11.6036
▁viviese	-11.6037
▁tronó	-11.6038
▁abundan	-11.604
▁bebé	-11.604
▁sucesi	-11.6041
cui	-11.6041
▁barat	-11.6042
▁bib	-11.6042
▁contradi	-11.6043
▁vayá	-11.6046
▁flo	-11.6046
iguel	-11.6047
▁Nenci	-11.6049
uarenta	-11.6052
▁famosa	-11.6056
▁permiti	-11.6056
▁adquirir	-11.6058
▁rendir	-11.606
▁tapan	-11.606
▁pozo	-11.6064
▁avergonzado	-11.6064
▁coloqu	-11.6064
ese	-11.6066
▁molió	-11.6067
▁acost	-11.6068
grama	-11.607
▁profesor	-11.607
▁acuesta	-11.6071
▁Toltecat	-11.6072
rian	-11.6072
▁destruya	-11.6074
cen	-11.6076
▁molestar	-11.6077
▁entienden	-11.6077
▁roman	-11.6078
▁nu	-11.6079
lpit	-11.608
▁descansan	-11.6081
▁amortaja	-11.6082
▁afligido	-11.6083
▁traslada	-11.6083
▁Nezahualpil	-11.6084
cifica	-11.6084
▁Eva	-11.6085
abi	-11.6086
▁allegado	-11.6087
▁espum	-11.6095
▁empleo	-11.6095
▁Nativi	-11.6097
▁subiendo	-11.6098
▁estéis	-11.6103
▁hervía	-11.6103
▁agu	-11.6104
▁revolver	-11.6105
▁traves	-11.6107
▁Cuauhtli	-11.6111
▁pedacitos	-11.6112
▁Xochiteuct	-11.6116
▁Cuí	-11.6125
▁huele	-11.613
izque	-11.6132
▁Poco	-11.6136
▁llevaré	-11.6137
▁Siembra	-11.6138
▁cere	-11.614
▁Juanito	-11.6142
▁sucedi	-11.6144
▁acue	-11.6144
▁Silv	-11.6149
áhu	-11.615
ndez	-11.6151
▁prendido	-11.6152
AL	-11.6159
olote	-11.6159
▁detenido	-11.6163
▁excava	-11.6164
▁Tendrá	-11.6172
▁abandonarla	-11.6176
▁sustentar	-11.618
▁ardor	-11.618
▁señalada	-11.6181
▁Primera	-11.6185
lmuerz	-11.6188
▁herido	-11.6188
▁mosco	-11.6189
▁Tzinaca	-11.619
▁tocaron	-11.6191
▁apret	-11.6195
ñas	-11.6196
▁quejar	-11.6197
ongo	-11.6199
pich	-11.6203
▁parado	-11.6209
▁entrará	-11.6213
TL	-11.6215
▁desean	-11.622
▁defecto	-11.6224
▁vigilar	-11.6224
▁engañe	-11.6225
▁QUE	-11.6226
▁colgaba	-11.6227
▁Ho	-11.6235
▁llenan	-11.6235
tlatohuan	-11.6242
▁ixtl	-11.6246
▁pá	-11.6246
▁pudre	-11.6248
▁atrevía	-11.625
▁amiga	-11.625
▁oydor	-11.625
lle	-11.6256
▁ejecu	-11.6257
▁oscurece	-11.6261
Z	-11.6265
▁Tercer	-11.6271
▁agradable	-11.6271
▁descubierto	-11.6271
▁hervirl	-11.6272
▁colocada	-11.6274
▁auxiliar	-11.6275
▁notorio	-11.6281
ién	-11.6284
pantzin	-11.6287
▁quemado	-11.6287
▁juega	-11.6288
▁raspaba	-11.6291
▁referid	-11.6291
▁enseñaba	-11.6301
RO	-11.6307
▁labrador	-11.631
capill	-11.631
▁personal	-11.6311
▁Itzcó	-11.6313
▁Riber	-11.6314
▁cesar	-11.6314
▁perdura	-11.6316
▁Tole	-11.6318
▁atar	-11.6326
quino	-11.6331
rojas	-11.6333
▁saque	-11.6338
anc	-11.634
▁enterado	-11.6341
▁dobla	-11.6341
▁educar	-11.6342
▁parecido	-11.6344
▁conquistado	-11.6348
▁Tepanquiz	-11.6349
▁agujero	-11.6351
▁abierta	-11.6352
▁Hazlo	-11.6352
▁protec	-11.6356
tan	-11.6357
▁reglamento	-11.6357
▁encendi	-11.6358
▁adorno	-11.6361
▁voltea	-11.6361
ense	-11.6363
▁frita	-11.6364
▁escurre	-11.6369
lar	-11.6375
▁doble	-11.6378
▁alumbrar	-11.6378
▁hablarle	-11.638
▁colm	-11.6385
▁miran	-11.6386
▁asediar	-11.6387
▁miseria	-11.6388
▁correspondía	-11.6388
tú	-11.6389
▁medianos	-11.6393
▁atr	-11.6397
▁ajeno	-11.6397
▁atent	-11.6397
himallaxoch	-11.6398
▁fam	-11.6399
uatl	-11.6399
▁Baltha	-11.64
▁amaba	-11.64
▁adquier	-11.6402
comuni	-11.6404
huetzqui	-11.641
▁rogaba	-11.641
gico	-11.641
▁recogía	-11.6411
▁resultado	-11.6412
capitza	-11.6412
▁presenta	-11.6413
▁engendrado	-11.6413
▁bola	-11.6413
cáte	-11.6414
rcos	-11.642
▁procurar	-11.6421
lac	-11.6421
▁tej	-11.6423
huix	-11.6425
▁despliega	-11.643
asilio	-11.6431
▁dividida	-11.6442
▁Mizquitl	-11.6442
▁ray	-11.6453
▁Toton	-11.6454
▁ciua	-11.6456
struido	-11.6457
▁venderá	-11.646
▁sembraba	-11.6461
▁depósito	-11.6466
gue	-11.6478
▁fragan	-11.6481
▁Tepaneca	-11.6484
▁dejé	-11.6484
oyohuaca	-11.6488
▁elec	-11.6492
ríamos	-11.6498
entó	-11.6499
▁jug	-11.6499
▁Anda	-11.6503
▁adivino	-11.6511
aya	-11.6516
▁Oye	-11.652
▁confirmado	-11.6533
▁dijiste	-11.6534
rdida	-11.6534
▁amare	-11.6534
▁olvide	-11.6537
ólat	-11.6542
▁angustie	-11.6542
och	-11.6546
ló	-11.6551
▁Enton	-11.6556
▁Acolmi	-11.6557
▁asignar	-11.6569
▁dul	-11.6582
▁paraje	-11.6596
▁libr	-11.6598
▁chapolear	-11.6599
▁amil	-11.6606
▁enterraba	-11.6606
▁rogar	-11.6606
▁fresca	-11.6612
sej	-11.6612
▁institu	-11.6615
▁suel	-11.6617
▁engañado	-11.6619
▁adora	-11.6621
▁compa	-11.6621
▁terren	-11.663
▁esparce	-11.6633
emani	-11.6633
▁ordenada	-11.6635
▁matado	-11.6641
▁secar	-11.6647
▁Citlaltépe	-11.6649
▁escaramuza	-11.6655
▁arca	-11.6656
▁mode	-11.6657
via	-11.666
▁chale	-11.6672
jada	-11.6673
nda	-11.6674
▁mentir	-11.6678
ltitlan	-11.6683
▁contempl	-11.6684
ieren	-11.6685
▁vestimenta	-11.6685
▁compañera	-11.6687
▁abandonad	-11.6689
▁solos	-11.6691
▁cazado	-11.6705
▁certific	-11.6716
▁reunía	-11.6727
▁terminan	-11.6747
▁divertir	-11.6751
▁lego	-11.6752
▁traerla	-11.6755
▁sepultada	-11.6756
▁compone	-11.6758
▁Rein	-11.6759
tizo	-11.6759
▁culebra	-11.6761
▁Quería	-11.6764
▁esparcir	-11.6767
▁padecie	-11.6769
maban	-11.677
▁estrenar	-11.6773
▁mantuv	-11.6775
▁contó	-11.6777
▁despierta	-11.6781
▁Xiloxoch	-11.6783
▁tronar	-11.6786
▁pedim	-11.6788
▁orina	-11.6788
▁inten	-11.679
▁vendia	-11.6791
▁molest	-11.6792
▁obligaci	-11.6793
▁cuidaba	-11.6794
▁encuentre	-11.6797
▁favorec	-11.6799
▁trasladado	-11.68
ramp	-11.6804
tria	-11.681
▁despertar	-11.6811
dale	-11.6818
▁sufrie	-11.6822
▁gustara	-11.6822
▁vendré	-11.6823
▁derrumba	-11.6826
▁Jacobi	-11.683
▁devoci	-11.6839
▁apropiar	-11.6839
▁medido	-11.6839
costé	-11.6849
▁xal	-11.6854
▁Nex	-11.6854
▁abon	-11.6855
▁Texo	-11.6856
legio	-11.6857
▁aproba	-11.6862
petlatzin	-11.6868
▁Acudi	-11.6878
▁propon	-11.688
▁contin	-11.688
▁tecpatl	-11.6888
▁aca	-11.6891
nete	-11.6892
▁amar	-11.6897
▁cuchara	-11.6897
▁indi	-11.6901
▁exclusiv	-11.6907
▁cihua	-11.6909
stituto	-11.6913
▁nombraba	-11.6914
den	-11.6915
▁sent	-11.6915
nco	-11.6917
▁movía	-11.6921
itz	-11.6923
gado	-11.6923
▁territorial	-11.6926
su	-11.6927
▁lanz	-11.6928
▁ésa	-11.6934
▁repic	-11.6935
▁confí	-11.6935
▁Velá	-11.694
▁vigilan	-11.695
▁sazona	-11.6951
▁lastimera	-11.6952
▁impedir	-11.6959
▁denomina	-11.6963
▁ins	-11.6964
▁recorr	-11.697
nada	-11.6973
▁Tec	-11.6981
▁lic	-11.6985
xayaca	-11.6987
titula	-11.6993
▁horada	-11.6997
▁guia	-11.7012
rón	-11.702
▁engañar	-11.7021
▁bara	-11.7023
▁sobrepasa	-11.7027
▁juga	-11.7027
▁Chacha	-11.7027
▁andrajos	-11.7029
himalhuaca	-11.7032
▁encendie	-11.7033
▁sentaba	-11.7034
M	-11.7036
▁brillan	-11.7037
▁repos	-11.7037
▁Xalti	-11.7039
metl	-11.7041
▁suplicaba	-11.7047
ómet	-11.7047
uiyahuizt	-11.7048
▁punt	-11.7049
icial	-11.7053
▁raja	-11.7053
ciado	-11.7055
stima	-11.7057
▁cuatrocient	-11.7057
▁festej	-11.7061
▁anb	-11.7062
▁Tzin	-11.7064
▁An	-11.7064
ne	-11.7068
▁apresar	-11.7076
▁cultivan	-11.7076
▁deposit	-11.7078
▁Viv	-11.708
uhtlix	-11.7082
▁reconoc	-11.7083
▁habi	-11.7087
▁Cat	-11.7096
▁manifest	-11.7097
▁impusier	-11.7103
▁respondía	-11.7105
▁ataviar	-11.7107
▁sancion	-11.7108
▁Cuauhtlat	-11.7109
▁descansaba	-11.7111
▁conforta	-11.7115
▁acostado	-11.7124
▁Busca	-11.7124
▁Huehuetla	-11.7131
▁clarea	-11.7135
▁deshech	-11.7135
ian	-11.7141
▁xokoyoli	-11.7142
ecitos	-11.7143
liuhqui	-11.7146
▁Acxo	-11.7146
▁soberan	-11.7148
▁compadeci	-11.715
ision	-11.715
▁extendid	-11.7151
▁vives	-11.7152
▁dispara	-11.7153
gre	-11.7159
esa	-11.7165
▁negr	-11.7166
jón	-11.7169
▁Cuitlach	-11.7171
pero	-11.7181
▁mora	-11.719
▁goce	-11.7197
▁mov	-11.7198
▁renov	-11.72
▁bendía	-11.72
▁pue	-11.7202
▁esparc	-11.7202
▁amist	-11.7219
▁fundamento	-11.7223
▁invoc	-11.7223
usar	-11.7228
▁rellenar	-11.7229
▁xiuh	-11.723
pilt	-11.7231
▁Zacat	-11.7232
▁cobre	-11.7232
▁alem	-11.7238
▁escapa	-11.7238
▁sentid	-11.7245
esen	-11.7256
▁acabará	-11.7262
▁primo	-11.7267
▁FR	-11.7268
▁adjudic	-11.727
▁alca	-11.7271
▁cautivado	-11.7277
▁conduce	-11.7282
▁sometie	-11.7294
▁defens	-11.7297
ulgar	-11.7299
marino	-11.7303
▁Next	-11.7306
▁acercaba	-11.7307
▁permane	-11.7311
eta	-11.7321
▁epi	-11.7321
huipile	-11.7328
▁observ	-11.733
▁puente	-11.7338
▁Nació	-11.734
▁menciona	-11.7342
▁herman	-11.7343
▁preguntaba	-11.7343
rrafo	-11.7346
anco	-11.7349
achinan	-11.735
▁colg	-11.7353
▁pelean	-11.7356
gres	-11.737
▁azotar	-11.737
▁beb	-11.7372
▁Pue	-11.738
▁impone	-11.7382
▁cunpl	-11.7382
hcan	-11.7384
▁acudie	-11.7395
ecatlteuctl	-11.7396
▁aprovecha	-11.7397
▁cercan	-11.7403
▁Aya	-11.7405
▁Tul	-11.7406
▁Ecat	-11.7406
ava	-11.7406
dro	-11.7416
▁adornar	-11.7417
▁alquil	-11.7422
▁desbaratar	-11.7423
iero	-11.7425
▁mant	-11.7426
▁preparan	-11.7427
▁pervers	-11.7427
icalanc	-11.7433
▁expone	-11.7436
ngl	-11.7437
seguir	-11.7438
▁Tecpa	-11.744
nza	-11.7445
▁trajera	-11.7445
▁apaga	-11.7456
izca	-11.7467
▁labrada	-11.7467
▁Coatlayau	-11.748
▁vezin	-11.7483
▁procur	-11.7484
▁abras	-11.749
ierro	-11.749
▁retoño	-11.7501
▁Cuitlacht	-11.7507
▁pico	-11.7513
▁acabe	-11.7515
▁acordar	-11.7516
▁tro	-11.752
cóhua	-11.7528
▁apropia	-11.753
▁atac	-11.7533
▁Quin	-11.7536
▁manto	-11.7539
inqui	-11.7539
▁nacier	-11.7539
▁Moc	-11.754
ves	-11.7541
▁desdeñ	-11.7541
▁aquell	-11.7544
▁eligie	-11.7544
▁pidier	-11.7548
▁profe	-11.7558
▁rod	-11.7563
▁Cuex	-11.7564
▁Pil	-11.7565
nse	-11.7576
coc	-11.758
▁contradic	-11.7582
▁Cohuatla	-11.7587
▁suma	-11.7587
rimeramente	-11.7592
tlatla	-11.7593
▁enseñan	-11.7597
vir	-11.7604
▁circunda	-11.7606
vos	-11.7617
▁escribe	-11.7639
▁retra	-11.7645
▁entrelaza	-11.7649
yahual	-11.7656
izar	-11.7663
cía	-11.7666
▁aceptar	-11.767
iuhcan	-11.767
ig	-11.7676
▁secretari	-11.768
▁Nav	-11.7683
nal	-11.7684
▁plan	-11.7684
▁Esa	-11.7685
▁Macuil	-11.7689
ZO	-11.769
▁x	-11.7694
▁impres	-11.7698
tad	-11.7705
niente	-11.7705
▁Tona	-11.7707
▁ahoga	-11.7707
▁engendr	-11.7709
▁posee	-11.7711
stas	-11.7712
▁percibi	-11.7713
▁ces	-11.7714
▁emp	-11.7715
▁Cuauhtlatohua	-11.7718
▁proced	-11.7726
tec	-11.7726
▁tristes	-11.7728
▁Preci	-11.7737
▁gritan	-11.7741
▁acomoda	-11.7744
▁apoyad	-11.7748
▁haze	-11.7758
AS	-11.7761
▁fo	-11.777
▁acusa	-11.777
itzca	-11.777
▁enoja	-11.7779
▁atreve	-11.7781
▁convoc	-11.7795
rden	-11.7796
seguirlo	-11.7801
▁Texoc	-11.7809
▁proceden	-11.7817
▁dañ	-11.7821
▁excav	-11.7821
▁montar	-11.7822
dar	-11.7822
▁conprado	-11.7825
lega	-11.7826
▁quedara	-11.7828
▁denota	-11.7831
▁Ozomat	-11.7834
esto	-11.785
▁muriere	-11.7852
▁tlatelolc	-11.7853
amb	-11.7854
▁aguanta	-11.7867
▁flore	-11.7871
▁repar	-11.7873
otros	-11.7884
▁aplica	-11.7888
oncillo	-11.7891
▁gover	-11.7902
▁brill	-11.7908
▁set	-11.7909
▁marca	-11.7916
▁ór	-11.792
rico	-11.7924
gó	-11.7937
▁esp	-11.7939
▁imposi	-11.7945
iejo	-11.7953
▁neg	-11.7955
▁mosca	-11.7964
▁volvie	-11.7968
▁conserv	-11.7969
▁engaña	-11.797
xotzin	-11.7973
▁declaraci	-11.7974
▁sirvi	-11.7975
ato	-11.7975
▁acostad	-11.7975
▁trazar	-11.7975
▁arder	-11.7977
▁azot	-11.7986
▁enreda	-11.7988
▁pare	-11.7989
▁miseri	-11.7992
▁bebía	-11.7995
▁hizie	-11.7997
▁magueyal	-11.8002
k	-11.8003
▁imp	-11.8005
▁Levánt	-11.8009
ntifica	-11.802
dio	-11.8029
píritu	-11.8033
▁Cuau	-11.8034
▁oiga	-11.8034
▁oirá	-11.8037
▁bis	-11.8042
idas	-11.8043
▁ampar	-11.8043
continente	-11.8046
tones	-11.8047
▁dedican	-11.8047
eces	-11.8049
Casa	-11.805
▁Baj	-11.8051
▁Dese	-11.8054
rtes	-11.8059
▁suplica	-11.8061
cramento	-11.8064
adores	-11.8068
▁Ne	-11.8079
▁pí	-11.8081
▁riñer	-11.8082
▁Conc	-11.8084
▁concert	-11.8088
▁mereci	-11.8095
toc	-11.8095
▁Eg	-11.8096
▁jala	-11.81
▁recibim	-11.8104
alicia	-11.8109
▁palom	-11.8112
▁haberle	-11.8115
▁zaca	-11.8128
ículo	-11.8133
▁interesad	-11.8134
▁Amax	-11.8137
▁Veng	-11.8137
▁señale	-11.8141
▁pican	-11.8148
▁pele	-11.8148
ólogo	-11.8149
▁Pin	-11.8149
ent	-11.815
▁legua	-11.8154
▁comunica	-11.8155
▁sinti	-11.8156
▁cua	-11.8161
éc	-11.8167
▁padec	-11.8167
▁religi	-11.8174
▁ondula	-11.8181
aste	-11.8187
eciente	-11.8188
▁labor	-11.8193
▁cantan	-11.8196
guete	-11.8204
▁Matla	-11.8215
amparado	-11.8226
cer	-11.823
oltitlan	-11.8241
otel	-11.8242
▁zapote	-11.8243
▁cultiva	-11.8247
iego	-11.8258
▁despelleja	-11.8264
▁informe	-11.8265
▁insist	-11.8284
▁pal	-11.8285
▁deposita	-11.8286
▁enseñorear	-11.8287
▁lograd	-11.8287
para	-11.8298
▁búsque	-11.8306
ígue	-11.832
▁armado	-11.8321
▁suspens	-11.8329
▁ponerle	-11.8332
▁ingl	-11.8335
▁riber	-11.8338
lifo	-11.8343
▁Fu	-11.8345
isteis	-11.8345
▁gu	-11.8349
▁deci	-11.8359
▁excepci	-11.836
▁sazon	-11.8367
▁tribu	-11.8367
▁derr	-11.8368
cinco	-11.8369
▁Tecui	-11.8371
▁proporciona	-11.8371
▁conta	-11.8372
▁llevarle	-11.8375
▁antel	-11.8378
ust	-11.8381
▁sacrifica	-11.8382
▁ataví	-11.8384
▁llevara	-11.8388
▁enriquec	-11.8389
▁Tz	-11.839
▁calient	-11.8392
▁Ch	-11.8393
jó	-11.8394
▁abuelit	-11.8395
▁distribu	-11.8397
lpan	-11.8408
▁felic	-11.8412
edo	-11.8413
▁mantiene	-11.8418
▁rob	-11.8421
zcué	-11.8426
iéndole	-11.8427
▁afrent	-11.8438
▁atiende	-11.8443
ajes	-11.8446
tóto	-11.8449
▁impre	-11.8449
tienden	-11.8455
▁parada	-11.8456
ído	-11.8456
▁compañ	-11.8461
SA	-11.8464
▁astr	-11.8465
▁receb	-11.8465
▁Mexicatl	-11.8465
▁borrach	-11.8472
chimale	-11.8478
▁culpa	-11.8479
▁nana	-11.8479
▁Cacamat	-11.848
▁resplandec	-11.848
obierno	-11.8481
▁remuneraci	-11.8481
▁biznaga	-11.8481
▁Cotztemex	-11.8481
▁Nahualteuctl	-11.8481
▁Occetépe	-11.8481
▁antropólog	-11.8481
▁carpintero	-11.8481
▁cataplasma	-11.8481
▁cestecillo	-11.8481
▁chirimía	-11.8481
▁chícharos	-11.8481
▁cilantro	-11.8481
▁controversia	-11.8481
▁discípulo	-11.8481
▁efigie	-11.8481
▁endemoniado	-11.8481
▁filósofo	-11.8481
▁fórmula	-11.8481
▁gematista	-11.8481
▁huitzillihuit	-11.8481
▁ignominiosa	-11.8481
▁injuri	-11.8481
▁inmundicia	-11.8481
▁jícara	-11.8481
▁orégano	-11.8481
▁pacífica	-11.8481
▁periódico	-11.8481
▁prehispánico	-11.8481
▁problema	-11.8481
▁promulga	-11.8481
▁próspero	-11.8481
▁relámpago	-11.8481
▁tortillita	-11.8481
▁culmina	-11.8481
▁Temalaca	-11.8481
▁circunscripci	-11.8481
▁mixcólotl	-11.8481
▁temazcal	-11.8481
▁Epcó	-11.8481
▁desaparezca	-11.8481
▁advirti	-11.8481
▁nokta	-11.8481
▁rescibi	-11.8481
cihuatl	-11.8481
▁canoniza	-11.8481
▁muñec	-11.8481
▁apacible	-11.8481
▁excursi	-11.8481
▁descompon	-11.8481
▁frondoso	-11.8481
▁Xiuhcoyol	-11.8481
▁socorr	-11.8481
▁diadema	-11.8481
▁llovizna	-11.8481
▁provoque	-11.8481
▁comestible	-11.8481
▁VERDE	-11.8481
▁máquina	-11.8481
▁tecomate	-11.8481
▁tlauhquechol	-11.8481
▁Tlappan	-11.8481
▁teponazt	-11.8481
▁espejito	-11.8481
▁aventaja	-11.8481
▁invierno	-11.8481
▁Temazcal	-11.8481
▁Bandera	-11.8481
ztacmixcohuatzin	-11.8481
▁déjalo	-11.8481
▁maicito	-11.8481
XO	-11.8481
▁machete	-11.8481
▁Cozcacuauhtenan	-11.8481
▁compren	-11.8481
▁paraestatal	-11.8481
▁suplente	-11.8481
▁jiote	-11.8481
▁frecuen	-11.8481
▁curandero	-11.8482
▁bendecir	-11.8482
▁celestial	-11.8482
▁Atococ	-11.8482
▁boleto	-11.8482
▁rebanadas	-11.8482
▁Tepotzotl	-11.8482
▁consecu	-11.8482
▁collera	-11.8482
▁esfera	-11.8482
▁desocupada	-11.8482
premiará	-11.8482
▁renuncia	-11.8482
▁propuesta	-11.8482
▁Quau	-11.8483
▁incensario	-11.8483
▁lombri	-11.8483
▁Secretaría	-11.8483
ipto	-11.8483
▁Atlixuca	-11.8483
▁huitznahu	-11.8483
▁victoria	-11.8483
▁agasaj	-11.8483
▁soñar	-11.8483
▁hembra	-11.8483
▁Tlahto	-11.8483
▁enfrentamiento	-11.8483
▁arrieras	-11.8483
▁transporta	-11.8484
▁Manuel	-11.8484
▁resfria	-11.8484
▁moneda	-11.8484
▁etapa	-11.8484
▁apresurada	-11.8484
▁texto	-11.8484
▁Mayor	-11.8485
▁escripto	-11.8485
▁Ypolit	-11.8485
capacidad	-11.8485
▁Alegraos	-11.8485
▁fácilmente	-11.8486
▁trepa	-11.8487
▁manojito	-11.8487
▁Tlaltecatzin	-11.8488
▁Xochitecuitl	-11.8488
▁huitzilopoch	-11.8488
▁oriund	-11.8488
▁viniste	-11.8489
▁uauj	-11.8489
mando	-11.8489
▁pectoral	-11.849
▁Cuachi	-11.849
▁matlact	-11.849
▁agradezc	-11.849
▁novedad	-11.849
▁respet	-11.849
▁rogamos	-11.8491
▁sauce	-11.8491
▁favorable	-11.8492
▁decidir	-11.8492
▁liebre	-11.8493
▁acrecientan	-11.8493
▁funcionario	-11.8493
▁deshaga	-11.8494
▁Xalli	-11.8494
▁planeta	-11.8495
▁Ueue	-11.8495
▁salitros	-11.8496
▁hic	-11.8496
resupuesto	-11.8497
omision	-11.8498
▁Teuhtlehua	-11.8499
▁brevemente	-11.85
nterior	-11.85
▁capulines	-11.85
▁llevándose	-11.8501
▁adquiría	-11.8502
▁aguacate	-11.8502
▁curv	-11.8503
▁contendía	-11.8503
▁Cipac	-11.8504
▁biólog	-11.8505
▁amonestado	-11.8508
▁acabara	-11.851
▁aérea	-11.851
▁aventó	-11.8512
▁ritual	-11.8512
▁zona	-11.8512
▁Ray	-11.8514
▁bañar	-11.8515
▁aprenda	-11.8515
▁abanico	-11.8515
▁pujar	-11.8516
▁procurador	-11.8517
▁contentaron	-11.8517
▁molestia	-11.8518
▁boz	-11.8519
▁savia	-11.852
▁desgranado	-11.8521
▁curarse	-11.8522
▁mantequi	-11.8524
▁permitiera	-11.8525
▁encarcela	-11.8526
▁escondidas	-11.8527
▁honce	-11.8528
▁Xala	-11.8529
▁lanzar	-11.8529
▁obedecido	-11.8531
▁Huey	-11.8532
▁Norte	-11.8532
▁investigador	-11.8532
▁Popotla	-11.8534
▁escogido	-11.8534
pane	-11.8534
▁Hágan	-11.8534
▁imperi	-11.8536
▁Oct	-11.8538
▁contemplar	-11.8538
▁Conoce	-11.8539
▁gordo	-11.8539
▁Cierv	-11.8541
▁aspecto	-11.8542
▁gigantes	-11.8543
▁restante	-11.8543
▁bivier	-11.8546
▁revista	-11.8547
▁Tey	-11.8548
▁Arena	-11.8548
▁morral	-11.8551
▁saludable	-11.8551
▁rinc	-11.8551
stado	-11.8552
▁extremo	-11.8553
▁encarga	-11.8554
▁explora	-11.8556
▁trabajamos	-11.8556
eiba	-11.856
▁Huitzíla	-11.8561
cula	-11.8562
ónica	-11.8564
▁producto	-11.8565
▁pegada	-11.8566
▁destroza	-11.8568
▁Momau	-11.8568
▁Acolmiztl	-11.8569
▁carpa	-11.857
▁prencipal	-11.8571
▁alabado	-11.8571
▁amistos	-11.8571
▁Poderes	-11.8575
quiz	-11.8575
▁encantado	-11.8576
▁adereza	-11.8578
▁mantienen	-11.858
▁Magn	-11.8581
▁apresado	-11.8581
▁consigue	-11.8581
▁aprehender	-11.8582
▁inclina	-11.8586
▁deporte	-11.8586
▁destinado	-11.8589
▁marchit	-11.859
etido	-11.8591
▁Ometocht	-11.8591
▁hicier	-11.8591
▁proporcion	-11.8592
▁vendiesen	-11.8593
▁huyen	-11.8594
ierre	-11.8595
▁Lib	-11.8599
▁Iztac	-11.8605
zaga	-11.8605
▁idea	-11.8606
▁tormento	-11.8609
▁ayudamos	-11.8613
▁relativa	-11.8615
▁riego	-11.8615
sin	-11.8617
▁semejan	-11.8619
▁concertado	-11.862
▁muchach	-11.862
▁estimada	-11.8623
▁quitado	-11.8623
mbres	-11.8624
▁dulz	-11.8625
▁tepi	-11.8625
▁pipi	-11.8626
▁faja	-11.8628
▁rebañ	-11.8628
▁cuanta	-11.8629
▁consulta	-11.8629
▁administrativa	-11.8631
▁Cor	-11.8633
▁vestid	-11.8634
▁amarrándo	-11.8636
cotzontl	-11.864
iva	-11.8645
▁patrimonial	-11.8647
▁desagradables	-11.8655
▁aborrece	-11.8655
▁Bar	-11.8656
▁Tenuch	-11.8659
▁delgadas	-11.8661
▁element	-11.8662
▁perderá	-11.8664
▁humeante	-11.8666
▁apostar	-11.8666
▁promet	-11.8667
▁cociner	-11.8671
▁pú	-11.8671
▁abatido	-11.8672
OL	-11.8673
otonil	-11.8678
tlapalla	-11.8678
▁rincon	-11.8685
▁tir	-11.8687
▁Chimalpah	-11.8688
▁viviere	-11.8688
▁Lobo	-11.8689
▁ochocient	-11.8689
▁peligrosa	-11.8695
▁pech	-11.8695
▁cruce	-11.8698
▁Camp	-11.8698
▁Isla	-11.8699
▁Huixacht	-11.87
▁borregu	-11.8701
▁aborrecía	-11.8704
▁Tecuil	-11.8714
▁sufren	-11.8718
▁reunió	-11.872
▁rigiera	-11.872
▁retractar	-11.8721
asado	-11.8723
▁prescrib	-11.8726
▁bastone	-11.8733
uate	-11.8734
▁amonton	-11.8734
mon	-11.8737
▁Cihuatla	-11.8739
▁Cuauhqui	-11.8739
▁alba	-11.874
▁permite	-11.8741
▁hinc	-11.8743
▁Val	-11.8753
▁vot	-11.8753
▁existía	-11.8756
▁Azt	-11.8757
▁educada	-11.8759
▁vendiere	-11.876
▁Ti	-11.876
▁ingre	-11.8761
▁embarc	-11.8762
▁ambici	-11.8762
▁construí	-11.8762
▁hábil	-11.8762
▁sirvienta	-11.8764
▁encendido	-11.8764
▁Leyes	-11.8766
▁pino	-11.8767
otlam	-11.8768
ramos	-11.8774
▁mantenía	-11.8775
▁Cimat	-11.8775
uardia	-11.8779
▁mama	-11.878
▁unidos	-11.8781
▁conocedor	-11.8781
▁bell	-11.8783
▁gote	-11.8783
▁contraiga	-11.8784
▁ad	-11.8785
▁Xayaca	-11.8791
▁reservad	-11.8792
▁compara	-11.8793
mecatl	-11.8795
▁repet	-11.8797
▁contradicci	-11.8798
▁frijolito	-11.8802
canto	-11.8802
▁dispon	-11.8804
uéstrame	-11.8808
▁origin	-11.8812
▁maltratar	-11.8818
▁cact	-11.8821
▁ami	-11.8825
▁ejerce	-11.883
deros	-11.8839
▁Tocht	-11.8841
▁huehuet	-11.8842
redi	-11.8845
▁aprendía	-11.8849
▁equip	-11.885
▁Tecal	-11.8852
▁saldría	-11.8853
▁Gali	-11.8854
idalgo	-11.8856
▁figuras	-11.8856
▁Díga	-11.8857
▁recev	-11.8857
▁invad	-11.8861
iuhqui	-11.8862
▁adicion	-11.8875
▁amenaz	-11.8877
▁propi	-11.8879
▁consigna	-11.8879
▁broma	-11.888
▁cos	-11.8883
▁cañ	-11.8884
▁considerará	-11.8884
▁oscurecid	-11.8885
▁padr	-11.8887
ramente	-11.8888
sas	-11.8889
uro	-11.8893
▁regía	-11.8895
▁arranc	-11.8897
▁Mixcoatl	-11.8903
▁trayecto	-11.8905
▁plant	-11.8907
▁Dig	-11.8914
▁doblar	-11.8916
lé	-11.8916
carcel	-11.8917
▁Mé	-11.8919
▁llave	-11.892
▁agradecer	-11.8928
uauhtinchan	-11.8928
▁harto	-11.893
▁Sur	-11.8933
ventu	-11.8934
▁muriera	-11.8936
▁alumbre	-11.8938
▁húmedo	-11.894
Cisne	-11.894
▁rect	-11.8941
reciente	-11.8942
▁labrar	-11.8943
▁estir	-11.8944
inario	-11.8945
▁horadar	-11.8945
▁Constan	-11.8947
▁Apan	-11.8947
▁desembarc	-11.8948
▁manifiesta	-11.8949
▁venera	-11.8951
▁conval	-11.8955
▁abra	-11.8958
▁económica	-11.8958
guito	-11.8958
▁dirij	-11.8964
▁atado	-11.8967
▁germinar	-11.8968
▁arrebata	-11.8968
ere	-11.897
▁gata	-11.897
▁Hermano	-11.8971
▁expresará	-11.8973
tuvieran	-11.8982
▁asign	-11.8983
▁Llama	-11.8983
▁otorga	-11.8984
▁interven	-11.8986
guero	-11.8991
▁Bo	-11.8992
▁apresarlo	-11.8993
úch	-11.9001
▁racion	-11.9001
▁Yaotzi	-11.9003
▁calm	-11.9004
ista	-11.9004
oja	-11.9004
▁sabidor	-11.9005
▁prohibida	-11.9009
▁discusi	-11.9013
pí	-11.9017
tema	-11.9017
nchan	-11.9023
▁comprobar	-11.9032
▁hosped	-11.9037
▁Tlacoten	-11.9039
▁cabalga	-11.904
▁apoya	-11.9041
conehua	-11.9045
rcel	-11.9046
▁prior	-11.9046
▁Lleva	-11.9052
▁alg	-11.9052
icas	-11.9053
▁Axo	-11.9055
▁termine	-11.9056
dillo	-11.9056
▁rana	-11.9057
ueda	-11.9057
▁apropi	-11.906
▁Tlahu	-11.9062
vil	-11.9064
rezca	-11.9065
▁desiert	-11.9078
▁amanec	-11.9079
▁ric	-11.9081
▁except	-11.9081
ila	-11.9083
ravie	-11.9083
cuic	-11.9084
▁sacrific	-11.9085
▁otorgado	-11.9091
▁Ixco	-11.9092
▁popot	-11.9094
▁ll	-11.91
tí	-11.9102
▁tlama	-11.9102
▁excelente	-11.9106
▁promov	-11.9107
▁Estaría	-11.9108
▁entendía	-11.911
▁poquita	-11.9118
▁Tehua	-11.9118
▁Colhua	-11.9121
cogía	-11.9125
▁chiquita	-11.9129
▁gim	-11.9141
▁envolvía	-11.9143
hue	-11.9148
▁Popoyot	-11.915
▁vien	-11.9151
éndo	-11.9154
▁pla	-11.9158
▁Huitzilte	-11.9158
▁fij	-11.9163
▁Tlacochcalcatl	-11.9164
▁reverdece	-11.9167
▁metier	-11.9174
▁mortal	-11.9175
cili	-11.9176
▁sos	-11.9176
▁convi	-11.9177
patl	-11.9182
cando	-11.9182
▁permit	-11.9182
▁Espina	-11.9186
▁relato	-11.9189
anzan	-11.9193
▁bañaba	-11.9193
▁gotean	-11.9195
▁ber	-11.9198
▁mancha	-11.9202
pués	-11.9202
▁vinier	-11.9202
uelas	-11.9216
▁grip	-11.9222
LE	-11.9228
▁cubría	-11.9229
▁ardi	-11.923
▁discut	-11.9232
▁atarlo	-11.9233
fon	-11.9236
zqui	-11.9238
▁encendía	-11.9239
▁Oco	-11.9242
▁ob	-11.9242
andó	-11.9244
▁destruid	-11.9249
▁ballesta	-11.925
▁persist	-11.925
▁Vuestr	-11.9251
▁cobrar	-11.9255
ctavo	-11.9261
▁cubr	-11.9264
▁tost	-11.9267
▁mantener	-11.9267
▁bordado	-11.9269
tzincas	-11.9272
suelo	-11.9272
▁barri	-11.928
▁sábe	-11.9285
▁vivas	-11.9291
clinar	-11.9294
▁intentaba	-11.9297
▁vendida	-11.9299
puesto	-11.9301
parejas	-11.9313
▁doctrinar	-11.9313
▁parecida	-11.9316
mira	-11.9317
▁recordaba	-11.9317
atóna	-11.9318
▁causas	-11.9318
pac	-11.9318
▁Serpiente	-11.932
▁conprador	-11.9321
▁correct	-11.9321
panteuctl	-11.9324
lio	-11.9337
auak	-11.9339
▁invocaba	-11.9342
▁Lic	-11.9345
▁Llam	-11.9352
▁muert	-11.9355
▁Je	-11.9359
▁Cuaut	-11.936
ohuayan	-11.9361
▁adverti	-11.9363
▁velas	-11.9363
▁entend	-11.9368
▁gue	-11.9371
▁continente	-11.9373
▁Roch	-11.9383
▁boscos	-11.9386
chca	-11.9386
aria	-11.9397
ANA	-11.94
▁escuchas	-11.9404
▁pape	-11.9409
▁pelu	-11.941
▁calzado	-11.9416
tzim	-11.9417
totl	-11.9418
▁Rie	-11.9423
▁patol	-11.9424
▁ynform	-11.9425
▁Or	-11.943
▁ofendi	-11.9432
▁esparcida	-11.9434
▁lastim	-11.944
unicip	-11.9443
▁desto	-11.9448
▁Amar	-11.9456
ntre	-11.9457
▁Segu	-11.9461
eztla	-11.9466
ctli	-11.9469
▁Barb	-11.9469
amento	-11.9475
petu	-11.9475
minar	-11.9478
col	-11.9481
seis	-11.9482
▁detr	-11.9484
▁Tlac	-11.9484
▁penca	-11.9486
día	-11.9488
▁Tzoni	-11.9489
▁gozar	-11.9489
▁acu	-11.949
▁sem	-11.9491
▁oloros	-11.9496
▁pedí	-11.9497
▁kil	-11.9499
▁Ami	-11.9505
▁acudir	-11.9506
▁engendra	-11.9507
▁agita	-11.951
▁cuauh	-11.9517
▁apres	-11.9518
▁quemaba	-11.9532
imo	-11.9535
▁die	-11.9535
▁punz	-11.9537
▁extendi	-11.9545
▁lec	-11.9546
▁informaci	-11.9549
▁sopa	-11.9558
▁cultural	-11.9558
▁Pone	-11.9558
▁impidier	-11.9564
▁exced	-11.9565
▁patrona	-11.957
▁regañ	-11.9572
igan	-11.9574
tales	-11.9581
nhelo	-11.9583
▁disciplin	-11.9587
▁frutal	-11.9591
▁raspar	-11.9594
cauh	-11.9601
▁pintar	-11.9611
▁sart	-11.9614
▁realizan	-11.9616
▁Oztoc	-11.9616
▁recado	-11.9616
▁afirm	-11.9619
▁Char	-11.9621
NA	-11.9628
asó	-11.9628
eños	-11.9629
uits	-11.963
autivo	-11.9632
mol	-11.9634
apia	-11.9634
ventura	-11.9634
mana	-11.9639
▁derramar	-11.9642
▁añ	-11.9643
▁encend	-11.9644
▁devolv	-11.9649
▁cargado	-11.9656
ernando	-11.9658
▁pertenecer	-11.966
▁cubierta	-11.966
▁pobl	-11.9662
▁asombr	-11.9665
ndero	-11.9679
cólotl	-11.9681
ot	-11.9681
padeci	-11.9684
gos	-11.9685
▁soldad	-11.9692
▁codici	-11.9695
▁Cuitla	-11.97
▁aprovech	-11.9705
▁proclama	-11.9708
▁arrastrado	-11.9717
huác	-11.9721
nador	-11.9722
avid	-11.9728
alc	-11.9731
▁instituy	-11.9739
rcio	-11.974
▁brillo	-11.9741
▁dedicad	-11.9744
▁crec	-11.9754
▁empleado	-11.9754
manceb	-11.9756
nía	-11.9759
ismo	-11.976
▁li	-11.9761
quito	-11.9762
▁vist	-11.9767
▁caldi	-11.9768
▁establece	-11.9772
▁platica	-11.9779
▁durmie	-11.978
▁ter	-11.9783
▁enviaba	-11.9783
▁calentaba	-11.9786
▁Camin	-11.9788
cle	-11.9789
▁inquieto	-11.979
▁precipit	-11.9793
▁supe	-11.9794
▁viera	-11.9795
▁legu	-11.9795
▁significar	-11.981
▁oye	-11.9818
▁preced	-11.9819
▁atravesar	-11.9821
▁asistie	-11.983
▁fuero	-11.983
▁cortada	-11.9836
▁Llev	-11.9839
▁Zaca	-11.9843
▁doquier	-11.9843
▁Calm	-11.9844
leque	-11.9845
▁equivoca	-11.9846
▁interrogar	-11.9851
quil	-11.9853
ecían	-11.986
▁cómoda	-11.9862
▁quelites	-11.9865
mbo	-11.9876
▁resu	-11.9879
▁plat	-11.9882
▁tabl	-11.9883
▁fino	-11.9886
▁provee	-11.989
yacan	-11.9901
▁recogi	-11.9901
im	-11.9908
▁us	-11.9908
▁tañ	-11.9912
uaca	-11.9912
cí	-11.9919
▁exist	-11.9922
ola	-11.9924
▁pudi	-11.9931
▁rap	-11.9931
▁investigar	-11.9937
yoca	-11.9943
▁temía	-11.9952
▁acudía	-11.9959
▁encabeza	-11.9961
▁frí	-11.9962
▁reanudar	-11.9968
▁humean	-11.997
El	-11.997
▁corresponda	-11.9974
▁participa	-11.9975
▁reverenciado	-11.9985
▁Yaut	-11.9989
▁bruj	-11.999
▁refi	-11.9992
▁Tendr	-11.9995
▁az	-11.9995
▁Cant	-11.9996
▁norma	-11.9997
▁Iz	-11.9997
▁joy	-11.9998
;	-12
▁equi	-12.0003
▁sacrificad	-12.0003
uró	-12.0003
tonil	-12.0005
idez	-12.0005
▁coma	-12.0013
uced	-12.0013
▁frut	-12.0017
▁ynforma	-12.0026
▁blan	-12.0027
▁angusti	-12.0028
▁conc	-12.0028
hichimeca	-12.0039
rto	-12.0045
▁arrancan	-12.0045
▁cuy	-12.0049
▁mencionad	-12.0061
▁separ	-12.0064
▁Yaote	-12.0066
▁ped	-12.0068
▁recaud	-12.007
▁mandam	-12.0074
▁pronunci	-12.0079
ativo	-12.0093
▁enci	-12.01
▁Pus	-12.0108
▁aper	-12.0114
▁Som	-12.0116
tomá	-12.0122
▁cé	-12.013
▁desapareci	-12.0131
▁Tecpan	-12.0131
▁manten	-12.0136
▁hága	-12.0144
▁estrech	-12.0147
▁ligera	-12.015
▁procedi	-12.0151
▁busque	-12.0156
▁quie	-12.0159
tecuht	-12.0161
▁Chal	-12.0163
quila	-12.0169
▁vie	-12.0174
ncas	-12.0175
▁añade	-12.0177
um	-12.0185
▁Llevar	-12.0191
noc	-12.0194
P	-12.0196
▁preocupado	-12.0196
▁Suced	-12.0197
▁revel	-12.0198
▁espí	-12.0204
▁conden	-12.0207
▁result	-12.021
▁dom	-12.0213
nen	-12.0217
stitución	-12.0218
▁ocasion	-12.0219
▁conveni	-12.022
yotes	-12.0222
▁ataba	-12.0224
▁sembra	-12.0236
loya	-12.0241
▁bebid	-12.0244
▁llamas	-12.0253
▁suscit	-12.0253
▁estremece	-12.0258
ena	-12.0259
▁marchaba	-12.027
▁Much	-12.0277
▁encerra	-12.0291
V	-12.0295
▁expresar	-12.0295
▁aclar	-12.0295
ech	-12.03
▁cansar	-12.03
▁dorad	-12.0304
▁limit	-12.0304
arían	-12.0305
riamente	-12.0306
▁ape	-12.0309
uenle	-12.0309
▁Man	-12.031
tamal	-12.0319
▁decid	-12.0321
CI	-12.0322
▁simient	-12.0326
▁chal	-12.0327
só	-12.0328
ys	-12.0331
▁ocupa	-12.0332
▁nudo	-12.0335
ecu	-12.0336
▁estam	-12.0336
eremos	-12.0339
ll	-12.034
ochpan	-12.0341
▁exclusiva	-12.0346
▁fijo	-12.0349
asura	-12.037
▁consign	-12.0372
elas	-12.0376
ho	-12.0379
▁Niña	-12.0386
▁Entr	-12.0388
▁Telle	-12.0388
▁interrumpi	-12.039
▁rebo	-12.0393
▁desee	-12.0395
ltar	-12.0402
▁codicia	-12.0403
uales	-12.0409
▁rellen	-12.0418
xayacat	-12.0424
rólogo	-12.0425
▁espinos	-12.0428
▁rompi	-12.0429
▁asiente	-12.0431
▁pinto	-12.0437
▁vig	-12.044
▁decreta	-12.0441
▁niet	-12.0442
▁beni	-12.0445
▁dividía	-12.045
adra	-12.045
▁emprend	-12.0456
▁hacedor	-12.0457
nahuaca	-12.0458
apilli	-12.0459
table	-12.046
▁apropiad	-12.0461
chos	-12.0463
▁Sanch	-12.0463
▁tiangue	-12.0463
▁Fra	-12.0464
tz	-12.0467
▁sustitui	-12.0469
▁cosechar	-12.0473
▁Tepal	-12.0476
▁descansé	-12.0479
▁impedi	-12.0479
▁hoyo	-12.0479
▁manifestad	-12.0487
▁deseaba	-12.0504
▁acepta	-12.0505
▁tomad	-12.0507
▁trato	-12.0507
▁continuaba	-12.0513
▁cami	-12.0516
▁subía	-12.0517
▁espantado	-12.0526
▁asustaba	-12.0527
oma	-12.053
inició	-12.0532
▁pregonar	-12.0539
▁viga	-12.0548
ul	-12.0554
▁graniz	-12.0554
▁despiert	-12.0561
▁ahuyenta	-12.0563
▁padecer	-12.0572
▁Mizqui	-12.0575
pos	-12.0576
▁Xocoyolt	-12.0586
rmela	-12.059
▁tratan	-12.059
▁suced	-12.059
▁remov	-12.0597
▁teme	-12.0603
▁call	-12.0604
▁Os	-12.0605
▁resguard	-12.0607
▁chin	-12.0609
▁clas	-12.061
▁acogi	-12.061
▁inicial	-12.0611
añed	-12.0616
▁cocid	-12.0616
udas	-12.0622
▁postr	-12.0625
▁MA	-12.0631
▁acababa	-12.0632
▁Cité	-12.0635
▁danz	-12.0647
▁Toc	-12.0649
▁creci	-12.0652
▁colgad	-12.0652
▁particip	-12.066
OTE	-12.0666
idieron	-12.0671
▁mediano	-12.0673
▁rasga	-12.0676
▁compadec	-12.0685
▁conten	-12.069
uayan	-12.0692
▁agreg	-12.0693
uelo	-12.0694
▁amara	-12.0694
istas	-12.0696
▁perdía	-12.0696
▁causar	-12.0705
iere	-12.0707
hcho	-12.071
▁encabez	-12.0719
▁vana	-12.0721
▁secundari	-12.0721
▁retumb	-12.0723
▁creí	-12.0724
▁iztacc	-12.0725
mal	-12.0735
bordó	-12.0737
▁suspendi	-12.0738
ine	-12.0739
▁querrá	-12.0741
▁sacrificaba	-12.0745
▁cord	-12.0747
▁gritar	-12.0747
▁organiza	-12.0751
▁perdier	-12.0752
penderá	-12.0752
▁rellena	-12.0753
▁Trae	-12.0754
▁Xilo	-12.0756
strucción	-12.0757
▁esclav	-12.0757
rados	-12.076
▁suspender	-12.0762
▁amarilla	-12.0767
matzin	-12.0771
▁desig	-12.0786
tamos	-12.0788
▁Tlahui	-12.0792
▁existi	-12.0796
▁oc	-12.0799
ivas	-12.0807
uito	-12.081
▁dese	-12.0812
▁garra	-12.0812
▁conoci	-12.0814
▁declarada	-12.0816
▁golpea	-12.0818
▁transforma	-12.0819
▁Cha	-12.0824
▁federa	-12.083
▁reconocerl	-12.083
▁celebrad	-12.0837
▁desecha	-12.0837
▁amase	-12.0843
▁Cruza	-12.0843
▁confus	-12.0848
▁abuel	-12.0849
▁invitaba	-12.0852
▁Moise	-12.0859
▁tau	-12.0861
▁Acacit	-12.0866
turbi	-12.0869
▁educ	-12.0869
▁acercará	-12.0879
▁barre	-12.0879
yahuaca	-12.0892
rada	-12.0894
▁llevad	-12.0898
épe	-12.0898
▁determinad	-12.0904
▁riñ	-12.0905
▁aguard	-12.0908
dias	-12.091
▁provoc	-12.0915
▁fun	-12.0918
ándola	-12.0925
▁ayunar	-12.0926
▁Macue	-12.0926
▁discuti	-12.0927
▁pil	-12.0928
CA	-12.0931
diente	-12.0932
▁Tlacatecc	-12.0933
▁exacta	-12.0947
▁desempeña	-12.0951
▁quebrar	-12.0951
▁honrará	-12.0957
pré	-12.0958
dando	-12.096
▁anochec	-12.0966
▁ausent	-12.0968
▁ayun	-12.0968
▁discre	-12.0975
▁ga	-12.0976
osa	-12.0982
▁save	-12.0983
▁consol	-12.0985
oliente	-12.0989
age	-12.0993
▁Tenantzin	-12.0995
▁Totec	-12.0998
▁sitiar	-12.0999
▁hubiere	-12.1001
▁Pipi	-12.1002
▁adqui	-12.1005
olócat	-12.1006
▁excelent	-12.101
▁revistier	-12.1011
▁beneficia	-12.1012
agan	-12.1013
▁rep	-12.1014
▁ros	-12.1031
▁hable	-12.1037
▁reconocid	-12.104
▁priva	-12.1045
elpochcal	-12.105
rolog	-12.1054
▁dañe	-12.1056
▁Tecuant	-12.1059
▁indigna	-12.1061
▁otr	-12.1065
▁anunci	-12.1066
carn	-12.1068
demos	-12.1072
▁comienz	-12.1074
▁Tlacochcalc	-12.1076
▁oírl	-12.1078
auhtecatlteuctl	-12.1079
cargado	-12.1079
▁desarroll	-12.1086
hombre	-12.1089
▁ladra	-12.1091
▁arranca	-12.1106
tlatépe	-12.1107
pach	-12.111
▁siembr	-12.1111
▁amen	-12.1118
▁oyen	-12.1118
ierto	-12.1118
tecpan	-12.1128
mador	-12.1129
▁saldr	-12.1129
▁dise	-12.113
nuncia	-12.1137
▁cator	-12.1138
chado	-12.1144
▁lavad	-12.1146
▁muestr	-12.115
▁intentar	-12.1153
alor	-12.116
▁cerri	-12.1167
lat	-12.1169
hual	-12.117
▁recordará	-12.1178
▁ra	-12.118
stimado	-12.1182
▁super	-12.1186
zan	-12.1197
▁reinar	-12.1198
▁congregar	-12.12
▁Cuánt	-12.1202
lanco	-12.1203
bajado	-12.1206
▁far	-12.1207
▁descuartiza	-12.1208
▁servido	-12.1211
▁pira	-12.1211
▁perfect	-12.1215
reció	-12.1226
J	-12.1227
▁hered	-12.1227
▁Otr	-12.1228
onde	-12.1228
mamos	-12.1234
▁post	-12.1239
ndi	-12.1245
risco	-12.1246
▁Totoz	-12.1246
▁Ribe	-12.1247
▁ne	-12.1252
▁introduci	-12.1253
▁Agu	-12.1254
▁patron	-12.1255
▁presta	-12.1259
stá	-12.126
▁public	-12.1264
▁Cuánta	-12.1271
▁Totoli	-12.1274
iéndolo	-12.1279
▁preci	-12.1282
▁Tetl	-12.1282
mé	-12.1283
▁Sube	-12.129
▁estudia	-12.1304
ey	-12.1307
▁servi	-12.131
▁Debe	-12.1314
▁dixere	-12.1323
▁pez	-12.1332
erez	-12.1342
▁custodi	-12.1348
quelite	-12.1366
ri	-12.1371
parecen	-12.1382
elegido	-12.1382
tlato	-12.1384
QUE	-12.1391
▁quej	-12.1395
▁bo	-12.1401
▁ofrend	-12.1418
▁Huitzilla	-12.1419
ztapalapa	-12.142
▁despreci	-12.1423
▁desnud	-12.1431
iésemos	-12.1432
▁viví	-12.1434
▁resolver	-12.1435
tete	-12.1437
bri	-12.1443
▁local	-12.1443
▁llamad	-12.1451
zando	-12.1453
▁Texcal	-12.1455
▁prob	-12.1455
tlap	-12.1456
▁invento	-12.146
uac	-12.1462
QUI	-12.1463
▁sient	-12.1463
stancia	-12.1465
▁reflexiona	-12.1466
▁interesa	-12.1467
uacan	-12.1469
ale	-12.1473
uixtoc	-12.1478
▁hueite	-12.1478
▁taz	-12.1481
▁previ	-12.1484
ayo	-12.1485
ijo	-12.1485
mpida	-12.1485
eglar	-12.1491
▁identifica	-12.1493
▁perseguir	-12.1496
▁asesin	-12.1497
cuarto	-12.1502
▁Habl	-12.1504
quiyauh	-12.1506
▁Esper	-12.1509
▁Am	-12.1515
▁somet	-12.1517
▁anegar	-12.1517
▁cabe	-12.1519
▁paje	-12.1523
htzin	-12.1523
▁Plat	-12.1528
puerta	-12.1528
▁burl	-12.1535
▁Chimalp	-12.1552
▁disgustar	-12.1552
▁reciba	-12.1558
▁despens	-12.1561
▁ceboll	-12.1567
▁prohibid	-12.1569
▁crucifi	-12.1573
ís	-12.1573
▁gene	-12.1574
gas	-12.1577
▁desagradable	-12.1578
▁produ	-12.1579
▁acata	-12.1581
▁Cam	-12.1581
▁Canta	-12.1582
▁pedacito	-12.1583
▁conceder	-12.1586
▁patrimoni	-12.1587
▁abund	-12.1595
vía	-12.1599
▁precios	-12.1602
▁mire	-12.1609
TO	-12.1614
▁trav	-12.162
▁tened	-12.1625
▁Ceo	-12.1625
▁probar	-12.1625
nmediat	-12.1633
▁Chico	-12.1633
▁trans	-12.1636
▁apiada	-12.1639
zúcar	-12.164
▁Quienquie	-12.164
mortaja	-12.1641
▁nacid	-12.1642
▁consult	-12.1644
▁entretej	-12.1652
▁Baja	-12.1654
petzinco	-12.1657
asar	-12.1662
▁obrar	-12.1666
cuatro	-12.1675
mac	-12.1676
ima	-12.1684
▁Pi	-12.1686
dera	-12.1697
▁Heca	-12.1702
▁hereder	-12.1702
▁Tlacoy	-12.1704
▁Ibar	-12.1706
▁aví	-12.1714
▁xokoyol	-12.1715
▁delgada	-12.1718
vuelve	-12.1725
▁abraz	-12.1732
ticpac	-12.1739
cierto	-12.1741
▁Ycnotl	-12.1747
▁traido	-12.1754
ztac	-12.1757
▁huacal	-12.1761
nahuac	-12.1769
▁Tecc	-12.177
▁esconda	-12.1772
▁encontrarlo	-12.1775
rlos	-12.1777
ON	-12.1782
▁Yaoc	-12.1784
into	-12.179
▁percib	-12.1794
toto	-12.1795
▁mene	-12.1796
ársela	-12.1799
ámo	-12.1801
ocemos	-12.1802
▁fácil	-12.1807
tud	-12.1807
▁place	-12.1808
▁Tráiga	-12.1808
huahua	-12.1809
▁Azca	-12.1809
cendiente	-12.181
afet	-12.181
VO	-12.1812
▁coincid	-12.1814
▁Legislat	-12.1814
EGUN	-12.1814
▁Tlatzotzon	-12.1814
▁XOCHI	-12.1814
kuitaxkol	-12.1814
▁Chikometepetl	-12.1814
▁HONGO	-12.1814
▁Macpalxochit	-12.1814
▁Miyahuatoto	-12.1814
▁Olhuatecatl	-12.1814
▁Orgullo	-12.1814
▁Rocíen	-12.1814
▁Tecamachal	-12.1814
▁Tezcatlami	-12.1814
▁Xancopinca	-12.1814
▁Xicohténcatl	-12.1814
▁abnegad	-12.1814
▁adúltero	-12.1814
▁ametralladora	-12.1814
▁ceremonia	-12.1814
▁chisporrotea	-12.1814
▁céntric	-12.1814
▁desherbar	-12.1814
▁diploma	-12.1814
▁ennegrec	-12.1814
▁estruendo	-12.1814
▁experimentado	-12.1814
▁fábula	-12.1814
▁fúnebre	-12.1814
▁humareda	-12.1814
▁inaugura	-12.1814
▁inconvenien	-12.1814
▁perjuicio	-12.1814
▁plurinominal	-12.1814
▁pretexto	-12.1814
▁prójimo	-12.1814
▁recompensa	-12.1814
▁refrigera	-12.1814
▁repercut	-12.1814
▁sojuzga	-12.1814
▁súplica	-12.1814
▁teporingo	-12.1814
▁tlaxillacall	-12.1814
▁transcribi	-12.1814
▁trompeta	-12.1814
▁tzompantle	-12.1814
▁vagabundo	-12.1814
▁apachurra	-12.1814
▁nariguera	-12.1814
huilizapan	-12.1814
▁QUINTO	-12.1814
▁inferior	-12.1814
▁lagartija	-12.1814
▁Resuena	-12.1814
▁cacastle	-12.1814
▁pervierte	-12.1814
▁Ayaxca	-12.1814
▁Procurad	-12.1814
▁angarilla	-12.1814
▁atotonac	-12.1814
▁Atempan	-12.1814
▁bastimento	-12.1814
▁circunstancia	-12.1814
▁centímetro	-12.1814
▁cohuixca	-12.1814
▁embizm	-12.1814
▁esponjad	-12.1814
▁zorrillo	-12.1814
▁cimarron	-12.1814
▁circular	-12.1814
eyes	-12.1814
▁portugu	-12.1814
▁contradixe	-12.1814
▁prosper	-12.1814
▁símbolo	-12.1814
▁vegeta	-12.1814
cuauhtla	-12.1814
▁mixtec	-12.1814
▁Cohuatzontl	-12.1814
▁rumor	-12.1814
▁jovenzuelo	-12.1814
▁cardenal	-12.1814
▁empacho	-12.1814
▁gratifica	-12.1814
▁Icno	-12.1814
▁engalana	-12.1814
▁acomóda	-12.1814
▁caballeriza	-12.1814
▁aromática	-12.1814
▁siémbr	-12.1814
MPE	-12.1814
▁Poyauh	-12.1814
▁pellejo	-12.1814
▁desfallezc	-12.1814
▁negligen	-12.1814
▁Tumba	-12.1814
▁Quahuit	-12.1814
▁ciruela	-12.1814
▁infinita	-12.1814
▁iniciativa	-12.1814
▁asegura	-12.1814
▁Xochiquetzal	-12.1814
inominal	-12.1815
▁tezontle	-12.1815
▁acarre	-12.1815
▁atuendo	-12.1815
etzcatoca	-12.1815
▁Tráigannos	-12.1815
▁inquietud	-12.1815
▁apunta	-12.1815
▁martaja	-12.1815
▁estufa	-12.1815
▁resplandeciente	-12.1815
tsilin	-12.1815
▁Tianquiz	-12.1815
▁cubeta	-12.1815
▁posterior	-12.1815
▁concentra	-12.1815
▁Abrah	-12.1815
▁baúl	-12.1815
▁importuna	-12.1815
▁moderada	-12.1815
▁chapea	-12.1815
▁endroga	-12.1815
▁polilla	-12.1815
▁tamalayo	-12.1815
▁sembradío	-12.1815
▁apariencia	-12.1816
▁pendiente	-12.1816
▁carriz	-12.1816
▁vejez	-12.1816
▁infierno	-12.1816
▁alfarero	-12.1816
▁palomita	-12.1816
▁totonac	-12.1816
▁enhiest	-12.1816
▁mantenimiento	-12.1816
▁traspasa	-12.1816
▁pirú	-12.1817
▁rat	-12.1817
▁bastardo	-12.1817
▁Prefier	-12.1817
▁composi	-12.1817
▁zur	-12.1817
▁desaloja	-12.1817
▁ribete	-12.1818
▁Xicochimal	-12.1818
▁Necesit	-12.1818
▁lavamano	-12.1818
▁fallesciere	-12.1818
▁acometi	-12.1818
▁ramita	-12.1818
▁desazolvar	-12.1818
▁reclu	-12.1818
▁bendecido	-12.1818
▁milpita	-12.1819
▁Inven	-12.1819
▁levántense	-12.1819
▁promesa	-12.1819
▁revient	-12.1819
▁botella	-12.1819
▁Teocalhu	-12.1819
▁Cuetlach	-12.182
▁recordé	-12.182
▁Xoxo	-12.182
dón	-12.182
▁GUA	-12.1821
▁Salud	-12.1821
▁Tecuict	-12.1821
▁metía	-12.1821
gido	-12.1821
▁asistíamos	-12.1821
▁fusil	-12.1821
▁elabora	-12.1821
▁delicios	-12.1822
▁infra	-12.1822
▁arrugada	-12.1822
▁Miccac	-12.1822
▁descabeza	-12.1823
▁sahumador	-12.1823
▁Yyaca	-12.1823
▁menud	-12.1823
▁asocia	-12.1823
▁tafet	-12.1823
▁Servía	-12.1824
▁desmay	-12.1824
▁resbal	-12.1825
▁veteran	-12.1825
▁tlaxi	-12.1825
▁Xoconoch	-12.1825
▁bautism	-12.1826
▁obtenido	-12.1826
▁sobrenatural	-12.1826
▁ocupada	-12.1826
▁bolita	-12.1826
▁escupi	-12.1827
▁complicad	-12.1827
▁quebrada	-12.1827
▁Tloc	-12.1827
▁obtenga	-12.1827
▁Tlalcoz	-12.1827
lalocan	-12.1828
▁déjen	-12.1828
▁mizquica	-12.1829
▁Puchtla	-12.1829
▁Español	-12.183
▁corretea	-12.1832
▁pasilla	-12.1832
▁burro	-12.1833
▁cordel	-12.1834
▁Treinta	-12.1835
▁ensanch	-12.1835
ER	-12.1835
▁amanece	-12.1835
▁prelado	-12.1836
▁emplumado	-12.1836
▁silb	-12.1838
▁pastel	-12.1838
suegro	-12.184
▁enrolla	-12.1842
▁divertirse	-12.1842
▁Tex	-12.1843
▁cuid	-12.1843
▁requerirá	-12.1843
▁peleen	-12.1844
▁atadero	-12.1844
▁Quetzalm	-12.1845
▁despedí	-12.1845
▁crucificado	-12.1845
▁cercena	-12.1846
▁aplicable	-12.1847
▁escena	-12.1847
▁Dice	-12.1847
▁tecpayo	-12.1848
▁distinguido	-12.1848
ehue	-12.1848
▁platicamos	-12.1849
▁huida	-12.185
▁corteza	-12.1851
referencia	-12.1851
▁acongoja	-12.1851
▁Oroz	-12.1851
▁Tozan	-12.1852
▁afeit	-12.1852
▁Xochiaya	-12.1852
▁vomitó	-12.1854
▁pastorcit	-12.1854
▁midiendo	-12.1855
▁dañada	-12.1856
▁sincer	-12.1857
▁Chiquito	-12.1858
petlac	-12.1859
▁correspondió	-12.1859
noble	-12.1859
▁durazno	-12.1859
eves	-12.186
sco	-12.186
▁desliza	-12.1861
▁Mictla	-12.1861
▁Marti	-12.1862
▁individual	-12.1862
▁envidie	-12.1864
▁SE	-12.1864
▁ropaje	-12.1864
▁techar	-12.1866
▁ejército	-12.1866
▁hinch	-12.1867
▁dolía	-12.1867
▁Hui	-12.1867
▁afirmar	-12.1868
omín	-12.187
▁error	-12.187
▁Guana	-12.1871
▁adjuntos	-12.1871
acall	-12.1871
▁almendras	-12.1871
▁Gilot	-12.1872
▁Decid	-12.1874
▁lector	-12.1875
▁cansé	-12.1875
usa	-12.1875
▁platito	-12.1875
▁chiquitit	-12.1876
▁otorgue	-12.1877
▁Pipitla	-12.1877
▁Julian	-12.1879
orear	-12.1879
▁Zacua	-12.1879
▁prendi	-12.188
▁Tráiganl	-12.1881
▁Campe	-12.1884
▁suprimi	-12.1886
▁escre	-12.1888
▁Tráiganla	-12.1888
▁casarme	-12.1889
▁buque	-12.189
▁coti	-12.189
▁imaginaba	-12.1891
▁chilito	-12.1892
▁manita	-12.1893
▁Bea	-12.1894
▁rebana	-12.1894
▁prole	-12.1896
maqu	-12.1899
tleco	-12.19
▁machacado	-12.19
▁resid	-12.1904
▁vendieren	-12.1906
guerr	-12.1907
▁lle	-12.1907
huizcalpotonqui	-12.1909
▁enpiez	-12.1911
▁prendier	-12.1911
▁Derech	-12.1911
▁avergonza	-12.1914
▁Nuñ	-12.1914
▁unta	-12.1915
▁chane	-12.1915
áb	-12.1917
atedral	-12.1918
rvá	-12.192
idente	-12.192
▁gall	-12.1921
▁dormido	-12.1921
▁Ning	-12.1925
▁encontramos	-12.1926
▁penetra	-12.1929
▁descuartiz	-12.1929
rmó	-12.1929
ranza	-12.193
▁irlo	-12.1931
▁violencia	-12.1931
▁convidado	-12.1934
tamente	-12.1935
▁sobr	-12.1936
▁condenado	-12.1936
▁venderé	-12.1942
diano	-12.1942
▁dándole	-12.1943
▁ESTA	-12.1945
▁azotado	-12.1945
▁expuest	-12.1948
▁enemi	-12.195
iling	-12.195
ncho	-12.195
cuy	-12.1951
▁referir	-12.1951
▁quitaba	-12.1952
▁Amilpa	-12.1952
▁confir	-12.1958
▁peinar	-12.196
▁soltaba	-12.196
▁Hola	-12.1961
▁anunciar	-12.1963
▁tular	-12.1963
▁Ocelo	-12.1967
poch	-12.1968
▁hablará	-12.1969
▁disfrutar	-12.1969
▁someti	-12.1971
▁carc	-12.1972
▁viajar	-12.1975
▁cana	-12.1979
▁Dia	-12.1981
▁base	-12.1982
▁inclus	-12.1984
ztoticpac	-12.1984
▁agradeci	-12.1986
▁Alc	-12.1987
▁respetuosa	-12.1989
balga	-12.199
▁sustituir	-12.199
▁carro	-12.199
▁aprende	-12.199
▁vigor	-12.1992
coatl	-12.1993
▁instruir	-12.1995
▁tibio	-12.1997
adena	-12.2004
▁Diga	-12.2005
▁villa	-12.2009
▁Queza	-12.2009
▁supr	-12.201
▁Achitom	-12.2011
▁true	-12.2012
▁diaria	-12.2013
oyo	-12.2013
dan	-12.2016
▁demand	-12.2017
▁Quetzalcoat	-12.2017
▁contenida	-12.2018
▁desgaj	-12.2022
▁Oton	-12.2026
egoría	-12.2027
▁interesante	-12.2027
▁escribiera	-12.2027
▁expresó	-12.2028
▁restaurant	-12.2029
fi	-12.2029
▁Quienes	-12.2033
izac	-12.2035
Mon	-12.2038
▁muchísima	-12.2038
▁regalaron	-12.204
▁angost	-12.2041
▁venderían	-12.2041
▁muerde	-12.2042
▁transcur	-12.2044
▁fundido	-12.2048
▁heredad	-12.2048
▁Amantla	-12.205
▁Ezt	-12.2051
yacente	-12.2054
▁chism	-12.2055
▁Chiapan	-12.2056
▁muslo	-12.2057
▁deshonr	-12.2057
duría	-12.2058
▁materna	-12.2061
▁rojiza	-12.2061
▁hir	-12.2061
▁arregl	-12.2066
▁espi	-12.2068
ADE	-12.207
▁expus	-12.2071
▁Agarr	-12.2072
▁reclamar	-12.2076
▁realizará	-12.2076
▁desconocid	-12.2078
travies	-12.2081
veras	-12.2082
▁PR	-12.2084
▁acces	-12.2085
▁metro	-12.209
▁gatea	-12.2092
tamiento	-12.2092
▁enaltece	-12.2093
tuviéramos	-12.2094
▁Jud	-12.2094
▁roza	-12.2095
▁esclarece	-12.2101
mbrado	-12.2101
▁despert	-12.2107
▁Ahui	-12.2107
▁Arbol	-12.2109
▁rematar	-12.2114
▁mintie	-12.2115
▁concurr	-12.2117
▁exigi	-12.2118
▁riega	-12.2119
▁manifestará	-12.2119
▁aplac	-12.212
▁paterna	-12.2122
▁yopi	-12.2125
▁bañan	-12.2125
▁ensucia	-12.2127
coali	-12.2128
▁felicit	-12.2128
▁Jil	-12.2129
▁Zacanc	-12.213
▁sacrist	-12.2132
▁quarta	-12.2134
▁hondo	-12.2134
▁desaparec	-12.2134
▁Iztacx	-12.2135
▁Calte	-12.2135
▁acusado	-12.2136
▁Llora	-12.2136
nmediata	-12.2136
ecan	-12.2138
▁cubrirá	-12.2138
▁im	-12.2141
ihuatecpan	-12.2141
▁amarrado	-12.2142
▁disgustado	-12.2144
▁enrojec	-12.2144
yacac	-12.2144
ést	-12.2146
nde	-12.2154
TI	-12.2158
▁temp	-12.2161
▁anillo	-12.217
ence	-12.217
▁Nono	-12.2171
▁comision	-12.2174
▁machac	-12.2175
▁firmar	-12.2176
▁xochimilc	-12.2177
▁Coat	-12.2178
▁Desempeña	-12.2179
uár	-12.218
▁pretenda	-12.2181
▁apla	-12.2181
rguen	-12.2182
staba	-12.2182
ilacall	-12.2185
▁Pantitl	-12.2185
▁alcanc	-12.2188
▁uva	-12.219
▁aprehendido	-12.22
▁tomara	-12.2209
▁díga	-12.221
▁divis	-12.2211
▁resolverá	-12.2212
▁cuauht	-12.2216
▁Tolnahu	-12.2216
▁disco	-12.2217
ublado	-12.2217
aj	-12.2219
nteayer	-12.2219
▁penos	-12.2222
▁amain	-12.2225
▁topile	-12.2225
▁Cent	-12.2226
▁hablen	-12.2228
▁hablas	-12.223
▁exhibía	-12.2236
trán	-12.2241
nacaz	-12.2242
▁tant	-12.2244
tok	-12.2244
▁convertir	-12.2249
▁Teyo	-12.2249
▁vari	-12.225
▁desprende	-12.2252
▁apocento	-12.2254
▁inici	-12.2254
andado	-12.2258
ILL	-12.2259
▁beata	-12.226
olin	-12.2262
▁Tepiltz	-12.2262
▁devor	-12.2265
▁infl	-12.2266
pal	-12.2267
▁Dic	-12.2267
▁vivieras	-12.2268
▁importan	-12.227
▁metido	-12.2271
▁carab	-12.2272
▁resolvier	-12.2274
▁basta	-12.2277
▁extrañ	-12.2277
▁Xochtla	-12.228
ab	-12.229
lce	-12.2292
▁pilot	-12.2292
NI	-12.2293
▁emprendí	-12.2293
▁cubrier	-12.2299
▁Xolo	-12.23
▁urgen	-12.2301
moto	-12.2307
▁interced	-12.2308
▁embarca	-12.231
▁suplicarle	-12.2311
▁confundi	-12.2314
▁ram	-12.2318
▁mue	-12.2318
▁convocado	-12.2321
▁habit	-12.2322
▁apretad	-12.2327
nglo	-12.2333
▁competen	-12.2336
▁Tecpantla	-12.2336
▁contenta	-12.2337
▁constituir	-12.2337
▁ynformaci	-12.2337
▁compadezca	-12.2337
mimilolc	-12.2338
▁Ihui	-12.234
▁Cort	-12.2342
▁mango	-12.2343
▁Tzonpan	-12.2343
ello	-12.2345
▁gorda	-12.2346
▁extender	-12.2348
lit	-12.2352
▁Tell	-12.2352
▁tetzc	-12.2355
american	-12.2355
▁creyer	-12.2356
▁expid	-12.2364
▁Rep	-12.2366
adá	-12.2368
cequi	-12.2369
opez	-12.237
éce	-12.237
▁boludo	-12.2374
chco	-12.2376
emplo	-12.2379
▁provision	-12.2379
▁Hé	-12.238
▁abierto	-12.2382
▁premio	-12.2383
▁material	-12.2385
▁acomodado	-12.2389
▁Atlac	-12.2389
auh	-12.239
guer	-12.2391
▁inclui	-12.2393
▁respetará	-12.2394
cional	-12.2395
▁Tecuich	-12.2398
▁choca	-12.2403
ztla	-12.2404
▁desgarrado	-12.2405
▁siembre	-12.2411
rranos	-12.2412
▁gris	-12.2416
▁tipo	-12.2416
ienes	-12.2417
▁roto	-12.2419
▁Xalapa	-12.2421
▁desbarat	-12.2426
▁cam	-12.2429
B	-12.2437
irse	-12.2439
huit	-12.2439
▁Cuy	-12.2442
▁herir	-12.2448
▁pato	-12.2448
▁aprobada	-12.2451
▁lastimero	-12.2452
▁Ber	-12.2462
decer	-12.2477
▁perturbar	-12.2478
▁procura	-12.2479
ág	-12.248
ñ	-12.248
▁repican	-12.2481
▁opaca	-12.2482
stando	-12.2486
rép	-12.2487
ltoton	-12.249
ejó	-12.2494
bilidad	-12.2494
▁Fal	-12.2494
▁Arm	-12.2503
▁pregunté	-12.2504
pazo	-12.2506
▁Tototl	-12.2506
▁vá	-12.2508
▁renta	-12.2512
▁regido	-12.2517
venció	-12.2518
▁Xochit	-12.2519
▁enterr	-12.2521
▁prenda	-12.2524
▁ocultar	-12.2525
estamento	-12.2525
▁perteneciera	-12.2528
▁vuelva	-12.2529
nteras	-12.2531
varon	-12.2532
▁polac	-12.2534
▁imita	-12.2534
▁vendiste	-12.2535
▁CHIL	-12.2536
▁arrancaba	-12.2537
bra	-12.2538
▁Morel	-12.2538
▁Pre	-12.2538
▁decapita	-12.2539
▁Oiga	-12.2539
iño	-12.254
guen	-12.2547
teucti	-12.2548
sentada	-12.2548
▁Hic	-12.2556
▁Estad	-12.256
▁afe	-12.2564
enid	-12.2566
casita	-12.2567
▁desvena	-12.2569
Y	-12.257
roga	-12.2574
nt	-12.2576
▁balacea	-12.2578
▁suceso	-12.2578
▁genuina	-12.2579
▁quema	-12.258
side	-12.2582
laza	-12.2583
▁ilu	-12.2589
▁abogad	-12.2591
▁lavada	-12.2596
▁dispar	-12.2608
▁dialoga	-12.2618
parti	-12.2618
▁aparent	-12.2619
▁dici	-12.2623
oyola	-12.2624
▁construyera	-12.2627
▁agradece	-12.2631
uce	-12.2632
▁acontec	-12.2633
▁interes	-12.2636
axal	-12.2638
▁tern	-12.2639
ío	-12.264
apúr	-12.2643
▁encerrada	-12.2645
▁mét	-12.2646
▁Itztlo	-12.2651
▁inc	-12.2652
▁Caña	-12.2659
quetz	-12.2659
▁introduc	-12.266
▁mya	-12.2661
▁investiga	-12.2661
▁fier	-12.2661
rrible	-12.2665
▁devolvi	-12.2667
uerto	-12.2667
▁Zara	-12.2681
▁band	-12.2682
lmorza	-12.2687
▁amanecía	-12.269
▁pulid	-12.2691
▁germinan	-12.2697
▁Trat	-12.27
▁br	-12.2701
▁aventar	-12.2701
▁azotaba	-12.2703
▁AR	-12.2708
▁reconocie	-12.2709
▁refrescar	-12.2709
▁obten	-12.2709
▁Huitztla	-12.2712
▁ayudan	-12.2714
▁castellan	-12.2717
▁barb	-12.2724
▁sostenid	-12.2724
▁detener	-12.2726
▁insistía	-12.273
▁invitado	-12.2731
▁adornad	-12.2734
▁conced	-12.2738
rcole	-12.2739
▁Chalchi	-12.2746
▁Dé	-12.2751
▁posea	-12.2751
▁hijitos	-12.2756
orme	-12.2757
▁Ros	-12.2758
▁conocerá	-12.2759
▁existir	-12.276
zoma	-12.2763
▁descende	-12.2769
▁Zo	-12.2773
▁abrazar	-12.278
▁exact	-12.2782
▁Mu	-12.2786
hi	-12.2792
▁gustoso	-12.2796
▁candelero	-12.2798
▁vuelv	-12.2799
▁arri	-12.28
liztaca	-12.2807
▁tantit	-12.2815
▁modest	-12.2815
▁abraza	-12.2816
▁cristian	-12.2818
cipac	-12.2825
▁entregue	-12.2829
maxtl	-12.2832
▁compras	-12.2835
▁sobrepuest	-12.2835
▁cantaba	-12.2841
▁cause	-12.2843
tlapalte	-12.2848
▁exhibid	-12.2849
▁encuentr	-12.2849
▁acostumbrado	-12.285
▁aj	-12.2851
▁guajillos	-12.2853
▁cult	-12.2858
▁sustitu	-12.2858
▁correctament	-12.2859
▁Zacap	-12.286
▁Tiz	-12.2863
vio	-12.2864
▁Acallo	-12.2865
▁alborot	-12.2867
▁Nana	-12.2871
▁Chile	-12.2871
▁Culhuac	-12.2877
▁amenazaba	-12.2877
▁incorpor	-12.2882
está	-12.2884
▁arro	-12.2887
▁Cuetl	-12.2888
▁fals	-12.289
▁sacude	-12.2894
lado	-12.29
▁Ru	-12.2902
itli	-12.2902
▁reluci	-12.2902
reto	-12.2902
▁extraordinario	-12.2902
▁cultib	-12.2905
▁enfermaba	-12.2905
▁oyer	-12.2906
▁Nan	-12.2906
▁dirigido	-12.2911
▁ov	-12.2911
▁comes	-12.2912
ich	-12.2912
▁Mois	-12.2923
▁jor	-12.2923
rderá	-12.2926
▁fuga	-12.2926
pra	-12.2928
uándo	-12.2931
▁Ad	-12.2932
▁excavaba	-12.2932
▁profunda	-12.2933
▁Tecó	-12.2935
▁cometi	-12.2938
▁arrastrándol	-12.2939
▁Luc	-12.2941
ejor	-12.2943
arlos	-12.2958
pantlac	-12.2961
En	-12.2963
cuí	-12.2967
uco	-12.2968
▁Alej	-12.2969
▁multa	-12.2974
▁residía	-12.2975
▁mandarlo	-12.2975
▁recoge	-12.2976
▁anch	-12.2977
▁subsist	-12.2978
▁concedida	-12.2984
▁Matlalc	-12.2986
▁amparado	-12.2994
▁Huicol	-12.2996
▁pilli	-12.2997
▁hierv	-12.3001
ahogado	-12.3002
▁suspiran	-12.3004
acalo	-12.3004
▁sentenciado	-12.3005
▁omit	-12.3006
▁biud	-12.3009
▁carda	-12.3012
▁hubie	-12.3012
▁moldea	-12.3012
EL	-12.3014
▁erigir	-12.3015
▁expen	-12.3018
omí	-12.3021
piltzin	-12.3024
▁siguier	-12.3027
egro	-12.3027
caxoc	-12.303
lohua	-12.3044
estre	-12.3047
▁lá	-12.3047
▁moderno	-12.3049
▁subsiste	-12.3058
fensa	-12.3061
▁encontrará	-12.3066
▁tax	-12.3071
▁cuidan	-12.3071
▁Oqui	-12.3073
arlo	-12.3074
▁actua	-12.3074
▁prefier	-12.3076
▁receso	-12.308
▁encin	-12.3081
▁rueg	-12.3082
huitztl	-12.3089
spar	-12.3091
▁cultiv	-12.3092
sion	-12.3094
rastra	-12.3096
▁festejar	-12.3096
erra	-12.3096
▁Levanta	-12.3096
manza	-12.3098
▁retira	-12.31
▁sirva	-12.3103
▁entrelazad	-12.3104
esti	-12.3106
▁peg	-12.3107
▁disfrut	-12.3108
tel	-12.3108
▁secundario	-12.3112
▁descalz	-12.3113
▁Pasado	-12.3115
onaba	-12.3115
tre	-12.3125
▁dechado	-12.3127
▁aplicar	-12.3127
▁Vis	-12.3131
▁tendida	-12.3137
ég	-12.3138
▁Ed	-12.314
▁relat	-12.314
▁alas	-12.3141
▁disputan	-12.3142
▁perfume	-12.3142
▁Deb	-12.3142
metro	-12.3143
odría	-12.3148
acó	-12.315
▁acusar	-12.3154
▁murmura	-12.3155
▁romper	-12.3157
▁tron	-12.3169
ios	-12.317
▁Pere	-12.3171
▁Rev	-12.3172
▁Molan	-12.3176
uitzot	-12.3176
ku	-12.3186
▁glori	-12.3186
▁lejana	-12.3188
▁vuestr	-12.3192
▁cobraba	-12.3196
▁ajusta	-12.3196
▁situ	-12.32
▁Is	-12.3205
▁gener	-12.3213
▁reconocí	-12.3213
▁burlara	-12.3222
▁insta	-12.3226
▁escase	-12.3232
▁Tlachqu	-12.3234
mecac	-12.3238
▁entristece	-12.3253
▁prepare	-12.3253
▁compar	-12.3257
▁laguner	-12.326
gueta	-12.3263
▁bu	-12.3265
rre	-12.3266
▁teotl	-12.3266
▁recat	-12.3268
▁Cit	-12.3279
▁brotad	-12.328
HUA	-12.3282
▁transfi	-12.3286
▁supera	-12.3286
tlic	-12.3288
▁bald	-12.3288
tlal	-12.3292
catlteuctl	-12.3295
pic	-12.3298
▁barranco	-12.3298
▁tlaxilacale	-12.3305
▁produc	-12.3309
▁debería	-12.331
▁prender	-12.331
rias	-12.3313
▁delgadita	-12.3313
ues	-12.3319
▁Siénte	-12.3322
silio	-12.3322
▁ac	-12.3334
▁envolv	-12.3334
▁Coyol	-12.3339
nacional	-12.3343
abían	-12.3344
▁miraba	-12.3344
álo	-12.3347
▁robuste	-12.3354
▁universi	-12.3355
cién	-12.3359
▁dispondr	-12.3371
▁bailan	-12.3378
▁distingue	-12.3383
tóma	-12.3383
▁jacta	-12.3385
▁alivia	-12.3386
▁compro	-12.3387
▁económico	-12.3389
▁mer	-12.339
▁regulará	-12.3391
▁verd	-12.3399
▁ofuscad	-12.3403
X	-12.3404
▁regalaba	-12.3405
▁retorna	-12.3414
▁jugos	-12.3416
auhtépe	-12.3417
forme	-12.3417
▁inf	-12.3419
▁cubri	-12.3422
▁envidi	-12.3425
▁colinda	-12.343
rillas	-12.3432
▁llegad	-12.344
durará	-12.3442
▁Tene	-12.3442
pereza	-12.3446
ovar	-12.3446
▁elegir	-12.345
inieron	-12.345
▁vain	-12.3453
▁Tenu	-12.3454
▁teñ	-12.3459
▁volvería	-12.3467
▁Tlailotla	-12.347
bía	-12.3471
▁vela	-12.3475
cuacuil	-12.348
cogido	-12.3481
▁sopl	-12.3484
▁verificar	-12.3488
▁Dispénse	-12.3494
antisim	-12.3494
vidad	-12.3494
▁gros	-12.3495
▁cria	-12.3496
▁Tlal	-12.35
▁embi	-12.3503
▁Capol	-12.3505
pég	-12.3509
▁Tlapa	-12.351
▁Poch	-12.3511
▁destap	-12.3514
▁suspend	-12.3519
▁recorda	-12.352
comprendido	-12.3528
uiz	-12.353
orado	-12.3532
ouat	-12.3533
▁pri	-12.3536
cedía	-12.3538
ebido	-12.3542
▁tronaba	-12.3543
toloc	-12.3547
ndas	-12.3553
rum	-12.3554
▁buscas	-12.3556
pié	-12.3569
▁ol	-12.357
▁cunpli	-12.3573
▁val	-12.3577
▁ayudara	-12.358
cual	-12.3583
▁Cece	-12.3585
▁bañador	-12.359
▁llenaba	-12.3599
▁prescri	-12.3603
▁saborea	-12.3609
▁Cierta	-12.3611
ohuaixtlahuaca	-12.3616
olí	-12.3621
▁abrier	-12.3623
obe	-12.3626
▁demora	-12.364
▁glorios	-12.365
tróp	-12.3655
▁repit	-12.366
▁polític	-12.3665
▁sonido	-12.3672
▁apoyaba	-12.3673
ge	-12.3675
▁contada	-12.3678
▁tendía	-12.3686
▁cuer	-12.3693
▁conocí	-12.3693
▁nonbra	-12.3698
ndió	-12.3709
▁bisi	-12.3713
ongos	-12.3718
▁Yt	-12.3719
▁Ab	-12.3719
▁ind	-12.3727
▁sujeta	-12.3728
▁arrastraba	-12.3729
▁aliviar	-12.373
T	-12.3741
▁Caca	-12.3742
▁compart	-12.3744
▁Pasad	-12.3746
▁gustar	-12.3749
▁revent	-12.3754
▁Pastor	-12.3755
▁alterar	-12.3757
ducción	-12.3758
▁exhibida	-12.3759
▁expresa	-12.376
▁condes	-12.3764
▁pertenec	-12.3764
▁empuja	-12.3765
huiton	-12.3765
▁digne	-12.3774
▁alcanzaba	-12.3774
chol	-12.3781
hechiz	-12.3791
jamos	-12.38
bos	-12.3802
ilidad	-12.3804
tlác	-12.3808
daré	-12.3809
aval	-12.3815
iréis	-12.3828
▁diria	-12.383
▁grab	-12.3833
popocat	-12.3837
▁recio	-12.3856
▁Xocoyol	-12.3856
iro	-12.3858
kua	-12.386
▁ka	-12.3863
▁Mosc	-12.3865
▁rezaba	-12.3866
▁conmo	-12.3867
▁implor	-12.3868
▁tumba	-12.3874
▁estudian	-12.388
▁mezcla	-12.3882
▁Cí	-12.3882
▁consolar	-12.3883
▁Estará	-12.3885
▁Citla	-12.389
▁escucharlo	-12.3891
▁fundament	-12.3898
▁abus	-12.3899
hilito	-12.3899
▁Quech	-12.3909
▁hoje	-12.391
R	-12.3931
▁ruega	-12.3931
▁auxili	-12.3932
▁fortalecer	-12.3932
▁lis	-12.3934
azaro	-12.3944
iseri	-12.3948
▁despedaz	-12.3958
quía	-12.3959
▁rescat	-12.3962
▁robust	-12.3964
▁decretad	-12.3969
illan	-12.3969
▁Be	-12.3969
dora	-12.397
▁pronunciaba	-12.3971
uat	-12.3977
▁denotan	-12.3977
ocolhua	-12.3978
▁punzan	-12.3987
▁encerr	-12.399
▁Antoñ	-12.399
▁salí	-12.3991
zohu	-12.3993
▁alivie	-12.3995
empoa	-12.3996
entra	-12.4001
omienza	-12.4003
manen	-12.4004
▁xoch	-12.4004
scribano	-12.4015
▁bocado	-12.4016
eren	-12.4019
spérame	-12.4023
▁parient	-12.4027
▁casu	-12.4036
▁arrojado	-12.4049
ecido	-12.4053
▁esparcido	-12.4056
▁sant	-12.4058
emite	-12.4059
telolc	-12.406
▁Toz	-12.4061
macuex	-12.4064
▁joya	-12.4072
▁top	-12.4075
▁aclara	-12.4076
▁despe	-12.4093
▁daría	-12.4099
▁Salía	-12.4103
▁informado	-12.4109
▁Yn	-12.411
▁vistos	-12.4115
▁comenzad	-12.4123
muestra	-12.4124
▁cargaba	-12.4125
tible	-12.4132
▁trono	-12.4135
nero	-12.4136
uen	-12.4138
▁apresa	-12.4139
▁traduc	-12.4149
▁curiosa	-12.4156
catli	-12.4162
▁cultiba	-12.4163
lima	-12.4165
▁comprend	-12.4165
quier	-12.417
▁prim	-12.4176
qua	-12.4177
rra	-12.4179
▁relata	-12.4184
▁certificaci	-12.4184
entado	-12.4193
ntó	-12.4195
▁buz	-12.4196
quix	-12.4197
uauhtli	-12.4203
▁sufría	-12.4216
auhtitlan	-12.4218
▁llevare	-12.4227
▁trague	-12.4229
olm	-12.423
▁retoña	-12.4237
emana	-12.4237
tiza	-12.4238
▁afloj	-12.4239
▁Masa	-12.4242
▁terr	-12.4247
▁Subi	-12.4248
▁votad	-12.4251
▁cera	-12.4256
itan	-12.4256
▁equivocad	-12.426
▁Izc	-12.4261
▁Ar	-12.4267
▁entristec	-12.4275
inteuctl	-12.4275
▁cla	-12.4283
ostado	-12.4283
▁turba	-12.4303
▁ahuyentar	-12.4307
epí	-12.4308
▁atavia	-12.431
▁aqueja	-12.4312
▁descalza	-12.4313
rtil	-12.4319
▁tz	-12.4327
▁cano	-12.4328
rillos	-12.4328
ares	-12.433
▁llegará	-12.4332
▁NO	-12.4333
▁revestí	-12.4346
▁inquiet	-12.4346
▁Tlalt	-12.4354
home	-12.4354
▁Xiuhte	-12.4361
▁Xiuhc	-12.4367
▁solicitaba	-12.4368
onile	-12.4371
eré	-12.4375
▁rompa	-12.4377
▁adjudica	-12.4378
▁Disp	-12.4379
▁recog	-12.4381
▁pág	-12.4381
ogó	-12.4382
rdido	-12.4388
▁vid	-12.439
ancal	-12.4394
▁may	-12.4397
ólic	-12.4398
▁autor	-12.4399
▁mezcl	-12.4409
▁Aba	-12.4414
xa	-12.4414
est	-12.4416
lix	-12.4421
▁consagr	-12.4423
▁Icpa	-12.4426
▁cata	-12.4439
▁pregona	-12.4454
anto	-12.4456
ceba	-12.446
▁hagá	-12.4461
▁inm	-12.4471
matl	-12.4471
nquiz	-12.4471
▁fungie	-12.4474
hualco	-12.4474
▁Ell	-12.4481
jan	-12.4487
▁Coatepe	-12.4489
queda	-12.4492
▁revelar	-12.4494
ándo	-12.4497
anda	-12.45
▁Habr	-12.451
▁Az	-12.4512
▁conozca	-12.4513
epeyacac	-12.4521
▁Bri	-12.4529
▁amad	-12.453
▁pl	-12.4532
▁vence	-12.4532
bino	-12.4543
tera	-12.455
▁paresca	-12.455
olo	-12.4556
▁lav	-12.4557
▁merece	-12.4561
▁repi	-12.4561
gu	-12.4562
oliui	-12.4562
▁desata	-12.4563
▁verifica	-12.457
▁bie	-12.4572
▁fatigas	-12.4576
tá	-12.4577
▁plati	-12.4585
▁pela	-12.4586
locan	-12.4589
cido	-12.4593
titl	-12.4596
▁asustad	-12.4606
▁tranquiliza	-12.4608
▁atada	-12.4608
▁Tot	-12.4612
▁tequihua	-12.4615
▁recibier	-12.4616
▁muda	-12.4616
▁investig	-12.4616
▁publicar	-12.4619
▁aleg	-12.4625
▁humild	-12.4629
arte	-12.4631
▁rodeaba	-12.4636
▁pudr	-12.4644
▁kuou	-12.4645
▁calent	-12.4646
▁exhib	-12.4651
epetzinco	-12.4652
▁novici	-12.4653
rge	-12.4655
▁ofusca	-12.4656
▁presid	-12.4659
▁esconde	-12.466
▁desear	-12.4662
▁proclam	-12.4665
▁prolong	-12.4667
ntér	-12.467
vier	-12.467
▁VII	-12.4673
▁enlaza	-12.4674
▁envuelt	-12.4674
ala	-12.4675
▁desprecia	-12.4687
▁molía	-12.4689
▁tajo	-12.4692
▁echad	-12.4693
▁Alva	-12.4699
ece	-12.4699
▁binie	-12.4705
▁Cib	-12.4705
eyacan	-12.4711
acahuaca	-12.4717
▁aconseja	-12.4719
▁administrar	-12.4725
lada	-12.473
▁leí	-12.4739
▁multiplic	-12.4743
tumban	-12.4746
▁invitar	-12.475
▁proveer	-12.4755
▁parescier	-12.4756
]	-12.4758
▁Us	-12.4758
yahua	-12.476
▁supi	-12.4767
ie	-12.4772
▁excede	-12.4772
▁cen	-12.4772
▁desplega	-12.4773
xoxo	-12.4774
▁Tlazot	-12.4776
rías	-12.4778
▁pretender	-12.4779
zac	-12.478
▁Tete	-12.4781
▁dibujar	-12.4782
▁Bla	-12.4783
▁volar	-12.4784
▁Pepe	-12.4788
▁estime	-12.4789
▁delgadit	-12.4802
▁reposa	-12.4806
▁agradec	-12.4806
▁encubiert	-12.4807
▁Quiyauh	-12.4816
▁Oli	-12.4822
▁Pu	-12.4822
lahtol	-12.4824
▁soñ	-12.4827
▁culebr	-12.483
▁tomada	-12.4836
errogat	-12.4851
▁habitan	-12.4852
▁divin	-12.4852
▁depus	-12.4861
huaca	-12.487
▁celebraba	-12.4877
▁Atoc	-12.4878
▁Coa	-12.4879
▁diría	-12.4882
▁got	-12.4884
orte	-12.4885
▁acuerde	-12.4886
▁Luci	-12.4886
▁cambie	-12.4893
luvia	-12.4894
and	-12.4895
graciada	-12.4902
▁Mac	-12.4902
▁em	-12.4906
▁Tepant	-12.4913
ahualco	-12.4917
▁desarrollar	-12.4917
imalpa	-12.4921
▁abrazo	-12.4927
▁labrado	-12.4928
▁hacha	-12.4929
cantado	-12.4929
▁recibirá	-12.493
íces	-12.4931
▁Tonal	-12.4932
enito	-12.4934
▁perdie	-12.4936
▁escribí	-12.4937
ses	-12.4938
bios	-12.494
▁Tlapal	-12.4947
▁Descans	-12.4955
inte	-12.4957
▁imponen	-12.4957
ltepec	-12.4958
▁atrapa	-12.4966
▁cat	-12.4966
▁lejan	-12.4968
▁estepa	-12.4969
▁divida	-12.4973
▁Toto	-12.4977
ayoca	-12.4981
PE	-12.4981
▁termino	-12.4983
vant	-12.4983
tomó	-12.4994
▁identific	-12.4996
ncio	-12.5006
adera	-12.5007
uela	-12.5014
▁boscoso	-12.502
pitl	-12.5022
▁Mole	-12.5022
eres	-12.5025
▁obst	-12.5025
▁nue	-12.5025
amaco	-12.5025
▁retorn	-12.5029
▁hicieras	-12.5029
neral	-12.503
ntad	-12.5032
▁disputa	-12.5033
todo	-12.5037
ictoria	-12.5038
yauhca	-12.5038
▁Sala	-12.5044
▁constitu	-12.5046
▁señalan	-12.5053
▁diverti	-12.5059
▁advert	-12.5065
▁escaramuzar	-12.5072
▁asigna	-12.5075
▁prometi	-12.5075
▁Acat	-12.5075
▁pensam	-12.5076
▁Regresa	-12.5077
▁turn	-12.508
▁arrodilla	-12.5087
raza	-12.5089
▁Vol	-12.5094
▁sacudi	-12.5099
lotes	-12.5102
▁orinar	-12.5105
▁escuchará	-12.5106
▁Mago	-12.5107
▁mulata	-12.5114
▁desprecie	-12.5119
▁invas	-12.5122
▁Teco	-12.5125
▁aviéndo	-12.513
ki	-12.513
sigu	-12.5133
▁proteg	-12.5133
TA	-12.5138
articipar	-12.5148
charon	-12.5149
hace	-12.5153
endas	-12.5157
leite	-12.5158
▁abrig	-12.5159
quería	-12.517
ochtlan	-12.5174
▁Culhuaca	-12.5174
tenencia	-12.518
ápida	-12.5184
ieran	-12.5188
diendo	-12.5194
▁hacerla	-12.52
▁tend	-12.5203
▁despleg	-12.5205
▁disfrazad	-12.5207
lores	-12.521
▁estudiaba	-12.5212
▁Cuauhtl	-12.5214
▁amarrar	-12.5215
diz	-12.5232
▁señala	-12.5236
ndó	-12.5237
▁Estuvi	-12.5237
▁precipitad	-12.5242
▁Cipact	-12.5242
▁repartida	-12.5243
▁domina	-12.5244
▁hermos	-12.5249
UN	-12.525
▁Xi	-12.5265
▁hada	-12.5269
laj	-12.528
▁vuelo	-12.5285
▁Esp	-12.529
▁sacud	-12.5292
▁alborotar	-12.5298
tepet	-12.5303
arnos	-12.5304
▁deud	-12.5311
▁extens	-12.5314
▁piedr	-12.5321
olocan	-12.5332
▁tapar	-12.5339
▁postre	-12.5361
▁Cocol	-12.5362
layo	-12.5363
tara	-12.5366
auro	-12.5368
▁alzan	-12.5368
formalidad	-12.537
▁cuá	-12.5386
▁tea	-12.5389
bajaban	-12.5397
írsel	-12.5398
▁oprimi	-12.5402
▁mort	-12.5406
▁ocupan	-12.5411
liz	-12.5412
▁reconoce	-12.5414
▁Ue	-12.542
▁utilizar	-12.5437
▁emb	-12.5445
▁adornaba	-12.5446
▁recorrie	-12.5447
▁rápida	-12.5453
zum	-12.5457
▁morisc	-12.5459
▁interi	-12.5462
ferente	-12.5462
cuauh	-12.5463
▁as	-12.5465
mera	-12.5467
cicl	-12.5468
▁direct	-12.547
▁Xochip	-12.5473
parecido	-12.5475
▁atajar	-12.5475
▁dient	-12.5476
▁fortalece	-12.5486
rotes	-12.5486
▁usaba	-12.5493
▁term	-12.5494
▁refresc	-12.5502
▁matarlo	-12.5507
▁Par	-12.5512
▁esparci	-12.5515
▁Sup	-12.5522
▁aguantar	-12.5524
▁deuda	-12.5525
ende	-12.553
▁conclu	-12.5543
nombre	-12.5545
▁empre	-12.5545
▁cuadr	-12.5564
hitl	-12.5564
tic	-12.5566
▁Coz	-12.5568
mie	-12.557
▁condi	-12.5577
▁dirigen	-12.5581
olita	-12.5583
▁vel	-12.5589
▁construyen	-12.5592
▁vej	-12.5595
▁tetecu	-12.5596
zcatl	-12.5611
▁aile	-12.5613
▁descubrier	-12.5616
▁bland	-12.5618
▁enfada	-12.5621
uak	-12.5625
▁dialogan	-12.5626
▁descen	-12.5627
▁ansia	-12.5632
unes	-12.5642
▁recorri	-12.5643
nó	-12.5643
onimo	-12.5645
▁Veint	-12.5645
▁aqu	-12.5646
viendo	-12.5646
azatzin	-12.5648
▁quitara	-12.5652
apa	-12.566
▁Itzcu	-12.5661
▁compañer	-12.5672
▁salve	-12.568
▁Pong	-12.5681
▁entregad	-12.5682
▁Ver	-12.5683
usia	-12.5683
▁forja	-12.5689
▁Chimallaxo	-12.5689
▁dispuesta	-12.569
▁recuerda	-12.5691
▁ri	-12.5695
oyáhu	-12.5706
▁Cap	-12.5707
▁impong	-12.5715
acaltzin	-12.5728
▁revuelv	-12.573
▁castigaba	-12.5731
▁CHI	-12.5738
▁Tío	-12.5739
▁milco	-12.5743
▁favorece	-12.5743
▁Comp	-12.5745
chic	-12.5746
cachi	-12.5756
▁reflexion	-12.5757
mpico	-12.5759
▁floreci	-12.576
zinco	-12.5763
▁obedeci	-12.5771
atorio	-12.5773
▁central	-12.5774
▁reforz	-12.5776
▁inundad	-12.5778
rrillo	-12.5779
▁arrebat	-12.5786
ándol	-12.5787
tlamacazqu	-12.5787
jol	-12.5788
aro	-12.5796
▁comercian	-12.5798
▁buscado	-12.5802
AC	-12.5803
htin	-12.5805
OJ	-12.5813
▁excep	-12.5815
▁avi	-12.5816
▁asola	-12.5817
▁Tlacoc	-12.5818
ipan	-12.582
▁escal	-12.5823
▁cau	-12.5823
▁curan	-12.5828
▁revis	-12.5829
▁objet	-12.5833
▁rem	-12.5834
▁Chichimecat	-12.5837
ote	-12.5839
▁ordenad	-12.5839
▁húmed	-12.5842
pilli	-12.5846
guaya	-12.5848
▁encabezan	-12.5856
maría	-12.586
▁orej	-12.5868
▁incorpora	-12.5869
▁instruy	-12.5869
▁conservad	-12.5871
quizqui	-12.5872
▁gane	-12.5878
▁Sufr	-12.588
▁convenci	-12.5884
mar	-12.5887
Esta	-12.5888
▁jal	-12.5888
Qué	-12.5903
▁Tlam	-12.5906
▁quau	-12.5913
▁olvidad	-12.5921
ydo	-12.5923
▁verlos	-12.5926
▁camot	-12.5927
ilit	-12.5927
▁za	-12.5928
▁meta	-12.5929
oteca	-12.5937
fuerza	-12.5939
▁Chiauh	-12.594
▁Tuvi	-12.5942
▁dictar	-12.5944
▁Cholo	-12.5946
▁continent	-12.5948
cua	-12.5948
▁vo	-12.595
visteis	-12.5952
▁vul	-12.5967
▁Tr	-12.597
don	-12.5971
hueco	-12.5972
▁posi	-12.5982
▁Totot	-12.5984
divina	-12.5986
▁costal	-12.5987
▁corpora	-12.5989
bert	-12.5991
▁reconoci	-12.6001
▁hog	-12.6002
▁ki	-12.601
▁descubiert	-12.6014
▁mate	-12.6014
morteci	-12.6023
▁blanc	-12.6028
dalgo	-12.6032
RA	-12.6034
▁compete	-12.6034
dice	-12.6036
mpezó	-12.6041
ortar	-12.6045
activo	-12.6046
▁nove	-12.6046
▁bin	-12.6048
▁Meca	-12.6058
▁k	-12.6061
lejo	-12.6062
▁esc	-12.6062
▁Xochitecu	-12.6063
▁suena	-12.6071
tlat	-12.6072
yacapa	-12.6072
bad	-12.6076
▁Univers	-12.6076
plica	-12.6083
ruj	-12.6085
▁Xaltepe	-12.6086
▁Xóc	-12.6089
buena	-12.6089
▁madur	-12.6092
▁cent	-12.6094
busc	-12.6095
▁viole	-12.6098
▁estand	-12.6102
▁larg	-12.6107
fundada	-12.6108
uhtecatlteuctl	-12.6111
▁Volv	-12.6112
▁cumplí	-12.6123
huaste	-12.6127
▁grat	-12.613
▁respetaba	-12.6132
▁Deja	-12.6135
nj	-12.6136
▁acuchill	-12.6137
cat	-12.6142
Ante	-12.6143
rriba	-12.6149
▁custodiaba	-12.615
ojo	-12.6151
▁testament	-12.6158
venga	-12.6162
▁consi	-12.6171
▁Franc	-12.6171
fra	-12.6174
▁tre	-12.6176
ibu	-12.6179
sangren	-12.6187
▁choz	-12.6192
▁aflig	-12.6194
paricio	-12.6194
▁apresura	-12.6202
▁Hi	-12.6203
▁reverenciar	-12.6209
▁interrump	-12.6209
▁Sufre	-12.6219
xico	-12.6223
nueve	-12.6229
riesg	-12.6231
rejas	-12.6232
vive	-12.6233
▁prende	-12.6242
▁Atiza	-12.6244
▁alt	-12.6247
▁enriquece	-12.6251
▁Escrib	-12.6252
icor	-12.6253
▁Cris	-12.6256
▁vendí	-12.6262
▁señore	-12.6269
▁limpie	-12.6272
▁distan	-12.6274
▁llevándol	-12.6279
▁Toca	-12.6279
▁Pregunt	-12.6279
▁Xua	-12.6281
▁obi	-12.6285
▁sospecha	-12.6286
▁conce	-12.6287
éntamelo	-12.6288
abía	-12.6289
▁brillaba	-12.629
▁practica	-12.6291
▁poste	-12.6293
▁suspen	-12.6294
pida	-12.6294
salió	-12.63
▁respondo	-12.6303
▁dañar	-12.6305
ndios	-12.631
considerad	-12.6313
▁conpra	-12.6317
lica	-12.632
▁reflexi	-12.6324
▁criar	-12.6324
▁andá	-12.6326
▁Do	-12.6326
▁apoderan	-12.6347
rós	-12.6348
▁difu	-12.635
rezar	-12.635
quihui	-12.6353
▁montad	-12.6358
▁retornar	-12.6363
goro	-12.6365
▁respetar	-12.6367
▁voluntari	-12.6372
cuñado	-12.6373
▁removi	-12.6376
exic	-12.6377
▁sentenci	-12.6377
niebla	-12.6378
▁potr	-12.6381
▁expulsa	-12.6382
mbient	-12.6386
dele	-12.6386
▁tiraba	-12.639
▁ciu	-12.6392
mpe	-12.6393
fe	-12.6395
▁Gal	-12.6398
tojmi	-12.64
ual	-12.6401
prueba	-12.6402
▁bl	-12.6404
kuouj	-12.6404
ak	-12.6406
pertur	-12.6413
euc	-12.6413
cuez	-12.6414
▁atavi	-12.6417
andas	-12.6417
▁tejo	-12.6419
▁avergonzar	-12.6419
▁satisfa	-12.642
Yo	-12.6423
▁apellid	-12.6424
sciende	-12.6428
▁lazo	-12.6433
▁visit	-12.6436
▁clava	-12.6443
▁pida	-12.6448
▁Yaot	-12.6452
▁alia	-12.6454
▁enterra	-12.6463
▁amará	-12.6471
▁revolv	-12.6478
▁Qua	-12.648
▁cantá	-12.6481
mit	-12.6481
▁fleco	-12.6485
▁atoli	-12.6486
pagaba	-12.6487
tepixque	-12.6489
▁Xoc	-12.6491
▁bolu	-12.6492
envolvía	-12.6492
▁derrui	-12.6495
▁rez	-12.6503
▁confort	-12.6503
▁Conta	-12.6503
▁crí	-12.6504
▁Defen	-12.6509
▁ahor	-12.6513
ial	-12.6516
isita	-12.6518
▁hech	-12.6522
▁pierda	-12.6526
toman	-12.6545
tenerlo	-12.6547
▁docto	-12.6547
▁narr	-12.6548
▁rebela	-12.6549
▁Sab	-12.6553
uillo	-12.6556
▁bote	-12.656
jaban	-12.6564
▁trasla	-12.6565
áve	-12.6572
uaochpa	-12.6579
goza	-12.6581
oyol	-12.6581
sio	-12.6582
▁aberigu	-12.6583
▁Cuáuhque	-12.6584
▁moment	-12.6585
marc	-12.6586
▁organ	-12.6587
moler	-12.6593
lejado	-12.6597
sfuér	-12.6603
▁amada	-12.6604
▁ji	-12.6604
zuela	-12.6604
uosa	-12.6605
ndamos	-12.6606
ntiguo	-12.6612
zcapotzalc	-12.6615
▁exalta	-12.6615
▁trafica	-12.6617
▁Quint	-12.6618
▁Cuate	-12.6622
▁destroz	-12.6624
▁ampara	-12.6624
▁Tezcat	-12.6631
▁peña	-12.6634
▁multipli	-12.6634
▁ynquiet	-12.6634
▁forj	-12.6638
▁golpean	-12.6642
cuauhtli	-12.6646
▁asusta	-12.6646
▁Sale	-12.6648
zaca	-12.6651
érg	-12.6652
▁Aquell	-12.6652
ronto	-12.6657
▁Ves	-12.6658
mbién	-12.6658
ahuizcalpotonqui	-12.666
▁raya	-12.6662
▁poni	-12.6662
egando	-12.6663
▁traduci	-12.6664
▁Cuauhtzi	-12.6665
▁manej	-12.6667
dicho	-12.6667
buela	-12.667
bes	-12.6675
Pas	-12.6675
▁aprehend	-12.6678
▁huehuetla	-12.6681
▁brasa	-12.6683
▁compusier	-12.6685
▁pata	-12.6686
▁chamus	-12.6686
eramente	-12.6688
▁manchad	-12.669
gaba	-12.669
▁distin	-12.6694
▁obedec	-12.6695
ide	-12.6699
▁Hága	-12.6699
▁nacim	-12.6699
tecutl	-12.6709
▁pront	-12.6711
▁trabajado	-12.6713
petate	-12.6714
scribir	-12.6716
osos	-12.6717
▁sonaba	-12.6722
▁guisa	-12.6723
maya	-12.6725
▁imponer	-12.6726
▁suy	-12.6728
▁PRI	-12.6731
▁ajust	-12.6736
▁daña	-12.6741
▁calenta	-12.6745
▁emborracha	-12.6746
ariz	-12.6748
mares	-12.6749
▁notifi	-12.6751
▁vomit	-12.6753
▁Chiqui	-12.6753
▁proteger	-12.6757
astian	-12.6758
▁requerir	-12.6767
gest	-12.6769
jeta	-12.6771
tlatlauhqui	-12.6771
▁dueñ	-12.6781
DI	-12.6783
▁Xiu	-12.6785
guacat	-12.679
xtiende	-12.6792
rededor	-12.6792
▁aprov	-12.6793
▁señoria	-12.6793
▁Migue	-12.6794
machan	-12.6795
▁Inter	-12.68
▁náhuat	-12.6801
tica	-12.6801
▁Telpo	-12.6801
lvar	-12.6804
cruci	-12.6806
aballero	-12.6808
▁anduviera	-12.6808
onstruid	-12.6809
▁gobe	-12.6809
zonpan	-12.6809
▁dificult	-12.6811
emej	-12.6813
gular	-12.6813
▁Cozcacuauh	-12.6813
▁apacig	-12.6813
ZA	-12.6813
UIL	-12.6814
▁VERD	-12.6814
▁cuetlax	-12.6814
IDEN	-12.6814
ERBA	-12.6814
▁NOPAL	-12.6814
▁increment	-12.6814
ADOS	-12.6814
QUELITE	-12.6814
cíclica	-12.6814
tsapot	-12.6814
▁Apóstol	-12.6814
▁CALABA	-12.6814
▁Comunicar	-12.6814
▁Cuauhtliyolqu	-12.6814
▁ESPINOSO	-12.6814
▁MAZOR	-12.6814
▁Nentlamati	-12.6814
▁Ocotepetl	-12.6814
▁POR	-12.6814
▁Príncipe	-12.6814
▁Quiyeuhtzin	-12.6814
▁Revillagigedo	-12.6814
▁TERCER	-12.6814
▁Tehuehueltzin	-12.6814
▁Tlaximaloya	-12.6814
▁Tzinancantla	-12.6814
▁XOCONOSTLE	-12.6814
▁XOCOYOL	-12.6814
▁XXX	-12.6814
▁Xiúh	-12.6814
▁Ycquixochit	-12.6814
▁ahúma	-12.6814
▁atropella	-12.6814
▁benévol	-12.6814
▁chapoltepec	-12.6814
▁chaquetilla	-12.6814
▁chilacayot	-12.6814
▁cimarrón	-12.6814
▁desasosiegue	-12.6814
▁dádiva	-12.6814
▁eléctric	-12.6814
▁entorpece	-12.6814
▁espontánea	-12.6814
▁examinar	-12.6814
▁extiéndete	-12.6814
▁glorificado	-12.6814
▁hemorragia	-12.6814
▁históric	-12.6814
▁huerfanit	-12.6814
▁incrusta	-12.6814
▁indemniza	-12.6814
▁irreflexiva	-12.6814
▁istak	-12.6814
▁mazorquita	-12.6814
▁múltiple	-12.6814
▁partícipe	-12.6814
▁pañuelo	-12.6814
▁perspectiva	-12.6814
▁plebeyo	-12.6814
▁precolombino	-12.6814
▁prófugo	-12.6814
▁recubrimiento	-12.6814
▁restituye	-12.6814
▁tartamud	-12.6814
▁tejamanile	-12.6814
▁transmiti	-12.6814
▁vergonzos	-12.6814
▁ynstituy	-12.6814
▁étnico	-12.6814
chpuch	-12.6814
▁Chontalco	-12.6814
▁Invita	-12.6814
▁Teuhcho	-12.6814
▁corpulento	-12.6814
▁graznar	-12.6814
▁pelícano	-12.6814
▁reliquia	-12.6814
▁xocoyol	-12.6814
▁Cuezcomatliy	-12.6814
▁Iniciativa	-12.6814
▁Toztecaci	-12.6814
▁cenicient	-12.6814
▁disminu	-12.6814
▁extingui	-12.6814
▁neblin	-12.6814
▁nervios	-12.6814
▁Cuauhpoyahua	-12.6814
▁Cuauhtenampa	-12.6814
▁Quimicht	-12.6814
▁dormitorio	-12.6814
▁escudriña	-12.6814
▁inyec	-12.6814
▁relampaguea	-12.6814
▁Xochpoyo	-12.6814
▁eduque	-12.6814
kakau	-12.6814
ógrafo	-12.6814
▁TSOJPI	-12.6814
▁permíta	-12.6814
▁FLORES	-12.6814
▁Uicoltepe	-12.6814
▁destribuy	-12.6814
▁benepl	-12.6814
▁homicid	-12.6814
▁llámalo	-12.6814
▁mundanas	-12.6814
▁persigna	-12.6814
▁Enséñ	-12.6814
▁Ixmatlat	-12.6814
▁desasosega	-12.6814
▁dotarte	-12.6814
▁enorgullezca	-12.6814
▁Huexolotla	-12.6814
▁recupera	-12.6814
▁tlatelo	-12.6814
▁sacrifiqué	-12.6814
ayacámach	-12.6814
▁etnia	-12.6814
▁BLANCO	-12.6814
htleque	-12.6814
▁odiada	-12.6814
eminencia	-12.6814
▁obstáculo	-12.6814
EMP	-12.6814
potonqui	-12.6814
▁Tajchi	-12.6814
▁exprim	-12.6814
▁friazo	-12.6814
▁inmensa	-12.6814
ADOR	-12.6814
▁condimentos	-12.6814
▁kekexi	-12.6814
▁reblandec	-12.6814
▁Conquist	-12.6814
▁ayúda	-12.6814
▁excesiv	-12.6814
AYOTE	-12.6814
▁acércala	-12.6814
▁clásic	-12.6814
▁Tlecuil	-12.6814
▁legislatura	-12.6814
▁pepita	-12.6814
▁discurría	-12.6814
▁acamaya	-12.6814
▁desforest	-12.6814
▁agoniza	-12.6814
▁censura	-12.6814
articula	-12.6814
▁alcoh	-12.6814
▁pidiéndole	-12.6814
▁apresuró	-12.6814
▁pantanos	-12.6814
▁revolotea	-12.6814
▁sofoc	-12.6814
▁crónica	-12.6814
▁subordinado	-12.6814
▁educativo	-12.6814
▁michhua	-12.6814
▁Cuezal	-12.6815
párense	-12.6815
UH	-12.6815
▁Imper	-12.6815
▁Macuilxochitzin	-12.6815
▁acrecent	-12.6815
▁amaciz	-12.6815
▁entromet	-12.6815
▁mauiztla	-12.6815
▁izcahuit	-12.6815
▁gordita	-12.6815
▁temporada	-12.6815
▁fabrican	-12.6815
▁representativa	-12.6815
▁Patria	-12.6815
▁cudicia	-12.6815
▁básic	-12.6815
▁argumento	-12.6815
▁mictlan	-12.6815
▁copita	-12.6815
rtija	-12.6815
▁Chichilcu	-12.6815
▁Xiuhnel	-12.6815
▁catarro	-12.6815
▁Tranquil	-12.6815
▁mosaico	-12.6815
▁acanalad	-12.6815
▁paisano	-12.6815
▁invoque	-12.6815
téncatl	-12.6815
▁marinero	-12.6815
▁lechuza	-12.6815
▁Tlachinol	-12.6815
▁brinca	-12.6815
▁extravia	-12.6815
▁Déja	-12.6815
▁ubica	-12.6815
▁despedida	-12.6815
▁vigesimo	-12.6815
▁Tzonmol	-12.6815
▁apaciguar	-12.6815
▁litera	-12.6815
▁rábano	-12.6815
▁tropie	-12.6815
▁mastica	-12.6815
▁protector	-12.6815
ransfiguraci	-12.6815
▁Mazatepetl	-12.6816
▁madroño	-12.6816
▁trasquila	-12.6816
▁envenena	-12.6816
▁adviert	-12.6816
▁ciñe	-12.6816
▁diligencia	-12.6816
▁hostiga	-12.6816
▁discordia	-12.6816
▁Tzonpanteuctl	-12.6816
▁desalentar	-12.6816
▁desesperación	-12.6816
▁recámara	-12.6816
▁empedr	-12.6816
ezcomaixtlahuaca	-12.6816
▁paternidad	-12.6816
celopan	-12.6816
▁envilece	-12.6816
▁Otorg	-12.6816
▁nutri	-12.6816
▁campamento	-12.6816
lática	-12.6816
UIT	-12.6816
▁pasajero	-12.6816
▁tecolote	-12.6816
▁simula	-12.6816
▁borbo	-12.6816
▁tropezar	-12.6816
▁apalea	-12.6816
▁Regálales	-12.6816
▁alabanza	-12.6816
▁arrepi	-12.6816
▁sangramiento	-12.6817
▁Inocen	-12.6817
TOMATE	-12.6817
▁falsedad	-12.6817
▁Merino	-12.6817
FI	-12.6817
▁Uitz	-12.6817
▁acechan	-12.6817
▁mensual	-12.6817
▁divirt	-12.6817
órgano	-12.6817
▁SOYO	-12.6817
▁Informa	-12.6817
▁diseña	-12.6817
▁chistoso	-12.6817
▁adopt	-12.6817
EGR	-12.6817
▁inscribi	-12.6817
▁Atzaqualc	-12.6817
▁Nahuali	-12.6818
axtla	-12.6818
▁trigueñ	-12.6818
▁potencia	-12.6818
▁Forma	-12.6818
MIMI	-12.6818
▁llévate	-12.6818
▁bultito	-12.6818
▁mejilla	-12.6818
cabul	-12.6818
▁provenía	-12.6818
▁humanidad	-12.6818
▁Esposa	-12.6818
▁despacha	-12.6818
▁soberbi	-12.6818
▁reanim	-12.6818
tik	-12.6818
▁provecho	-12.6818
artar	-12.6818
▁Regala	-12.6818
▁XAL	-12.6818
mes	-12.6819
▁Yancuic	-12.6819
▁compensa	-12.6819
▁mérito	-12.6819
▁tuerce	-12.6819
posicion	-12.6819
▁lléven	-12.6819
▁Oí	-12.6819
▁produzca	-12.6819
ICO	-12.6819
▁Cuahuix	-12.6819
CAB	-12.6819
▁paladea	-12.6819
▁Tocuilteca	-12.682
▁absten	-12.682
▁distrae	-12.682
▁andubie	-12.682
▁Reconoc	-12.682
▁Arroja	-12.682
▁revuelta	-12.682
▁heroic	-12.6821
▁variedad	-12.6821
▁consecutivo	-12.6821
▁infie	-12.6821
▁comulg	-12.6821
▁Cuauhpopocat	-12.6821
▁Otum	-12.6821
▁Pónga	-12.6822
ímetro	-12.6822
▁bandereta	-12.6822
ezcatzon	-12.6822
▁adelga	-12.6822
▁alancea	-12.6822
▁penden	-12.6822
▁Galile	-12.6822
▁válid	-12.6822
tlachinoll	-12.6822
▁prontamente	-12.6822
▁Comandan	-12.6822
▁pollito	-12.6822
▁florezca	-12.6823
otzom	-12.6823
▁jag	-12.6823
▁recrea	-12.6823
huetl	-12.6824
UE	-12.6824
▁UNA	-12.6824
atlauh	-12.6824
▁cerradura	-12.6825
▁arroyo	-12.6825
▁diab	-12.6825
▁TRA	-12.6825
tiérr	-12.6825
▁culpable	-12.6826
▁embri	-12.6826
▁Píde	-12.6826
▁obediente	-12.6826
▁mofa	-12.6826
tlapech	-12.6826
▁hechicería	-12.6826
▁cuelga	-12.6826
▁primoros	-12.6826
▁efectiv	-12.6827
jtik	-12.6827
▁maciz	-12.6827
▁endul	-12.6827
▁ánade	-12.6827
▁puñado	-12.6827
▁preferencia	-12.6827
rgánica	-12.6828
▁consejero	-12.6828
▁Itzcuint	-12.6829
▁emparej	-12.6829
▁desag	-12.6829
▁distintiv	-12.6829
▁carret	-12.6829
▁Iztaccoyot	-12.6829
▁sexual	-12.6829
▁arredr	-12.683
▁Tened	-12.683
▁sostene	-12.683
▁arbitrari	-12.683
▁agujerito	-12.6831
▁locura	-12.6831
▁escarba	-12.6831
▁presupuesto	-12.6831
▁Techinan	-12.6831
UR	-12.6832
▁malacate	-12.6832
▁orgánica	-12.6832
▁herrero	-12.6832
AFA	-12.6832
▁Cuauhpilo	-12.6833
cuitlap	-12.6833
▁xili	-12.6833
▁valida	-12.6834
▁siéntate	-12.6834
▁desalient	-12.6834
▁efectua	-12.6835
▁gateando	-12.6835
▁sacándol	-12.6835
▁afilia	-12.6835
▁Cuauhtzon	-12.6836
▁Zima	-12.6836
▁Raspa	-12.6837
tzalco	-12.6837
▁ruégale	-12.6838
▁pochtlan	-12.6838
▁vellac	-12.6838
lhuicamina	-12.6838
▁Océ	-12.6838
MORA	-12.6839
▁conferi	-12.6839
▁remontar	-12.684
▁Tozpan	-12.684
legislador	-12.684
▁hablá	-12.684
▁ocurriera	-12.6841
LAHUA	-12.6841
▁cuidaste	-12.6841
tepezint	-12.6841
▁Tecoz	-12.6842
bano	-12.6842
▁entibiará	-12.6842
▁caxa	-12.6842
▁ayudarme	-12.6842
▁Tlail	-12.6842
sionado	-12.6843
pital	-12.6843
▁enveje	-12.6843
▁disculpa	-12.6843
▁Perdón	-12.6843
▁hermanita	-12.6843
stej	-12.6844
▁vuela	-12.6844
quietud	-12.6844
▁chapole	-12.6844
▁dársela	-12.6844
amachan	-12.6845
▁Chichicuepon	-12.6845
▁permanecer	-12.6846
▁remit	-12.6846
▁Tlalteca	-12.6846
▁comparece	-12.6846
▁proviene	-12.6846
▁revalora	-12.6846
▁vendiéndo	-12.6847
▁ajustar	-12.6849
▁atribulad	-12.6849
▁predi	-12.6849
▁complacid	-12.6849
▁gavi	-12.6849
▁despoja	-12.685
▁afilado	-12.685
entin	-12.685
▁hosti	-12.6851
▁dedique	-12.6852
▁feneci	-12.6852
▁Johan	-12.6852
▁Atep	-12.6853
▁inclinada	-12.6853
▁Cacá	-12.6854
strella	-12.6854
▁dividid	-12.6854
▁prevista	-12.6855
▁temiendo	-12.6855
▁fastidiaron	-12.6857
▁revuelto	-12.6857
▁sostener	-12.6858
▁Nombr	-12.6858
▁Muchísim	-12.6858
▁rentar	-12.6859
▁borrachera	-12.686
▁Rico	-12.6861
▁ofrezc	-12.6861
▁perderme	-12.6862
ult	-12.6863
▁valios	-12.6863
▁Corre	-12.6863
▁venderíamos	-12.6863
calteca	-12.6863
▁achac	-12.6863
▁compasiv	-12.6863
acxo	-12.6863
▁persuadir	-12.6864
▁comino	-12.6864
▁Tetzmol	-12.6864
ser	-12.6865
▁Encontr	-12.6865
▁asesinato	-12.6865
▁tremen	-12.6866
▁inviolable	-12.6866
▁jarro	-12.6867
▁conviert	-12.6868
▁Período	-12.6868
▁estrag	-12.6869
▁poniéndole	-12.6869
▁Siguie	-12.687
cible	-12.687
▁interroga	-12.687
ecto	-12.687
▁emociona	-12.687
edazo	-12.6871
▁matará	-12.6871
▁Delgad	-12.6871
apítulo	-12.6871
▁Aquél	-12.6872
▁consuegro	-12.6872
▁caballería	-12.6872
▁salpicado	-12.6872
olimp	-12.6873
▁Pluma	-12.6873
▁ascens	-12.6874
▁Conchit	-12.6875
enedict	-12.6876
idiana	-12.6877
▁derribar	-12.6877
▁Tom	-12.6877
▁travesaño	-12.6877
▁acerqu	-12.6878
calidad	-12.6879
▁vendiendo	-12.6879
▁engrandecer	-12.6879
▁Cárde	-12.688
▁Motec	-12.688
▁esclaviza	-12.688
▁reprendía	-12.6881
▁departamento	-12.6882
▁engrandec	-12.6884
▁REL	-12.6885
▁divertía	-12.6885
▁agacha	-12.6886
▁incen	-12.6886
▁Medita	-12.6886
▁elegante	-12.6886
▁apropiarse	-12.6886
▁ofen	-12.6887
▁palad	-12.6888
pán	-12.6889
▁grandecitos	-12.6889
▁Veinti	-12.6889
hicon	-12.689
onecuil	-12.6891
▁vendimos	-12.6891
▁Argue	-12.6891
▁sustente	-12.6891
▁restablecer	-12.6892
▁doloroso	-12.6892
truy	-12.6893
ox	-12.6895
▁Acozac	-12.6895
▁Muerto	-12.6896
▁Papalo	-12.6897
JON	-12.6897
▁Tecuic	-12.6897
▁organizaci	-12.6897
▁señalado	-12.6898
▁tepoz	-12.6898
▁piados	-12.6899
▁riqu	-12.69
azareno	-12.69
▁platillo	-12.6902
▁establecida	-12.6902
rar	-12.6902
▁viviréis	-12.6903
▁Treintai	-12.6905
▁fingier	-12.6905
▁Ipalnemoan	-12.6905
▁ignoran	-12.6906
▁contribuye	-12.6907
▁Gén	-12.6907
ACATE	-12.6909
▁Izta	-12.6909
▁obligarla	-12.691
▁Tepapa	-12.691
▁grulla	-12.691
▁espe	-12.6912
▁sobresal	-12.6913
▁Cuída	-12.6913
▁tepam	-12.6913
escolar	-12.6914
séptimo	-12.6914
lotlac	-12.6915
▁caerá	-12.6916
▁zanahorias	-12.6916
▁usurpa	-12.6917
▁recordó	-12.6918
▁funestos	-12.6918
▁recolecta	-12.6918
▁suplicarte	-12.6919
▁cerillos	-12.6919
▁llenad	-12.6921
▁Atlixel	-12.6921
▁pule	-12.6922
▁anoche	-12.6923
zozo	-12.6923
▁metiéndo	-12.6923
▁manchada	-12.6924
▁Ycnotlacat	-12.6926
▁Yollo	-12.6926
▁PRIM	-12.6927
▁vivamos	-12.6928
▁Aviendo	-12.6928
▁anul	-12.6928
▁Sev	-12.6928
▁perseguido	-12.693
▁escop	-12.693
▁maleta	-12.6931
▁concedid	-12.6931
aliza	-12.6932
▁restrin	-12.6932
▁Cuextecat	-12.6934
em	-12.6935
▁requiri	-12.6935
▁ampu	-12.6936
▁terre	-12.6938
ordinado	-12.6938
▁acortar	-12.6939
▁rabo	-12.694
lotea	-12.6941
▁sacra	-12.6942
▁chamusc	-12.6944
▁arrogan	-12.6944
cind	-12.6946
cequia	-12.6946
▁reza	-12.6947
▁imponerle	-12.6948
▁traíd	-12.695
▁recostad	-12.695
cuá	-12.6952
▁barca	-12.6954
jko	-12.6954
▁protegerá	-12.6954
▁Duque	-12.6955
▁asistente	-12.6955
▁teucpil	-12.6955
erio	-12.6956
ltic	-12.6956
▁escoge	-12.6957
▁amorosa	-12.6961
quina	-12.6961
▁Ayauhcal	-12.6962
▁teológic	-12.6962
▁Xip	-12.6966
▁retirada	-12.6966
▁menudo	-12.6969
▁opus	-12.697
▁repele	-12.6971
ayunaba	-12.6974
prenderá	-12.6974
▁incl	-12.6975
sediad	-12.6975
def	-12.6975
▁maiz	-12.6979
hast	-12.698
▁menudit	-12.6982
abeza	-12.6982
tribuir	-12.6983
▁Yzquixochiqu	-12.6984
tecatlteuctl	-12.6985
▁constituy	-12.6985
ilvestre	-12.6986
▁apreciar	-12.6986
▁arroga	-12.6988
▁tapó	-12.6988
▁Venga	-12.6991
imatilulc	-12.6993
▁cometido	-12.6996
ndad	-12.6996
unza	-12.6997
▁Xacalpa	-12.6998
ernos	-12.6998
estaba	-12.6999
efensor	-12.7001
▁ministro	-12.7001
oria	-12.7001
▁enojen	-12.7002
▁tlacuilo	-12.7004
▁profier	-12.7004
▁ynquieta	-12.7005
▁arrepient	-12.7005
▁Acalcal	-12.7007
mu	-12.7007
▁distribuir	-12.7008
▁embarnecer	-12.7009
▁deterior	-12.7009
terio	-12.7009
▁acuátic	-12.7011
▁XIP	-12.7011
mulo	-12.7014
▁venc	-12.7015
▁MI	-12.7018
▁hazl	-12.7019
▁rever	-12.7024
▁Tozp	-12.7025
lici	-12.7026
▁alarm	-12.7027
▁Oztoma	-12.7027
▁afanos	-12.7028
▁exaltado	-12.7029
▁Max	-12.7031
▁besar	-12.7031
caban	-12.7032
lti	-12.7032
▁hueit	-12.7033
iban	-12.7034
▁arrend	-12.7034
erbita	-12.7035
▁tabern	-12.7036
▁descubrimiento	-12.7039
▁ay	-12.704
▁retro	-12.7041
▁sepár	-12.7042
▁mam	-12.7043
buelta	-12.7043
▁colorado	-12.7045
▁acava	-12.7045
▁refinad	-12.7046
urland	-12.7047
▁traza	-12.7047
▁respo	-12.7047
▁organi	-12.7049
▁Hici	-12.7049
▁Gobernador	-12.705
calo	-12.705
▁comandante	-12.7051
▁ren	-12.7051
auti	-12.7052
▁comerciaba	-12.7053
becilla	-12.7055
▁explo	-12.7057
▁conmover	-12.7058
cutor	-12.7059
▁Cuitlachc	-12.706
▁Villag	-12.706
▁sapo	-12.7061
▁preparati	-12.7061
▁Pantla	-12.7062
▁llenando	-12.7064
▁vendamos	-12.7064
▁tigr	-12.7064
habili	-12.7065
▁encenderá	-12.7065
▁Zapot	-12.7066
▁dejaré	-12.7067
▁ensay	-12.7068
▁Tlama	-12.7069
derno	-12.707
▁asesor	-12.7075
marillas	-12.7075
▁Vender	-12.7075
▁turbe	-12.7077
▁chiquill	-12.7078
▁Hagámo	-12.7078
áquenl	-12.7078
XTO	-12.7078
▁escapad	-12.7079
▁quisiese	-12.708
▁granje	-12.7083
▁Tehuan	-12.7085
▁vivieran	-12.7086
sequia	-12.7089
▁aterrar	-12.7093
alca	-12.7093
uhtla	-12.7093
▁benef	-12.7096
▁Tigre	-12.7104
▁florid	-12.7106
▁revesti	-12.7106
▁sostuv	-12.7107
▁Herna	-12.711
▁entretejid	-12.7112
▁apiadara	-12.7113
▁Ytzc	-12.7113
▁Xochiaca	-12.7114
▁fierro	-12.7117
▁esmeraba	-12.7118
▁teni	-12.7122
dueña	-12.7123
bajamos	-12.7123
CAS	-12.7124
▁encumbrar	-12.7126
▁infeli	-12.7128
▁estemos	-12.7128
▁devoto	-12.7128
▁capellan	-12.7132
▁recurri	-12.7135
▁carr	-12.7138
▁despojar	-12.7138
▁Xaltépe	-12.7141
▁rabi	-12.7144
▁ell	-12.7145
▁lind	-12.7145
reparaba	-12.715
▁Macuilx	-12.715
nadie	-12.7151
cesaria	-12.7155
ellos	-12.7156
▁rescatar	-12.7156
▁detenga	-12.7158
TEC	-12.7159
iercol	-12.7159
bozo	-12.716
▁mandas	-12.7161
diaron	-12.7162
D	-12.7162
▁regente	-12.7163
▁Quice	-12.7171
▁generos	-12.7172
▁ataviará	-12.7174
uoso	-12.7175
cavaba	-12.7176
▁privada	-12.7179
▁determine	-12.7182
▁baldí	-12.7183
▁apod	-12.7185
▁cens	-12.7186
▁bañando	-12.7187
▁asignara	-12.719
▁fatigará	-12.719
▁obscurecer	-12.7194
▁refuerz	-12.7195
▁detendrá	-12.7197
▁sostenía	-12.7204
rod	-12.7205
▁limitado	-12.7208
ócalo	-12.7208
▁sometida	-12.721
volvía	-12.7212
pues	-12.7216
▁expl	-12.7218
▁permanecerá	-12.7218
ija	-12.7218
▁apellida	-12.722
▁borla	-12.7221
úsquenlo	-12.7224
mixco	-12.7227
▁ducient	-12.7227
pina	-12.7227
▁fenes	-12.7229
víste	-12.7232
lazar	-12.7232
éxi	-12.7236
▁Ra	-12.7238
▁aprendiera	-12.7238
fu	-12.7241
▁limpien	-12.7245
▁tojmi	-12.7246
▁tlal	-12.725
urría	-12.725
▁reparta	-12.7252
▁bolbie	-12.7254
OMO	-12.7255
kan	-12.7256
erda	-12.7257
▁soporta	-12.7262
▁reúno	-12.7263
jab	-12.7263
imas	-12.7264
▁expulsar	-12.7266
erencia	-12.7267
rro	-12.7269
▁Chichi	-12.7269
▁incon	-12.7272
xacal	-12.7273
▁construid	-12.7274
tico	-12.7275
▁venderán	-12.7276
uestra	-12.7276
memor	-12.7277
dispensa	-12.7279
▁sangrar	-12.7283
ctin	-12.7284
▁inocen	-12.7285
ITA	-12.729
▁satisfacer	-12.7292
▁trabaje	-12.7295
ác	-12.7298
▁Hua	-12.7303
▁YO	-12.7305
▁proceder	-12.7309
latlauhquitepec	-12.731
▁denuncia	-12.7313
ollantzinc	-12.7313
▁caminata	-12.7315
▁tejida	-12.7316
▁espanto	-12.7316
▁burlaba	-12.7319
▁exclaman	-12.732
▁aposentar	-12.7322
▁estudioso	-12.7323
▁despellejado	-12.7325
▁mojar	-12.7325
▁interpreta	-12.7331
▁defendía	-12.7332
▁Perf	-12.7333
▁respeta	-12.7335
▁recorrier	-12.7337
Com	-12.7337
▁Pino	-12.734
▁manifi	-12.734
inta	-12.734
▁instruía	-12.7341
▁hui	-12.7341
chichi	-12.7345
▁devora	-12.7346
cencia	-12.7348
idan	-12.7349
▁Ol	-12.735
▁vay	-12.7353
MAN	-12.7353
▁adorarl	-12.7355
▁Zanat	-12.7355
▁entendid	-12.7356
▁tormenta	-12.736
▁desolada	-12.7363
uauhtitlan	-12.7364
▁ebri	-12.7365
▁practicaba	-12.7366
▁Nexpa	-12.7366
lexan	-12.7366
▁procederá	-12.7367
▁Susténta	-12.7368
▁trabajador	-12.7368
▁labrava	-12.737
▁perseguirlo	-12.7372
▁induc	-12.7376
atólic	-12.7379
▁Jac	-12.7383
ián	-12.7387
▁amenazada	-12.7387
hué	-12.7388
tiago	-12.739
▁Tenocht	-12.7392
▁Ser	-12.7395
▁andará	-12.7398
▁esencial	-12.7404
▁multiplicar	-12.7405
▁Xilom	-12.7407
▁podr	-12.7407
▁enojan	-12.7408
▁Tlacoco	-12.7409
▁extiend	-12.7416
oponía	-12.7417
▁ala	-12.7418
uecuex	-12.7419
LA	-12.742
▁muc	-12.742
▁estimab	-12.7426
▁marchita	-12.7431
bu	-12.7432
▁observará	-12.7432
▁regi	-12.7433
ru	-12.7436
▁desvel	-12.7437
tima	-12.7437
▁armon	-12.744
APL	-12.7441
▁Ing	-12.7442
▁Chiconc	-12.7447
ical	-12.7451
icha	-12.7451
▁lancha	-12.7452
ahuit	-12.7453
lub	-12.7457
▁apresuraba	-12.7458
▁defendi	-12.7458
▁admite	-12.7458
▁calentará	-12.7459
nunciaba	-12.7461
▁encendida	-12.7462
▁cesado	-12.7463
portar	-12.7466
▁Atizap	-12.7467
culo	-12.7472
▁agit	-12.7474
▁bue	-12.7475
cemos	-12.7475
cor	-12.7477
▁xochite	-12.7478
▁Tij	-12.7481
▁consignado	-12.7483
▁baila	-12.7484
▁refugiado	-12.7485
▁respetado	-12.7487
▁llevár	-12.7491
▁bañ	-12.7492
ihuapilli	-12.7495
▁concib	-12.7497
▁zapoteco	-12.7502
ombra	-12.7502
▁harta	-12.7503
▁den	-12.7511
▁atrap	-12.7514
▁QUI	-12.7514
gnate	-12.7516
▁oir	-12.7517
izquit	-12.7518
▁convida	-12.7518
teme	-12.7521
▁llamé	-12.7522
ochteca	-12.7524
▁avecindad	-12.7524
▁correspond	-12.7527
vían	-12.7528
▁satisfac	-12.7529
▁Serra	-12.7531
▁ondulan	-12.7533
▁Tepey	-12.7536
▁levanten	-12.754
▁aletea	-12.7541
▁volve	-12.7542
▁rabia	-12.7543
▁limita	-12.7544
▁relig	-12.7547
▁décim	-12.7549
▁Calp	-12.7549
▁chiapan	-12.755
▁Fuiste	-12.755
▁mecate	-12.7551
▁Uama	-12.7553
mpos	-12.7556
arla	-12.7557
▁Guerrera	-12.756
▁Trabajas	-12.7569
▁Sem	-12.7572
▁llame	-12.7573
▁beneficiado	-12.7574
▁rapado	-12.7576
▁catedral	-12.7576
▁vivirán	-12.7581
▁soltar	-12.7582
▁explic	-12.7585
mpl	-12.7589
huitzo	-12.759
izado	-12.7596
atelolc	-12.7597
▁respetuoso	-12.7605
▁enrosca	-12.7612
▁compuesto	-12.7614
om	-12.7614
▁rechazad	-12.7616
▁vacío	-12.7617
dado	-12.762
hiauht	-12.7622
▁estropead	-12.7625
cuecue	-12.7628
▁comportar	-12.763
pena	-12.7637
▁rebosa	-12.7638
▁contradicion	-12.764
▁magna	-12.7641
▁hizi	-12.7645
▁celebrado	-12.7645
▁cambiará	-12.7647
▁xono	-12.7648
▁Xicó	-12.7652
▁lucid	-12.7655
timo	-12.7662
tito	-12.7667
nimos	-12.7667
▁PA	-12.7671
pit	-12.7672
▁llevarl	-12.7672
erraba	-12.7672
▁humilla	-12.7675
▁redes	-12.7677
parados	-12.7686
sij	-12.7687
yente	-12.7691
rregla	-12.7691
▁podrid	-12.7691
lteca	-12.7691
quechol	-12.7696
▁disponga	-12.7697
▁gobiern	-12.77
▁originaria	-12.7704
▁ret	-12.7707
▁comanda	-12.7708
arca	-12.7709
▁embriagar	-12.7711
▁festivo	-12.7712
▁rellenándo	-12.7716
icón	-12.7719
▁Tlalco	-12.7727
▁convirtiera	-12.7727
▁Azcax	-12.7734
▁sumergi	-12.7735
▁dadle	-12.7738
terre	-12.7738
▁candelera	-12.7744
▁Ir	-12.7747
▁zapoteca	-12.7748
▁cape	-12.7748
epan	-12.775
▁chupa	-12.7752
▁sahum	-12.7759
TRI	-12.7762
▁norteñ	-12.7771
cotiza	-12.7772
oxochitl	-12.7772
ixto	-12.7776
▁Trad	-12.7777
ment	-12.7785
▁beneficio	-12.7786
▁pereceré	-12.7794
▁escriba	-12.7798
▁concederá	-12.7799
▁desaparecía	-12.7803
▁apari	-12.7804
▁Coatli	-12.7805
ngendrar	-12.7806
iertamente	-12.7808
▁Tuviste	-12.7809
▁Lloraba	-12.7811
▁entristecía	-12.7813
▁robustez	-12.7814
▁seiscient	-12.7817
ango	-12.7818
▁perforad	-12.7822
rros	-12.7823
▁Map	-12.7825
▁Tepech	-12.7828
▁Pan	-12.7832
smo	-12.7834
▁enriquecer	-12.7834
▁exhibir	-12.7836
mir	-12.7838
quillo	-12.7838
▁tesoro	-12.7844
uixtl	-12.7845
▁confund	-12.7848
tará	-12.7848
▁derruid	-12.7849
uta	-12.785
▁profetizad	-12.7851
▁gaj	-12.7851
▁sirvier	-12.7852
▁resiste	-12.7854
▁llorará	-12.7854
▁Cin	-12.7855
▁Corrier	-12.7855
▁hicie	-12.7859
gang	-12.786
▁Docto	-12.7866
▁toga	-12.7869
otolimpa	-12.7873
yma	-12.7874
▁torcida	-12.7875
▁Jose	-12.7889
eando	-12.7892
tacó	-12.7893
▁tráiga	-12.7896
▁ordenarle	-12.7896
▁reí	-12.7913
▁Tlacotz	-12.7919
▁discreto	-12.792
▁broten	-12.7922
▁costeño	-12.7924
▁respectivo	-12.7924
nez	-12.7924
▁capul	-12.7924
orre	-12.7925
huey	-12.7926
▁tumbar	-12.7927
▁cocerlo	-12.7935
▁Algo	-12.7943
repú	-12.7944
▁Basti	-12.7948
cept	-12.7958
▁resuel	-12.7961
▁Xico	-12.7967
▁reforza	-12.7971
▁concedier	-12.7978
▁teuc	-12.7979
▁Beb	-12.798
▁amontona	-12.7982
▁reverenciad	-12.7983
▁kik	-12.7983
hin	-12.7987
▁CI	-12.7987
▁Yeca	-12.7992
spereza	-12.7995
▁añad	-12.7996
icieron	-12.7997
▁afli	-12.8005
▁unida	-12.8007
spiritu	-12.8008
▁indigen	-12.8008
▁coro	-12.8011
▁temeroso	-12.8012
jki	-12.8013
ím	-12.8022
▁vendiése	-12.8024
▁morr	-12.8024
▁armad	-12.8028
▁Xilot	-12.8031
uá	-12.8033
▁punza	-12.8039
▁divierte	-12.8041
▁Ayo	-12.8045
▁admit	-12.8047
avor	-12.8056
▁Marques	-12.8056
scondida	-12.8059
▁narrad	-12.8065
▁Tepex	-12.8067
rimera	-12.8068
▁encontrara	-12.8068
▁divi	-12.807
▁Aran	-12.8072
▁bendec	-12.8072
ámoslo	-12.8073
▁arm	-12.8082
▁afecta	-12.8082
▁rajad	-12.8088
bla	-12.8092
▁Fr	-12.8094
▁Sob	-12.8095
▁greca	-12.8099
▁perjudicar	-12.81
▁human	-12.8101
▁consagrad	-12.8101
ificada	-12.8104
ejos	-12.8104
▁recogiera	-12.8111
liza	-12.8115
adéce	-12.8117
pone	-12.8122
nd	-12.8122
▁pertenecie	-12.8131
▁Izhua	-12.8132
▁correc	-12.8135
lleg	-12.8153
rencia	-12.8153
▁cabal	-12.8155
▁conmin	-12.8158
adón	-12.8163
▁Tlach	-12.8168
tanos	-12.8171
▁golpeaba	-12.8174
▁Abre	-12.8178
erán	-12.8179
▁forjador	-12.8184
▁evit	-12.8188
▁Ahuitz	-12.8188
▁unió	-12.8194
▁kam	-12.8196
▁aprieta	-12.8196
▁enviará	-12.8198
alixtlahuaca	-12.8207
▁desayuna	-12.8212
▁levantad	-12.8213
▁guerrera	-12.8213
tierra	-12.8215
provisiona	-12.8215
gir	-12.8218
lama	-12.8221
▁castigaría	-12.8222
▁Aztax	-12.8224
▁preparados	-12.8227
pet	-12.8228
▁escarn	-12.8232
▁residir	-12.8239
▁anuncia	-12.8239
gra	-12.8243
▁Sil	-12.8244
▁quiz	-12.8246
quisi	-12.8246
dur	-12.8249
▁grandecit	-12.825
▁aceda	-12.825
ioso	-12.8255
▁diestro	-12.8259
▁atrev	-12.8259
▁calpixqu	-12.8262
oto	-12.8264
▁encamina	-12.8265
▁huv	-12.8266
▁yerg	-12.8272
abrá	-12.8273
▁temas	-12.8275
ut	-12.8275
▁tie	-12.8276
▁Tle	-12.8276
▁av	-12.8281
▁infama	-12.8281
▁ase	-12.8284
itiv	-12.8286
ceda	-12.8291
COAT	-12.8293
▁publicado	-12.8293
siento	-12.8302
▁activo	-12.8302
▁ace	-12.8309
▁judí	-12.8309
▁cultibaba	-12.831
▁exp	-12.831
▁Mese	-12.8312
▁gor	-12.8314
míll	-12.8326
mb	-12.8334
▁trastorna	-12.8334
yes	-12.8338
▁apac	-12.8339
▁mirarla	-12.8343
▁honrarlo	-12.8345
▁forjar	-12.8346
▁amaste	-12.8349
auhtla	-12.8351
▁amas	-12.8352
▁navaji	-12.8353
▁Mand	-12.8365
▁desga	-12.8365
▁talla	-12.8371
▁imputa	-12.8376
tapalapa	-12.8379
urco	-12.838
▁grana	-12.8382
▁Seguía	-12.8383
taro	-12.8384
▁solter	-12.8386
nahui	-12.8387
apulines	-12.8387
▁calli	-12.8389
conocida	-12.8393
▁descendi	-12.8405
tetl	-12.8408
▁progres	-12.841
▁har	-12.8414
▁indign	-12.8425
uauhquil	-12.844
▁labore	-12.8446
dij	-12.8449
▁Obr	-12.8458
picaba	-12.8459
epartamento	-12.846
▁Huizi	-12.847
tr	-12.8476
▁desa	-12.8477
▁Tomar	-12.848
ública	-12.8482
▁Pura	-12.8488
▁bienvenid	-12.8489
▁zafar	-12.8489
▁Azcap	-12.849
▁prendiere	-12.8497
▁Tlacaca	-12.8498
▁tenan	-12.8499
▁ná	-12.8499
ortilla	-12.8502
▁Chapol	-12.8504
álc	-12.8504
▁ahorcad	-12.8505
ánica	-12.8505
▁oprim	-12.8507
estar	-12.8514
▁Macuilmal	-12.8516
▁lechu	-12.8517
▁haced	-12.8519
achquiauhc	-12.852
etes	-12.852
rle	-12.8524
▁morisca	-12.8524
▁abrie	-12.8528
▁Rica	-12.853
▁caz	-12.8533
▁resta	-12.8537
▁cabra	-12.8544
▁bordad	-12.8548
▁limitaba	-12.8549
▁Ixcui	-12.855
▁tiangu	-12.855
valua	-12.8553
▁tequi	-12.8557
▁persigu	-12.8567
prendido	-12.8568
▁angustiado	-12.8571
▁papalo	-12.8575
eloc	-12.8577
tzontl	-12.8578
penas	-12.8581
▁corri	-12.8581
▁gri	-12.8582
evada	-12.8586
▁establecid	-12.8593
▁confiri	-12.8596
▁ora	-12.8597
▁reduci	-12.8598
▁Tlax	-12.8601
▁enumer	-12.8603
▁Cipactl	-12.8607
▁regocij	-12.861
duc	-12.8615
▁crecid	-12.8616
olu	-12.8618
▁Xochiteu	-12.8619
▁recobr	-12.8622
erá	-12.8623
tlacuilo	-12.8629
▁TO	-12.863
ptimo	-12.8637
▁adul	-12.8637
teuct	-12.865
rigo	-12.8655
entan	-12.8657
uauhquechol	-12.8658
car	-12.8662
▁ajustan	-12.8663
▁flecharlo	-12.8663
▁Teci	-12.8663
▁Cuic	-12.8665
▁especí	-12.8667
rdón	-12.8669
▁borra	-12.867
▁fijado	-12.8672
lantla	-12.868
▁pegado	-12.8681
▁transform	-12.8684
▁inte	-12.8684
itzi	-12.8686
▁Tezcac	-12.8691
▁uits	-12.8693
▁subiera	-12.8696
bus	-12.8698
▁llevándole	-12.8699
cion	-12.8703
▁aterra	-12.8708
enez	-12.8712
gándole	-12.8713
▁golpeándo	-12.8717
▁chic	-12.8722
▁faci	-12.8733
▁organizado	-12.8736
rid	-12.8741
▁acostumbrad	-12.8742
▁prestad	-12.8746
ibe	-12.8746
réi	-12.875
▁Tolp	-12.8752
▁afrentar	-12.8752
▁sangra	-12.8752
agnífico	-12.8755
▁danzan	-12.8758
▁bebi	-12.8763
▁viniese	-12.8763
vante	-12.8765
gradecimiento	-12.8767
▁bras	-12.8767
▁apagar	-12.8771
▁sacada	-12.8772
ieta	-12.8776
quecho	-12.8779
▁Momo	-12.8782
estregándolo	-12.8783
rie	-12.8784
uhy	-12.8784
▁dedo	-12.8792
▁golpeado	-12.8796
▁bru	-12.8796
▁dier	-12.8804
erdader	-12.881
▁hong	-12.881
▁revist	-12.8822
bajos	-12.8823
amaxtl	-12.8851
zot	-12.8852
▁Compr	-12.8852
ive	-12.8853
▁Art	-12.8858
▁mantel	-12.8862
▁inconformar	-12.8864
▁disgusta	-12.8866
▁atavía	-12.8868
zcac	-12.8869
▁bendic	-12.8872
▁fortalezc	-12.8875
▁desistier	-12.8877
▁tlaca	-12.8878
▁protege	-12.8881
▁atenc	-12.8883
▁enfad	-12.8883
▁colocará	-12.8888
▁altere	-12.8891
▁retumba	-12.8893
▁iztac	-12.8896
▁incluyen	-12.8904
▁Cuauhx	-12.8905
ivi	-12.8906
▁Th	-12.8907
▁lustr	-12.8907
menes	-12.8907
▁inventado	-12.8908
▁Tlacochint	-12.891
iene	-12.891
▁multiplica	-12.8917
culpado	-12.8922
iéntate	-12.8922
sca	-12.8928
▁robaba	-12.8934
▁haberl	-12.8934
edas	-12.8935
▁Yancu	-12.8938
▁sacudir	-12.894
lizar	-12.8944
rgu	-12.8947
iér	-12.895
arme	-12.8958
▁escuchan	-12.8962
▁soi	-12.8974
▁frai	-12.8974
▁Yp	-12.8976
▁volu	-12.8977
quan	-12.898
▁sintier	-12.8986
aye	-12.8986
pec	-12.9005
▁molestad	-12.9008
óm	-12.9011
edimiento	-12.9014
▁Escuch	-12.9018
▁imponga	-12.9022
▁duerma	-12.9022
erme	-12.9025
▁públic	-12.9029
▁inmu	-12.9029
▁agrada	-12.9032
▁emo	-12.9041
▁bolsi	-12.9043
▁cultivaba	-12.9043
voluntarios	-12.9047
barca	-12.906
ífic	-12.9062
▁Laz	-12.9077
mil	-12.908
▁amarillar	-12.9088
▁í	-12.909
▁Descansa	-12.909
pel	-12.9097
alen	-12.9097
▁Go	-12.9101
íri	-12.9111
zteca	-12.9111
▁cerrad	-12.912
▁Mixcoa	-12.9123
▁tembla	-12.9124
▁Mixco	-12.9126
▁anocheci	-12.9126
▁percibí	-12.9135
▁separada	-12.914
▁interpretad	-12.915
ube	-12.9151
▁guardará	-12.9155
▁manifieste	-12.9159
▁resguarda	-12.9162
usticia	-12.9165
▁empujar	-12.9169
▁Bem	-12.917
▁mejora	-12.9173
▁Cuext	-12.9181
▁perturba	-12.9189
▁comet	-12.9198
▁supiera	-12.921
ecundari	-12.921
▁rompier	-12.9213
▁Flor	-12.9216
icho	-12.9217
nga	-12.9219
▁Desp	-12.9219
rig	-12.922
▁asistía	-12.922
ji	-12.9222
▁continuar	-12.9229
braza	-12.9231
▁alega	-12.9232
▁hurta	-12.9233
eski	-12.9235
▁obligar	-12.9242
iese	-12.9245
▁Hij	-12.9253
criado	-12.9254
▁consumi	-12.9256
asa	-12.9259
▁ensaya	-12.9265
▁bebed	-12.9267
▁hij	-12.9268
icle	-12.927
bel	-12.9273
zacuá	-12.9276
▁perdon	-12.9278
▁reflexionar	-12.9281
▁menosprecia	-12.9291
▁Cuapp	-12.9299
eteuct	-12.9301
teza	-12.9302
▁compon	-12.9307
iesen	-12.9307
▁encerrarlo	-12.9315
ifica	-12.9316
▁aborrecer	-12.9318
▁tirarlo	-12.932
▁duel	-12.9326
rtido	-12.9327
▁presentada	-12.9329
vais	-12.9341
▁Tlatohu	-12.9341
trech	-12.9345
LI	-12.9347
pitz	-12.9348
itla	-12.9348
▁Chu	-12.9349
▁Volvi	-12.9352
irían	-12.9352
▁recit	-12.9354
yos	-12.9355
▁reclam	-12.936
ecretario	-12.9361
▁Top	-12.9364
evol	-12.9394
▁cogerá	-12.9396
▁Her	-12.9397
lapan	-12.9398
Chalchiuhmomoztl	-12.9401
▁comí	-12.9412
▁muel	-12.9415
▁lavará	-12.9417
ogar	-12.9422
▁grite	-12.9423
úda	-12.9425
▁Chil	-12.943
▁XV	-12.9433
▁recordarle	-12.9434
▁senta	-12.9438
ercio	-12.9439
lam	-12.9448
▁aconsej	-12.9448
usada	-12.945
stri	-12.9453
ñe	-12.9454
▁jud	-12.9463
▁viril	-12.9463
▁enfri	-12.9467
▁comezó	-12.9468
▁puré	-12.947
temal	-12.9472
▁hec	-12.9474
▁únic	-12.9481
cuando	-12.9484
▁apur	-12.9484
oba	-12.9485
▁Rod	-12.9487
endía	-12.9488
antzin	-12.9489
▁asir	-12.9492
▁añadi	-12.9497
alada	-12.95
ritos	-12.9509
▁sane	-12.9512
▁mínim	-12.9513
▁Tlat	-12.9522
óme	-12.9524
▁prolonga	-12.9529
pie	-12.953
▁cucharad	-12.9531
▁Coy	-12.9533
▁huérfan	-12.9536
áli	-12.954
rla	-12.9544
▁atrapad	-12.9551
▁hirvi	-12.9553
▁espin	-12.9554
vaja	-12.9559
▁confesaba	-12.956
▁morí	-12.956
tarios	-12.9561
▁llegara	-12.9564
▁Coatl	-12.9571
▁heredera	-12.9571
▁bombear	-12.9572
ub	-12.9573
▁determinada	-12.9588
▁precipitaba	-12.959
▁burlado	-12.9596
▁degollar	-12.9604
▁Trabajan	-12.9614
▁buscará	-12.9615
ema	-12.962
▁xa	-12.9625
▁concede	-12.9627
▁gozaba	-12.9627
▁Acap	-12.9632
▁deteni	-12.9632
urna	-12.9634
▁mod	-12.9635
EPA	-12.9635
▁rasp	-12.9636
gía	-12.9637
▁regrese	-12.9641
gendrar	-12.9643
▁Apena	-12.9643
▁pisotear	-12.9645
azos	-12.9646
▁enseñara	-12.9648
▁Tetza	-12.9648
▁air	-12.9653
▁reparte	-12.9653
▁asisten	-12.9656
chura	-12.9658
▁Tzihuactla	-12.9661
▁partirá	-12.9662
▁ge	-12.9666
▁funciona	-12.9668
▁difun	-12.9673
▁pidie	-12.9677
cerá	-12.9678
▁Coatlayauc	-12.9683
clar	-12.9688
nima	-12.9695
bed	-12.9703
▁merca	-12.9703
▁mestiza	-12.9703
▁identificad	-12.9705
tivo	-12.9726
▁nar	-12.9726
ndré	-12.9737
▁rompe	-12.974
áh	-12.9744
▁resida	-12.9747
brie	-12.9749
ierne	-12.9762
▁sosten	-12.9764
donda	-12.9768
▁precedi	-12.9775
▁Osomat	-12.9778
▁tray	-12.978
▁escas	-12.9782
xica	-12.9782
▁Nezahual	-12.9792
▁Bon	-12.98
▁llan	-12.9803
▁habiéndo	-12.9817
▁alimentar	-12.982
ándosele	-12.9821
▁aprecia	-12.9822
▁sencilla	-12.9833
rdinaria	-12.9834
yáhua	-12.9839
Lo	-12.9844
cahuaca	-12.985
▁empare	-12.9851
rta	-12.9856
▁embriag	-12.9856
▁recur	-12.9859
cue	-12.9872
▁trax	-12.9875
adero	-12.9875
▁alquila	-12.9875
▁litigan	-12.9879
axco	-12.9881
▁aliado	-12.9887
▁perturb	-12.9889
▁segui	-12.9892
colhuaca	-12.9898
redes	-12.9903
▁ordinaria	-12.9912
▁acompañarlo	-12.9912
▁fac	-12.9915
▁demuestr	-12.9921
▁desgarr	-12.9924
tíc	-12.9925
▁quart	-12.9931
argado	-12.9933
▁obedecerá	-12.9933
▁chí	-12.9942
blado	-12.9947
▁aman	-12.9953
▁Tendré	-12.9955
▁ajuste	-12.9958
▁ig	-12.9963
zhuahuacatzin	-12.9971
aquí	-12.9974
▁paradas	-12.9976
▁incurri	-12.9985
▁cur	-12.9986
ucho	-12.9988
strito	-12.9988
▁poblaci	-13.0001
▁estremec	-13.0006
▁tapado	-13.0006
▁encomendad	-13.0007
▁Cacal	-13.0008
zaba	-13.0012
▁violen	-13.002
▁Tó	-13.0029
▁culturas	-13.0031
▁marques	-13.0032
▁aprendí	-13.0034
▁oportun	-13.0035
▁Matlaccal	-13.0035
▁Quiyauht	-13.0047
evo	-13.0051
▁asignad	-13.0055
▁cortarla	-13.006
COME	-13.0063
huel	-13.0064
▁tradicion	-13.0069
mat	-13.0069
VE	-13.0071
ercado	-13.0073
▁Mox	-13.0076
▁extranjer	-13.0086
tifica	-13.0087
▁viviér	-13.0094
▁arzobispa	-13.01
▁Portento	-13.01
▁servirlo	-13.0102
▁perdone	-13.0103
teuc	-13.0103
BR	-13.0111
▁Uet	-13.0119
nohuayan	-13.0121
▁reali	-13.0123
▁Teca	-13.0124
api	-13.0126
itario	-13.0128
diesen	-13.0139
este	-13.0139
▁suscite	-13.0155
ehua	-13.0158
▁crim	-13.0159
▁ana	-13.016
▁suspir	-13.0162
AGA	-13.0165
nuestro	-13.0166
tér	-13.0176
áselo	-13.0181
▁emoci	-13.0185
fríe	-13.0199
icante	-13.0202
cib	-13.0206
▁kuouj	-13.0206
▁maravilla	-13.0211
▁regresan	-13.0211
▁encarn	-13.0214
▁jugaba	-13.0219
▁causan	-13.0224
stia	-13.0233
cehual	-13.0235
▁Niñ	-13.0236
▁defi	-13.0239
rir	-13.0241
nunci	-13.025
▁afloja	-13.0254
▁Aut	-13.0255
▁fung	-13.0262
▁dir	-13.0267
iris	-13.0268
sivo	-13.0269
anch	-13.027
him	-13.0275
▁aplic	-13.0289
▁mayoral	-13.029
▁demostra	-13.029
▁liger	-13.0303
▁faltar	-13.0312
▁galan	-13.0314
▁Yaó	-13.0314
lchiuh	-13.0315
▁Ech	-13.0324
▁fingie	-13.0328
▁cart	-13.0337
aiko	-13.0337
llama	-13.0339
▁Atlan	-13.0343
ndida	-13.0346
érti	-13.0347
▁caball	-13.0353
cóm	-13.0355
▁sost	-13.0357
▁comiera	-13.0359
▁juzg	-13.0368
▁Cuauhtep	-13.037
pote	-13.0373
▁rito	-13.0377
▁hiere	-13.0378
anahuac	-13.0381
aco	-13.039
▁ayudaría	-13.0396
ejand	-13.0397
leta	-13.0402
mura	-13.0406
▁curios	-13.0414
▁accede	-13.0421
▁destin	-13.0423
▁Moquihuixt	-13.0428
▁haziend	-13.0432
▁poseya	-13.0436
▁ato	-13.0439
nimo	-13.044
iera	-13.0452
▁Bell	-13.0453
uéi	-13.0454
▁colec	-13.0455
vamos	-13.0457
▁cargador	-13.0461
▁escu	-13.0464
▁espantos	-13.0466
▁altera	-13.0478
▁amanecier	-13.0479
ct	-13.0485
▁autorizacion	-13.049
▁remedia	-13.0499
▁prev	-13.0504
▁valeros	-13.0504
▁enc	-13.0508
▁rece	-13.0509
▁cualesquier	-13.0513
▁surg	-13.0517
▁recaudi	-13.0522
icio	-13.0523
poyo	-13.0523
▁permanecía	-13.0524
▁interrumpe	-13.0526
▁sospech	-13.0529
cente	-13.053
oya	-13.0531
México	-13.0533
teuhc	-13.0542
▁hubiér	-13.0551
▁refugi	-13.0555
▁Huejo	-13.0559
▁ofrendador	-13.0561
▁determinar	-13.0569
▁subie	-13.0571
hco	-13.0573
▁comenzara	-13.0575
▁Tzacu	-13.0585
▁lib	-13.0587
▁Die	-13.0592
▁Tozma	-13.0592
▁Llegado	-13.0597
nzan	-13.0602
▁navegar	-13.0611
▁causada	-13.0611
PA	-13.0612
▁necesitará	-13.0626
▁Compañer	-13.0629
▁domi	-13.063
▁refer	-13.0642
ude	-13.0644
▁prend	-13.0647
▁dejándo	-13.0648
▁aprendi	-13.0658
mandaba	-13.0659
▁aren	-13.066
oltépe	-13.0664
abell	-13.0671
▁temi	-13.0677
conocimiento	-13.0679
▁Quetzalt	-13.0683
omei	-13.0687
▁traga	-13.0691
▁Pr	-13.0691
xalt	-13.0691
▁persigue	-13.0695
▁tall	-13.0696
tlil	-13.07
cano	-13.0711
▁preguntada	-13.0711
▁asol	-13.0714
isto	-13.0716
▁derribe	-13.0722
▁gala	-13.0723
▁Acompaña	-13.0725
▁endur	-13.0727
▁Quetzalcuauh	-13.0728
▁alegraba	-13.0737
▁infa	-13.0743
▁hue	-13.0744
▁refin	-13.0746
▁jar	-13.0748
▁Teohua	-13.0751
zos	-13.0756
argo	-13.076
▁Quetzalp	-13.0761
▁ap	-13.0762
oral	-13.0762
uj	-13.0764
▁XII	-13.0769
▁ú	-13.0774
▁despedaza	-13.0779
ini	-13.0795
ocupado	-13.0797
uhcan	-13.0797
▁reanud	-13.0798
▁ilumin	-13.0799
ojas	-13.0801
▁Tecpat	-13.0803
▁ofrecier	-13.0808
zahua	-13.081
arez	-13.0821
▁raspo	-13.0821
▁penosa	-13.0824
▁manifiest	-13.0826
▁inmi	-13.0828
vengan	-13.0831
▁aborrec	-13.0835
▁roll	-13.0842
onat	-13.0847
olf	-13.0848
cohu	-13.085
oct	-13.0853
▁bailado	-13.0856
cados	-13.0858
▁xiuhc	-13.0858
coche	-13.0864
▁expon	-13.0865
▁venci	-13.087
iltzin	-13.087
huitz	-13.0871
▁prosegu	-13.0874
cxochitl	-13.0875
oche	-13.0876
▁denominad	-13.088
tros	-13.0888
acohua	-13.0889
[...]
