<unk>	0
<s>	0
</s>	0
▁yn	-3.09522
▁,	-3.2449
▁.	-3.34353
▁in	-3.5029
▁	-3.50818
▁ye	-4.63544
que	-4.67972
n	-4.69416
a	-4.70538
▁y	-4.78629
h	-4.88758
▁ynic	-4.95896
▁;	-5.02871
▁de	-5.09079
▁ca	-5.11122
i	-5.25975
▁yhuan	-5.29043
1	-5.32882
li	-5.33026
o	-5.34972
▁oncan	-5.3916
▁ipan	-5.40878
▁auh	-5.42936
▁Au	-5.43652
uh	-5.46657
▁xihuitl	-5.51667
▁no	-5.56112
s	-5.5634
co	-5.57325
tzin	-5.60421
▁:	-5.6068
z	-5.61768
▁yc	-5.62237
▁A	-5.6268
▁ypan	-5.64286
c	-5.71882
▁ihuan	-5.72229
▁amo	-5.73277
▁huel	-5.75282
▁niman	-5.82796
▁i	-5.82869
▁ompa	-5.83922
▁nican	-5.86931
tli	-5.93783
▁ma	-5.9435
▁o	-5.9748
tl	-6.03858
▁|	-6.05779
▁In	-6.07075
▁ce	-6.07748
▁a	-6.10138
▁on	-6.10836
▁ic	-6.11194
▁se	-6.12446
▁tlen	-6.14083
▁çan	-6.14839
▁zan	-6.15058
l	-6.17446
ca	-6.17571
e	-6.21364
2	-6.25336
▁'	-6.25594
▁años	-6.25734
ya	-6.2634
▁yehuatl	-6.26749
▁omoteneuh	-6.28988
▁don	-6.29697
can	-6.30376
▁?	-6.31292
to	-6.31664
▁Mexico	-6.31841
▁ica	-6.31992
an	-6.3583
6	-6.38544
▁tla	-6.39915
in	-6.40135
▁oc	-6.42991
▁ytoca	-6.43017
▁mo	-6.44742
▁San	-6.47088
▁axcan	-6.48776
5	-6.49545
▁catca	-6.51806
▁ya	-6.52553
aya	-6.53168
▁cenca	-6.53226
▁Yn	-6.55293
tzinco	-6.55544
▁tlahtohuani	-6.57244
¿	-6.60022
▁inic	-6.60803
▁Juan	-6.60957
huan	-6.61571
4	-6.63304
▁uan	-6.6334
▁qui	-6.64388
▁iuh	-6.64633
xihuitl	-6.64716
3	-6.66515
0	-6.67426
▁metztli	-6.69322
▁tlacatl	-6.6956
▁t	-6.699
▁mexica	-6.70047
▁itoca	-6.76491
pa	-6.76911
▁ynin	-6.77311
▁mochiuh	-6.77758
quac	-6.77895
tin	-6.79109
▁ti	-6.79294
▁I	-6.79805
▁Francisco	-6.79931
▁ni	-6.80286
▁mani	-6.81327
9	-6.81764
▁quin	-6.81913
▁te	-6.84798
▁tlaca	-6.89963
pan	-6.90306
me	-6.90725
zin	-6.90958
8	-6.92218
▁Sant	-6.99886
qui	-6.99988
▁yuh	-7.00155
7	-7.01808
▁Ma	-7.03681
▁yehuantin	-7.05453
-	-7.06294
▁para	-7.0748
tica	-7.07935
▁T	-7.08931
▁ixquich	-7.11752
▁Ca	-7.1242
j	-7.12439
▁ça	-7.13415
zque	-7.15455
▁ahmo	-7.1674
▁la	-7.17224
▁Pedro	-7.17449
▁itech	-7.20046
▁ihcuac	-7.20109
▁ne	-7.20867
▁Y	-7.21263
hua	-7.23065
▁calli	-7.2335
▁cualli	-7.24282
▁Ye	-7.24413
▁ome	-7.24987
▁e	-7.26279
▁C	-7.27255
▁mochi	-7.27554
es	-7.27654
▁iquac	-7.29444
▁yehuatzin	-7.31153
▁Miguel	-7.31685
tiuh	-7.31824
▁n	-7.33221
▁atl	-7.33426
▁altepetl	-7.34233
▁motenehua	-7.34534
▁huey	-7.35642
▁tlalli	-7.3634
on	-7.36349
]	-7.36578
▁ayac	-7.37315
▁Nican	-7.37502
ez	-7.38078
▁!	-7.38136
▁Acatl	-7.38569
▁Maria	-7.38688
▁inin	-7.40267
é	-7.40473
te	-7.413
r	-7.42374
▁to	-7.43173
▁tonati	-7.43455
ti	-7.44113
▁Calli	-7.46033
▁Diego	-7.46266
▁ipampa	-7.46601
ia	-7.46753
▁pesos	-7.47145
▁tlahtoque	-7.48337
▁Amo	-7.48503
▁No	-7.50337
dad	-7.52049
ua	-7.52344
uan	-7.53561
▁Sanct	-7.53684
▁O	-7.54429
▁Tenochtitlan	-7.55282
ni	-7.55575
▁xiuitl	-7.5714
▁mi	-7.58278
▁Dio	-7.58425
▁ytech	-7.58654
▁ypampa	-7.59162
▁del	-7.59673
▁Martin	-7.60126
ón	-7.60477
▁Ce	-7.60588
▁xi	-7.61228
▁nopa	-7.61569
▁ciu	-7.61695
▁oqui	-7.61791
▁nochi	-7.62985
ica	-7.63189
▁tlalticpac	-7.64199
▁m	-7.64221
▁omochiuh	-7.64982
▁uel	-7.65644
▁Niman	-7.66104
▁yuhqui	-7.66255
tia	-7.66834
▁fray	-7.67216
¡	-7.68198
▁Tla	-7.6928
▁Huehue	-7.69565
▁España	-7.70253
▁momiquilli	-7.70326
▁huehuetque	-7.70371
▁visurrey	-7.70673
▁campa	-7.70757
▁wan	-7.708
▁Zan	-7.71649
v	-7.72127
tiaque	-7.72441
▁yxquich	-7.73626
oc	-7.74674
▁nohuian	-7.74686
▁intla	-7.75231
▁chichimeca	-7.75245
▁teopixque	-7.75822
▁nehuatl	-7.76157
▁tic	-7.76325
▁san	-7.77076
▁totecuiyo	-7.77518
▁Tlen	-7.79453
▁X	-7.79775
▁mil	-7.80414
▁yancuic	-7.80452
▁tle	-7.80493
cayotl	-7.80744
▁azo	-7.81182
▁justicia	-7.81187
hcuac	-7.81652
“	-7.82162
▁umpa	-7.82333
▁”	-7.8275
▁Antonio	-7.82777
▁Amaqueme	-7.82859
▁za	-7.83214
▁hual	-7.83235
▁c	-7.83301
▁españoles	-7.83418
▁acico	-7.8349
▁achto	-7.84093
▁Tocht	-7.84133
mo	-7.84194
tla	-7.84294
▁nepa	-7.84345
▁Axcan	-7.84558
tzintli	-7.85156
ctli	-7.85639
▁Pablo	-7.86303
▁nel	-7.86755
▁nic	-7.8683
▁por	-7.87577
no	-7.88858
▁unca	-7.89057
▁con	-7.89422
▁mochintin	-7.89608
▁mochiua	-7.89717
▁Ynic	-7.90454
▁nelli	-7.90935
▁quen	-7.91317
[	-7.91713
▁tlahtocat	-7.91872
án	-7.92982
▁Hernand	-7.93545
t	-7.94852
zo	-7.95056
yotl	-7.95366
▁Tecpa	-7.95569
▁mayor	-7.96627
toc	-7.96825
al	-7.97135
▁alcalde	-7.97315
▁iuan	-7.97729
mpa	-7.981
ín	-7.98215
▁Ipan	-7.98335
m	-7.98624
▁oyuh	-7.98928
▁Cruz	-7.99142
▁ki	-7.99853
ac	-8.00077
liztli	-8.00208
▁[	-8.00586
atl	-8.00953
▁omo	-8.01017
▁governador	-8.01188
huitl	-8.0176
hquac	-8.02086
▁iuhqui	-8.02115
▁aca	-8.02343
▁yo	-8.03794
teuhctl	-8.03885
os	-8.04022
▁itla	-8.04043
▁pero	-8.04054
▁ika	-8.04274
ntin	-8.04436
▁miec	-8.04704
▁Te	-8.04938
▁aquin	-8.05091
▁om	-8.05296
lia	-8.05648
▁quenin	-8.06006
itl	-8.0653
▁omomiquilli	-8.07054
▁M	-8.07283
ke	-8.0737
k	-8.07973
▁escribano	-8.08413
lli	-8.08872
dias	-8.08995
▁icome	-8.08999
▁Sancto	-8.09133
▁ta	-8.09857
▁inon	-8.09991
▁mes	-8.10261
▁testigo	-8.10321
u	-8.10489
▁teoyotica	-8.10519
▁yece	-8.1071
zquia	-8.10837
oan	-8.11279
▁señor	-8.11302
▁quiniento	-8.11605
tlan	-8.11792
▁arçobispo	-8.12261
eh	-8.12362
▁aocmo	-8.12407
▁tomin	-8.12438
▁mochihua	-8.12857
▁p	-8.13399
yo	-8.13417
meh	-8.13758
▁Ana	-8.14634
▁yca	-8.14831
los	-8.14859
▁occe	-8.15204
▁Luis	-8.15372
hui	-8.15531
▁chalca	-8.15596
motlahtocatlalli	-8.16153
▁mah	-8.16232
piltzin	-8.16373
▁icuac	-8.16617
▁yuhquin	-8.16773
▁miac	-8.17105
ía	-8.17363
titlan	-8.17531
▁monequi	-8.17775
▁ah	-8.17782
▁chane	-8.18819
▁Tecpat	-8.1883
▁im	-8.19352
▁nemi	-8.19532
▁	-8.19601
▁moch	-8.20158
▁cuix	-8.20214
ui	-8.20281
▁kikua	-8.20743
▁onca	-8.21079
alli	-8.2121
▁atle	-8.21223
▁d	-8.2159
▁yehica	-8.22077
▁su	-8.22192
▁tleyn	-8.22262
▁nahui	-8.22406
▁teopan	-8.22713
▁xochitl	-8.22755
▁Culhua	-8.23119
▁achtopa	-8.2391
▁Chalc	-8.24123
▁rey	-8.24157
▁cana	-8.24272
▁alcaldes	-8.24333
▁ichan	-8.24389
▁Se	-8.2448
▁Xuare	-8.24704
▁achi	-8.24868
▁quipia	-8.25027
▁español	-8.25385
▁nozo	-8.25733
lo	-8.27214
la	-8.27838
catca	-8.27912
▁oquito	-8.27955
ztli	-8.28164
▁Uan	-8.28298
ic	-8.28346
queh	-8.29458
▁hualla	-8.29889
▁nima	-8.30338
▁tein	-8.30402
ero	-8.30498
▁tlahtocati	-8.30559
▁tlamantli	-8.30894
▁h	-8.31326
▁ical	-8.31726
lique	-8.31765
▁domingo	-8.31947
▁escrivano	-8.3203
▁tlacpac	-8.32079
y	-8.32082
▁juez	-8.32124
▁occequi	-8.32708
as	-8.32959
▁ocachi	-8.32964
▁niquito	-8.33156
▁quimati	-8.3332
▁ixpan	-8.33917
▁icce	-8.34375
dios	-8.34471
▁P	-8.34522
▁V	-8.34831
▁D	-8.34978
▁motlalli	-8.3534
▁can	-8.3575
▁abril	-8.35792
▁Yhua	-8.36318
▁maj	-8.36558
▁yqua	-8.37016
▁padre	-8.37931
▁Chichimecateuh	-8.37934
lco	-8.38047
iz	-8.38049
▁Inin	-8.38154
▁tepetl	-8.39279
▁Marí	-8.3999
▁Ypan	-8.40388
▁huehue	-8.4046
▁ipa	-8.40494
▁Joseph	-8.40925
▁mayo	-8.41
▁ychan	-8.41034
▁mochipa	-8.41358
▁Yehua	-8.41453
▁cequi	-8.41499
▁mic	-8.41655
tepec	-8.41808
▁inamic	-8.42036
▁saj	-8.42059
▁teotlac	-8.42328
▁ke	-8.43345
▁ante	-8.43442
▁monamaca	-8.44007
▁huei	-8.45395
uitl	-8.45597
▁Cuix	-8.45785
ihqui	-8.46189
▁noso	-8.46343
▁XI	-8.46797
▁sancto	-8.46952
ma	-8.46999
hqueh	-8.47129
▁na	-8.4739
▁cemilhuitl	-8.47697
▁quitohua	-8.47914
▁wa	-8.48394
▁ka	-8.48473
▁yxpan	-8.48557
tic	-8.48745
▁onpa	-8.48896
▁posesio	-8.49566
▁kampa	-8.49655
çi	-8.49806
centetl	-8.50125
teca	-8.50149
▁quito	-8.50457
▁tonal	-8.50941
iman	-8.51194
▁Aztla	-8.51368
ito	-8.51781
loc	-8.51902
quez	-8.5196
▁nech	-8.52087
▁ton	-8.52177
▁xic	-8.52474
▁Tlanahuatih	-8.52975
▁huelis	-8.53198
az	-8.53271
▁S	-8.53276
aj	-8.53452
▁tlatoque	-8.53689
ique	-8.5407
▁Tenanc	-8.54163
▁nehin	-8.54211
iencia	-8.54558
tatzin	-8.54661
▁mochihuaz	-8.54859
▁momati	-8.55206
▁hueyi	-8.55398
▁ammo	-8.55689
▁Nima	-8.55711
▁omito	-8.55892
na	-8.56067
▁peuh	-8.56341
▁non	-8.56475
▁N	-8.56494
iano	-8.56608
▁cate	-8.57298
▁viernes	-8.57735
▁August	-8.57768
ça	-8.57853
pampa	-8.58234
▁huecauh	-8.58349
nepantla	-8.58529
▁kitoka	-8.5874
▁ual	-8.58908
d	-8.58988
▁quim	-8.5914
▁yez	-8.59486
go	-8.59689
tihui	-8.59741
▁teo	-8.60017
▁Nuev	-8.60228
ka	-8.60687
▁tlahtol	-8.61202
▁x	-8.61944
ani	-8.61944
▁taman	-8.61998
yemo	-8.62072
▁ixquichtin	-8.62084
▁yaoyotl	-8.62255
▁tlahtolli	-8.62352
huayan	-8.62382
▁III	-8.62398
▁amatl	-8.62422
▁cen	-8.62748
▁queman	-8.62805
▁komo	-8.62846
▁matlactl	-8.6349
▁tech	-8.63632
asta	-8.63725
▁VI	-8.63924
ah	-8.64012
catl	-8.64394
▁cruz	-8.64448
▁izqui	-8.64479
▁huallaque	-8.64561
▁VII	-8.65206
ado	-8.655
▁ytla	-8.65558
▁motocayotia	-8.65642
▁XIII	-8.6588
▁cenpohual	-8.66008
tsin	-8.66362
▁nicmati	-8.66823
oque	-8.66914
▁en	-8.67093
ico	-8.67121
▁teopixqu	-8.67156
▁ihtic	-8.6742
▁omic	-8.67645
▁quihto	-8.6792
▁totecuyo	-8.68089
▁Garcia	-8.68107
▁ipatiuh	-8.68291
▁ay	-8.68398
▁yoa	-8.6853
▁hualquiz	-8.68948
▁ohualla	-8.68963
▁lunes	-8.69434
▁icpac	-8.69488
calli	-8.69737
▁macuil	-8.6997
▁testigos	-8.70228
▁mitz	-8.7025
▁Huel	-8.70417
▁obispo	-8.70463
▁mach	-8.7058
cac	-8.71179
atzin	-8.7216
▁México	-8.72237
▁çano	-8.72373
▁IX	-8.72387
matl	-8.72423
omingo	-8.72431
iembre	-8.72641
ó	-8.73175
▁mar	-8.73341
chtli	-8.73443
el	-8.73497
▁Azcapotzalco	-8.73671
seh	-8.74327
huatl	-8.74506
▁puchteca	-8.74604
▁anozo	-8.74855
▁To	-8.74959
▁Xoco	-8.74979
▁chaneque	-8.75088
▁yntech	-8.75191
▁ac	-8.75236
▁tlatohuani	-8.7532
tzino	-8.75482
▁quiça	-8.75504
▁s	-8.7552
yan	-8.75594
ta	-8.75696
▁tepitzin	-8.75812
▁otzatzi	-8.76053
▁cente	-8.76231
▁Tlatilolco	-8.76589
▁çatepan	-8.76693
loque	-8.76809
bre	-8.7696
▁cihua	-8.76995
ço	-8.77021
▁motlalia	-8.77051
▁quiz	-8.7721
oso	-8.77281
do	-8.773
▁dos	-8.77337
▁itechpa	-8.77516
▁macuilli	-8.77896
▁Ah	-8.77918
val	-8.77964
▁azteca	-8.78132
▁tenochca	-8.78182
catqui	-8.78699
▁ynamic	-8.78703
▁ey	-8.78805
huac	-8.79107
tique	-8.79186
▁quimo	-8.79513
x	-8.79531
▁Mendo	-8.79587
bado	-8.79589
▁Mochiu	-8.79619
▁Tlatilu	-8.79621
▁XII	-8.7984
▁yehua	-8.7991
▁quil	-8.80107
tzi	-8.80278
missa	-8.80443
auh	-8.80895
▁cuali	-8.81006
ce	-8.81053
í	-8.81104
▁Gas	-8.81277
▁Vela	-8.81522
▁quichihua	-8.81621
▁cahuitl	-8.81726
▁motlallico	-8.8201
▁tlatolli	-8.82147
▁nopilhuan	-8.82343
▁intech	-8.82398
ngeles	-8.8256
Ihuan	-8.82574
▁diablo	-8.82803
▁Ome	-8.82993
par	-8.83012
xiuitl	-8.8335
▁totolli	-8.83437
▁Ica	-8.83544
▁tepan	-8.83558
▁onká	-8.84378
ahuac	-8.84407
sco	-8.84455
▁ayamo	-8.84503
▁Colhuacan	-8.84507
▁tecpan	-8.84838
▁cihuapill	-8.84898
ticatca	-8.8544
▁Ysabe	-8.85441
▁VIII	-8.85641
▁Re	-8.85828
▁alguacil	-8.85897
▁Toch	-8.86052
maqueme	-8.86128
▁omoteneuhtzino	-8.86129
▁sá	-8.8641
▁tlein	-8.86802
▁yeyi	-8.87016
▁noponi	-8.87576
▁ohtli	-8.87582
▁notlatol	-8.87661
▁melahuac	-8.87662
▁mahuiztililoni	-8.87723
▁Oncan	-8.87752
xochitl	-8.87844
enero	-8.87994
▁quename	-8.88623
▁Al	-8.88821
mpaneca	-8.88845
tlamantli	-8.89118
equintin	-8.89202
▁motla	-8.89391
▁nauh	-8.89574
ylhuitzin	-8.89676
▁aoc	-8.89746
▁oquic	-8.89824
▁tehuan	-8.89965
enta	-8.90144
▁omentin	-8.90373
▁nan	-8.90488
aque	-8.90505
▁quihual	-8.90645
tle	-8.9085
▁macehualti	-8.90907
▁Ximene	-8.9097
onso	-8.91018
▁Yc	-8.91057
▁que	-8.91194
ujki	-8.91224
quintin	-8.91616
▁Inic	-8.91635
▁oti	-8.91741
▁yectli	-8.92305
liz	-8.92499
▁mohuicac	-8.92614
▁Valer	-8.92618
nantzin	-8.92722
▁Mo	-8.92876
juak	-8.92893
▁an	-8.93309
▁mexi	-8.9347
da	-8.93521
▁ax	-8.9354
▁oiuh	-8.93615
ntli	-8.9389
en	-8.94124
htli	-8.94496
ton	-8.94625
▁Ya	-8.9482
▁tlali	-8.94837
▁tel	-8.94881
iztli	-8.94977
▁nohuiyan	-8.95162
▁oya	-8.95178
▁qu	-8.95211
▁occepa	-8.95507
▁sa	-8.95715
hoan	-8.95875
▁ahno	-8.9602
▁febr	-8.96147
▁juni	-8.96193
tlanahuatili	-8.96243
ús	-8.96296
htic	-8.96315
▁tzillini	-8.96324
▁nimitz	-8.96521
▁ymixpan	-8.96675
huantzitzin	-8.96686
▁tetl	-8.96844
▁huallehua	-8.96968
▁Tzaqualtitla	-8.97027
▁neci	-8.971
▁E	-8.97152
▁k	-8.97355
▁keme	-8.97812
▁Jes	-8.97922
▁anoço	-8.97995
▁huitz	-8.98101
▁tliltique	-8.98101
▁occequint	-8.9813
▁nepapan	-8.98503
▁quezqui	-8.98666
▁tlacah	-8.98684
▁onoc	-8.98731
▁mitohua	-8.98911
glesia	-8.98913
quahuitl	-8.99109
▁otic	-8.99328
▁II	-8.99548
lá	-8.998
▁juramento	-8.99821
▁Moteuhcçoma	-8.99821
▁onpohual	-8.99853
titech	-8.99855
▁Tlahtocan	-8.99867
ske	-9.0051
tenco	-9.00582
▁yon	-9.00633
▁cihuatl	-9.00988
ticpac	-9.0114
▁Tlal	-9.01348
▁yzqui	-9.01669
▁Quahuitzat	-9.01717
▁oquin	-9.01837
octu	-9.01895
▁occeppa	-9.019
▁tlacat	-9.01948
▁tlaco	-9.02
▁mahuiztic	-9.02037
nimo	-9.02091
III	-9.02308
▁Xi	-9.02655
▁iman	-9.02666
▁kiilui	-9.0305
▁Castilla	-9.03104
▁Domin	-9.03288
▁nica	-9.03332
▁timo	-9.03384
▁peso	-9.03387
▁tianquiz	-9.03492
▁Di	-9.03561
yoc	-9.03563
▁kuali	-9.04016
▁huehuey	-9.04334
zqueh	-9.04559
▁mag	-9.04619
yaya	-9.04657
rú	-9.04696
loyan	-9.0472
▁man	-9.0473
huaya	-9.04779
▁quexquich	-9.05012
oni	-9.05015
catzin	-9.05345
▁u	-9.05604
toca	-9.05648
▁ytencopa	-9.05662
▁Sebastian	-9.05778
▁huell	-9.05954
antzin	-9.05971
nozo	-9.06007
▁quimilhui	-9.06098
▁oquichiuh	-9.06125
ian	-9.0613
▁quiza	-9.0624
▁zatepa	-9.06244
▁ceppa	-9.06256
quia	-9.06349
▁intlahtoca	-9.06365
és	-9.06443
za	-9.0646
▁mage	-9.06552
▁itlal	-9.06784
▁yeuatl	-9.06819
▁yehuan	-9.0683
▁nian	-9.07367
▁Jeró	-9.07591
▁moyetzticat	-9.07593
▁Fern	-9.07651
▁oncuan	-9.07682
▁itechcopa	-9.07702
▁q	-9.07726
▁ihuicpa	-9.07769
▁cal	-9.07778
oña	-9.07789
estad	-9.07941
ye	-9.08539
▁matlac	-9.08558
▁Co	-9.0868
▁G	-9.08749
rio	-9.08792
▁Nehua	-9.0892
▁ypa	-9.09012
catzintli	-9.09066
▁misa	-9.09123
stad	-9.0916
mej	-9.09914
▁ot	-9.09939
▁]	-9.10025
tinemi	-9.103
nequi	-9.1054
▁tequitl	-9.10717
▁xochi	-9.10904
oles	-9.11128
▁matlacpohual	-9.11323
copa	-9.11327
▁Sanche	-9.11381
zintli	-9.11524
▁Tlaco	-9.11558
tiaya	-9.11696
▁Geronim	-9.11721
▁clérigo	-9.11727
ro	-9.11729
venta	-9.11874
▁huan	-9.12096
▁cuicatl	-9.12322
▁iyollo	-9.12457
▁nicam	-9.12643
▁yniqu	-9.12904
▁pohui	-9.12977
▁akmo	-9.13224
▁çann	-9.13299
▁cecen	-9.13399
▁Per	-9.13458
ik	-9.13621
▁quinequi	-9.13631
▁conito	-9.13801
▁carrancista	-9.13879
▁aqui	-9.13883
▁zapatista	-9.13909
▁julio	-9.13915
▁oyeya	-9.13945
▁chicahuac	-9.13964
érc	-9.14001
▁Hueyi	-9.14036
ilhuitl	-9.14065
▁ynpan	-9.14178
poliuhque	-9.1455
listli	-9.14641
lan	-9.14909
▁cempoal	-9.1506
motlalilia	-9.15155
▁aço	-9.1516
▁tleco	-9.15248
▁oni	-9.15311
▁manca	-9.15315
tzitzin	-9.15454
▁caxtolli	-9.15605
uaya	-9.15687
qualli	-9.15709
▁nochipa	-9.15817
uac	-9.15889
tepetl	-9.15989
▁juebes	-9.16007
▁nicmaca	-9.16074
▁satepa	-9.16499
▁semi	-9.16574
▁otli	-9.16593
▁Ompa	-9.16607
▁yntla	-9.16639
▁Cu	-9.17119
oyan	-9.17183
▁Pe	-9.17202
▁nama	-9.17226
▁yauh	-9.17306
▁teocal	-9.17368
▁me	-9.17413
▁chicome	-9.17625
▁tomine	-9.17644
▁inchan	-9.17789
▁muchiuh	-9.17814
▁Atonal	-9.17943
▁Quen	-9.17946
▁onic	-9.18015
▁doctor	-9.18142
▁omome	-9.18193
▁Martín	-9.18249
▁oydores	-9.18274
▁niquitoh	-9.18353
▁oquimo	-9.18376
▁patlahuac	-9.18458
▁cocone	-9.1855
acxoteca	-9.18614
▁el	-9.1862
▁cuahuitl	-9.18656
▁pipilti	-9.18833
▁Nochi	-9.19055
▁Na	-9.19098
▁chinam	-9.19182
▁cuica	-9.19492
▁Qui	-9.19557
▁acatl	-9.19729
hicomoztoc	-9.1977
▁muchi	-9.19853
kilit	-9.19904
▁cani	-9.19906
▁itocayoca	-9.19907
▁ixquichcauh	-9.19942
▁quitlalli	-9.20097
▁Can	-9.20391
▁Garc	-9.20438
▁Felipe	-9.20502
▁monasterio	-9.2052
tlaca	-9.20525
▁hualmochiuhtia	-9.20704
▁cemanahuac	-9.20874
▁tepilhuan	-9.21204
▁Atenc	-9.21314
▁timacehualti	-9.21361
▁itic	-9.21399
ás	-9.21411
▁mochiuhtzino	-9.21593
▁topan	-9.21614
tequiuh	-9.21704
▁ilhuicatl	-9.21742
calco	-9.21776
toton	-9.21898
ual	-9.22181
▁ipanpa	-9.2248
▁Jacob	-9.22496
▁necoc	-9.22629
mitl	-9.22685
znequi	-9.22693
▁icel	-9.2284
▁xonacatl	-9.22852
▁tlatoani	-9.22933
aca	-9.2299
nin	-9.23074
▁mitoz	-9.23261
otl	-9.23324
▁Ante	-9.23333
▁moyetztica	-9.23408
▁ohuala	-9.23429
I	-9.23539
mati	-9.23651
iuh	-9.23949
tetl	-9.2406
▁nonamic	-9.24074
▁onkak	-9.24206
▁ipaltzinc	-9.24353
▁yohua	-9.24401
▁ytocayoca	-9.24731
▁ix	-9.2477
azque	-9.24909
▁tona	-9.24934
▁onkan	-9.24959
ochtli	-9.25242
▁Luy	-9.25474
▁tecpatl	-9.25644
zi	-9.25681
teouh	-9.25727
▁tlami	-9.25884
▁ueyi	-9.25992
▁ipilhuan	-9.2611
pus	-9.26156
ltzin	-9.26208
▁nehua	-9.26229
ihui	-9.26534
oa	-9.26624
ulhuacan	-9.26689
▁nen	-9.26837
▁Pa	-9.26856
▁Tlilteca	-9.26909
▁ticmati	-9.27309
▁teocuitlatl	-9.27405
▁Tetzcoco	-9.27647
▁och	-9.27648
liaya	-9.27779
▁chil	-9.27804
▁monjas	-9.27844
▁icnahui	-9.27924
cuahuitl	-9.28008
▁ypilhuan	-9.28062
▁cequint	-9.28156
▁China	-9.28271
▁at	-9.28461
▁tlal	-9.2851
ra	-9.28835
oca	-9.28858
liztica	-9.29057
quichiuhque	-9.29256
▁chichi	-9.29473
kilo	-9.2999
uia	-9.30135
▁ahuel	-9.30211
▁istak	-9.30243
▁Totecuiyo	-9.30302
▁ychpoch	-9.30375
▁pouiz	-9.30434
ña	-9.30492
▁izquican	-9.305
▁opeuh	-9.30501
▁nicnequi	-9.30523
▁Mah	-9.30562
▁tlamachtilcal	-9.3058
▁nochtin	-9.30698
▁Tlayllotlac	-9.30852
▁Yehuatl	-9.30959
▁monequiz	-9.30987
xtli	-9.3102
▁sie	-9.31029
▁oncaxtolli	-9.31144
▁ycpac	-9.31169
▁jue	-9.31179
▁omotlalli	-9.31375
▁yglesia	-9.31378
▁Huitzillihuit	-9.31639
▁quemman	-9.31665
les	-9.31806
▁Mariana	-9.31969
▁Intla	-9.32097
▁Juana	-9.32187
▁Noih	-9.32211
▁quilhui	-9.32424
loni	-9.32631
▁otlananquilli	-9.32783
▁Tullam	-9.32909
▁ilhuicac	-9.32981
cauh	-9.32989
▁Oc	-9.33084
ando	-9.33111
ehuaque	-9.33144
tontli	-9.33349
▁xa	-9.33383
▁ih	-9.33405
▁teotl	-9.33489
▁tlatla	-9.33867
▁noyollo	-9.33873
▁pil	-9.33954
▁caxtol	-9.34221
▁aci	-9.34239
▁cemi	-9.34296
▁kwak	-9.34315
▁oquiz	-9.34811
▁once	-9.35098
yahque	-9.35537
▁notahtzin	-9.35546
F	-9.35635
▁quichiuh	-9.35686
chez	-9.35719
▁it	-9.35936
▁aic	-9.36019
▁chicuacen	-9.36038
▁Angel	-9.36131
▁tepe	-9.36313
▁quetzalli	-9.36345
▁H	-9.36538
▁chi	-9.37038
▁axca	-9.37077
▁aya	-9.37391
▁Yuh	-9.37478
▁yhui	-9.37608
▁tl	-9.37623
iaya	-9.37626
▁Ic	-9.37656
ome	-9.37782
▁Pas	-9.37836
▁oquitecaquiti	-9.38045
▁entons	-9.38046
▁xochiyoua	-9.38049
▁ypam	-9.38168
tlauhtecatlteuhc	-9.38255
huia	-9.3843
▁oks	-9.38455
quene	-9.38727
▁iz	-9.38845
▁tochtli	-9.38915
tzticac	-9.38954
▁set	-9.38978
tlahtoani	-9.39006
▁Huan	-9.39057
ch	-9.39072
tiz	-9.39197
llo	-9.3933
ehuantin	-9.39375
▁camo	-9.39815
▁callaqui	-9.39831
pohuiz	-9.39861
▁tonali	-9.39864
▁moyollo	-9.40077
▁mihto	-9.40151
tlacamo	-9.40393
mani	-9.40506
▁Sebasti	-9.40557
▁nikan	-9.4074
▁ticpia	-9.40855
▁axox	-9.40858
▁iztatl	-9.40873
▁aud	-9.40914
▁miyec	-9.40973
▁nochan	-9.41346
▁namech	-9.41372
▁miak	-9.4143
▁ontetl	-9.41556
▁cu	-9.41595
▁iztac	-9.41719
iago	-9.41787
uatl	-9.41896
ahzo	-9.41944
▁regidor	-9.42099
▁kimana	-9.42126
▁queh	-9.42403
▁ymac	-9.42524
ipan	-9.42602
	-9.43149
▁Cohua	-9.43394
▁otech	-9.43582
▁Compañ	-9.4368
▁yeka	-9.43706
▁macihui	-9.43711
manalco	-9.43713
▁Baltha	-9.43752
▁yhoa	-9.43927
▁ašan	-9.43948
ión	-9.43953
▁Tequani	-9.43988
▁ohual	-9.44041
▁pehua	-9.44163
ontli	-9.44576
nahui	-9.4468
▁Aquin	-9.44704
▁nonantzin	-9.44757
▁Quauh	-9.44771
ceppa	-9.448
acalli	-9.44887
▁Lun	-9.44927
▁mocallaqui	-9.44953
pol	-9.4504
▁tonall	-9.45178
nado	-9.45201
huexotl	-9.45239
ko	-9.45253
huiz	-9.45284
▁tlahtoli	-9.45338
ohuac	-9.45386
▁tlaço	-9.45588
▁moteca	-9.45722
▁mihtohua	-9.45886
▁kil	-9.45901
oz	-9.46004
▁altepe	-9.46033
tlalpan	-9.46077
cuac	-9.46111
io	-9.46182
caxitl	-9.4622
▁mohuica	-9.46225
chi	-9.46283
▁ytechpa	-9.46331
▁pa	-9.46614
▁Magdalena	-9.46621
▁Chal	-9.46656
▁las	-9.46694
▁itechpohui	-9.46768
▁ayocmo	-9.47026
▁chicue	-9.47026
timani	-9.47037
loz	-9.47079
▁imixpan	-9.47122
▁tlatilulca	-9.47194
agos	-9.47391
lhuitl	-9.47452
▁maxiti	-9.4758
▁tlalpan	-9.4775
▁noviembr	-9.47897
▁Oncu	-9.47972
▁quauhtli	-9.48043
▁un	-9.48053
▁Azo	-9.4811
▁hui	-9.48144
ili	-9.4828
▁Testigo	-9.48322
▁tlaxillacal	-9.48398
cia	-9.48409
rez	-9.48445
▁Iqui	-9.48517
▁Quine	-9.48673
arço	-9.48691
de	-9.48814
▁Ac	-9.48859
ki	-9.48862
▁Tle	-9.48914
▁iteyo	-9.48943
ina	-9.49199
tlamico	-9.49259
▁chicon	-9.49262
▁nocal	-9.49362
tonaltzin	-9.49418
▁Guerr	-9.49656
▁tohueytlahtoca	-9.4968
va	-9.49963
▁Yaotl	-9.49992
▁cihuame	-9.50083
▁huitze	-9.50113
▁do	-9.50432
sesek	-9.50434
▁iuhquin	-9.5068
kan	-9.50695
ilia	-9.50718
▁An	-9.50718
tzontli	-9.50929
▁Chichimeca	-9.50958
itzin	-9.51109
mi	-9.51151
▁L	-9.51268
▁quimochihuilli	-9.51284
▁Aya	-9.5135
quitohua	-9.51582
atzintli	-9.51915
▁huehca	-9.52318
▁omomiquili	-9.52339
▁chiquacen	-9.52399
▁napohuall	-9.52416
▁Lo	-9.52429
▁cenpohuall	-9.52468
▁quetzal	-9.52472
itzochiyahuizotl	-9.52519
▁mantia	-9.52608
▁ahcic	-9.52638
it	-9.52693
▁culhua	-9.52713
residen	-9.52895
▁licenciado	-9.5292
▁moztla	-9.52924
ehuatl	-9.52995
▁K	-9.53016
▁quitoa	-9.53024
▁itlatol	-9.53064
▁Nauhyot	-9.53108
sic	-9.53244
▁unpa	-9.53285
▁hueca	-9.5329
▁Mal	-9.53316
▁quizque	-9.53382
huaz	-9.53456
ihmo	-9.53561
▁pouhqui	-9.53565
▁onmatlact	-9.5358
▁nopan	-9.53645
▁ynacayo	-9.53751
le	-9.53769
▁telpochtl	-9.53808
izque	-9.53949
▁nictlali	-9.53957
▁milli	-9.54056
▁miqui	-9.54057
▁otla	-9.54229
▁ycal	-9.5444
po	-9.54498
ualli	-9.54563
quizque	-9.54608
▁xon	-9.54911
utl	-9.55032
ayotl	-9.55155
▁onech	-9.55234
atiuh	-9.55237
▁nocon	-9.55381
▁cepa	-9.55429
quihui	-9.55431
▁onaci	-9.55587
▁estaca	-9.55618
▁chalchihui	-9.55634
huacan	-9.5566
▁Yancuic	-9.56015
▁yaque	-9.56077
▁Santiago	-9.56084
▁tlayahuallo	-9.56175
▁itlan	-9.56177
testamento	-9.56223
▁titla	-9.56341
▁omotlali	-9.56363
▁omochiuhtzino	-9.56476
▁omacoc	-9.56496
▁Joan	-9.56498
ato	-9.56538
▁ahcito	-9.56639
▁yxquichcauh	-9.56707
▁Tona	-9.56722
▁Aca	-9.57005
▁itlami	-9.57115
▁sep	-9.57367
▁nino	-9.57402
▁Ni	-9.57469
tlatqui	-9.5747
tihuitz	-9.57483
▁Ip	-9.57605
▁quitocayoti	-9.57635
▁Nehuatl	-9.57637
▁quimon	-9.57704
ayoj	-9.57833
▁quitocayotia	-9.57834
▁hualmohuicac	-9.57894
▁si	-9.58055
▁Yehuan	-9.58154
nca	-9.58196
▁iyo	-9.58269
▁poliuh	-9.58828
ohua	-9.58889
▁chicuey	-9.59062
▁nauhtzon	-9.59199
man	-9.59239
▁quilhuia	-9.59253
▁tletl	-9.59317
▁Chalchiuhmomoz	-9.59336
▁Tiacapan	-9.59356
▁Señor	-9.59367
▁tofirma	-9.59371
▁Chapoltepec	-9.59393
▁palacio	-9.59424
▁Marin	-9.59429
▁ytloc	-9.59445
pajti	-9.59452
▁coztic	-9.59473
▁Axayaca	-9.5953
▁hora	-9.59681
▁co	-9.5992
▁nez	-9.60007
▁oacico	-9.60154
▁Thom	-9.60158
▁choca	-9.60168
▁totlaçonan	-9.60296
▁mocauh	-9.60317
▁tehuanti	-9.60368
se	-9.6045
▁mí	-9.60488
▁yntoca	-9.60706
▁tlahto	-9.60713
▁Huitzillopoch	-9.60815
zquiani	-9.60945
▁cem	-9.61022
▁tlahco	-9.61109
▁po	-9.61159
▁ican	-9.61318
▁quimitalhui	-9.61344
▁yancuica	-9.61371
▁noca	-9.61551
▁tecpo	-9.61618
▁kema	-9.61646
▁tlatocat	-9.61734
nixpan	-9.62171
ne	-9.62246
▁tlayahualolo	-9.62442
huaque	-9.62554
ohualli	-9.626
▁tehua	-9.62632
▁Cort	-9.62752
▁comendador	-9.62784
▁Melch	-9.62785
▁Baptista	-9.62785
▁Jab	-9.62786
▁Teohuateuhc	-9.62789
▁Toteoci	-9.62791
▁Momoch	-9.62802
▁cua	-9.62814
▁ite	-9.62814
tacico	-9.62821
▁occen	-9.6285
▁Sacramen	-9.62908
▁oztomeca	-9.62932
aco	-9.62964
▁moihtohua	-9.62978
▁iquey	-9.63016
▁Cuepopa	-9.63022
▁nocuel	-9.63073
▁macoc	-9.63096
ipiltzin	-9.63176
▁noyol	-9.63238
sar	-9.63264
chimal	-9.63308
layllotlacteuhct	-9.63385
tech	-9.63431
▁ilhuitzin	-9.6357
uiaj	-9.63583
ixpan	-9.63602
▁den	-9.63655
▁mote	-9.63932
▁cuauhtla	-9.63949
▁ihuiyan	-9.63999
▁oncate	-9.64066
uhque	-9.64077
▁motlali	-9.64128
▁Mart	-9.6428
▁concui	-9.64313
hual	-9.64351
▁Itzcohuat	-9.64463
quiuh	-9.64707
▁quenmania	-9.64767
▁tocon	-9.64852
▁quinamaca	-9.64855
zar	-9.64903
oac	-9.64924
▁quiçac	-9.65234
▁teca	-9.65256
▁yqu	-9.65453
▁Sanc	-9.65544
otatzin	-9.65553
▁yepohual	-9.65814
▁immo	-9.65832
peuhque	-9.65905
▁Col	-9.6591
▁maca	-9.65927
nemi	-9.65956
▁mochihuas	-9.65959
▁quitqui	-9.65981
▁castil	-9.66132
▁ijkin	-9.6631
▁kineki	-9.66358
▁quimachiyoti	-9.66374
▁Huexotzinco	-9.66414
yn	-9.66431
▁sentabo	-9.66457
▁noja	-9.6646
▁Roma	-9.66473
▁am	-9.6654
quitoque	-9.66548
sme	-9.66566
▁quihualhuica	-9.66648
▁polihui	-9.66663
▁Andr	-9.66671
▁Anahuac	-9.66772
▁Chalchiuh	-9.66905
ren	-9.6692
▁moc	-9.66977
▁eyi	-9.6703
ulco	-9.67188
ana	-9.6721
▁atlan	-9.6734
▁yhua	-9.67366
▁seki	-9.6739
▁tlanahuati	-9.67412
▁Tenoch	-9.67439
▁Huitzilopoch	-9.67474
▁tlaxillacall	-9.67532
▁moyetzticate	-9.67583
▁he	-9.67588
yotzin	-9.67663
▁venta	-9.6772
▁notoca	-9.67789
▁amono	-9.67801
cam	-9.67849
itlan	-9.68076
tes	-9.68102
huatzin	-9.68136
hmo	-9.68302
tliltic	-9.68376
▁Ti	-9.68448
▁tlanahuatilmeh	-9.68452
hque	-9.68577
▁Man	-9.68709
▁cual	-9.68874
▁yah	-9.68997
ix	-9.69059
▁Mach	-9.6908
▁tlama	-9.69112
▁ahci	-9.69311
▁Chicomoz	-9.69379
tlacatl	-9.69391
quiz	-9.69424
▁tlahtocapil	-9.69536
tito	-9.69706
▁Ne	-9.69753
▁quihtohua	-9.69807
▁tepaneca	-9.69885
▁totoca	-9.70018
▁Xochiyoua	-9.7006
▁capitá	-9.70063
▁xochmilca	-9.70063
▁blanco	-9.70076
▁Marqués	-9.70143
▁quihuica	-9.70144
▁zihuapil	-9.70243
▁uejueyi	-9.70293
▁mellahuac	-9.70352
▁teopancal	-9.70376
▁Ch	-9.70388
▁tlamatinime	-9.70453
▁teomama	-9.70483
▁quiyahuac	-9.7057
lito	-9.70589
▁yeh	-9.70622
▁ocelotl	-9.70652
▁marte	-9.707
▁carta	-9.70705
katk	-9.70723
▁moteylhuia	-9.70742
pil	-9.70818
▁ytlal	-9.70892
▁Queman	-9.70946
▁motlanahuatilli	-9.70962
nco	-9.71187
jki	-9.71272
▁Pere	-9.71337
▁tlayahualolizt	-9.71361
tlalia	-9.71412
▁Popoca	-9.71547
▁yaz	-9.7156
▁altepetlypa	-9.71564
▁motec	-9.71665
▁tlahtoca	-9.71741
ada	-9.71984
▁matlacxihuit	-9.71988
tihuitze	-9.72007
▁onnahui	-9.72129
▁Acamapicht	-9.72189
acatl	-9.72396
▁tlaxilacall	-9.72436
▁quema	-9.72492
▁iaxca	-9.72504
cecni	-9.72681
▁ilhuitl	-9.72857
▁ticchihuaz	-9.72903
capilla	-9.72914
lloque	-9.73242
▁teutl	-9.73405
▁onka	-9.73529
▁señora	-9.73683
tik	-9.73704
▁nitla	-9.7374
ihuitl	-9.73802
▁itlahtoca	-9.73809
▁oydor	-9.73834
▁xocon	-9.73892
▁quaresma	-9.73906
▁Padre	-9.73909
▁Ahuitzot	-9.73922
noço	-9.73965
asa	-9.7413
▁ypilhuantzitzin	-9.74181
tlahtoque	-9.74212
▁Inime	-9.74228
xiuhtzin	-9.74228
ehua	-9.74264
dor	-9.74265
ntzin	-9.74273
ehuatzin	-9.74414
▁Sa	-9.74414
▁oqu	-9.74426
toque	-9.74522
▁Axayacatzi	-9.74599
yohuacan	-9.74651
▁quimotlalili	-9.74663
arqués	-9.74667
▁tochan	-9.74724
chichimeca	-9.74728
▁tica	-9.74734
▁incal	-9.74814
▁kemaj	-9.74842
▁kualt	-9.74891
ior	-9.74895
▁Lope	-9.75088
▁corte	-9.75164
▁mito	-9.75219
cihuatl	-9.75274
ampa	-9.75368
ún	-9.7555
▁mitoa	-9.75639
tlalli	-9.75835
▁temo	-9.75918
▁ohui	-9.75991
▁aye	-9.76033
poyon	-9.76112
▁Xochi	-9.76117
di	-9.76133
▁miquiz	-9.76374
▁Tenuch	-9.76447
teneuh	-9.76779
▁noih	-9.7689
▁Pi	-9.76893
teo	-9.76925
▁ten	-9.77022
▁Tenochtitla	-9.77039
▁cocolizt	-9.7706
tenamitl	-9.77137
▁Acxo	-9.77228
cohuatl	-9.773
tocatzin	-9.7731
▁Xu	-9.77331
eque	-9.77515
▁quinhual	-9.77529
▁omey	-9.77669
▁timitz	-9.77695
▁chichilti	-9.77794
▁Tlahco	-9.77856
ueytl	-9.77861
rtes	-9.77897
▁Luren	-9.7791
▁yepazohtli	-9.77911
▁tlaxilacaleque	-9.77913
ehuac	-9.77926
▁Xochimilco	-9.77947
▁fiscal	-9.7802
▁mopaca	-9.78047
▁Luca	-9.7827
▁atentlipan	-9.78293
▁Pano	-9.78375
kej	-9.78411
▁Sal	-9.78509
amo	-9.78622
▁Miac	-9.78711
▁Tercer	-9.7872
tok	-9.78778
ih	-9.78813
oxcoxt	-9.78959
cuic	-9.79029
▁tiquin	-9.79035
▁totlal	-9.79115
▁quimicti	-9.79271
cal	-9.79411
▁iciuhca	-9.79472
tecatl	-9.79512
▁tiquito	-9.7975
ves	-9.79769
▁Sá	-9.79913
pilli	-9.8
▁acan	-9.8026
us	-9.80293
▁tetepe	-9.80427
caltitlan	-9.80443
dos	-9.80584
▁quicauh	-9.80706
illa	-9.80711
ára	-9.80717
▁ihui	-9.80798
tepeuh	-9.80819
lotl	-9.81061
quique	-9.81176
▁nanakat	-9.81229
▁quitla	-9.81266
▁quitoz	-9.81272
▁re	-9.81316
▁motlacatilli	-9.81363
▁xiuhpa	-9.81412
▁tit	-9.81583
▁yntlahtoca	-9.81608
▁testamento	-9.81612
▁quitta	-9.81658
otlalnan	-9.81686
w	-9.81752
bispo	-9.81811
▁ym	-9.81948
ernador	-9.81986
▁quiyahui	-9.81998
▁Guzm	-9.82072
▁visita	-9.82076
▁Isabel	-9.82083
▁pantzin	-9.8209
▁palio	-9.82131
▁caxtolpohual	-9.82145
▁monamaka	-9.82151
▁icihuauh	-9.82247
▁huehyi	-9.82248
▁hueyapan	-9.82274
▁tenahuac	-9.82274
▁Alta	-9.82303
▁eheca	-9.82491
tonac	-9.82564
▁itequiuh	-9.82655
abri	-9.827
ate	-9.82775
ej	-9.82805
omihto	-9.8283
▁tosa	-9.82849
▁tlac	-9.8285
ino	-9.8286
▁kena	-9.8288
▁poui	-9.82947
▁nuestro	-9.82957
▁tlaxcalteca	-9.83027
▁Canin	-9.83061
nkak	-9.83063
▁cuauh	-9.83172
cauhque	-9.83205
▁Amatlanahuatil	-9.83301
▁inacayo	-9.83396
▁quauh	-9.83412
stli	-9.83458
▁Huitzil	-9.83968
▁icac	-9.83969
cualcan	-9.84079
pena	-9.84313
▁chicueyi	-9.8432
▁ok	-9.84347
▁xinech	-9.84495
▁huecahua	-9.84549
maca	-9.84562
teuhct	-9.84587
▁tite	-9.84604
▁nelti	-9.84667
▁tepetzint	-9.84725
▁ycome	-9.84746
▁pregon	-9.84776
▁atenco	-9.84784
▁macoz	-9.84795
▁ima	-9.84804
▁hualmohuica	-9.84817
ntzinco	-9.84855
▁Quin	-9.84886
yohualtica	-9.8489
▁tenanc	-9.84968
▁tehhua	-9.85035
huiac	-9.85104
▁mixpan	-9.8519
▁peua	-9.85205
▁tlaxilacal	-9.85225
▁pano	-9.85395
osme	-9.85417
wan	-9.85445
▁Tlaltlanahuatil	-9.8562
▁Xic	-9.85698
sp	-9.85749
▁iyol	-9.85758
▁genera	-9.85797
ppa	-9.8604
uel	-9.86337
▁ama	-9.86416
▁Nuestr	-9.8642
▁tepantlahtoani	-9.86434
▁noço	-9.86479
▁tlatouani	-9.8658
anil	-9.86594
ár	-9.86608
▁tlatilolca	-9.86671
▁teuctli	-9.86734
▁fech	-9.86759
▁ono	-9.86785
▁tlahtocayot	-9.86849
▁quitlalia	-9.8689
▁quichiua	-9.86931
▁tley	-9.86932
cui	-9.86946
▁wal	-9.87
▁Huitzilihuit	-9.87021
▁xiuit	-9.87043
tequitzin	-9.87061
▁moquixti	-9.87136
▁mochtin	-9.87252
llique	-9.87325
▁ynehuan	-9.87412
nte	-9.87478
▁niquin	-9.87543
▁cualtzin	-9.87578
sa	-9.87717
▁momiquili	-9.87848
▁oquim	-9.87876
▁tlacati	-9.87965
▁tata	-9.88182
▁chichimecatl	-9.88199
nahuac	-9.88229
▁immano	-9.88232
▁XXI	-9.88275
oya	-9.88329
▁ueuet	-9.8833
▁Me	-9.88383
lico	-9.88566
p	-9.88608
▁Mi	-9.88734
▁intlatol	-9.88824
lmeca	-9.89054
▁Acamapich	-9.8911
▁quiual	-9.89195
ey	-9.89311
▁Yao	-9.89321
X	-9.89676
opil	-9.89712
rço	-9.89915
▁yey	-9.90024
▁sanct	-9.90106
is	-9.9023
otequihua	-9.90231
▁Tec	-9.9027
▁quimilhuia	-9.90278
echtli	-9.90374
▁cuacualtzi	-9.90432
▁omote	-9.90448
topixque	-9.9052
▁Esc	-9.90662
yocan	-9.90744
▁kisa	-9.90749
▁semana	-9.90795
yacac	-9.90811
dez	-9.90818
macuilli	-9.90833
▁isquich	-9.90885
intin	-9.90932
▁neh	-9.90962
▁rebolúsio	-9.90965
▁omotocateneuh	-9.90966
tahuan	-9.90969
▁Bernard	-9.9098
▁tlatihuani	-9.90988
▁quauhtla	-9.91029
▁Rodrig	-9.91061
▁xole	-9.9112
▁momoztla	-9.91166
▁opanoc	-9.91177
▁Cont	-9.91231
▁mahtlactli	-9.91285
▁ixua	-9.91286
▁Tlaca	-9.91323
▁tocal	-9.91343
▁gob	-9.91513
▁Anton	-9.91618
▁Ipalnemohua	-9.91622
pachiuh	-9.91706
▁Campa	-9.91717
▁tito	-9.91741
▁Ga	-9.91741
▁Tehhua	-9.91769
ita	-9.91843
▁Azta	-9.91908
▁nanima	-9.91924
▁moči	-9.91957
▁achitzin	-9.9201
▁cenpohuallon	-9.92039
pixque	-9.92085
▁Tepe	-9.92177
▁Cuitlahuac	-9.9222
itech	-9.92249
▁cemanahua	-9.92249
▁Mochi	-9.92256
▁tlacuali	-9.92299
▁piltzint	-9.92401
▁kin	-9.92403
tlacauhqui	-9.92463
▁queni	-9.92569
▁guardi	-9.92799
▁Ken	-9.92963
▁mononotza	-9.92969
▁mique	-9.92996
▁hue	-9.93048
milhuitl	-9.93058
▁quinotza	-9.93069
cenca	-9.9314
▁acah	-9.93171
▁inpilhuan	-9.93231
octli	-9.93273
▁quipehualti	-9.93341
antzinco	-9.93436
▁XX	-9.93472
▁kichiua	-9.93478
euhctl	-9.93667
tiliz	-9.93884
▁centzon	-9.93904
huique	-9.93973
▁quinpeuh	-9.94025
so	-9.94098
▁machiztic	-9.94197
mach	-9.9424
▁yohual	-9.94347
lti	-9.94783
▁nocone	-9.94973
ipa	-9.95031
uiz	-9.95067
▁Ant	-9.9507
tecuhtli	-9.95116
▁calaquia	-9.95144
▁hueyac	-9.95293
uaque	-9.95313
▁tetech	-9.95455
▁nauhxiuhti	-9.95476
▁moma	-9.95573
theo	-9.95581
ltin	-9.95619
▁Quauhcece	-9.95727
▁motlayahualhui	-9.95727
▁Capitá	-9.95727
▁Quetzalcanauhtl	-9.95728
▁diciembre	-9.95728
▁Tepeyacac	-9.95729
▁Jer	-9.95751
▁ikuoujyo	-9.95779
▁orne	-9.95806
▁otlapacho	-9.95815
chan	-9.95855
▁tlacual	-9.95895
brica	-9.95909
▁iquin	-9.95946
▁quittaya	-9.96039
▁omaxiti	-9.9604
eño	-9.96053
▁acaltica	-9.96066
qua	-9.96111
▁Cuali	-9.96117
am	-9.96149
▁matlactlomome	-9.96162
▁itzintla	-9.96189
▁yajki	-9.96242
tiaz	-9.96285
nanacatl	-9.96343
▁kitokaytia	-9.96382
eve	-9.96411
▁Tenan	-9.96452
onnahui	-9.96559
▁oppa	-9.96578
▁cali	-9.96593
firma	-9.96597
uhtica	-9.96612
▁chimal	-9.96616
tzitzihuan	-9.96648
▁cihuapil	-9.96666
cozcatl	-9.96671
▁uey	-9.96693
▁Don	-9.96815
▁Qu	-9.96862
lla	-9.96867
▁Chalm	-9.96913
▁ymatica	-9.96922
ú	-9.96942
▁tlacochcalca	-9.96967
brer	-9.96972
▁anqui	-9.97043
chicome	-9.97118
▁oki	-9.97159
manel	-9.97182
▁kani	-9.97186
▁moquetza	-9.97188
▁momana	-9.97189
▁quimana	-9.97333
▁yej	-9.97609
▁quiquixti	-9.97623
tlaxillacalleque	-9.97628
▁mot	-9.97659
ticate	-9.97665
pehuaya	-9.97751
▁mochan	-9.97752
il	-9.97796
empo	-9.97847
▁iccen	-9.9798
uhtli	-9.98058
encia	-9.981
L	-9.98226
▁oquittac	-9.98233
rdo	-9.98266
matica	-9.98318
▁mu	-9.98455
▁amoxtl	-9.98484
uhqui	-9.98512
▁micca	-9.98515
nenenque	-9.98587
▁nika	-9.98636
▁ch	-9.98706
ara	-9.98901
▁tlatocati	-9.98905
▁quipiaya	-9.98945
akmo	-9.98956
jtani	-9.99126
▁Hu	-9.99146
▁Kema	-9.99584
▁notech	-9.99818
▁quiyauh	-9.99911
▁quima	-9.99939
▁mocuepa	-9.99942
▁xoch	-9.9999
▁Om	-10.0004
▁tequiti	-10.0005
▁anca	-10.0008
▁achiton	-10.0038
tolinia	-10.0041
▁tomi	-10.0046
▁Tlacatl	-10.0051
▁itlac	-10.0052
alante	-10.0061
conetzin	-10.007
▁tlazo	-10.007
▁leonportilla	-10.0073
▁ordinario	-10.0073
▁ichpokero	-10.0074
▁Mocel	-10.0074
▁abbad	-10.0079
ga	-10.0079
▁tlamatini	-10.0084
▁ixochiyo	-10.0085
▁Quauhtli	-10.0087
▁teotenanc	-10.0088
▁tocnihuan	-10.0092
teotl	-10.0096
▁oquimotlalili	-10.0105
▁huallaci	-10.0106
chilli	-10.0107
▁Tlatil	-10.011
nauhtetl	-10.0111
miuh	-10.0119
▁ualmotlali	-10.0122
▁ynchan	-10.0127
▁Quenin	-10.0134
▁calaqui	-10.0138
▁maestro	-10.0141
cnihuan	-10.0143
▁Bartolome	-10.0145
▁quincauhtia	-10.015
▁quimomaquilli	-10.0151
pipilti	-10.0152
▁tototl	-10.0156
macac	-10.0164
▁quitoca	-10.0168
▁moquetz	-10.0169
ihua	-10.0172
▁Ayac	-10.0173
▁Mich	-10.0176
▁tzatzihua	-10.0191
htzin	-10.0191
▁oy	-10.0193
▁maco	-10.0195
▁ualla	-10.0198
▁quinonotza	-10.0202
illo	-10.0207
▁mochiuaz	-10.0209
siko	-10.0211
chinanco	-10.0226
▁Tehuan	-10.0237
▁otlananquili	-10.0257
ospital	-10.0257
illi	-10.0277
miran	-10.0283
▁mochiuhque	-10.0283
▁Teocalti	-10.0289
▁teopa	-10.0294
manca	-10.0295
▁teu	-10.0296
▁ayao	-10.03
▁ihuian	-10.0302
▁otlacat	-10.0302
loya	-10.0303
▁toc	-10.0309
▁tlah	-10.0311
▁we	-10.0319
▁Cuitlate	-10.0326
▁mono	-10.0342
▁qual	-10.0353
miquico	-10.0358
iga	-10.0361
coz	-10.0372
▁b	-10.0374
▁motlapo	-10.0383
tzalan	-10.0385
▁intlal	-10.0389
caxtolli	-10.0395
och	-10.0396
▁oquicac	-10.0396
▁yaxca	-10.0399
▁mimic	-10.0402
▁yu	-10.0412
tz	-10.0413
ntoton	-10.0418
▁Teoc	-10.042
▁kan	-10.0424
▁Quiz	-10.0424
▁mill	-10.0434
▁quitemaca	-10.0439
gen	-10.0441
▁tictlali	-10.046
taya	-10.0475
▁tequi	-10.0476
▁omei	-10.0477
ardo	-10.0495
▁quite	-10.0498
▁ayatl	-10.0506
tizque	-10.0508
▁moman	-10.052
chihuaz	-10.0526
uantin	-10.0527
▁teyacana	-10.053
▁Auitzotzi	-10.0543
▁tlan	-10.0546
▁otihualla	-10.0561
▁Quetzal	-10.0567
▁Para	-10.0571
▁altepehua	-10.0577
▁inpan	-10.0578
omextin	-10.0582
▁Jap	-10.0598
▁kichipaua	-10.0599
▁Macuex	-10.0599
▁hualaz	-10.06
ólito	-10.0601
▁omachiztic	-10.0602
▁nomati	-10.0603
▁quimocaquilti	-10.0605
▁Zapat	-10.0611
▁nechmaca	-10.0614
▁Nicol	-10.0614
rqués	-10.0615
▁tekitij	-10.062
▁tlatocayotl	-10.0622
▁favor	-10.0627
▁kiijto	-10.0631
ecatl	-10.0634
▁ciua	-10.0635
▁itlatqui	-10.0635
▁coza	-10.0643
▁tia	-10.0648
▁yocoxca	-10.0649
▁ach	-10.065
▁tlaxillacalpa	-10.0651
▁Achtopa	-10.0655
euh	-10.0663
▁imaxca	-10.0664
▁temachti	-10.0672
▁mexicatl	-10.0675
▁au	-10.0691
▁namo	-10.0694
▁Matlactli	-10.0694
▁patla	-10.0701
▁cofradía	-10.0702
tzitzinhua	-10.071
▁Mexica	-10.0714
tón	-10.0715
▁ko	-10.0717
lizque	-10.0725
▁pilli	-10.0732
pilhuan	-10.0744
▁On	-10.0757
▁yeynti	-10.076
▁ihqui	-10.0771
cualli	-10.0778
▁Nic	-10.0781
ol	-10.0785
rcel	-10.0791
▁xolal	-10.0803
pantli	-10.081
▁Maxtlato	-10.0812
▁quihualhuicac	-10.0813
ci	-10.0819
via	-10.0829
res	-10.0835
▁ken	-10.0848
campa	-10.0856
▁F	-10.0857
▁quizaz	-10.0858
xic	-10.0862
▁tlenamaca	-10.0872
▁di	-10.0875
▁quiyahuiz	-10.0876
▁cempohual	-10.0878
zqui	-10.0884
▁macuilpohual	-10.0889
píritu	-10.0901
htzino	-10.091
▁Ju	-10.0914
▁macehual	-10.0937
ador	-10.0938
▁Xochitl	-10.094
▁motta	-10.0945
▁Yopi	-10.0961
▁atzaqual	-10.097
oltzin	-10.0975
tili	-10.0981
▁nemohua	-10.0991
á	-10.1
▁ytlan	-10.1002
▁ximo	-10.1011
▁Carlo	-10.1016
▁Valle	-10.1023
▁naui	-10.1029
tenta	-10.104
huicaque	-10.1045
▁U	-10.1046
ocan	-10.1049
▁tek	-10.1051
▁yh	-10.1062
▁tinemi	-10.1063
▁teteu	-10.1063
oyotl	-10.1065
▁ypiltzi	-10.1076
▁titlaca	-10.1076
▁Achi	-10.1077
▁Altepetl	-10.1079
coneuh	-10.1081
▁hu	-10.1082
▁Kuesal	-10.1083
▁š	-10.1083
▁mela	-10.1084
kwa	-10.1085
entos	-10.1108
namacac	-10.1115
ria	-10.1123
inos	-10.1123
▁Tloque	-10.1132
▁teh	-10.1134
▁niqui	-10.1134
cho	-10.1137
techpa	-10.1148
▁Ylhuicamina	-10.1155
▁Quetzalmaçat	-10.1156
▁oquimocaquilti	-10.1156
▁Ocelotl	-10.1159
▁nomaicni	-10.116
exot	-10.1166
▁kuamekat	-10.1167
▁litro	-10.1169
▁Tozcuecuex	-10.117
▁tlacamo	-10.117
▁como	-10.1171
▁mopilhuati	-10.1171
▁atenquiça	-10.1174
▁ixiujyo	-10.1174
▁itloc	-10.1177
▁soldados	-10.1181
▁onoca	-10.1185
▁niquilnamiqui	-10.1186
▁pejki	-10.1187
▁nofirma	-10.1191
▁Tziuh	-10.1197
▁Greg	-10.1198
iliaya	-10.12
▁tlananquilli	-10.1207
▁imacehual	-10.1207
▁cuauhtin	-10.1208
▁Cacamat	-10.1212
▁omonamicti	-10.1215
▁tlacatecolotl	-10.1216
▁Zavallo	-10.1218
tonco	-10.1219
▁ohtlipa	-10.1221
▁Chicome	-10.1221
▁Ayo	-10.1223
▁ciuatl	-10.1232
▁nicneltili	-10.1235
▁icuic	-10.1241
▁Ram	-10.1245
▁tlaxcal	-10.1252
acico	-10.1257
▁tlahtocayo	-10.1258
▁tlake	-10.1263
▁tlatzintla	-10.1263
▁naualoztomeca	-10.1264
pia	-10.1271
▁quinhuica	-10.1273
▁onez	-10.1277
▁Ipa	-10.1279
▁Paso	-10.128
▁masehual	-10.1282
▁ahtle	-10.1291
▁tepoz	-10.1298
▁itta	-10.13
▁com	-10.1306
acac	-10.1313
▁conde	-10.1314
▁tottatzi	-10.1314
▁cuauhtli	-10.1331
▁tlahuic	-10.1332
tza	-10.1332
apan	-10.1339
quipiaya	-10.1339
tilia	-10.1348
xitilli	-10.1354
▁tequihua	-10.1363
▁textli	-10.1372
▁Iman	-10.1381
iliz	-10.1385
azquia	-10.1389
omentin	-10.139
▁mopan	-10.1394
▁keman	-10.1403
▁al	-10.1409
▁yte	-10.1415
▁neztica	-10.1419
ánde	-10.143
▁Cat	-10.1431
tlatol	-10.1432
mic	-10.1435
tlaçopiltzin	-10.1437
exihco	-10.1444
▁nepantla	-10.1453
▁hualtemo	-10.1454
alina	-10.1463
▁kajfent	-10.1463
▁teocuitla	-10.1463
▁XXV	-10.1475
▁quinexti	-10.1484
▁colhua	-10.1488
▁inana	-10.1489
▁toma	-10.1493
▁yzca	-10.1499
yuhqui	-10.15
▁quicahua	-10.15
qu	-10.1503
xiuhti	-10.1514
zenca	-10.1528
▁ut	-10.1532
▁yehoa	-10.1533
hualli	-10.1536
▁yec	-10.1538
zan	-10.1545
tlahtol	-10.155
nechicolistli	-10.1552
▁tinech	-10.1552
▁Cano	-10.1553
macehualli	-10.1566
▁cohuatl	-10.1568
euatl	-10.1571
▁quimoquixtili	-10.1577
▁ichpoch	-10.1585
▁youal	-10.1603
▁Colua	-10.1616
namaquilti	-10.1619
huic	-10.1628
▁momaquixti	-10.1638
▁motlatol	-10.1642
cenpohua	-10.1646
omitl	-10.1647
▁toyollo	-10.1665
▁conetl	-10.1668
▁hualmocuep	-10.1674
▁Bartolom	-10.1678
▁calpoll	-10.1682
▁quinhualyacan	-10.1685
itic	-10.1692
▁Atlauh	-10.1698
▁Za	-10.1701
▁ilhuica	-10.1706
chiuhque	-10.1713
▁ci	-10.1716
▁Buen	-10.1728
▁iqui	-10.1729
▁quitlani	-10.1732
▁azcapotzalca	-10.1743
▁axkana	-10.1743
▁monotsa	-10.1744
▁Tomas	-10.1746
onco	-10.1747
▁kači	-10.1748
▁quimatoca	-10.1749
▁motetequi	-10.1749
▁mohuicxiti	-10.1753
▁icchiquacen	-10.1755
▁ayok	-10.1756
▁Christ	-10.1757
▁Corte	-10.1759
▁vey	-10.176
▁est	-10.1761
▁provincial	-10.1765
▁etc	-10.1766
▁quitoznequi	-10.1767
▁tapalol	-10.1767
▁ytlahtocayo	-10.1768
▁chicomozto	-10.1768
▁pipiltzitzinti	-10.1769
▁Colhuaca	-10.177
▁mococohua	-10.1772
ticac	-10.1773
▁pas	-10.1775
▁provisor	-10.1781
xocoyo	-10.1796
uian	-10.1796
▁neu	-10.1802
▁mesica	-10.1804
Sennechicolistli	-10.1805
▁mocahuac	-10.1805
ltia	-10.1814
▁niaz	-10.1817
▁tlanahuatil	-10.1818
yauh	-10.1819
▁onmomiquilli	-10.1821
▁itlahtocayo	-10.1823
▁akin	-10.1824
tinemia	-10.1826
▁tlatlac	-10.1831
tlallia	-10.1832
camo	-10.1836
▁descalço	-10.184
▁kitalilia	-10.1841
▁tinemiz	-10.1846
▁Cuauh	-10.185
▁calpol	-10.1854
▁miyequint	-10.1856
▁miaque	-10.186
tulo	-10.1862
▁nehoa	-10.1865
▁atol	-10.1894
▁tlat	-10.1901
▁inahuac	-10.1901
chihuaya	-10.1903
▁Achto	-10.1907
lacatl	-10.1913
▁quittaz	-10.1913
onimo	-10.1914
mbre	-10.1917
▁chiconpohual	-10.1937
ok	-10.1939
▁Alvar	-10.1948
▁huallaz	-10.195
▁Leon	-10.1957
▁matlact	-10.1968
tzon	-10.1973
▁ymaxca	-10.1977
inas	-10.1978
▁Hernan	-10.1979
▁pe	-10.1986
▁ito	-10.1987
▁occente	-10.1988
cue	-10.2001
ue	-10.2004
▁miecpa	-10.2032
▁quaxoch	-10.2039
huitz	-10.2062
▁motech	-10.2065
▁mocahua	-10.2069
▁ote	-10.2072
▁Ki	-10.2078
▁anauac	-10.2089
▁Yaca	-10.2108
nanquilia	-10.2117
icpac	-10.2124
▁oquitla	-10.2126
▁Yhu	-10.2134
▁toton	-10.2136
▁nicuel	-10.2139
▁Sentlanahuatil	-10.2145
cahua	-10.2154
▁nouia	-10.2158
▁Tlacopan	-10.2166
▁manel	-10.2177
▁Maca	-10.2181
tlahtocatlalli	-10.2186
htica	-10.2191
▁tlathui	-10.2198
tlactli	-10.2207
▁quicui	-10.221
ristó	-10.2211
▁tlamacazqu	-10.2217
▁xo	-10.2221
▁itepotz	-10.2228
pí	-10.2229
▁tlatoli	-10.2236
▁quintoca	-10.2237
huel	-10.2241
acan	-10.2241
▁teyacan	-10.2249
huani	-10.2258
ika	-10.227
xo	-10.2272
▁Yo	-10.2275
nel	-10.2275
▁Occequi	-10.2275
▁nemia	-10.2277
▁ši	-10.2278
quiteneuh	-10.2278
coppa	-10.2282
ector	-10.2285
▁cocoliz	-10.2303
▁tec	-10.2305
▁nohuia	-10.2314
▁ticneltili	-10.2317
ntla	-10.2317
▁hua	-10.2321
tequi	-10.2327
ocac	-10.2329
uique	-10.2341
▁oconan	-10.2346
ciado	-10.2349
▁quimolhuili	-10.2352
▁omocauh	-10.236
micohuac	-10.2363
ayc	-10.2365
▁alguazil	-10.2368
▁arcobispo	-10.2368
▁Huax	-10.237
▁Chapultepe	-10.237
nacio	-10.237
▁cuacual	-10.237
▁kuoujtaj	-10.237
▁Uajka	-10.2372
▁omuchiuh	-10.2372
▁ohkion	-10.2375
▁Xochmilco	-10.2375
▁michime	-10.2375
▁Chicuey	-10.2376
▁Ican	-10.2376
wak	-10.2377
só	-10.2378
▁nimitztatauhtia	-10.2378
▁frayles	-10.2379
tztlacoçauh	-10.2384
▁Texcalco	-10.2385
▁Xaltoca	-10.2385
cahuan	-10.239
▁omochi	-10.2391
▁occecni	-10.2394
▁yztac	-10.2395
▁kikuaj	-10.2399
▁miyak	-10.2408
▁tlaltipac	-10.241
▁cinco	-10.2411
▁nehon	-10.2411
▁testigosme	-10.2413
▁tlatoca	-10.2413
▁tlacua	-10.2414
rced	-10.2417
▁yek	-10.2418
▁Acacit	-10.2425
b	-10.2428
mochiuh	-10.2433
yollocacopa	-10.2436
▁monexti	-10.2444
▁semiya	-10.2463
impan	-10.2465
▁oquimilhui	-10.2479
▁corona	-10.2481
tamachiuh	-10.2493
tas	-10.2493
▁naxca	-10.25
▁Teçoçomoctzi	-10.2506
lhuan	-10.2508
▁nauhpohualxihui	-10.2509
▁huetz	-10.2511
▁caxtollom	-10.2515
▁tota	-10.252
otonqui	-10.252
▁Totolte	-10.2546
▁otlahtocati	-10.2554
▁eski	-10.2557
tlanahuatilmeh	-10.2566
▁nik	-10.2568
tiw	-10.2569
namic	-10.2577
▁one	-10.2579
▁tonacayo	-10.2586
catzinco	-10.2587
▁moteilhuia	-10.259
▁nin	-10.2593
▁quit	-10.2596
▁ohua	-10.2598
▁caxtilan	-10.2606
▁quinmicti	-10.261
▁notla	-10.2611
ychpoch	-10.2619
▁Tiça	-10.2625
oh	-10.2625
hqui	-10.2631
▁ocon	-10.2632
▁pehuallo	-10.2637
▁moteylhui	-10.2641
▁ixnesi	-10.2652
▁totla	-10.2654
▁quemania	-10.2669
quin	-10.267
ican	-10.2672
▁Con	-10.268
▁tom	-10.2689
at	-10.269
▁pan	-10.2693
ztlacatiz	-10.2694
▁tlahtlacol	-10.2695
▁chicuete	-10.2696
▁ueli	-10.2699
▁icmacuill	-10.2702
▁quinmictizqu	-10.2713
▁Ba	-10.2727
eca	-10.2728
jkí	-10.274
▁immoyollo	-10.2754
atol	-10.2756
▁cahuayo	-10.276
etl	-10.2772
lacauhqui	-10.2784
▁cece	-10.2787
rey	-10.2798
▁xiuh	-10.2801
nia	-10.2811
etzontli	-10.2813
▁mac	-10.2834
▁Tlacateu	-10.2834
kopa	-10.2845
▁quitema	-10.2857
quetza	-10.2861
▁pi	-10.2863
▁quicaqui	-10.2873
▁Tziuht	-10.2877
▁otlica	-10.2879
van	-10.2881
▁Quema	-10.2886
era	-10.2886
▁pilto	-10.2888
▁Seki	-10.29
▁sin	-10.2908
tiliaya	-10.291
▁nocep	-10.2921
▁Heca	-10.2928
▁amotle	-10.293
▁Laza	-10.2937
▁totech	-10.2942
▁niya	-10.2949
▁tlato	-10.295
▁neca	-10.2951
▁Fe	-10.2954
▁itak	-10.2958
ixti	-10.2959
hristo	-10.2977
▁intlahtol	-10.2983
regon	-10.2989
Chalchiuhtlatona	-10.2994
▁temi	-10.2996
▁Ix	-10.2997
▁quiteca	-10.2998
▁Z	-10.3
quetzaya	-10.3007
▁Jesuc	-10.3008
▁nite	-10.3008
iuhqui	-10.3013
oua	-10.3013
macoc	-10.302
techpohui	-10.3022
▁ahcop	-10.3023
▁totoni	-10.3032
▁federal	-10.3034
▁tlateotocani	-10.3034
▁Cuitlaxcohuapa	-10.3035
▁huexotzinca	-10.3035
▁Tiçocic	-10.3035
▁Cuahuitzat	-10.3035
llanc	-10.3035
▁Totecuyo	-10.3036
▁acallotli	-10.3038
▁ikamojyo	-10.3038
▁Huexotla	-10.3039
▁escritur	-10.3039
▁bueno	-10.304
▁primer	-10.3041
▁tenochtli	-10.3042
▁quichihuaz	-10.3043
▁oquinequia	-10.3043
▁tulteca	-10.3043
▁Huecapa	-10.305
▁moneki	-10.3051
▁Tezcatlip	-10.3053
▁Tepeteopa	-10.3054
▁Tleyn	-10.3056
▁Oquito	-10.3057
▁dfo	-10.3058
▁hualpeuh	-10.3058
▁teixpan	-10.306
▁Macuilli	-10.3061
▁yquizayanpa	-10.3062
huiyac	-10.3062
ati	-10.3063
▁Tlaxcalla	-10.3063
▁huicci	-10.3064
▁Ecatzin	-10.3066
▁Nochipa	-10.3067
tepitzin	-10.3067
yaque	-10.3067
▁regidores	-10.307
▁tepa	-10.3073
▁tlatquihua	-10.3082
▁namique	-10.3089
▁inijuanti	-10.3093
▁ymomextin	-10.3099
▁temicti	-10.3099
▁citlal	-10.3103
▁quiquetzque	-10.3106
▁Quauhtemoctzi	-10.3113
▁altepeme	-10.3118
tonal	-10.3121
▁tlallolinaliz	-10.3124
▁capa	-10.3125
▁noxhuiuh	-10.3127
palli	-10.3133
▁tepuz	-10.3141
olo	-10.3141
▁tilma	-10.3146
▁yan	-10.3148
senta	-10.3149
▁oaci	-10.3149
▁tepiton	-10.3152
▁Cohuatl	-10.3155
▁nauhcampa	-10.3169
tih	-10.3176
▁christianos	-10.318
▁yei	-10.3183
eva	-10.319
▁pur	-10.3195
▁eua	-10.3199
▁má	-10.3202
▁apachiuh	-10.3204
▁uajka	-10.3215
yaotequi	-10.3217
▁tlapal	-10.3223
▁Gran	-10.3241
▁top	-10.3243
▁quichihuaco	-10.3249
olito	-10.325
▁quichihuazque	-10.3253
namiqui	-10.3258
▁Quetzalco	-10.3261
▁gobe	-10.3262
▁ihua	-10.3262
▁oquich	-10.3271
tlanequiliztica	-10.3275
▁niccaqui	-10.328
tiquizque	-10.3281
ixiptlatzin	-10.3282
▁yao	-10.3284
▁nicpia	-10.3284
▁iixpan	-10.3284
▁Th	-10.3285
▁chic	-10.3288
nenque	-10.3288
▁yni	-10.3289
▁Oqui	-10.3294
▁ytocatzin	-10.3303
▁nacatl	-10.3307
sin	-10.3311
▁totlatoca	-10.3313
cta	-10.3318
▁totlaçot	-10.3323
▁toca	-10.3325
qualloc	-10.3327
▁popoca	-10.3328
▁tlacuilol	-10.3329
▁quitlalitia	-10.333
▁omoyetzti	-10.3337
ces	-10.3338
▁Nama	-10.3344
▁imil	-10.3348
olli	-10.3353
▁oh	-10.3354
Ma	-10.3357
▁tecp	-10.3365
tecuhyo	-10.3366
re	-10.3368
panecatl	-10.337
tlacah	-10.3378
oribi	-10.3378
olco	-10.3381
equi	-10.3382
▁mihtoa	-10.3383
▁moyol	-10.3383
▁Zaca	-10.3383
▁nipa	-10.3385
ayah	-10.3389
▁Chiquace	-10.3395
▁kimaka	-10.3406
▁mix	-10.341
onalli	-10.341
▁ve	-10.3421
▁Tliltecat	-10.3424
▁ycac	-10.3429
▁nuev	-10.3435
▁ocelo	-10.3444
piaya	-10.3452
▁XXX	-10.346
▁quihuicaz	-10.3464
▁oquihual	-10.3467
▁El	-10.3471
▁nia	-10.3472
▁Yey	-10.3486
uica	-10.3493
▁Francisc	-10.3498
▁Pue	-10.3498
▁momamal	-10.3505
ccan	-10.3506
yc	-10.352
▁tepoztl	-10.3522
▁monoltito	-10.3525
paneca	-10.3531
▁ahque	-10.3532
▁ualteyaca	-10.3536
▁Ytzquauhtzi	-10.3544
yon	-10.3547
▁tlapanahui	-10.3554
▁cuacualaca	-10.3554
yaoyotl	-10.3557
atlactli	-10.3567
ixca	-10.3571
yah	-10.3572
nta	-10.3575
sé	-10.3581
▁intoca	-10.3582
▁quimatia	-10.3589
▁ik	-10.3589
▁quitlatlauhti	-10.3595
tzinohua	-10.3597
▁ontzon	-10.3598
A	-10.3602
▁inteocal	-10.3609
et	-10.3617
tzonco	-10.362
eras	-10.3622
uaj	-10.3639
nic	-10.3645
▁kiteki	-10.3645
▁LX	-10.3646
▁Mil	-10.3655
uachcauht	-10.3656
▁Aten	-10.3657
uiac	-10.3663
▁inehuan	-10.3672
▁Tezca	-10.3673
ére	-10.3677
▁tiqui	-10.3687
allanca	-10.3693
tico	-10.37
pra	-10.3701
▁yol	-10.3708
▁itlahtol	-10.3709
▁Atlixeliuhqui	-10.3713
huacatl	-10.3715
callitic	-10.3716
▁mač	-10.3717
▁zoqui	-10.3719
motla	-10.3719
▁Atlix	-10.372
wa	-10.3721
xumal	-10.3726
▁itstok	-10.3735
yac	-10.3738
▁oquizque	-10.3741
▁motz	-10.3741
▁ayoj	-10.3742
icatzinco	-10.3745
▁Quexqui	-10.3747
▁Córdo	-10.3749
▁Ualleua	-10.3749
▁magnifico	-10.3749
▁Quatlecohuat	-10.3749
▁ahuax	-10.3749
▁Guadal	-10.375
▁Tlamaocatl	-10.3751
▁nomac	-10.3751
▁icamara	-10.3752
▁xitomatl	-10.3753
▁temamauhti	-10.3756
▁pochteca	-10.3757
▁Nikau	-10.3758
▁onyeya	-10.3759
uicaya	-10.3761
Cuauhtlequetzqui	-10.3761
▁Rosa	-10.3761
uaca	-10.3762
▁Ig	-10.3762
▁Tetzauh	-10.3763
▁eltok	-10.3763
▁temazcalli	-10.3764
▁veint	-10.3765
iya	-10.3767
▁ahço	-10.3768
▁milla	-10.3768
▁quitlalcahui	-10.3769
▁talticpactzin	-10.3769
▁kipiya	-10.3772
amatl	-10.3774
▁mopia	-10.3775
yá	-10.3775
▁cocol	-10.3778
▁nikau	-10.3779
onamaka	-10.3779
▁sintli	-10.3781
▁pipiltoton	-10.3786
▁tlaškal	-10.3788
▁Mexi	-10.379
▁elito	-10.3793
▁huillohua	-10.3793
▁yquiçaya	-10.3794
▁yciuhca	-10.3797
▁tres	-10.3797
▁ohuac	-10.3798
tlazohcamati	-10.3805
▁pilolo	-10.3808
ente	-10.3812
▁reyes	-10.3813
ntica	-10.3814
▁ypal	-10.3817
▁Xocoyo	-10.3823
▁cuel	-10.3826
lihui	-10.3831
oncaxtolli	-10.3841
oyonia	-10.3843
▁ytlatqui	-10.3853
tocayotl	-10.3855
▁huetzi	-10.3856
▁matlactlomey	-10.3861
▁oquit	-10.3865
▁ijkini	-10.3865
▁tetlan	-10.3867
▁maço	-10.387
kualtsin	-10.387
ahui	-10.3875
peuhtica	-10.3881
▁Itz	-10.3883
▁seis	-10.3887
▁Ypam	-10.3897
▁real	-10.3898
▁macuili	-10.3907
yec	-10.3911
▁ceme	-10.3914
pohuallonmatlact	-10.3914
▁maceual	-10.3917
ilique	-10.3918
opa	-10.3918
f	-10.3925
▁Es	-10.3932
▁innacayo	-10.3934
▁quicauhque	-10.3936
▁quinhualhuicac	-10.3951
▁quimotlallili	-10.3953
▁ku	-10.3953
enca	-10.3953
tec	-10.3954
▁ocno	-10.3959
molli	-10.3962
▁quimacac	-10.3972
▁Cente	-10.3973
▁Cual	-10.3975
hin	-10.3989
▁titlanahuati	-10.3989
▁nictene	-10.4001
▁Tote	-10.4008
▁Quauhtle	-10.4009
▁ohki	-10.401
▁quichihuas	-10.4011
oj	-10.4012
▁Ay	-10.4014
lhuiloc	-10.4025
pitza	-10.4042
▁Tlacatec	-10.4051
▁nekwt	-10.4051
▁kual	-10.4052
▁imal	-10.4052
▁tlalmant	-10.4056
▁quimoneltilili	-10.4058
otzin	-10.4061
macaya	-10.4069
▁Sentlanahuati	-10.4079
▁Moys	-10.4095
omo	-10.4102
▁ycel	-10.4106
▁hualmo	-10.4107
▁tlapan	-10.4114
ak	-10.4118
▁Noch	-10.4119
tlahtolli	-10.4138
etetl	-10.4141
▁oquihto	-10.4146
▁hualhuia	-10.4146
▁Nec	-10.4146
▁Occep	-10.4147
▁notlal	-10.4147
▁omoquixti	-10.4151
▁tecuan	-10.4158
tohua	-10.416
▁Mexicatl	-10.4165
▁yaui	-10.4175
aloya	-10.4178
▁mononotz	-10.4179
quechol	-10.4185
▁tik	-10.4192
macaque	-10.4196
▁Mizqui	-10.4204
▁quiquetza	-10.4206
▁Nian	-10.4219
▁ytlatol	-10.4225
▁oksi	-10.4227
▁Tlatlani	-10.4241
pacca	-10.4243
▁Xal	-10.4244
▁tihui	-10.4249
▁teteucti	-10.4251
▁quittac	-10.4253
▁tolteca	-10.4253
▁piltzitzin	-10.4264
antli	-10.4265
▁inca	-10.4266
▁oquiçac	-10.4271
erdo	-10.4272
▁Leona	-10.4277
nbre	-10.4277
ltik	-10.428
▁Jos	-10.4281
don	-10.4287
htaya	-10.4291
▁tlatol	-10.4291
▁muči	-10.43
cuali	-10.4308
altzin	-10.4312
▁quitlali	-10.4313
▁akol	-10.4315
▁mocal	-10.4315
▁tepeuh	-10.4322
▁teat	-10.4328
▁Xinech	-10.4342
▁emol	-10.4343
ario	-10.4345
▁quicac	-10.4353
ematl	-10.4353
▁itzonteco	-10.4355
xochi	-10.436
iuj	-10.4365
▁len	-10.4365
ilhuia	-10.4366
▁Iztac	-10.438
yacan	-10.4395
melaoa	-10.4399
itas	-10.4406
▁ocallaqui	-10.441
uani	-10.4427
itla	-10.4432
▁motolini	-10.4444
lleque	-10.4449
▁Tepi	-10.445
▁Josep	-10.4455
meca	-10.4464
▁tlay	-10.4464
▁teopixca	-10.4477
occan	-10.448
▁tlauel	-10.4481
▁La	-10.4483
▁ohualquiz	-10.4486
▁Mora	-10.4489
▁mochipau	-10.4498
▁ICUIC	-10.4518
▁Tlacayelel	-10.4518
▁emperador	-10.4518
▁bwe	-10.4518
▁Hernán	-10.4518
▁Tlaliztacapa	-10.4518
xquichtin	-10.4518
▁merino	-10.4518
▁Zatepan	-10.4519
▁tlauhquechol	-10.4519
▁atlauhteca	-10.4519
▁antocnihuan	-10.4519
▁huaxchilli	-10.452
▁Neçahualpil	-10.4522
▁xinachtli	-10.4522
▁chikauaya	-10.4524
▁tayi	-10.4526
▁kinamaka	-10.4529
▁Mexicatzinco	-10.4531
▁ceceyaca	-10.4533
rnador	-10.4534
chicuey	-10.4537
▁ixquichca	-10.454
▁itlanahuatil	-10.4542
▁xochimilcopa	-10.4542
▁molpilli	-10.4545
▁niquetza	-10.4549
hco	-10.4549
▁doctores	-10.4549
▁teucuitla	-10.4551
▁teneuhtica	-10.4556
▁andas	-10.4556
tecque	-10.4557
▁inyollo	-10.456
▁yezque	-10.456
▁Nahui	-10.456
▁okseki	-10.4561
▁mixtli	-10.4561
▁itata	-10.4562
▁quimoteotia	-10.4562
hueyi	-10.4563
▁ixtlahuapa	-10.4563
▁ipilhuantzitzin	-10.4568
▁Tiçaapa	-10.4569
▁itlahtoltzin	-10.4569
▁occentlamant	-10.457
npa	-10.4574
▁cicitlalti	-10.4582
▁metro	-10.4583
▁conilhui	-10.4592
▁hualmotlalli	-10.4593
▁Quaquauhtzi	-10.46
▁karg	-10.4602
▁Amanalco	-10.4606
mantsi	-10.4608
cate	-10.4609
▁huallolin	-10.4611
teyacanaliz	-10.4613
▁oahcic	-10.4613
▁tak	-10.4614
▁motecpan	-10.4615
uic	-10.4618
▁kikui	-10.462
▁yzquican	-10.4621
▁quitoti	-10.4624
▁ichpocame	-10.4624
▁quiquetz	-10.4632
▁id	-10.4632
▁oneci	-10.4635
▁yma	-10.4646
▁neč	-10.465
▁puerta	-10.4654
▁expa	-10.4658
rre	-10.4661
▁yehoat	-10.4665
▁chiuhcnahui	-10.4673
ecan	-10.4675
▁cue	-10.4677
icac	-10.4683
▁tocol	-10.469
▁quihualmo	-10.4691
ompehua	-10.4696
chipahuac	-10.4696
▁tlaaltil	-10.4697
yocoya	-10.4698
▁poztec	-10.4699
▁Uel	-10.4699
▁española	-10.4701
▁zazo	-10.4703
▁taol	-10.4703
▁Timal	-10.4703
▁lo	-10.4705
xi	-10.4713
▁onelti	-10.4718
▁Xiuh	-10.4722
▁mex	-10.4727
▁momauhti	-10.4727
▁At	-10.4735
▁nien	-10.4736
▁quincahua	-10.4743
▁tloque	-10.4744
layecanani	-10.4753
▁ynon	-10.4755
▁ini	-10.4761
▁moquixtilia	-10.4763
▁contlalli	-10.477
nauac	-10.4771
huicaya	-10.4771
poualli	-10.4773
ano	-10.4776
altepetl	-10.4778
▁Le	-10.4779
▁maçatl	-10.4782
▁totome	-10.479
rrey	-10.4791
▁quinnotz	-10.4795
▁ikan	-10.4803
▁ilihuiz	-10.4804
▁onneci	-10.4811
▁mictilo	-10.4815
emi	-10.4815
▁muchinti	-10.4817
▁ocho	-10.4819
▁tlaol	-10.4824
aliztli	-10.4833
▁michi	-10.4835
▁quiztica	-10.4838
▁quinhuicac	-10.4843
▁iya	-10.4854
namacaya	-10.4855
yolo	-10.4858
▁toco	-10.4861
opol	-10.4869
▁ixiuh	-10.487
zcate	-10.4874
▁ocholo	-10.4882
▁Cal	-10.4885
▁tleh	-10.4889
tecomatl	-10.4894
tlal	-10.4895
▁Acxit	-10.4898
▁pu	-10.4906
▁Ax	-10.4907
▁v	-10.4914
htoc	-10.4916
quaxoch	-10.4922
▁quimotlalilitia	-10.4922
▁oce	-10.4926
choca	-10.493
▁kuouj	-10.4934
tlatquitl	-10.4935
▁Teo	-10.4935
ixtoco	-10.4935
tzitzintin	-10.4937
chiuh	-10.494
▁tlatohua	-10.4944
▁tenuch	-10.4945
tihuia	-10.4961
▁maseualme	-10.4966
▁quexquichcauh	-10.4971
▁chalchiuh	-10.4975
mil	-10.4977
▁Cen	-10.4978
▁ninemi	-10.4984
▁Cristo	-10.4995
cico	-10.5001
huehuetl	-10.5006
▁tlapalli	-10.5017
▁caxtollon	-10.5017
ha	-10.5022
upe	-10.5023
▁Mexic	-10.5025
istli	-10.5027
▁centlamant	-10.503
▁oquihualhuica	-10.503
▁ehecat	-10.5039
▁calmimilo	-10.5042
tototl	-10.505
equanipan	-10.5051
ochtin	-10.5053
▁tot	-10.5055
oto	-10.5056
▁nochtlaca	-10.5058
mana	-10.507
tlahtul	-10.5083
▁mota	-10.5084
nan	-10.5087
▁Qua	-10.5089
▁f	-10.509
▁tete	-10.51
iyo	-10.5101
▁Christo	-10.5104
epec	-10.5112
▁capill	-10.5119
huizque	-10.5124
▁ayaxcan	-10.5132
▁tlamach	-10.5135
▁quipi	-10.5138
▁macoque	-10.5143
▁En	-10.5146
▁quinyacana	-10.5149
ixco	-10.5155
tka	-10.5162
quiyauh	-10.5171
▁nell	-10.5172
maski	-10.5179
▁val	-10.5179
▁yx	-10.5184
titla	-10.5191
▁Ozto	-10.5194
▁oquinmo	-10.5195
▁quitlahtocatlal	-10.5201
▁Eca	-10.5207
▁tlahcuilo	-10.5213
▁Paul	-10.5214
▁Chimalpopoca	-10.5225
▁angel	-10.5231
▁tal	-10.5239
▁Cequi	-10.524
▁izquitlamant	-10.5243
pez	-10.5245
▁Kual	-10.5257
▁quimomaquili	-10.5258
▁popo	-10.5263
óme	-10.5263
tiago	-10.5267
▁ytic	-10.5282
▁Quauhtemoc	-10.5283
▁tli	-10.5286
▁Axayacat	-10.5291
▁quihtotihui	-10.5294
▁matlactlonce	-10.5309
▁Nahuaque	-10.531
▁ticmo	-10.5316
▁iqua	-10.5318
▁onoya	-10.532
tokaj	-10.5321
▁canpa	-10.5323
▁noc	-10.5329
▁Tep	-10.5335
▁Tecpayoca	-10.5336
ntzitzin	-10.5338
▁fundador	-10.5341
▁Quito	-10.5346
nes	-10.5349
▁quimaci	-10.535
▁apóstol	-10.5351
▁Achitome	-10.5352
▁cabildo	-10.5352
▁Guille	-10.5353
▁oquitlalli	-10.5354
tixpan	-10.5354
▁Quexquich	-10.5354
▁Salome	-10.5355
▁possesió	-10.5356
▁chiquacenpohual	-10.5357
▁moyoteca	-10.5358
▁iteyccauh	-10.536
▁quiihtos	-10.536
▁onmopehualti	-10.536
▁Quauhtliquetzqu	-10.5362
▁hualmicuani	-10.5365
▁icmatlactl	-10.5367
▁amixpan	-10.5368
▁tlalmacehua	-10.5369
▁caxtiltecah	-10.5369
▁acolhua	-10.5369
▁Nochtin	-10.5369
▁ayo	-10.5369
▁quitlacoz	-10.537
ax	-10.537
iliztli	-10.5371
▁pleyto	-10.5371
▁oksehpa	-10.5373
tlapal	-10.5375
▁mocpac	-10.5377
▁tlate	-10.5378
chiuhcnauhpohual	-10.5378
▁Concepció	-10.5378
namacaz	-10.5379
▁uajkapa	-10.538
▁polliuh	-10.538
▁matlacmatl	-10.5382
▁oquiten	-10.5384
▁pr	-10.5386
▁omotlacohui	-10.5386
▁nonacayo	-10.5387
▁oquimitta	-10.5388
▁Zanye	-10.539
▁imoztla	-10.539
▁Chimalhuaca	-10.539
textli	-10.5391
▁tsikitsi	-10.5391
▁Quauhnahuac	-10.5393
▁yehoantin	-10.5395
▁Uitzilopoch	-10.5397
▁tzauhcti	-10.5398
▁ninequi	-10.54
▁hermano	-10.5402
tzintic	-10.5404
▁motlahtocatilli	-10.5408
▁inemac	-10.5409
▁Cemi	-10.5411
▁quimottiliz	-10.5412
temaquixtiani	-10.5413
▁motlalito	-10.5414
▁quizaya	-10.5415
▁mocen	-10.5418
▁nechpactia	-10.5422
tlaolli	-10.5425
▁monotza	-10.5429
▁icontlamant	-10.5431
▁Tezcaco	-10.5431
▁chantlaca	-10.5431
uaz	-10.5432
▁nicchihua	-10.5437
ttatzin	-10.5439
ar	-10.5446
▁quimomachilti	-10.5447
▁caltzallan	-10.5448
▁onocon	-10.5449
▁xiuhtoto	-10.5453
▁pres	-10.5454
ltzinco	-10.5458
▁sampa	-10.5459
▁Xochitecutl	-10.5461
▁tealtiani	-10.5462
nenca	-10.5465
ojuanti	-10.5467
▁niccui	-10.5467
▁quixohua	-10.5474
cenyeliz	-10.5478
▁mohuicatz	-10.5481
▁quinec	-10.5484
▁tomahuac	-10.5484
oaya	-10.5484
neki	-10.549
▁tetla	-10.5493
▁nemiliztli	-10.5493
altin	-10.5499
peuh	-10.55
▁quimochihuili	-10.5505
▁Sando	-10.5507
squich	-10.5509
▁nictema	-10.551
▁kikuechoua	-10.5512
tepe	-10.5515
tlalmomoz	-10.5522
▁Tl	-10.5526
▁mixnamiqui	-10.5526
▁hualmocuepque	-10.5533
▁canato	-10.554
▁ommatlact	-10.5546
▁Acolnauacatz	-10.5552
▁señorati	-10.5559
▁ze	-10.5562
chichi	-10.5562
IV	-10.5578
▁Barb	-10.5578
▁quimolhui	-10.5581
▁cone	-10.5583
▁Toteo	-10.5585
▁moca	-10.5594
▁Yohualla	-10.5597
▁neciz	-10.5598
▁tihual	-10.5599
▁cexiuhti	-10.5603
▁texixico	-10.5605
▁Tehua	-10.5606
or	-10.5607
▁moquetztica	-10.5613
▁Chiconco	-10.5617
▁tonan	-10.5622
▁ano	-10.5626
▁xolet	-10.5628
▁hualquiça	-10.5628
xque	-10.5632
▁teyi	-10.5633
▁moskaltia	-10.5639
▁huehcapa	-10.564
▁cemanahuat	-10.5641
▁tiquim	-10.5641
▁cemana	-10.5642
hualco	-10.565
ervan	-10.5658
itia	-10.5659
▁kanin	-10.5661
▁icmacuil	-10.5668
itac	-10.567
▁atlauhtl	-10.5677
▁illamatzi	-10.5682
▁acal	-10.5685
▁maytl	-10.5687
▁tino	-10.5695
▁et	-10.5697
▁quicuitia	-10.5709
euhque	-10.5719
cua	-10.5726
▁kiitak	-10.5726
▁Tole	-10.573
▁xokoyol	-10.5733
▁chicuace	-10.5735
lmach	-10.5737
▁nopiltzin	-10.5738
▁xihuitli	-10.5742
olla	-10.5742
quixtiz	-10.5747
▁quechol	-10.5748
▁quinextia	-10.5751
▁imac	-10.5753
▁kuoui	-10.5755
▁quimohuiquili	-10.5756
▁nombr	-10.5758
▁pehuaz	-10.5765
tilique	-10.5783
▁nimo	-10.5787
▁yntlan	-10.5791
▁momac	-10.5793
monamicti	-10.5794
polco	-10.5797
▁Su	-10.5797
▁Teçoçomoct	-10.5798
▁quitequi	-10.5825
uitze	-10.5826
▁Por	-10.5828
▁noma	-10.5837
▁Dami	-10.585
▁quiuica	-10.5857
ollo	-10.5869
mocuepque	-10.587
▁tecuhtli	-10.5871
▁criyoyo	-10.5874
▁omomama	-10.5881
▁onino	-10.5884
cic	-10.5886
sta	-10.5896
yol	-10.5908
achi	-10.5911
▁tzatzi	-10.5912
▁hi	-10.5917
▁imma	-10.5922
▁quinahuati	-10.5948
▁quimat	-10.5949
▁niquim	-10.5949
▁Quahui	-10.5954
▁quix	-10.5959
▁tict	-10.5961
tahtzin	-10.5961
ihuan	-10.5963
▁itencopa	-10.5974
chihua	-10.5981
auak	-10.5983
▁niquihto	-10.5993
▁otlatlacoltilo	-10.5994
solo	-10.5996
nime	-10.6005
▁hualnen	-10.6013
amitl	-10.6014
ltiz	-10.6022
ktik	-10.6024
▁neli	-10.6037
▁cavallo	-10.6038
▁Mon	-10.6039
hcac	-10.6039
▁petlacal	-10.6039
▁coco	-10.605
acique	-10.6059
▁tzotzomat	-10.6069
▁mestiço	-10.6069
totocac	-10.6073
▁Balta	-10.6075
▁quitlaliz	-10.608
▁chiuhcnauh	-10.608
tepan	-10.6083
pohua	-10.6085
wi	-10.6086
▁inime	-10.6088
ldo	-10.6092
▁santo	-10.6102
rillo	-10.6109
pillo	-10.6109
aldo	-10.611
▁aotli	-10.6115
▁Car	-10.612
quiliztli	-10.6139
▁acit	-10.6148
▁cholo	-10.6148
titlani	-10.6152
xima	-10.6156
NIC	-10.6158
ltique	-10.6158
▁Cohuatlyc	-10.6164
mac	-10.6169
▁mixco	-10.617
hualmohuiquilli	-10.6175
▁sig	-10.6181
ahuiz	-10.6189
▁callac	-10.6191
▁nenemi	-10.6194
liloc	-10.6196
▁campana	-10.6207
▁opoliuh	-10.621
epaso	-10.6221
▁tokniu	-10.6223
▁Xom	-10.6233
▁provincia	-10.6235
lmeh	-10.6235
chin	-10.6241
▁licencia	-10.6242
tiazque	-10.6243
▁tami	-10.6244
cucolc	-10.6246
zolli	-10.625
▁cequin	-10.6255
▁qua	-10.6258
▁apachihui	-10.6259
▁Maximilian	-10.626
▁Tecuciztecatl	-10.626
▁Tlachcuititla	-10.626
▁Tecuanipan	-10.626
▁Chicuhnau	-10.626
▁Nezahualcoyot	-10.6261
▁centavo	-10.6261
▁Trini	-10.6261
▁Tepantlahtoani	-10.6262
▁tlachinol	-10.6262
▁tiquiximati	-10.6263
▁taaman	-10.6264
▁chicuepohual	-10.6267
onohualca	-10.6268
▁tenantsi	-10.627
▁tlalle	-10.627
▁Cilcu	-10.6272
ayan	-10.6273
▁quinmomaquilli	-10.6277
▁amitla	-10.6279
▁nakatl	-10.6282
gue	-10.6283
▁temachtia	-10.6286
▁momiquiliz	-10.6287
▁oquimochihuilli	-10.6289
▁xochicual	-10.629
▁xochitica	-10.629
▁quimocuilli	-10.6291
▁inquisidor	-10.6294
▁Monte	-10.6296
▁xochicualli	-10.6299
▁Vis	-10.6301
▁tecu	-10.6301
▁xoxocti	-10.6302
▁itoka	-10.6303
▁Ton	-10.6309
▁Montes	-10.6309
▁mochihuazquia	-10.6311
▁omotla	-10.6314
tlacuihuayan	-10.632
▁hualcallac	-10.6322
▁timexica	-10.6322
▁nex	-10.6322
▁kiijtouaj	-10.6323
▁tehhuatzin	-10.6324
▁tlaxcalli	-10.6325
tzotzoma	-10.6327
▁Tamo	-10.6329
▁yzcatqui	-10.6332
▁occequin	-10.6332
▁Xochiquen	-10.6339
▁ahquin	-10.634
altia	-10.6341
yaj	-10.6342
▁Acolhuacan	-10.6343
tlac	-10.6344
çacatzi	-10.6345
tilo	-10.6346
▁metztica	-10.635
▁barrio	-10.6353
▁Ika	-10.6355
chihualloc	-10.6358
▁pro	-10.6359
▁mas	-10.6364
▁quipiaz	-10.6367
▁huelic	-10.6367
▁uits	-10.6367
▁temac	-10.6368
rmo	-10.6368
zcatqui	-10.6369
nahuatilli	-10.637
▁nota	-10.6372
▁otocon	-10.6373
▁oniquito	-10.6375
▁wic	-10.6378
tlallo	-10.6389
▁albaceas	-10.6389
▁ylhuicac	-10.6389
▁inemiliz	-10.639
eppa	-10.639
▁Teotena	-10.6392
▁noncua	-10.6392
▁miactin	-10.6399
▁quiahui	-10.6402
mian	-10.6404
▁ytzintla	-10.6405
▁seyo	-10.6418
▁tlatlaco	-10.6419
tecpan	-10.6426
ohueh	-10.6433
▁omotlalico	-10.6434
omotlanahuatilli	-10.6435
▁yccen	-10.6435
▁sito	-10.6441
▁Muñ	-10.6444
▁cuent	-10.6445
▁l	-10.6447
lis	-10.6449
nque	-10.6454
▁Opochhua	-10.6454
▁kipia	-10.6454
▁franc	-10.6455
cexiuhti	-10.6456
▁itual	-10.6464
otlatlauhtilia	-10.6465
nahuatil	-10.6469
nequiz	-10.647
yoj	-10.6477
erna	-10.6477
xiquipil	-10.648
kwakon	-10.648
dito	-10.6482
▁mochiuhtica	-10.6483
▁yquizaya	-10.6485
▁quinmaca	-10.6487
▁nec	-10.6488
pe	-10.6498
▁onimitz	-10.6508
ohuaya	-10.651
▁zo	-10.6515
▁onpeuh	-10.6515
▁huehcauh	-10.6522
▁teoc	-10.6531
▁quimopiel	-10.6546
huitec	-10.6547
caya	-10.6549
▁quimocahuilli	-10.6553
nextiliz	-10.6559
▁Ben	-10.6571
▁tekit	-10.6572
▁altepepan	-10.6577
▁coyon	-10.658
▁contlali	-10.6584
ualtia	-10.6588
▁oka	-10.6589
▁motlalili	-10.659
▁moyaua	-10.6594
▁Toni	-10.6595
▁oquichiuhque	-10.6603
niman	-10.6605
▁oquitlali	-10.6614
rina	-10.6619
eo	-10.6623
▁petla	-10.6626
cu	-10.6627
tlamantin	-10.6631
▁quinmach	-10.6633
▁moxelo	-10.6639
▁Santo	-10.664
▁taki	-10.6643
tencia	-10.6644
▁tepetla	-10.6647
▁zohua	-10.665
▁motlatolti	-10.6658
▁Naui	-10.6659
▁quintla	-10.6662
ijtouaj	-10.6663
cemilhuitl	-10.6667
▁quichihuazquia	-10.6677
én	-10.6678
tsoyon	-10.6681
▁xiquin	-10.6686
pam	-10.6692
pacho	-10.6694
kachi	-10.6696
onantzin	-10.6701
oma	-10.6702
▁vi	-10.6702
▁ohu	-10.6704
yaw	-10.6707
▁oncas	-10.671
yohualli	-10.6718
▁ast	-10.6718
osto	-10.6724
cpac	-10.6726
ihtic	-10.6726
onmotoquilitia	-10.6728
▁Marc	-10.6737
▁ocze	-10.6739
▁mahuiz	-10.6745
▁uala	-10.6746
▁oquicui	-10.675
▁nauhxi	-10.6751
▁tim	-10.676
▁xu	-10.6762
tlatlauhtia	-10.6766
▁tealti	-10.6772
▁nana	-10.6774
▁yetok	-10.6777
▁kičiwa	-10.6778
calaqui	-10.6785
▁ticate	-10.6787
cempoall	-10.6788
▁ohualmohuica	-10.6794
▁quitzinti	-10.6795
xiuh	-10.6809
▁Ka	-10.6812
▁Tzacual	-10.6816
lhuia	-10.6823
onmacuilli	-10.6824
tepeual	-10.6833
▁tixpa	-10.6842
▁otzatzihua	-10.6856
ría	-10.6859
imitl	-10.6865
▁Timo	-10.6865
▁nikani	-10.6869
▁pachiuh	-10.6871
▁tiaz	-10.6887
▁tomac	-10.6889
▁quinhualhuica	-10.6898
▁tlayahuallolizt	-10.6898
xokoyol	-10.6902
▁tonyaz	-10.6913
▁akoli	-10.6914
caz	-10.6919
▁onpohuall	-10.692
ama	-10.6921
▁hueh	-10.6923
▁cecec	-10.6935
motlalico	-10.6941
▁chichime	-10.6949
▁notlanequiliz	-10.6952
▁toch	-10.6954
▁ytztica	-10.6956
▁mocuep	-10.6956
▁tzon	-10.6957
▁yohuac	-10.6959
cruz	-10.6965
▁yyoca	-10.6969
▁Temilotzi	-10.6975
oton	-10.6984
alta	-10.6985
▁niztlacati	-10.6987
alpan	-10.6997
▁mocalti	-10.7001
coc	-10.7001
jtok	-10.7002
jko	-10.7006
▁tecont	-10.7007
zinco	-10.701
▁cateh	-10.7038
▁ompohual	-10.7039
▁quallan	-10.7042
▁yahqui	-10.7044
uak	-10.7046
▁nih	-10.7046
macoque	-10.7053
▁quicua	-10.7054
▁miequint	-10.7056
bla	-10.7059
tos	-10.706
hueli	-10.706
▁nanqui	-10.706
ahua	-10.7063
lhuiaya	-10.7067
xoch	-10.7071
▁Eu	-10.7076
ltiaya	-10.7077
ochi	-10.7086
▁noxhui	-10.7087
▁oquichti	-10.709
pixqui	-10.7095
M	-10.7096
znequia	-10.7098
▁ilhui	-10.7101
▁pia	-10.7108
▁Tzon	-10.7111
vio	-10.7112
anchan	-10.7113
▁Sem	-10.7115
tepequec	-10.7118
nentlamati	-10.7118
▁iy	-10.7123
▁Nepa	-10.7126
leque	-10.714
poni	-10.7141
▁ipiltzi	-10.7142
▁Tulla	-10.7144
▁tote	-10.7145
▁kwaw	-10.7149
nti	-10.715
nenemi	-10.7151
tlahtollo	-10.7151
▁Hue	-10.7152
▁ueuey	-10.7159
▁tlani	-10.7161
▁Lu	-10.7161
▁icno	-10.7163
chihuili	-10.7168
matzin	-10.7171
aznequi	-10.7179
quauh	-10.7198
ba	-10.7206
iaj	-10.7206
ixiptla	-10.7207
▁huecapa	-10.7209
tlamiz	-10.721
▁altepeyo	-10.7216
cuitlaxcol	-10.7216
▁Zacat	-10.7218
▁mocui	-10.722
▁nequi	-10.7224
▁icniuh	-10.7227
omey	-10.723
▁Tzompa	-10.7235
nezcayotia	-10.7238
oqu	-10.7242
HUITL	-10.7243
▁Quinto	-10.7245
▁Tlahtol	-10.7246
▁chico	-10.7247
ahuiltia	-10.725
▁setie	-10.725
tzatzilia	-10.7254
▁Bautista	-10.726
▁gentiles	-10.726
▁mojmostla	-10.726
▁Hueymolla	-10.726
▁Margari	-10.7261
▁Motecuhzoma	-10.7261
▁mierco	-10.7261
▁axoxtlantli	-10.7261
▁Axkana	-10.7261
▁kwartiy	-10.7261
▁canónigo	-10.7261
▁minoto	-10.7262
▁matlatzinca	-10.7262
▁itstos	-10.7262
▁calnacaz	-10.7262
▁alvaceas	-10.7262
▁oquitocayoti	-10.7263
▁Ocachi	-10.7263
▁onemi	-10.7264
▁Caxtillan	-10.7264
▁Mahtlactli	-10.7264
▁elki	-10.7265
▁itoloc	-10.7267
▁tlantocant	-10.7269
▁Ipalnemoa	-10.7273
▁lice	-10.7274
▁Toyaot	-10.7274
▁governació	-10.7275
▁Tonaca	-10.7275
▁canela	-10.7278
iti	-10.7278
▁onechmolhuili	-10.7278
▁tzilini	-10.7278
▁iximacho	-10.7279
▁elis	-10.7279
▁seys	-10.728
▁atentli	-10.7284
tilma	-10.7285
tiez	-10.7289
▁onihualla	-10.729
cihuapill	-10.7291
cual	-10.7292
▁oquimotocayoti	-10.7293
▁kinekij	-10.7294
tálo	-10.7295
mon	-10.7295
equachcauht	-10.7299
koko	-10.7311
▁Cuacuauh	-10.7312
▁nawi	-10.7312
▁tlequiquiz	-10.7316
▁uaki	-10.732
coh	-10.7321
▁chilposon	-10.7323
ihuatzin	-10.7324
▁Mictlan	-10.7328
▁coyol	-10.733
▁oquimolhuili	-10.7332
▁quitazque	-10.7337
▁ifirma	-10.7338
▁centent	-10.7339
▁Tepoztl	-10.7341
▁oquimoneltilili	-10.7341
▁uauj	-10.7341
▁nikilwia	-10.7342
▁quimanilli	-10.7343
xca	-10.7345
▁motlatoca	-10.7346
▁iteocaltzin	-10.7346
▁patiyo	-10.7348
aske	-10.7352
▁onxiuhti	-10.7352
▁topa	-10.7353
tepotzco	-10.7354
▁ozto	-10.7359
yollo	-10.7361
▁ayoc	-10.7363
▁nimonan	-10.7366
▁xiccaqui	-10.7369
▁conitta	-10.7372
▁quiselis	-10.7372
▁IN	-10.7373
▁quimotoquilli	-10.7373
▁xochimilca	-10.7373
▁mihiyo	-10.7375
▁ycnocihuat	-10.7376
▁Tecuicho	-10.7382
▁uelis	-10.7388
tzatzic	-10.7395
▁Pá	-10.7396
litic	-10.7397
▁Macuil	-10.74
bri	-10.7401
▁inchachan	-10.7409
▁napohual	-10.7411
▁kiuika	-10.7413
▁mozt	-10.7416
▁tlaciuhqu	-10.742
▁Ach	-10.7422
▁matlactin	-10.7423
▁motataca	-10.7423
rera	-10.7424
colegio	-10.7426
▁matlactzon	-10.7427
▁Moztla	-10.7427
▁tepitsi	-10.7431
▁mati	-10.7435
nahuatia	-10.7436
▁onmatlac	-10.7441
▁oquimottili	-10.7441
▁Ta	-10.7446
tlakatl	-10.7447
▁mohuentique	-10.7447
▁uajki	-10.7448
hquion	-10.7449
▁iciuau	-10.7459
▁yahue	-10.7462
▁Yni	-10.7466
▁teteo	-10.7468
▁amech	-10.7469
▁caxtolpohualxi	-10.7471
▁quicuiz	-10.7472
▁chicoc	-10.7473
nonotzque	-10.7474
▁mocentlali	-10.7475
tamalli	-10.7477
tepeca	-10.7478
nacayo	-10.7479
▁mocua	-10.7487
steca	-10.7488
▁nemizque	-10.7492
▁Ihqui	-10.7493
iscos	-10.7494
▁tiachcauh	-10.7498
▁Cl	-10.7498
ezzo	-10.7504
▁ichpoca	-10.7505
▁oquima	-10.7512
▁icnauhca	-10.7513
tlahtoltzin	-10.7514
▁inmac	-10.7517
tococ	-10.7518
cotonas	-10.7519
pix	-10.7519
▁Citlaltepe	-10.7523
▁Ayotzin	-10.7528
▁ylhuica	-10.7536
▁Nopa	-10.7542
ç	-10.7543
ltic	-10.7546
caltin	-10.7548
▁Vera	-10.7551
takilo	-10.7552
▁otleco	-10.7556
▁quimotla	-10.7557
▁xopan	-10.7557
▁quimanaz	-10.7559
tlalmomozt	-10.7561
▁Teçoçomoc	-10.7564
▁yoki	-10.7567
ras	-10.7567
▁castolli	-10.7572
▁nomon	-10.7576
▁cueponi	-10.7578
▁comitl	-10.7579
▁omaco	-10.758
▁mochihuaya	-10.7589
▁Bel	-10.7591
acamo	-10.7599
▁nimitzmaca	-10.76
▁cacauat	-10.7602
▁Coyohua	-10.7605
▁cepan	-10.7608
chon	-10.7611
▁Gan	-10.7626
chiuhqui	-10.7627
huehue	-10.7628
▁Oquin	-10.7629
talia	-10.763
▁pos	-10.7632
nahuas	-10.7637
aller	-10.7639
▁tía	-10.7641
▁quicohua	-10.7643
tihue	-10.7651
▁candela	-10.7657
▁epohuall	-10.7657
▁cui	-10.7662
▁Este	-10.7664
clar	-10.7664
lik	-10.7669
▁motocac	-10.7671
▁monechico	-10.7672
▁intlan	-10.7674
▁quimama	-10.7676
cihuauh	-10.7677
▁ticneltil	-10.7682
ejo	-10.7684
ihuiyan	-10.7691
▁XV	-10.7694
▁nim	-10.7695
▁oquimat	-10.7696
icauh	-10.7698
atili	-10.7699
▁quitohuaya	-10.7703
jke	-10.7705
▁motlapachoa	-10.7706
notle	-10.7707
▁inome	-10.7713
sá	-10.7714
▁tlamachotil	-10.7714
▁ticnamaca	-10.7715
▁Az	-10.7716
nacatl	-10.7718
dam	-10.7723
▁tlahtohua	-10.7728
▁note	-10.7734
alco	-10.7738
▁sequin	-10.7741
hcan	-10.7742
▁amoma	-10.7751
tiquiz	-10.7759
▁tlatocayoti	-10.7759
▁quicuic	-10.776
hatzin	-10.776
cohua	-10.7763
maça	-10.7767
▁nicchihuaz	-10.7771
▁aten	-10.7779
ayo	-10.7779
▁tlamama	-10.7783
▁quimocuitlahuia	-10.7788
tlami	-10.7793
cah	-10.7793
▁occec	-10.7795
etzin	-10.7798
techmonequi	-10.7799
▁tictlal	-10.7809
axca	-10.7816
hue	-10.7825
▁icomilhuit	-10.7826
ihuaya	-10.7829
▁momat	-10.7832
▁ohuall	-10.7834
▁otitla	-10.7838
▁tu	-10.784
▁acocall	-10.7843
▁ç	-10.7846
▁huala	-10.7854
ztlan	-10.7854
altzinco	-10.7855
▁ticchihua	-10.7858
▁name	-10.786
hi	-10.7861
ipe	-10.7862
ahuia	-10.7868
▁icchicom	-10.7871
▁tlatqui	-10.7871
ver	-10.7872
▁Cenc	-10.7874
huicpa	-10.7878
ay	-10.7879
▁niquitta	-10.7883
açi	-10.7884
tihuetzi	-10.7884
mecatl	-10.7885
▁otlipa	-10.7888
▁yowa	-10.789
cahuaz	-10.7894
▁nenca	-10.7894
▁xoxo	-10.7894
des	-10.7899
▁mamal	-10.7905
▁Quat	-10.7907
ete	-10.7908
▁Tziuhtecat	-10.7909
▁motemachtili	-10.7912
om	-10.7914
▁tenahuati	-10.7918
ollin	-10.7918
apana	-10.7922
▁intzonteco	-10.7922
teopan	-10.7923
yok	-10.7931
çaca	-10.7944
▁Atezcapa	-10.7966
▁nochin	-10.7968
lazohcamati	-10.7968
▁Tzonpa	-10.7974
▁ag	-10.7982
▁Moyo	-10.7988
▁Ko	-10.7989
▁texcal	-10.7991
tlacamecayotl	-10.7997
▁Augustin	-10.7998
▁chanehque	-10.8
▁tlapia	-10.8009
jtouaj	-10.801
altique	-10.8012
▁quimolhuilia	-10.8013
▁Nameh	-10.8019
huiya	-10.8022
▁ithual	-10.8023
▁much	-10.8025
▁itztic	-10.8029
▁cenpoual	-10.8029
jua	-10.804
▁yt	-10.8052
quimanque	-10.8063
▁B	-10.8066
eme	-10.8067
▁ohuic	-10.8073
▁tlachpana	-10.8076
non	-10.809
▁tlanext	-10.8096
huelitiliz	-10.8096
▁icnotlaca	-10.8098
▁neltilizt	-10.8104
▁kua	-10.8106
▁cafen	-10.8109
▁Itech	-10.8114
▁umotlali	-10.8117
▁Ama	-10.8117
▁onmo	-10.8118
▁ie	-10.8124
▁Yoa	-10.8127
ciento	-10.8127
▁Tlatquic	-10.8129
▁tlayahuallolo	-10.814
▁XVII	-10.8144
▁totoltetl	-10.8144
▁motamachiu	-10.8149
▁chicuei	-10.8151
▁quiçat	-10.8152
▁mocencauh	-10.8152
▁ocalac	-10.8154
▁cemic	-10.8155
▁nihuetz	-10.816
ilo	-10.8169
▁cochiz	-10.8172
iztlacatiz	-10.8173
ilu	-10.8178
bo	-10.8182
nanquilli	-10.8183
▁ser	-10.8185
▁Yztac	-10.8186
▁Omaca	-10.8194
▁Coco	-10.8195
maquili	-10.8196
▁maseual	-10.8196
nton	-10.8209
itos	-10.8215
▁cenpohualxi	-10.8217
siden	-10.8219
▁otlayahuallo	-10.8219
cozqui	-10.8231
▁tzotzoma	-10.8232
▁ninotoca	-10.8235
▁Milla	-10.8238
▁tih	-10.8238
▁tema	-10.8242
▁Cua	-10.8243
htiuh	-10.8247
▁oco	-10.8255
▁quimocohui	-10.8258
▁conaqui	-10.826
calqui	-10.8272
chichic	-10.8273
uilana	-10.8274
▁motlatocatlal	-10.8275
▁tiquilhui	-10.8276
▁cuitla	-10.8279
▁alta	-10.828
▁cavallero	-10.8281
▁Matlaltzi	-10.8287
tepoz	-10.8287
lolco	-10.8297
ij	-10.8297
nex	-10.8305
▁tiya	-10.8309
quetzal	-10.8311
uelita	-10.8312
resa	-10.8312
▁Monter	-10.8316
▁toxiuh	-10.8333
ejua	-10.8333
laca	-10.8334
tlalman	-10.834
▁ytlatzin	-10.834
uitzin	-10.8344
▁cofrad	-10.8345
▁Ytzco	-10.8346
▁nochpoch	-10.8346
▁iteč	-10.8347
uallaque	-10.8356
namiki	-10.8363
▁Tlacahuepan	-10.8372
▁patriarc	-10.8372
▁cultura	-10.8372
▁nijneki	-10.8372
▁Tonalliy	-10.8372
▁conmottilia	-10.8372
▁Consejo	-10.8372
▁immocxi	-10.8372
▁nopiltz	-10.8372
▁virrey	-10.8372
▁Sierra	-10.8373
▁quatro	-10.8373
▁seminario	-10.8373
▁tlahuellilo	-10.8374
▁Ymixpan	-10.8374
ehuantzin	-10.8375
▁yolcame	-10.8375
▁Tzotzo	-10.8376
▁axonka	-10.8377
entre	-10.8378
▁itecpanchan	-10.8378
▁tlapehpen	-10.8379
▁sebad	-10.8379
▁Ihuicpa	-10.838
▁Ipalnemoani	-10.838
▁Coyoaca	-10.8381
▁omomiquilitzino	-10.8382
▁luto	-10.8383
ázar	-10.8383
▁oquixquich	-10.8383
▁días	-10.8383
▁toyolo	-10.8384
▁diario	-10.8385
▁totlahtol	-10.8386
▁Amotlen	-10.8386
hoa	-10.8386
▁ahhueli	-10.8386
▁cihuatzin	-10.8387
▁Tenayoca	-10.8388
▁omocallaqui	-10.8389
▁pohuia	-10.8391
▁tlejko	-10.8393
▁motlallitzino	-10.8395
▁immitzin	-10.8396
▁coni	-10.8397
▁Conito	-10.8399
▁Aculhuacan	-10.8399
▁koma	-10.84
▁tijchiua	-10.84
▁onicnemili	-10.84
▁amaix	-10.84
áb	-10.8402
▁chichiton	-10.8405
▁yalhua	-10.8405
▁huiptla	-10.8406
loto	-10.8408
ias	-10.841
▁Temizt	-10.8412
▁ticmocuitlahui	-10.8414
▁quicuaya	-10.8416
▁quixmati	-10.8416
▁tajko	-10.8417
▁nochpochtzin	-10.8418
ICA	-10.8418
▁kostik	-10.842
KILIT	-10.8423
calaquia	-10.8423
otepeuh	-10.8425
▁taxkal	-10.8428
▁quallo	-10.8428
▁macuiltetl	-10.8429
▁alguaciles	-10.8429
▁hualquiza	-10.8432
▁toto	-10.8433
▁telpocame	-10.8433
▁quihuallan	-10.8436
pachotia	-10.8436
huilo	-10.8437
lama	-10.8438
xoxouhqui	-10.844
cihuatequipano	-10.844
ztica	-10.8441
▁icoppa	-10.8441
▁atoya	-10.8442
▁Xim	-10.8445
▁ualleua	-10.8445
ayotzin	-10.8446
▁maya	-10.8447
▁ynquisidor	-10.8449
▁Mazaque	-10.8449
ales	-10.845
▁Tor	-10.8451
▁chimall	-10.8453
▁Catha	-10.8454
▁imomextin	-10.8455
▁xiuhp	-10.8456
▁ticnequi	-10.8458
▁tomat	-10.8459
▁teixco	-10.8463
▁occentlamantin	-10.8463
notza	-10.8464
▁nocniuh	-10.8465
yazque	-10.8467
naui	-10.8468
mah	-10.8474
▁oquiquetz	-10.8474
▁hospital	-10.8474
iuitl	-10.8474
▁quinhualquixti	-10.8478
huallaque	-10.8478
▁nicuicanitl	-10.848
▁nelle	-10.8481
▁ha	-10.8482
latan	-10.8484
nacochtl	-10.8485
miquito	-10.8491
yotica	-10.8492
chayahuac	-10.8493
nohuian	-10.8495
tlen	-10.8496
tecpoyo	-10.8496
▁este	-10.8497
▁yxiptla	-10.8501
▁otlachi	-10.8508
▁mexihco	-10.8509
▁quinmo	-10.8511
▁oto	-10.8514
▁tzontli	-10.8516
▁fuer	-10.8519
▁kwal	-10.852
▁huia	-10.8525
▁tepacti	-10.8529
▁cá	-10.853
▁uno	-10.853
▁teko	-10.8532
▁nauhcan	-10.8536
▁nauhte	-10.8539
yé	-10.854
▁mictlan	-10.8543
uil	-10.8547
▁es	-10.8549
▁Hui	-10.8551
▁tiquittaz	-10.8558
▁Mar	-10.8561
▁tequani	-10.8575
▁ticateh	-10.8576
▁visurreyes	-10.8578
nahua	-10.858
▁Agua	-10.8585
telpoch	-10.8587
chalchiuh	-10.8593
▁papaquilizt	-10.8595
ós	-10.8595
macaz	-10.8597
▁quimohuiquilli	-10.8598
▁motlal	-10.8599
▁tlanepanol	-10.8601
▁nahuatl	-10.8602
▁culhuacan	-10.8606
cuauhtlahto	-10.8608
ueitl	-10.8608
▁tlazoh	-10.8609
motlatlauhtili	-10.861
▁timiqui	-10.8617
▁wel	-10.8619
▁ontlachia	-10.862
tinemiz	-10.862
▁matlacpohualxi	-10.8624
▁tlap	-10.8625
▁tlapoali	-10.8627
quauhtli	-10.8628
▁xih	-10.863
petlapan	-10.8632
▁contla	-10.8632
▁oticma	-10.8637
alti	-10.8639
▁totlaçomahuiz	-10.8645
▁sabe	-10.8648
huetziz	-10.8649
▁niquiza	-10.8651
xiptlatzin	-10.8655
▁itzon	-10.8658
mocauhque	-10.8658
hca	-10.8659
▁omictilo	-10.8663
▁temoc	-10.8664
zco	-10.8667
▁Mazatl	-10.8668
▁Quauhtitla	-10.8668
▁tiazque	-10.8677
▁for	-10.868
▁noyolo	-10.8684
▁oquimicti	-10.8687
callaqui	-10.8688
▁tleca	-10.869
▁yetzonxi	-10.869
▁omca	-10.8696
▁quinnonotza	-10.8699
oaz	-10.8701
▁chalchi	-10.8707
▁titech	-10.8708
▁tlahueliloc	-10.8708
▁molinia	-10.8709
▁XXVII	-10.8711
techcopa	-10.8713
tor	-10.8718
▁Tollan	-10.8726
▁nemiz	-10.8732
▁huatzinco	-10.8734
▁inxiuh	-10.8734
chane	-10.8735
▁quiyahuallo	-10.8736
▁eli	-10.8741
uauhnahuac	-10.8749
▁cilia	-10.8754
xpan	-10.8757
▁quinpia	-10.876
▁mocaua	-10.8763
ola	-10.8767
▁nimitzmactili	-10.8779
▁Matla	-10.8789
▁oquiquixti	-10.8791
tlapehpeni	-10.8793
uin	-10.8793
ocmo	-10.8794
▁omococo	-10.8798
▁itlaço	-10.88
▁otlatoca	-10.8804
▁tlamin	-10.8817
▁Fra	-10.8822
ías	-10.8825
pichtl	-10.8826
tzontecon	-10.8828
ytic	-10.8831
▁tin	-10.8837
▁tianquizt	-10.8837
▁oquitta	-10.8844
▁moihc	-10.8849
▁timotla	-10.8855
▁nitlanahuati	-10.8857
▁yexiuhti	-10.8858
átic	-10.8862
▁yntocatzin	-10.8862
huian	-10.8864
namiquito	-10.8869
sen	-10.887
▁kilu	-10.8871
toz	-10.8876
▁ana	-10.8877
▁Cha	-10.8883
▁omitz	-10.8885
▁nixpa	-10.8887
oti	-10.889
▁Malinalc	-10.889
tihqueh	-10.889
tlapo	-10.8893
▁merce	-10.8896
▁nohuiya	-10.89
▁mone	-10.8904
tztli	-10.8905
▁yp	-10.8907
▁ticchiuh	-10.8922
calque	-10.893
▁quimottili	-10.8931
teyxpan	-10.8931
huanyolque	-10.8933
▁Jua	-10.8948
▁Tochinte	-10.8954
aro	-10.8959
panahui	-10.8968
▁Cihua	-10.8968
irio	-10.8972
pi	-10.8975
▁aciz	-10.8988
▁mococo	-10.8988
▁guardia	-10.8994
huico	-10.901
▁Que	-10.901
▁ipati	-10.901
▁Tequan	-10.9014
htin	-10.9014
ilpia	-10.9017
toltecatl	-10.9019
apa	-10.9028
▁cuezcon	-10.9029
▁quinamacaz	-10.903
óp	-10.9032
▁xiqui	-10.9036
▁tix	-10.9037
▁Tezcatz	-10.9039
tzonquiz	-10.904
tca	-10.9041
▁tinen	-10.9042
▁De	-10.9045
palnemohuani	-10.905
▁mocuepaz	-10.9057
chachan	-10.9061
▁tetecuhti	-10.9062
▁Yh	-10.9074
sión	-10.9081
▁ich	-10.9083
ilpi	-10.9084
▁noce	-10.9092
▁xochime	-10.9093
▁yezquia	-10.9094
tian	-10.9104
stin	-10.9107
▁imm	-10.9108
▁anahuaca	-10.912
uat	-10.9124
▁mohue	-10.9125
huipil	-10.9135
▁elot	-10.9135
▁tlil	-10.9135
anti	-10.9135
H	-10.914
cihuatzin	-10.9145
▁mocxi	-10.9147
▁otiquin	-10.9148
VIII	-10.9152
▁conan	-10.9152
tsitsi	-10.9153
hualti	-10.9156
▁teopix	-10.9161
▁pani	-10.9166
▁Bo	-10.9176
▁Ceyno	-10.918
▁quiman	-10.9188
▁kwa	-10.9192
▁ihcac	-10.9195
nrri	-10.9205
hualiztli	-10.921
cocol	-10.9212
molpili	-10.9215
igos	-10.9217
cateh	-10.9219
▁Ihua	-10.9219
▁tlapa	-10.9222
pec	-10.9223
▁moskalti	-10.9236
▁ocse	-10.9243
▁Chi	-10.9244
acahuan	-10.926
▁The	-10.9261
ozque	-10.9267
▁zazan	-10.9269
▁desd	-10.9277
▁apis	-10.9278
▁nekw	-10.9281
tzacual	-10.9282
▁domin	-10.9283
cahuato	-10.9284
▁paqui	-10.9286
tlaltecah	-10.9288
petl	-10.9288
▁quimoteochihuil	-10.9289
quiya	-10.9289
tihua	-10.9291
▁Teca	-10.9292
▁izquin	-10.9296
▁tep	-10.9297
▁yexpa	-10.9301
matia	-10.9304
▁nentlamati	-10.9312
▁kiita	-10.9316
▁tlapacho	-10.9317
▁Popocat	-10.9319
▁ymon	-10.932
▁Oquiz	-10.9323
U	-10.9324
▁ontla	-10.9324
▁toni	-10.9328
tzillin	-10.9331
▁tiquihtoz	-10.9335
▁nicno	-10.9336
▁texcall	-10.9336
uez	-10.9337
▁ixco	-10.9337
▁aoca	-10.9341
▁mopohua	-10.9345
▁ab	-10.935
▁Couatl	-10.9354
▁omot	-10.9356
altepe	-10.9364
▁ynfirma	-10.9373
ilis	-10.9375
▁cocoxqu	-10.9383
▁ceb	-10.9385
▁Tlatel	-10.9386
▁mochin	-10.9387
▁itlazoh	-10.9392
lpilli	-10.9395
▁Aust	-10.9399
huelitzin	-10.94
▁tlaocol	-10.9401
▁Teopan	-10.9401
tani	-10.9402
tilli	-10.9404
▁quineltili	-10.9404
▁pilt	-10.9404
entetl	-10.9409
▁malti	-10.9411
uilli	-10.9417
▁moce	-10.9417
▁motoca	-10.942
▁neneuhqu	-10.9423
▁tlalman	-10.9424
▁Tecp	-10.9425
namiquia	-10.9425
▁cha	-10.9426
▁tij	-10.9429
▁Nia	-10.943
han	-10.9431
wia	-10.9438
▁ymi	-10.9438
▁ichpocat	-10.9441
▁Hual	-10.9442
▁Malacate	-10.9444
▁chicomilhuit	-10.9445
▁tet	-10.9448
ima	-10.945
ctiaya	-10.945
itec	-10.9455
▁motocayoti	-10.9458
▁kiajsi	-10.946
▁chollo	-10.9462
▁ihuic	-10.9466
▁calac	-10.9469
tiui	-10.9471
▁tlacoch	-10.9471
▁totlazo	-10.9473
▁alm	-10.9474
▁amoyollo	-10.9474
▁monechicos	-10.9475
▁atitla	-10.9475
ahuitl	-10.9478
cahuili	-10.9482
▁tohuan	-10.9482
▁itzti	-10.9484
▁tlacatque	-10.9489
▁Amax	-10.9497
▁Ximo	-10.9501
▁okse	-10.9507
aloc	-10.9513
▁Huey	-10.9515
▁çatepa	-10.9535
▁oquilhui	-10.9538
esto	-10.9539
▁onpohualxi	-10.9541
tiachcauh	-10.9548
ycpac	-10.955
▁koyo	-10.955
▁Matlaco	-10.9554
▁Nanahuatz	-10.9555
icuac	-10.9563
▁esk	-10.9565
malina	-10.9566
ahque	-10.957
lahtocateixiptla	-10.9571
▁yxhuiuh	-10.9582
▁Com	-10.9583
nemiliz	-10.9591
cahuilli	-10.9593
tlatlaya	-10.9597
nechico	-10.9597
▁Tlacopa	-10.9603
▁oacic	-10.9604
N	-10.9607
▁ho	-10.9608
▁Timitz	-10.961
rtyr	-10.9615
▁quimoteoti	-10.9616
▁moyetztiez	-10.9619
▁Porf	-10.962
ETZA	-10.9622
▁Faustin	-10.9622
▁Ministro	-10.9622
▁Mimich	-10.9622
▁Aguila	-10.9622
▁tonahuatlahtol	-10.9622
▁motetoquilli	-10.9622
▁capell	-10.9622
▁kiteuatsa	-10.9622
▁Tlotepetl	-10.9622
▁Hueymac	-10.9622
úñ	-10.9622
▁cuauhtlahto	-10.9622
▁itauhcayo	-10.9622
▁Silv	-10.9622
▁naranja	-10.9622
▁tetzauitl	-10.9623
▁Ueue	-10.9623
▁Quezqui	-10.9623
▁ximotequipacho	-10.9623
▁conmocaquilti	-10.9623
▁Neçahualcoyot	-10.9623
▁cemilhuit	-10.9624
▁oquauhtlahto	-10.9624
▁sacramento	-10.9624
▁ninomaquixti	-10.9626
▁trigo	-10.9626
▁xoconochtli	-10.9627
▁tlacuchcalcat	-10.9628
▁oraciones	-10.963
▁Estado	-10.963
▁quimomachitia	-10.963
▁oniquihto	-10.9632
▁iuelti	-10.9633
▁Ytzcahua	-10.9634
▁nohpalli	-10.9635
▁isisna	-10.9635
▁yaomic	-10.9636
▁sabado	-10.9637
▁Huitzilopuch	-10.9637
misa	-10.9638
▁tlapech	-10.9639
▁mocuitia	-10.9641
▁zacatl	-10.9641
▁tequitini	-10.9642
▁tlamahuiçol	-10.9642
cequi	-10.9642
▁conpehualti	-10.9642
tlatolmelauh	-10.9643
▁mollon	-10.9643
▁xiujtsi	-10.9645
▁oticchiuhque	-10.9647
▁yajke	-10.9648
▁tlatzacuiltiloz	-10.9651
▁cualyotica	-10.9653
▁Malin	-10.9654
temohua	-10.9661
▁Ehecatl	-10.9661
▁connoz	-10.9663
▁icemel	-10.9667
▁onin	-10.9669
chilcuitlaxcolli	-10.967
▁kimaneloua	-10.9671
▁tlatzitzillica	-10.9676
▁quimonamiquilli	-10.9679
▁Tequixquipan	-10.9679
▁motemachtilli	-10.9682
▁itstoke	-10.9684
▁Ern	-10.9687
ostej	-10.9688
▁ytlacamecayo	-10.9688
▁cenquizca	-10.9691
▁quimi	-10.9699
▁oquimonamicti	-10.97
▁tlayi	-10.9703
xolal	-10.9705
▁ju	-10.9706
▁iselti	-10.971
iuhti	-10.9711
ués	-10.9711
si	-10.9716
▁Jesu	-10.9717
▁Quihto	-10.9718
▁Oso	-10.9719
▁tlachihualli	-10.9719
▁Motelchiuh	-10.972
oatl	-10.9726
▁cococ	-10.9727
▁tlatemactilis	-10.9731
▁hualhui	-10.9732
▁Sot	-10.9732
▁neka	-10.9734
chpuchtzin	-10.9736
ahmo	-10.9739
▁Malintzi	-10.9742
▁ypatiuh	-10.9743
▁quitlatla	-10.9744
▁nauhpohual	-10.9748
▁tlatotonia	-10.9754
▁Franci	-10.9759
▁mocahuaz	-10.9759
▁opa	-10.976
▁yhuiyan	-10.9761
▁excan	-10.9762
▁moteneuhtzino	-10.9766
▁motequipacho	-10.9767
▁uico	-10.9777
▁Tic	-10.9778
itiuh	-10.9781
▁nappa	-10.9781
▁tonehua	-10.9782
▁cuixcoc	-10.9782
yohuac	-10.9784
uz	-10.9784
▁mazatl	-10.9786
tequiti	-10.9791
▁uia	-10.9795
cuauh	-10.9796
▁momaniltiti	-10.9797
yohual	-10.9799
▁cocox	-10.98
▁popolihui	-10.9804
▁tlatzquito	-10.9808
zenquizca	-10.9809
inanyo	-10.9809
▁hualehua	-10.9811
▁itenco	-10.9813
▁ompan	-10.9815
▁respe	-10.9817
teuhctitlan	-10.9821
▁tzitzica	-10.9825
ida	-10.9826
▁calaquizque	-10.9827
▁Acol	-10.9832
▁Huehueyo	-10.9844
▁cocoxque	-10.9845
▁totecuio	-10.9847
▁Tecayehuat	-10.9848
tihuetzca	-10.9849
▁ocuach	-10.9853
iaque	-10.9854
otahtzin	-10.9855
▁hualyetia	-10.9858
▁informaci	-10.9858
▁napoal	-10.9862
azar	-10.9867
macxoya	-10.987
▁oquicauh	-10.9871
tlahuac	-10.9872
▁epohual	-10.9874
▁cacaua	-10.9881
▁cualant	-10.9883
▁ahquihuan	-10.9886
▁conteca	-10.9889
▁Chimal	-10.9892
▁oton	-10.9894
melahua	-10.9894
diá	-10.9896
▁tlamaceuh	-10.9897
▁ichpochtzin	-10.9897
maka	-10.9897
tequitl	-10.9899
▁polihuiz	-10.99
▁Mota	-10.99
▁Moquiuitzi	-10.99
▁tinemizque	-10.9904
▁kosa	-10.9909
▁ln	-10.991
tqui	-10.9911
▁momaca	-10.9913
▁nemizquia	-10.9919
▁popoliuh	-10.9922
▁otihual	-10.9922
▁tlamaniti	-10.9924
▁ycnahui	-10.9924
tamachilis	-10.9925
toqueh	-10.9925
▁mayanalo	-10.9926
ini	-10.9929
▁xiquipil	-10.9937
▁momachtiz	-10.9939
tlanahuatil	-10.994
▁toxochi	-10.9951
nbo	-10.9951
quixti	-10.9965
▁tiquita	-10.9966
toquili	-10.9971
▁Iyol	-10.9973
ño	-10.9976
▁J	-10.9978
ualco	-10.9979
quimil	-10.998
▁amachihua	-10.9983
ihuitonco	-10.9984
▁Casta	-10.9986
▁acic	-10.9987
tlapan	-10.9987
▁Acolmi	-10.9987
▁macehualt	-10.9988
ectli	-10.9989
▁onmotlalli	-10.9989
tlatoque	-10.9991
▁niquit	-10.9996
huecauh	-10.9998
▁tzo	-11
molloc	-11.0008
▁Ro	-11.0009
▁quitequipacho	-11.001
polihui	-11.0012
▁Cue	-11.0015
▁Tequichihua	-11.0018
atzinco	-11.0019
▁ohuetz	-11.002
uacan	-11.0025
htoque	-11.003
lloc	-11.0031
ros	-11.004
▁mopehualti	-11.0042
▁mopa	-11.0045
ali	-11.0046
motlachcuitlaxil	-11.0047
▁Cuitlach	-11.005
▁papan	-11.0051
▁panoz	-11.0053
▁Mac	-11.0053
hu	-11.0054
▁mocaqui	-11.0056
ilhui	-11.0056
▁Kani	-11.0059
▁intlac	-11.006
miqui	-11.0062
▁quitoua	-11.0065
etlatl	-11.0066
▁Cencil	-11.007
▁Papa	-11.0071
ihiyo	-11.0072
ech	-11.0076
emimilolc	-11.0088
asan	-11.0092
▁Tho	-11.0093
▁ytztia	-11.0095
▁Tolteca	-11.0095
▁quimocuitlahui	-11.0095
▁močin	-11.01
▁omoman	-11.01
▁hueli	-11.01
wili	-11.0104
▁otoco	-11.0104
tlehua	-11.0109
lacateticpac	-11.011
▁mochihu	-11.0111
quechtlan	-11.0115
▁tlitl	-11.0118
cque	-11.0119
uacatl	-11.012
▁Quauhti	-11.0121
▁pouh	-11.0121
▁teyo	-11.0124
ral	-11.0126
tleya	-11.013
macazque	-11.0131
▁Quateot	-11.0143
quiliz	-11.0147
▁yetl	-11.0149
▁tlamacaz	-11.0155
tamal	-11.0156
nemilliz	-11.0165
lhui	-11.0167
▁quih	-11.0178
aqui	-11.0182
oyahque	-11.0186
xtik	-11.0188
▁techyahualloto	-11.0189
▁moquatequi	-11.0195
ec	-11.0195
cobar	-11.0201
▁teix	-11.0201
ohuatlayauhcan	-11.0204
teuhc	-11.0208
▁calla	-11.0215
▁Boni	-11.0222
atolli	-11.0222
▁moyolloh	-11.0223
▁atliti	-11.0229
quetzalli	-11.023
ntlali	-11.023
▁Paz	-11.0232
nahuati	-11.024
▁ocuica	-11.0244
▁necalli	-11.0244
▁quimaxiti	-11.025
yca	-11.025
▁totoli	-11.0261
piltont	-11.0262
mal	-11.0266
kun	-11.0267
mictizque	-11.0272
lloco	-11.0272
▁chololteca	-11.0272
▁unc	-11.0276
moquetzaco	-11.0278
▁quicauhti	-11.0278
edes	-11.0285
▁xoc	-11.029
▁mocentlalli	-11.0291
uhtiuh	-11.0293
cen	-11.0295
▁huipil	-11.03
neda	-11.0302
ezontlalnamacoya	-11.0302
▁Uexo	-11.0305
mallinal	-11.0309
▁quimonequilti	-11.031
▁tiyaca	-11.0322
▁caxtoli	-11.0323
▁tlema	-11.0325
tepetzin	-11.033
quen	-11.0333
latl	-11.0337
▁Acap	-11.0338
▁telpoch	-11.0341
▁nenenca	-11.0342
ltecatl	-11.0343
▁XVI	-11.0344
lolli	-11.0356
▁quic	-11.0356
▁mototoni	-11.0357
▁ixquichi	-11.0359
▁cactiman	-11.0361
mellahua	-11.0361
▁mozcalti	-11.0363
▁iztay	-11.0366
▁tiquizaz	-11.0371
ribi	-11.0378
▁Epcoa	-11.0379
▁yas	-11.0382
tlamellahua	-11.0382
uctli	-11.0389
▁ytlaço	-11.0393
▁tlacochcalcatl	-11.0396
▁ita	-11.0396
▁Cali	-11.0397
▁mazo	-11.0401
tinen	-11.0411
▁yxiuh	-11.0412
quic	-11.0412
▁Just	-11.0414
izquia	-11.0419
▁tlachie	-11.0419
▁marque	-11.0427
▁anima	-11.0431
▁miquia	-11.0439
▁kali	-11.0443
▁quinpacho	-11.0443
ppoal	-11.0444
ten	-11.0445
▁macuilpohuall	-11.0445
▁quitz	-11.046
▁Balt	-11.046
pachoz	-11.0463
▁yeti	-11.0476
▁mellel	-11.0477
▁moč	-11.0489
▁huico	-11.0489
▁Citlal	-11.0489
▁Noca	-11.0494
▁nechmo	-11.0495
yas	-11.0496
sej	-11.0498
▁Cecen	-11.0503
quetzque	-11.0509
nequia	-11.051
ones	-11.0525
▁timacehualt	-11.0527
▁notlaçot	-11.0528
tocan	-11.0531
popo	-11.0537
▁motecac	-11.0538
cuicatl	-11.0542
▁nahual	-11.055
popolo	-11.055
▁Xocoyot	-11.0553
▁Xiuht	-11.0554
▁molpi	-11.0556
▁nikin	-11.0561
▁onquiz	-11.0562
panpa	-11.0562
▁lu	-11.0569
tlapactli	-11.0569
▁tlaka	-11.057
ropa	-11.057
▁quicuillo	-11.0576
iel	-11.0577
ypan	-11.0586
▁omomachti	-11.0589
▁cuahcual	-11.059
▁pactica	-11.0601
▁notzalo	-11.0604
▁quintlalli	-11.0606
▁ytlaca	-11.0608
▁Math	-11.061
aga	-11.0617
▁totol	-11.0618
▁yectla	-11.0618
kamoj	-11.0618
yaca	-11.0624
▁Tetza	-11.0628
▁onemic	-11.0629
▁nompa	-11.0637
mento	-11.064
ochitl	-11.0642
▁Xa	-11.0644
▁cenquiz	-11.0646
▁otlatlanil	-11.0646
ocelotl	-11.066
pitzahuac	-11.066
tlanequiliztzin	-11.066
▁ami	-11.0665
sia	-11.0666
▁impa	-11.0671
cuepa	-11.0671
motlan	-11.0673
▁ammi	-11.0674
cuitlapil	-11.0685
quiçaya	-11.0686
quixtiaya	-11.0687
▁ytlacahui	-11.0689
melauac	-11.0693
nehuiyan	-11.0695
lohua	-11.0696
teopixque	-11.0698
sos	-11.0701
epetl	-11.0704
▁ynpilhuan	-11.0705
▁cuacua	-11.0705
stro	-11.0709
poztec	-11.0709
▁quinchiuh	-11.0714
▁xochiyojt	-11.0723
▁macah	-11.0725
yxti	-11.0728
mochintin	-11.0731
ixnamiquiz	-11.0733
ció	-11.0738
▁Azcap	-11.0747
▁quixitini	-11.0748
▁oquipehualti	-11.0752
▁çe	-11.0757
▁patr	-11.0757
▁nomil	-11.076
anazque	-11.0761
▁imahuiz	-11.0763
▁kima	-11.0769
xiuhtlapohual	-11.0772
pactli	-11.0772
chiuhcnahui	-11.0775
nanakat	-11.0776
tajtol	-11.0783
oyon	-11.0784
▁quipie	-11.0793
▁moquixtia	-11.0795
▁momoya	-11.0796
huiyan	-11.0798
mectli	-11.08
▁momatiz	-11.0801
once	-11.0802
motlaocoliliz	-11.0804
▁itek	-11.0805
▁omohuica	-11.0806
atca	-11.0815
chihuaco	-11.0816
▁monamic	-11.0823
huallo	-11.0829
▁ytetzin	-11.0829
catzitzintin	-11.0833
▁tlatzacuiltil	-11.0834
htiliz	-11.0835
▁itzotzoma	-11.0835
teupan	-11.0836
▁informacio	-11.084
lpan	-11.0841
metztaya	-11.0846
quixohuaya	-11.0849
amelahua	-11.0853
▁teč	-11.0854
christo	-11.0855
▁otlato	-11.0858
▁tezcatl	-11.0864
colca	-11.0866
▁novie	-11.0868
▁chia	-11.0869
lathuic	-11.087
▁otit	-11.0875
▁quihta	-11.0881
▁tamech	-11.0887
quauhtla	-11.0897
tlanque	-11.0901
▁naua	-11.0901
tencatl	-11.0912
temoc	-11.0913
▁tlachihualti	-11.0917
▁totlalnan	-11.092
xochiyo	-11.092
▁cat	-11.0921
tepilhuan	-11.0935
cuilo	-11.0937
momaquili	-11.0943
▁atentlipa	-11.0944
▁tlahuelilo	-11.0944
▁notomin	-11.0946
monec	-11.095
▁ycallaquia	-11.0957
▁tlaxi	-11.0957
▁tlaqual	-11.0961
▁tepilolcua	-11.0963
▁iteco	-11.0969
▁kimati	-11.0974
▁pipi	-11.0975
▁tlatoa	-11.0979
oli	-11.0981
▁tzilli	-11.0988
akaj	-11.0989
▁texo	-11.0996
▁niyaz	-11.0996
manon	-11.0999
nos	-11.0999
yolqui	-11.1001
notlahtol	-11.1003
▁Atl	-11.1004
▁cuicani	-11.1005
quizazque	-11.1009
molhuili	-11.101
▁quiçaz	-11.101
TIN	-11.1012
tlali	-11.1015
▁neltic	-11.1017
maco	-11.1024
tecuiyohuan	-11.103
▁teuc	-11.1032
▁hualcallaqui	-11.1033
▁cano	-11.1035
ur	-11.1043
▁iamox	-11.1044
oconcuic	-11.1045
llos	-11.1049
▁Bapti	-11.1049
litzino	-11.105
▁Alfredo	-11.105
▁Babylon	-11.105
▁Chimalpahin	-11.105
▁Huitznecahual	-11.105
▁Tetzcuco	-11.105
▁Tzapotla	-11.105
▁Zorita	-11.105
▁manzanah	-11.105
▁nicuhtzitzi	-11.105
▁pilokichpiltsi	-11.105
▁tictocuitlauia	-11.105
▁Apepetz	-11.105
▁Uauhquil	-11.105
▁Ynquisició	-11.105
▁Coyoueue	-11.105
▁Hispantlal	-11.105
▁Regin	-11.105
▁pleito	-11.105
▁corregidor	-11.105
▁arroz	-11.105
▁otlachalani	-11.105
▁Topantemoc	-11.105
▁persona	-11.105
▁Jesucristo	-11.105
▁ocualicaya	-11.105
kwitlaš	-11.1051
▁quimontocatia	-11.1051
▁Sanctíssim	-11.1051
▁notahtzitzihuan	-11.1051
▁Petro	-11.1051
▁zanyeno	-11.1051
▁Momauhti	-11.1051
▁sikiera	-11.1051
▁medio	-11.1051
▁toplantita	-11.1051
umár	-11.1051
▁Tlahcoxonacatl	-11.1052
▁kuatitla	-11.1052
tlaytlaniliztica	-11.1052
▁zacuan	-11.1052
▁tlaskamati	-11.1052
▁omihtilhui	-11.1053
monahuatilli	-11.1053
▁Vizcay	-11.1053
cahuilis	-11.1054
▁motlatolcuepaz	-11.1054
▁quauhnauaca	-11.1054
vicario	-11.1055
▁quinpactia	-11.1055
ueytlatoca	-11.1055
▁tlaixnextilis	-11.1056
▁ihuaxca	-11.1056
▁roman	-11.1056
▁sopilote	-11.1056
▁Bernab	-11.1058
▁quimotlapalhui	-11.1058
▁Quauhtepec	-11.1058
lac	-11.1058
▁comino	-11.1058
▁tezcaco	-11.1059
▁oual	-11.106
lamanca	-11.106
▁Oquipiaya	-11.106
▁nicnotlamati	-11.1061
▁quipolo	-11.1064
fa	-11.1066
▁Tzonpahua	-11.1066
▁mitl	-11.1066
▁omopouh	-11.1066
▁quihualmihualli	-11.1066
cikawas	-11.1067
▁nocuell	-11.1067
bal	-11.1069
▁Baltesa	-11.1069
▁Cempoall	-11.1072
▁hualmocuepa	-11.1073
▁nicmelahua	-11.1074
▁tlaxkali	-11.1075
tlatique	-11.1076
▁hueyaltepe	-11.1077
▁hualmehuiti	-11.1079
▁toteouh	-11.108
▁quimocaquiti	-11.1082
▁oquineltili	-11.1084
▁chicontetl	-11.1084
▁quitzitzquia	-11.1086
▁oquicuit	-11.1086
ehuayo	-11.1087
▁palani	-11.1087
▁yohualpa	-11.1087
▁macuilxiuhti	-11.109
▁omompo	-11.1091
▁notechmonequi	-11.1091
▁močiwa	-11.1094
▁hualne	-11.1094
▁nep	-11.1094
▁dies	-11.1095
▁ninomati	-11.1095
▁chicahua	-11.1096
▁callihtic	-11.1099
tepitztic	-11.1099
tzalco	-11.1104
▁otiquitta	-11.1104
▁nicnotza	-11.1105
▁quimopialli	-11.1106
▁hualmoman	-11.1107
alacateticpac	-11.1107
tlananquilia	-11.1107
▁imman	-11.1107
▁uetsi	-11.1108
▁onechilhui	-11.1109
▁ičan	-11.111
quimopielia	-11.111
tlahtohuani	-11.1111
▁motlaliz	-11.1112
nezcayoti	-11.1114
▁kwalika	-11.1115
yso	-11.1115
▁itlahtollo	-11.1117
▁It	-11.1118
▁Tequihua	-11.1119
▁yxhuiuhtzi	-11.112
▁ohuatzintic	-11.112
litzin	-11.112
intla	-11.1122
calmecac	-11.1122
pepeyoc	-11.1122
▁šiw	-11.1124
▁inteyacanca	-11.1127
▁tetloc	-11.1127
▁maicni	-11.113
▁Totecuio	-11.1132
▁tlatlani	-11.1132
▁moto	-11.1133
cuilohua	-11.1134
▁hueyatl	-11.1134
▁titlahto	-11.1136
▁onechmo	-11.1136
▁tepehuani	-11.1138
▁oquimochihuili	-11.1141
▁tacizque	-11.1141
▁quimochihuilia	-11.1144
▁otlacauhqui	-11.1145
ssión	-11.1145
OLLI	-11.1147
tlahtocatzin	-11.115
▁patio	-11.1152
▁ipehuaya	-11.1152
▁quichi	-11.1154
▁oquitlanque	-11.1156
▁Ytz	-11.1156
▁ihuel	-11.1156
▁onec	-11.1157
▁caltepito	-11.1158
▁tlacopaneca	-11.1167
▁ixtlauatl	-11.1167
▁tlapic	-11.1171
▁ichpuch	-11.1172
▁ohualtemo	-11.1174
▁itec	-11.1176
▁noteuh	-11.118
▁tecpill	-11.118
er	-11.1182
▁inteo	-11.1182
▁necht	-11.1183
▁tanto	-11.1186
▁matl	-11.1187
▁Rodr	-11.1189
▁Tlac	-11.119
▁momachtizque	-11.1191
▁intloc	-11.1192
▁çacatla	-11.1192
ab	-11.1193
▁yxquichi	-11.1194
itstó	-11.1194
▁netotilo	-11.1194
▁monahuac	-11.1194
▁tlalpollo	-11.1197
▁achitonca	-11.1199
▁telpoca	-11.1201
▁niki	-11.1206
▁Quemah	-11.1208
▁Polo	-11.1209
temactilis	-11.1213
oceppa	-11.1214
▁calmeni	-11.1214
wela	-11.1215
▁imatica	-11.1216
▁Senador	-11.1219
ixtlalis	-11.1219
▁hoc	-11.1227
▁wakun	-11.1228
▁imach	-11.1228
▁tequichihualis	-11.123
▁mom	-11.1233
▁Tolla	-11.1236
▁tomatl	-11.1238
▁ehuani	-11.124
▁huaqui	-11.124
▁Pasqua	-11.1241
▁moilui	-11.1242
alem	-11.1243
▁tecouani	-11.1245
loca	-11.1246
▁tijneki	-11.1248
▁quihcuilo	-11.1248
▁inacaz	-11.1249
▁hueyiatl	-11.1253
▁quimottilli	-11.1254
▁pueblo	-11.1258
▁profet	-11.1263
mocuachhui	-11.1264
▁namatl	-11.1265
▁quau	-11.1265
▁oypan	-11.1265
▁ualtemo	-11.1266
lica	-11.1267
▁omotlapo	-11.127
▁vel	-11.127
▁kiualika	-11.1273
▁mon	-11.1275
▁Apa	-11.1277
istat	-11.1285
▁oquinahuati	-11.1286
▁temimil	-11.1287
xaya	-11.1287
▁quimonilhui	-11.1292
▁toquichti	-11.1293
aua	-11.1295
coatl	-11.1296
▁quimitta	-11.1298
▁vandera	-11.1298
▁incihua	-11.1302
miz	-11.1302
▁quinyacan	-11.1303
jor	-11.1305
▁omocuepque	-11.1306
▁kejn	-11.131
▁nicneltil	-11.1313
▁amaca	-11.1313
cha	-11.1315
▁omonamaca	-11.1315
▁xim	-11.1316
▁Map	-11.132
▁honcan	-11.1321
momoyahua	-11.1322
▁tequitizque	-11.1323
▁tiquitta	-11.1327
ololo	-11.1327
▁Motolini	-11.1327
▁pactia	-11.1327
▁ompeuh	-11.133
tekpi	-11.133
▁año	-11.1334
▁nocue	-11.1334
euantin	-11.134
▁dia	-11.1343
▁altepechanehque	-11.1343
nichoca	-11.1344
▁tlaix	-11.1352
▁Tlil	-11.1352
tiquiza	-11.1353
▁manozo	-11.1353
bax	-11.1357
▁kipoyelia	-11.136
▁yllamatzi	-11.1366
▁uitz	-11.1372
▁opoliuhque	-11.1373
lahtolli	-11.1374
▁kon	-11.1375
kuoui	-11.1375
▁ui	-11.1376
▁itechpan	-11.1376
▁quimaca	-11.1382
▁gr	-11.1383
machiliz	-11.1388
▁caxiti	-11.1392
mosewi	-11.1393
▁ixcua	-11.1393
tzontec	-11.1394
▁otlacatque	-11.1395
▁nitemo	-11.1396
▁quinamiqui	-11.14
atilia	-11.1401
▁tlamahuiztili	-11.1402
▁quicoco	-11.1405
icnequia	-11.1409
▁yaoyo	-11.1411
▁tonalti	-11.1416
poliui	-11.142
▁motlahtolti	-11.1426
▁ohualnenen	-11.1426
caltech	-11.1427
zonco	-11.1429
▁anquin	-11.143
▁teci	-11.1431
▁icpal	-11.1433
▁tehoanti	-11.1433
aquia	-11.1435
temoa	-11.1436
▁mexihca	-11.1438
▁tama	-11.1439
▁coton	-11.1441
xa	-11.1442
▁timochi	-11.1445
▁cuitlatl	-11.1446
techachan	-11.1452
coni	-11.1453
anime	-11.1458
▁atezca	-11.1459
▁teuhctlahto	-11.146
▁pala	-11.1464
▁omocuep	-11.147
kto	-11.1475
▁Cas	-11.1476
▁omotecac	-11.1477
huantin	-11.1478
niz	-11.1481
cuica	-11.1486
▁Tzompac	-11.1492
tlamellahualti	-11.1492
▁toltecatl	-11.1494
▁Im	-11.1494
uxcux	-11.1496
▁escri	-11.1498
▁zatep	-11.1498
lilia	-11.15
▁Fran	-11.1509
IN	-11.1509
mamá	-11.1512
▁tlilli	-11.1513
▁Coru	-11.1515
celiya	-11.1515
▁immix	-11.1521
▁yhuelli	-11.1521
▁quipatla	-11.1525
alo	-11.1527
▁tey	-11.1528
zaz	-11.153
▁tlateochihual	-11.1535
▁quenami	-11.1536
tata	-11.1538
▁tecamapa	-11.1538
▁dizie	-11.1539
▁cochia	-11.1539
▁cacahua	-11.154
▁catlehua	-11.154
nanquiliz	-11.1549
imitac	-11.1554
▁caxtil	-11.1559
▁itlah	-11.156
▁Tlaçotzi	-11.1564
▁Yon	-11.1568
▁cuachcal	-11.1574
embre	-11.1574
cualita	-11.1578
tejki	-11.158
▁otlihpa	-11.1582
▁kuou	-11.1587
▁yxtlahua	-11.159
tlehcoz	-11.1593
▁quihualcui	-11.1595
paccanonotz	-11.1596
▁immonaca	-11.1599
nemitia	-11.1599
apachiuh	-11.1603
▁otlama	-11.1614
otia	-11.1617
tehua	-11.1621
▁axiuac	-11.1625
pitzac	-11.1634
▁ihiyo	-11.1637
lhuacan	-11.164
ieuayo	-11.1641
ihcuilo	-11.1645
mahuiço	-11.165
▁tlamachtil	-11.1654
▁tetzc	-11.1668
▁yaya	-11.1671
micac	-11.1673
▁tlapalehui	-11.1673
tiuia	-11.1675
aparri	-11.1676
▁tamali	-11.1676
tlaquimilol	-11.1679
micti	-11.1679
nahuatili	-11.1681
▁nam	-11.1685
▁xitl	-11.1687
huacam	-11.1694
▁chinan	-11.1694
ilti	-11.1706
▁Tecpan	-11.1707
mimichtin	-11.1708
▁muchihuaz	-11.1708
tika	-11.1717
▁itz	-11.1721
halchihuitl	-11.1726
miquiz	-11.1727
▁tequipano	-11.1728
▁ychpochhua	-11.173
lcá	-11.1732
▁kitla	-11.1733
▁Teocal	-11.1735
lhuitzin	-11.1736
tsi	-11.174
liznequi	-11.1741
yi	-11.1741
▁toaltepe	-11.1743
▁Acolnauaca	-11.1752
▁comal	-11.1755
uecauh	-11.1759
▁tlahca	-11.1761
cameh	-11.1761
▁coatl	-11.1762
▁Itla	-11.1766
huetz	-11.1767
▁tlapo	-11.1769
itu	-11.1772
dico	-11.1773
▁Sen	-11.1776
eya	-11.1776
▁Moy	-11.1776
con	-11.1776
▁bara	-11.1776
uhtia	-11.1778
▁tococ	-11.178
▁Huei	-11.1784
▁Atlauht	-11.1786
nechichihual	-11.1786
▁quimach	-11.1788
tlatlacoltiloc	-11.1793
▁huecapan	-11.1793
▁ompoal	-11.1795
calihtic	-11.1797
▁iteopanc	-11.1799
▁tlacualo	-11.18
cel	-11.1801
šilti	-11.1802
nal	-11.1803
▁kintla	-11.1804
chicuacen	-11.1804
cuitlapan	-11.1809
▁Toc	-11.1809
éne	-11.181
▁Chiapa	-11.1811
taz	-11.1813
▁oquite	-11.1814
sio	-11.1815
▁ontzonxi	-11.1819
▁Tlacateuh	-11.1819
olton	-11.182
huaca	-11.1827
▁pollihui	-11.1827
tlap	-11.1828
▁tlachia	-11.1829
tomin	-11.183
▁tiaca	-11.1833
▁ytlam	-11.1836
manque	-11.1837
▁nene	-11.1843
▁niccahua	-11.1849
▁teyol	-11.1863
▁yaoteca	-11.1867
▁tlachi	-11.1869
metl	-11.1872
▁Mont	-11.1872
▁otlat	-11.1873
▁hualca	-11.1875
▁ei	-11.1875
▁temaco	-11.1877
acal	-11.1878
▁tleno	-11.1882
tlazotlaya	-11.1885
otlak	-11.1885
ixmati	-11.1886
▁mitotia	-11.1886
▁xochimila	-11.1887
▁Ad	-11.1888
macehual	-11.1889
tlaocol	-11.1894
auhque	-11.1903
motlacatilitzino	-11.1905
mamani	-11.1907
paso	-11.1907
▁tekitl	-11.1908
▁tepilolcuauhti	-11.1915
▁qualo	-11.1916
tacha	-11.1917
▁nanma	-11.192
tepehual	-11.192
itztihui	-11.1922
▁monan	-11.1923
▁tlapani	-11.1929
ucho	-11.1933
▁pisil	-11.1944
ze	-11.1944
poloa	-11.1944
▁ticto	-11.1948
nican	-11.1958
huitltemoc	-11.196
▁mox	-11.1961
chitzin	-11.1967
quiza	-11.1969
▁nepapa	-11.197
▁monemiltia	-11.1974
nqui	-11.1976
ndado	-11.1977
▁tlamelahua	-11.1982
▁Quim	-11.1984
▁conquetz	-11.1986
ego	-11.199
▁caquizti	-11.1991
▁yauy	-11.1992
tlapachol	-11.1993
quilia	-11.1993
▁omotlacatilli	-11.1994
yampa	-11.1998
hquen	-11.1999
▁Dan	-11.1999
▁motequipano	-11.1999
▁quimonequiltia	-11.2007
panolti	-11.2012
▁tlachihual	-11.2015
▁hualte	-11.2018
▁nele	-11.2018
▁tochi	-11.202
emachticatzintli	-11.2021
antoton	-11.2027
ohui	-11.2029
▁j	-11.203
ikan	-11.203
▁Occe	-11.2034
pilhuantzitzin	-11.2036
unta	-11.2037
lozque	-11.2042
▁icchicuace	-11.2044
▁una	-11.2045
cteneua	-11.2048
▁XXIII	-11.2052
ccenca	-11.2054
kaj	-11.2055
▁cuele	-11.2055
▁Tol	-11.2063
motlallico	-11.2065
▁nicmacatiu	-11.2069
▁omiqui	-11.2069
▁quintlatlauhtia	-11.207
▁quintocayotia	-11.2076
epantla	-11.2079
▁tlacuilo	-11.2081
ltica	-11.2086
chiuaya	-11.2092
nexti	-11.2093
▁quitlaco	-11.2093
▁ipaltzin	-11.2094
poliuh	-11.2096
▁nopilo	-11.2097
tlahuitol	-11.2099
▁telpocht	-11.2111
▁Sent	-11.2113
▁frai	-11.2118
▁firma	-11.2119
▁tlatlatlauhtilo	-11.212
▁omononotz	-11.2121
opuchco	-11.2123
▁Yzcat	-11.2125
▁chalchiu	-11.2127
▁moteilhui	-11.2128
▁quinpillo	-11.2128
tecutli	-11.2129
▁cuach	-11.2132
▁caltech	-11.2134
tiloc	-11.2141
▁Xolloc	-11.2144
cias	-11.2149
tlahtocan	-11.2149
youa	-11.215
tzallan	-11.2159
ltepec	-11.2164
tlactlomey	-11.2165
▁Huitzill	-11.2166
taque	-11.2166
▁nechicolis	-11.2167
iki	-11.2168
olhuacan	-11.217
motlapohpolhuili	-11.2171
▁tamal	-11.2177
▁Oya	-11.2185
lar	-11.2188
▁titlato	-11.2189
pohual	-11.219
▁quiteneuh	-11.2193
▁Tzompan	-11.2193
▁xicmo	-11.2197
▁michin	-11.22
▁iyolloco	-11.2201
quintayocoli	-11.2206
▁matlacte	-11.2208
▁oquimoteoti	-11.2212
▁quimonapalhui	-11.2212
xanco	-11.2214
iztica	-11.2216
tzonteco	-11.2224
Tenochtitlan	-11.2231
▁quicuiliz	-11.2234
uallitlan	-11.2235
▁tlatlanilo	-11.2239
▁omi	-11.2243
▁yahui	-11.225
▁kwika	-11.2252
monemitiz	-11.2253
▁omotlacatili	-11.2253
▁matlaquilhuit	-11.2254
tlayocol	-11.2254
▁notia	-11.2254
▁Onc	-11.2258
motlanahuatilia	-11.2261
▁Ha	-11.2263
tlatlahtia	-11.2264
yeyan	-11.2266
ienda	-11.227
ncan	-11.228
teuhca	-11.2281
▁Nica	-11.2286
▁choquizt	-11.2289
▁sant	-11.229
▁muchiua	-11.2291
entencia	-11.2294
uit	-11.2294
tenyo	-11.2298
▁ythual	-11.2304
▁quelehuia	-11.2307
yotlan	-11.2309
▁Ual	-11.2314
▁ixtlahuatl	-11.2323
etes	-11.2325
cuhtli	-11.2327
▁mociya	-11.2329
▁colo	-11.2336
tequihuacayo	-11.2339
▁Zanno	-11.2349
lpolli	-11.2351
tek	-11.2352
calpol	-11.2357
▁motlapacho	-11.2359
xtin	-11.2362
▁onyez	-11.2362
▁Tepan	-11.2362
▁tlame	-11.2364
incalco	-11.2368
▁kamoj	-11.2369
icno	-11.2373
▁Nimitz	-11.2375
▁quitlatlauhtia	-11.2377
uy	-11.2379
Al	-11.2384
tol	-11.239
▁tepos	-11.2395
xitia	-11.24
▁mori	-11.2401
tlalcoual	-11.2401
til	-11.2405
▁Cuitla	-11.2405
▁momacaz	-11.2409
uiliz	-11.2413
▁teyollo	-11.2417
izquixochitl	-11.242
htalhuia	-11.2421
yehua	-11.2425
laloya	-11.2426
▁timocahua	-11.2429
mamal	-11.2429
▁ixiuhtlapo	-11.2438
▁tomatic	-11.2444
▁tiça	-11.2444
▁quitlami	-11.2459
▁tlamamal	-11.2465
▁Gali	-11.2466
▁tenan	-11.2467
TL	-11.2473
▁ueue	-11.2473
piaz	-11.2475
tzonquiça	-11.2477
▁onmaxi	-11.2477
▁macehua	-11.2478
▁kitokayti	-11.2479
pinauhti	-11.2479
▁mimi	-11.2482
quixtia	-11.2488
▁Ipal	-11.2493
ihtos	-11.2497
▁tlamati	-11.2498
▁Itzt	-11.2498
▁ceppaya	-11.2499
▁tecpa	-11.2499
eyxtin	-11.25
▁tiki	-11.2501
cuiliz	-11.2504
quizaz	-11.2506
eu	-11.2507
ako	-11.2509
▁huallehuac	-11.251
almeh	-11.2514
rón	-11.2514
eua	-11.2519
motlalis	-11.2522
tlatohuani	-11.2523
▁ytzti	-11.2528
▁Alo	-11.253
calehcapo	-11.253
toa	-11.253
tlamachti	-11.2531
▁mama	-11.2544
▁omoch	-11.256
lizpan	-11.2563
▁oquinchiuh	-11.2568
▁Ompo	-11.2568
quetl	-11.2572
mapan	-11.2574
▁ja	-11.2575
▁quenman	-11.2578
▁matlalt	-11.2583
htinemi	-11.2587
▁Acolhuaca	-11.2593
san	-11.2597
▁mulato	-11.2598
huili	-11.2599
▁teki	-11.2599
huiaya	-11.2601
▁quineltiliz	-11.2601
▁otlal	-11.2603
motlanahuatilli	-11.2604
ntzi	-11.2606
yocox	-11.2607
▁arçobisp	-11.2611
▁chichil	-11.2614
▁Ahuat	-11.2618
▁tlajko	-11.2618
▁tlacualchih	-11.2619
vi	-11.2619
nenepil	-11.2619
nek	-11.2626
▁auc	-11.2629
▁otlih	-11.263
tlahto	-11.2631
▁callaquia	-11.2631
▁ihquin	-11.2632
tze	-11.2637
uili	-11.2638
▁omoquetz	-11.2638
ncuic	-11.264
▁quihtoz	-11.2644
ehuaya	-11.2645
▁tlatzquitos	-11.2647
xquich	-11.2648
itzticac	-11.2654
▁yxpa	-11.2656
▁motlahtocatlal	-11.2659
nehnemi	-11.2665
▁xacal	-11.2673
ciuhca	-11.2673
▁amotla	-11.2674
opiltzin	-11.2675
▁inezca	-11.2676
axcatili	-11.2676
onpehua	-11.2676
tlazque	-11.2678
▁temazcal	-11.2681
comienda	-11.2683
▁huehueyi	-11.2686
▁amatla	-11.2688
momanaya	-11.2693
▁llice	-11.2693
ocalaquia	-11.2694
▁quiixtlali	-11.2702
▁moten	-11.2703
miquillitzin	-11.2708
caquitia	-11.2709
nohualca	-11.271
mador	-11.271
▁Momoztla	-11.2712
▁tlacuillo	-11.2712
▁nocel	-11.2714
vamderra	-11.2717
▁Bartholomé	-11.2717
▁Bonifacio	-11.2717
▁Nequametzi	-11.2717
▁Profes	-11.2717
▁Secretario	-11.2717
▁Tehhuehuent	-11.2717
▁achcacauhti	-11.2717
▁estandarte	-11.2717
▁omonexiti	-11.2717
▁treinta	-11.2717
▁Muteuhcçuma	-11.2717
▁Zorida	-11.2717
▁poyauhteca	-11.2717
▁Motecuzoma	-11.2717
▁chilacachtextli	-11.2717
▁pregun	-11.2717
▁espir	-11.2717
▁Joven	-11.2717
▁kaltsinta	-11.2717
▁Quauhtzetzelt	-11.2717
▁mohuetzilti	-11.2717
▁kometa	-11.2717
▁Reyes	-11.2717
▁tetlacolti	-11.2717
▁Yalhua	-11.2718
▁cohuayotl	-11.2718
▁Maquimatica	-11.2718
▁ycallaquiyanpa	-11.2718
achcocolhua	-11.2718
▁quincuiliz	-11.2718
▁eltó	-11.2719
habito	-11.2719
▁timiquiz	-11.2719
▁Quipia	-11.2719
▁Octepitzin	-11.2719
▁achiyok	-11.2719
▁quimocihuauhti	-11.2719
quimicuilhui	-11.2719
▁Nopiltzintzin	-11.2719
▁tlatzilini	-11.272
▁tepahti	-11.272
▁quinyaoyahuallo	-11.272
▁teyttitilo	-11.272
▁keski	-11.272
▁Quimach	-11.2721
▁Lú	-11.2721
▁Eg	-11.2722
▁Tlatlahtocayo	-11.2722
▁otitlacat	-11.2722
altiz	-11.2722
▁Yacahuetz	-11.2723
▁Tomatla	-11.2723
▁august	-11.2723
▁oquinyacan	-11.2723
▁quihuinti	-11.2723
▁notzallo	-11.2723
pohpoa	-11.2724
ponti	-11.2724
▁noconilnamiqui	-11.2724
▁limon	-11.2724
▁tlazotilma	-11.2725
▁Caxtolli	-11.2726
▁chicuase	-11.2726
▁oumic	-11.2727
▁molini	-11.2727
▁motetzahui	-11.2728
▁Tlacochcalcatl	-11.2728
▁Vaticano	-11.2728
▁ajkopa	-11.2729
▁Teatin	-11.2729
▁Uta	-11.2729
▁totatoc	-11.273
▁kuenta	-11.273
▁legua	-11.273
▁kimeua	-11.273
▁omotequipacho	-11.2731
▁Tlalocan	-11.2731
▁yxpam	-11.2731
▁tlahtolloyan	-11.2731
▁ponhui	-11.2731
▁Uajkin	-11.2732
▁cihuapipilt	-11.2732
▁kinejki	-11.2734
▁Amitla	-11.2734
▁beint	-11.2735
▁notecuiyo	-11.2735
▁Chimalma	-11.2735
▁otitononotzque	-11.2737
▁omomauhti	-11.2737
▁onmatl	-11.2739
▁Teuhcxo	-11.2739
▁imojuanti	-11.2739
▁Toribi	-11.274
▁ipil	-11.2741
▁Tlillan	-11.2742
▁ycauaca	-11.2743
▁Reyno	-11.2743
▁Pochtla	-11.2743
▁Ihquion	-11.2743
▁Temillotzin	-11.2745
▁nauhtlamant	-11.2745
ntencia	-11.2745
▁tlatlapantli	-11.2746
▁notex	-11.2746
▁acame	-11.2747
▁imachiyo	-11.2747
cocohua	-11.2748
▁mowika	-11.275
▁makuil	-11.2751
▁yteyccauh	-11.2752
▁quilhuiquixti	-11.2753
▁xiuhtla	-11.2753
▁duques	-11.2754
▁oquinec	-11.2754
▁motlatlalli	-11.2754
▁icomienda	-11.2755
▁mohuaxca	-11.2755
▁ip	-11.2756
▁niquitlani	-11.2756
▁kichijke	-11.2756
▁poyox	-11.2757
▁ganin	-11.2758
▁Flor	-11.276
▁tlacuiloll	-11.276
▁ocallac	-11.2761
▁CHIL	-11.2761
▁itenyo	-11.2761
▁niaw	-11.2761
▁bala	-11.2763
teopixcatzin	-11.2764
▁nicouil	-11.2766
▁Malitzin	-11.2768
▁ička	-11.2768
ynte	-11.2771
▁tecoco	-11.2773
amian	-11.2774
cpa	-11.2775
mokejketsa	-11.2775
▁Xo	-11.2776
tlamacazque	-11.2777
moctzin	-11.2778
▁inkinekij	-11.2778
mando	-11.2779
▁Hecatzin	-11.2781
▁pahpacohua	-11.2781
▁mitzmo	-11.2781
▁pedas	-11.2782
▁orno	-11.2784
▁conpatla	-11.2785
▁teteuhcti	-11.2786
▁icruz	-11.2788
▁calaquiz	-11.2789
▁quipollo	-11.279
▁Mochipa	-11.279
▁quixtlahuaz	-11.2791
▁chicuacenpohual	-11.2791
tób	-11.2792
▁iicniuh	-11.2792
▁ticcaquilti	-11.2792
tlapololtiz	-11.2794
▁Atlixco	-11.2794
▁totlatqui	-11.2795
tlatziuh	-11.2797
▁notelputz	-11.2797
▁mochiuhtzinot	-11.2797
▁ichte	-11.2798
cuili	-11.2799
▁taxca	-11.2799
▁ahciah	-11.28
▁hualhuilohua	-11.2802
capa	-11.2803
▁ocalaque	-11.2803
▁Quetzalcoatl	-11.2803
ios	-11.2805
neuhque	-11.2805
▁ihuinti	-11.2805
▁itlaquen	-11.2805
▁Tepa	-11.2806
▁mopatla	-11.2809
▁tatok	-11.2811
netoliniliz	-11.2811
▁tictocaz	-11.2812
▁quilpi	-11.2813
quizqui	-11.2813
mundo	-11.2813
▁cueye	-11.2814
▁yuli	-11.2814
pehuaz	-11.2819
▁elotl	-11.282
▁nicchiua	-11.282
▁quiteylhui	-11.2821
nimitztatauhtiti	-11.2821
▁tlatlauhqui	-11.2823
▁ocnoce	-11.2823
▁cator	-11.2824
xixitin	-11.2824
▁Moquihuix	-11.2825
▁tlaman	-11.2825
çoquiquixti	-11.2827
▁mahuiztique	-11.2828
▁temachtique	-11.2829
achcauh	-11.283
▁yhuicpa	-11.283
▁Pan	-11.2833
▁hualtecauh	-11.2836
▁ahuiac	-11.2836
lamatzin	-11.2837
elik	-11.2837
▁quilpilli	-11.2839
▁ynacaztla	-11.284
▁contlaz	-11.2842
xitinque	-11.2842
▁Xicala	-11.2843
hpa	-11.2848
▁niccohua	-11.2849
▁seg	-11.2849
▁tocommo	-11.2852
▁Teotl	-11.2852
▁ocello	-11.2854
▁Tequi	-11.2855
▁teocuitlat	-11.2855
chiquacen	-11.2855
▁Merc	-11.2856
▁ihca	-11.286
▁otlanahuati	-11.286
▁yoquich	-11.2861
▁huiloa	-11.2863
▁ahuiyacan	-11.2864
▁mictillo	-11.2864
E	-11.2865
▁Cotolc	-11.2866
lican	-11.2866
opolla	-11.2866
▁cuillotl	-11.2873
▁tepanecatl	-11.2875
▁oquica	-11.2876
▁quinmocuitlahui	-11.2877
aloz	-11.288
▁may	-11.2882
▁mopouh	-11.2882
▁tothatzi	-11.2884
▁omocalti	-11.2885
▁quintolini	-11.2886
▁malinalca	-11.2889
▁mocencahua	-11.2889
▁tontla	-11.289
▁moquetzinotica	-11.2891
▁Yaotzin	-11.2893
▁Tech	-11.2893
▁tlalticpaque	-11.2896
▁Xicomoya	-11.2897
▁sink	-11.2897
▁Anca	-11.29
▁quimpehua	-11.2902
▁Uey	-11.2903
tenan	-11.2906
▁r	-11.2906
▁tlacame	-11.2906
yllotlacteuhct	-11.2907
mama	-11.291
▁icxi	-11.2912
oponi	-11.2912
▁Toteco	-11.2912
▁itestamento	-11.2914
▁Cohuatzin	-11.2916
yolque	-11.2919
▁icococa	-11.2921
▁cohuatequitl	-11.2923
▁quimixnamiqui	-11.2923
▁tenantzin	-11.2924
▁vezino	-11.2931
▁ciuatzitzinti	-11.2933
sako	-11.2934
▁Villa	-11.2935
▁mozcalia	-11.294
▁Uitz	-11.2947
ortug	-11.2948
pouhqui	-11.295
▁quimocuitia	-11.2952
▁tlatlatlauhti	-11.2953
▁cox	-11.2953
▁ičpokato	-11.296
yaoyo	-11.2963
▁kimikti	-11.2964
iego	-11.2968
zontli	-11.2968
anpa	-11.2968
▁Niño	-11.2968
▁titemo	-11.297
iah	-11.2972
ocatl	-11.2973
▁onicac	-11.2973
atitlan	-11.2979
pohuan	-11.2985
▁quitlallia	-11.2986
▁quicuique	-11.299
▁komalko	-11.2992
▁inxiuhtlapohual	-11.2996
▁uexotzincatl	-11.3
▁quimocohuiz	-11.3004
▁kar	-11.3008
▁moyocoya	-11.3009
pielia	-11.301
otla	-11.3016
palehui	-11.3016
notzque	-11.3018
▁oquinanquil	-11.3019
▁omotlanahuatil	-11.3021
▁quimoquenti	-11.3023
▁oquinmicti	-11.3024
ixpehpen	-11.3024
udo	-11.3025
▁quizti	-11.3031
caltzin	-11.3035
▁manti	-11.3036
temo	-11.3037
▁tlamat	-11.3037
▁Popo	-11.3038
▁xoco	-11.3041
▁machiyotl	-11.3043
cis	-11.3044
▁quimamati	-11.3045
huitequi	-11.3046
▁pochot	-11.3048
tocayotia	-11.3048
wec	-11.3049
▁ue	-11.3051
tach	-11.3052
caquiti	-11.3055
altitlan	-11.3056
htos	-11.3057
▁Tloqueh	-11.306
ualmotlalli	-11.3061
▁totlaçottatzi	-11.3061
tzotzona	-11.3061
huiliaya	-11.3062
xitin	-11.3064
▁Tonan	-11.3065
▁oquix	-11.3066
tlakwa	-11.307
oči	-11.307
huilli	-11.307
▁ispan	-11.3073
▁ycallaquiya	-11.3073
▁tekiti	-11.3073
▁tlacuazque	-11.3075
▁inhuel	-11.3075
▁Xochit	-11.3077
ichan	-11.308
▁ytzonteco	-11.3081
▁yhuinti	-11.3082
matque	-11.3083
tezcatl	-11.3084
▁iteopixca	-11.3084
▁ayauh	-11.3085
▁yyao	-11.3086
▁cuah	-11.3086
▁nicquetz	-11.3088
potoni	-11.3095
▁Ey	-11.3097
▁mical	-11.3098
▁Toltitla	-11.3098
illico	-11.3099
▁lea	-11.3101
▁Sekin	-11.3103
▁inhuicpa	-11.3105
▁imaman	-11.3106
▁piltzin	-11.3107
▁cirio	-11.3107
▁huitza	-11.3107
▁Coza	-11.3108
▁mixcolot	-11.3109
▁pol	-11.3114
▁Tepozt	-11.3115
▁xocom	-11.3115
mitra	-11.3116
▁tlachihuali	-11.3118
neltic	-11.3119
teyacan	-11.3122
▁Yek	-11.313
▁nochpuchtz	-11.3133
eyi	-11.3133
mania	-11.3136
▁miequi	-11.3137
▁micalli	-11.3137
▁oniquitta	-11.3139
niga	-11.3139
nehuan	-11.3144
O	-11.3147
▁Coyol	-11.3151
▁otlathui	-11.3151
▁xitinque	-11.3151
▁tlacuicuil	-11.3156
▁icih	-11.3164
▁cenpohuallonma	-11.3165
▁tapach	-11.3166
▁iztaque	-11.3166
titlania	-11.3167
tlatzoal	-11.3169
▁Maza	-11.3171
▁teipa	-11.3173
▁asis	-11.3174
▁quihuicac	-11.3175
▁cocoya	-11.3176
▁tonquiza	-11.3177
▁macocui	-11.3177
cas	-11.3185
kalaki	-11.3185
iotl	-11.3185
▁sol	-11.3191
olhuiliz	-11.3195
▁cacoc	-11.3196
▁tlaneltoquilizt	-11.3197
escrivano	-11.3197
gost	-11.3198
opechteca	-11.3199
tlaelehuiliz	-11.3199
▁concuiz	-11.32
▁Quauhna	-11.321
ecauh	-11.3212
▁Atzaqualc	-11.3213
▁Or	-11.3216
malacachotih	-11.3216
nahu	-11.3218
▁maquiz	-11.3221
▁kikualia	-11.3222
▁castol	-11.3223
▁mococoa	-11.3223
▁mana	-11.3224
▁nohhui	-11.3225
oco	-11.3225
▁kikaua	-11.3226
igot	-11.3228
▁ohuiloa	-11.3232
cihuanton	-11.3233
▁sis	-11.3234
oltecatl	-11.3234
▁teopixcatlahto	-11.3237
▁Totecu	-11.3237
yacapan	-11.3238
▁teuh	-11.3242
axtlatl	-11.3243
▁otomi	-11.3243
▁alma	-11.3247
▁otequiti	-11.3252
▁quimoquechili	-11.3253
▁pen	-11.3257
▁ticmaca	-11.3263
▁yatihuitz	-11.3267
ittaya	-11.327
nacaz	-11.3277
rolog	-11.3279
▁tie	-11.3282
▁siem	-11.3283
olinia	-11.3284
▁quinnahuati	-11.3284
▁Castill	-11.3285
▁Tlan	-11.3291
notz	-11.3293
▁metsti	-11.3301
▁nechca	-11.3304
▁icihuahua	-11.3304
▁noze	-11.3306
▁tleyc	-11.331
▁Amoca	-11.3319
tzaqualca	-11.332
cavaz	-11.3324
itiaya	-11.3324
▁tiamiqui	-11.3325
ot	-11.3326
▁yeye	-11.3328
epke	-11.333
▁cuexteca	-11.3334
tlaliz	-11.3337
▁komal	-11.3338
▁Tepo	-11.3339
macehua	-11.3344
▁teupixqu	-11.3355
metzpa	-11.3356
allo	-11.3361
Ca	-11.3362
ahue	-11.3364
piloua	-11.3365
uiztli	-11.3366
▁innacaz	-11.3368
quizayan	-11.337
▁tecomatl	-11.3371
▁motl	-11.3375
▁yocu	-11.3378
tecpana	-11.3386
▁mokaua	-11.3387
▁Mixcoua	-11.339
▁kuento	-11.3394
atlactlomey	-11.3401
temoctzin	-11.3404
▁yaotlato	-11.3406
hiuhcnahui	-11.3407
htohuaya	-11.3409
▁uitsyo	-11.3409
▁imaco	-11.3411
▁Neh	-11.3411
▁cehui	-11.3417
▁tepetzin	-11.342
omeh	-11.3423
▁Tlalteca	-11.3423
alton	-11.3425
▁Cuetlaxtla	-11.3426
▁quinemilti	-11.3427
acic	-11.3427
ul	-11.3428
macal	-11.343
tentli	-11.343
▁itha	-11.3431
▁quitzacua	-11.3435
laquico	-11.3436
opilhuan	-11.3439
cio	-11.3441
▁tlapitza	-11.3442
▁aco	-11.3445
namitl	-11.3446
▁mop	-11.3449
▁ualmo	-11.345
▁tlapac	-11.3455
xoxoui	-11.3457
▁ahuil	-11.3457
▁totec	-11.3457
noch	-11.3458
ihuaconetl	-11.3461
▁Tlananquili	-11.3462
yocoyalloc	-11.3463
un	-11.3465
tamachihua	-11.3468
▁az	-11.3469
▁ylhuicaa	-11.3471
▁Yxco	-11.3471
contlaza	-11.3471
▁pipiltont	-11.3471
▁otinech	-11.3474
▁quitenehua	-11.3479
▁hueliti	-11.3481
cacque	-11.3482
▁aquen	-11.3489
auhtitlan	-11.349
▁tlayaca	-11.3494
▁quipacho	-11.3495
oqui	-11.3495
quimotlalilia	-11.3496
huil	-11.3497
▁coyohua	-11.3498
▁Nino	-11.3503
▁nohue	-11.3504
tztoc	-11.3507
hke	-11.3509
▁oquichihua	-11.3509
uayan	-11.3511
▁tlatzacual	-11.3511
▁ixo	-11.3515
wis	-11.3515
▁noncuica	-11.352
cenyollo	-11.3523
oltica	-11.3525
▁choquiztl	-11.3527
▁naci	-11.3527
tiya	-11.3531
lca	-11.3533
tapani	-11.3535
yohua	-11.3537
mochin	-11.3539
▁etl	-11.354
▁caci	-11.3541
▁Otla	-11.3543
itlalli	-11.3546
▁huehcahua	-11.3547
uatro	-11.3549
▁quauht	-11.3553
▁amox	-11.3556
tel	-11.3557
▁ximotlali	-11.3559
▁chantih	-11.356
▁poctl	-11.356
calmimilo	-11.3562
▁not	-11.3562
▁nahuatlahtol	-11.3563
▁oyeco	-11.3569
▁Cuica	-11.3573
ista	-11.3576
catzitzinti	-11.3576
tlahuiz	-11.3578
▁Ocuill	-11.3579
quatequi	-11.3579
motta	-11.3579
▁Testigos	-11.3582
htique	-11.3583
▁cri	-11.3585
▁cuezconpi	-11.3585
▁nihual	-11.3588
▁quizaloz	-11.3588
mol	-11.359
moquetzaya	-11.359
▁icha	-11.3593
▁tlapohua	-11.3593
▁mahuilti	-11.3594
cuepaz	-11.3595
cpatl	-11.3595
tlapohual	-11.3598
mellel	-11.3599
polohua	-11.36
▁oro	-11.3601
▁kajfen	-11.3603
▁mis	-11.3604
▁Atoto	-11.3607
moxillan	-11.3608
▁tlacayotl	-11.3612
▁otoconcu	-11.3616
▁niquix	-11.3624
▁quimatiz	-11.3625
bano	-11.3628
▁quiqua	-11.3636
▁pain	-11.3637
▁Xico	-11.3644
▁omochihua	-11.3645
▁Am	-11.3647
▁yetetl	-11.3657
▁xochit	-11.3657
▁Izta	-11.3659
▁yquiza	-11.366
▁pahpaqui	-11.3664
▁chichic	-11.3664
▁mocuic	-11.3666
totihui	-11.367
▁quimottiti	-11.3671
▁Yx	-11.3674
chipahuaque	-11.3675
vallos	-11.3675
nauatia	-11.3676
tzinoz	-11.3682
▁toconito	-11.3686
▁pah	-11.3692
▁Guad	-11.3696
liliztli	-11.3697
▁tiquitoz	-11.3698
▁tlayohua	-11.3704
tenamic	-11.371
▁iuhca	-11.3722
▁otecaquitil	-11.3722
▁mit	-11.3722
itizque	-11.3722
alticpactzin	-11.3725
▁calman	-11.373
▁techan	-11.3732
yeliz	-11.3732
ice	-11.3734
▁timot	-11.3736
extli	-11.3741
▁onchicuace	-11.3741
alla	-11.3742
▁Tecui	-11.375
▁Quau	-11.3752
hti	-11.3752
▁yollo	-11.3752
▁atlauht	-11.3753
▁tepeua	-11.3755
▁tiw	-11.3763
▁sen	-11.3763
▁Cuauhtzin	-11.3764
▁coro	-11.3766
▁tlecopa	-11.3768
tlahtohuaya	-11.3768
▁quich	-11.3769
▁moteochiuh	-11.377
▁moteneuh	-11.3771
▁quitztica	-11.3771
▁intzon	-11.378
▁tatat	-11.3782
mopechtec	-11.3783
ihuitzin	-11.3788
▁huall	-11.3792
▁Yeh	-11.3792
mma	-11.38
ETL	-11.3803
catlteuhc	-11.3804
▁nicnemilia	-11.3805
exi	-11.3805
tlalticpac	-11.3807
▁onechtlaocol	-11.3808
▁motlancuaquetz	-11.3808
cahuilia	-11.3808
niquitoa	-11.3813
▁tlacateccat	-11.3813
▁uecaua	-11.3814
▁oye	-11.3818
▁tlacayo	-11.3818
▁nocihua	-11.382
ocatzin	-11.3821
▁Totol	-11.3826
ohuani	-11.3827
halchiuhtlahtona	-11.3832
▁tepal	-11.3836
▁tlaquetzal	-11.3836
▁Vi	-11.3841
▁Cuauhx	-11.3846
▁olini	-11.3847
uc	-11.3852
▁tlatillo	-11.3853
▁quinmoquixtili	-11.3856
pitzalo	-11.3862
▁cuepon	-11.3866
nas	-11.3867
tlayohuaz	-11.387
▁itlanex	-11.387
▁tlahtocatiz	-11.3872
ansa	-11.3872
nelli	-11.3873
mohuicac	-11.3874
escuela	-11.3877
▁Mallat	-11.388
omic	-11.3885
▁aman	-11.3886
▁ticmatiz	-11.3887
▁ohue	-11.3891
uillo	-11.3892
aška	-11.3894
▁cozca	-11.3894
▁kito	-11.3894
▁mel	-11.3896
▁Chalchiuhtli	-11.3897
▁Huetzi	-11.3897
cchicuey	-11.3902
teocaltzin	-11.3906
pilhuia	-11.3907
▁yato	-11.391
catinemi	-11.3915
ohome	-11.392
alleque	-11.3924
uati	-11.3926
tonik	-11.3926
kisas	-11.3928
▁Mizquitl	-11.3931
yehuatl	-11.3932
▁oquincui	-11.3932
lvar	-11.3934
tlatlani	-11.3935
lili	-11.3935
▁timonequilti	-11.3939
▁motlallia	-11.3943
▁yehuantzi	-11.3945
▁ycxi	-11.3947
▁ikone	-11.3955
▁Neca	-11.3957
zacatl	-11.3958
▁chapol	-11.396
asqua	-11.3962
▁xquin	-11.3964
▁tenex	-11.3965
▁tixochit	-11.3967
piya	-11.3971
mopehualti	-11.3974
chiua	-11.3977
im	-11.3977
▁kas	-11.3977
▁Huitzilla	-11.3978
▁chikaua	-11.3979
▁Xochin	-11.3983
▁caxtoll	-11.3993
tlahtoca	-11.3994
▁int	-11.3996
▁nem	-11.3999
pozon	-11.4001
tlahtohua	-11.4009
lania	-11.4013
▁tepet	-11.4014
itonal	-11.4018
cmatlactlomome	-11.4019
▁tecua	-11.4022
▁omoquatequi	-11.4022
yolcocoa	-11.4023
ach	-11.4024
▁motlan	-11.4027
çopilhuantzitzin	-11.4027
oncan	-11.4034
▁namico	-11.4036
▁nohui	-11.4038
▁Ticpia	-11.4041
▁iyolloh	-11.4045
ñ	-11.4047
▁Moquiui	-11.4048
itaci	-11.4049
▁chan	-11.405
epa	-11.4052
huica	-11.4052
▁monepano	-11.4053
anque	-11.4073
▁mate	-11.4074
▁ex	-11.4074
▁quimac	-11.4074
nso	-11.4075
ixtlahuaz	-11.4075
▁pipilt	-11.408
▁nonan	-11.4086
tihuani	-11.4087
▁ynemac	-11.4088
▁XXII	-11.4089
ahuilti	-11.409
tlanahuatilli	-11.4091
▁Nonan	-11.4093
▁yolli	-11.4095
nemili	-11.4105
imopilia	-11.4106
▁otimo	-11.4114
▁yntlatqui	-11.4115
chihuilli	-11.412
▁Sim	-11.4121
▁deci	-11.4122
ispan	-11.4123
▁ipetl	-11.4126
▁tlallolin	-11.4127
▁yaoc	-11.4127
▁quinechico	-11.4129
uhtzin	-11.4132
milli	-11.4134
tenehua	-11.4137
namiquiz	-11.414
▁tlatete	-11.4145
kwali	-11.4147
▁quimochihuiliz	-11.4149
tlecahui	-11.415
▁quinquixti	-11.4152
▁ticuicani	-11.4152
tiuitz	-11.4154
▁chiqu	-11.4158
tlapaltzin	-11.4161
▁teocuitlay	-11.4165
▁moihto	-11.4168
ntetl	-11.4168
▁quihualtem	-11.417
tac	-11.4173
yek	-11.4174
▁metz	-11.4177
htoqueh	-11.4178
▁tlanonotza	-11.4184
▁mocentlalia	-11.4187
▁yunt	-11.419
▁chichinaca	-11.4191
acatzin	-11.4195
▁quiteneuhti	-11.42
inenca	-11.4201
uhtoc	-11.4204
▁quiten	-11.4205
kawi	-11.4205
okachi	-11.4206
▁momoz	-11.4208
totoca	-11.4213
▁Nonohualcat	-11.4219
tlamatiliz	-11.4222
npaneca	-11.4231
▁natzin	-11.4234
▁tiltik	-11.4238
▁conitoti	-11.4238
ualhuia	-11.4249
▁quihtotia	-11.425
▁Ser	-11.425
xayac	-11.4251
▁ixhua	-11.4255
home	-11.4256
huehuetque	-11.426
couatl	-11.4262
justicia	-11.4265
▁izca	-11.4266
▁yntlatoca	-11.4267
tlapallo	-11.4267
▁chihualo	-11.4271
itiz	-11.4275
nonqua	-11.4277
tihuetz	-11.428
omachix	-11.428
▁onc	-11.4281
▁mocual	-11.4283
machiyo	-11.4287
ér	-11.4291
▁molnamiqui	-11.4294
pac	-11.4297
▁taka	-11.4297
▁Muño	-11.4303
chijki	-11.4305
malli	-11.4305
▁tiyaz	-11.4308
▁kana	-11.4313
hualmotlali	-11.4316
▁kikuecho	-11.4318
pehuazque	-11.4319
huey	-11.4329
icatca	-11.4331
ciyahua	-11.4333
▁altepechaneh	-11.4333
pixca	-11.4334
tlahuilli	-11.4335
azqueh	-11.4339
▁axihua	-11.4347
▁yohui	-11.4347
huilia	-11.4351
▁ychina	-11.4352
xiuit	-11.4354
tecon	-11.4354
aroa	-11.4356
▁nontla	-11.4356
cofradía	-11.4358
tocaya	-11.4359
polo	-11.4361
▁omonemili	-11.4364
▁kita	-11.4365
▁ticte	-11.4376
taj	-11.4378
tura	-11.4378
taol	-11.4378
▁xolo	-11.4379
for	-11.4387
▁nimitzno	-11.4388
uiquili	-11.4388
spañoles	-11.4389
mayauh	-11.4393
tlacpac	-11.4397
▁Ycno	-11.4398
▁Justi	-11.4399
▁Onech	-11.4401
▁nau	-11.4402
iyaya	-11.4404
nemizque	-11.4405
▁iyao	-11.4405
▁Quauhtlatoa	-11.4407
stlacosauh	-11.4407
ihtoz	-11.4409
▁Atezca	-11.441
▁imixpa	-11.4411
motlalli	-11.4413
▁quimolhuia	-11.4416
nopal	-11.4416
▁Totec	-11.4417
▁mehua	-11.4418
▁milpa	-11.4418
tona	-11.4418
▁olin	-11.4421
▁onte	-11.4425
antlaca	-11.4425
amanqui	-11.4429
▁Quil	-11.4431
huitze	-11.4434
▁nemoa	-11.4435
neyxcahuil	-11.444
▁icol	-11.444
xico	-11.4441
▁testico	-11.4445
▁tlatecpant	-11.4446
▁altepechan	-11.4449
▁tepacho	-11.4449
▁Nex	-11.4449
tlah	-11.445
icuiliuhti	-11.4452
▁tlapi	-11.4457
nez	-11.4457
▁Cipac	-11.4462
▁Eva	-11.4464
▁nono	-11.4473
namaki	-11.4473
cohuaz	-11.4474
ecahuil	-11.4478
otoca	-11.4479
▁nauhpohuall	-11.4488
quizaya	-11.4496
tomahuac	-11.4497
notztia	-11.4503
▁quinanquili	-11.4508
▁Uiz	-11.4508
animan	-11.4508
▁tlahtocaaltepe	-11.4509
motlahtlanili	-11.4512
▁čiki	-11.4514
tiloz	-11.4515
cuecuexa	-11.4521
▁quixo	-11.4522
▁omotlanahuatili	-11.4528
um	-11.4528
▁quitemo	-11.4528
▁quihualmama	-11.453
▁ixmati	-11.4531
▁çaç	-11.4534
▁Yhuitl	-11.4537
nahuatitia	-11.4545
▁motata	-11.4546
moc	-11.4548
▁Cap	-11.4548
▁onmani	-11.4549
far	-11.455
amilca	-11.456
iko	-11.4561
tlalnamiquiliz	-11.4562
▁kipixto	-11.4563
namacoya	-11.4571
▁Nocni	-11.4573
▁çoqui	-11.4574
tepiton	-11.4574
▁nimiqui	-11.4574
▁xochimil	-11.4577
tencopa	-11.458
▁kini	-11.4588
tlayecolti	-11.459
iuhcan	-11.4593
ve	-11.4597
catica	-11.4599
bra	-11.4602
▁telpuch	-11.4603
▁Mixcohuatl	-11.4607
rte	-11.4607
▁tepantl	-11.461
▁hualpe	-11.461
▁hualyeti	-11.461
▁quicuaz	-11.4611
▁ixiptla	-11.4613
▁motequi	-11.4613
▁xitech	-11.4616
tzaya	-11.4617
▁albacea	-11.4619
▁conitu	-11.462
ynic	-11.4624
olegio	-11.4624
▁chicuhna	-11.4625
▁huapal	-11.4628
nemizqueh	-11.4628
▁hualmotla	-11.4628
▁hualmiquani	-11.4629
uico	-11.4633
chic	-11.4634
▁mochiuhtia	-11.4635
pepetlauh	-11.4641
picti	-11.4643
▁conit	-11.4647
huelic	-11.465
cos	-11.4655
▁motzicoa	-11.4656
coya	-11.4657
ixko	-11.4658
otoc	-11.4658
hcatzin	-11.4658
tlamachotil	-11.4659
rado	-11.4663
▁opano	-11.4666
▁tlamani	-11.4668
▁cristiano	-11.4668
iyauh	-11.4671
ura	-11.4672
zoh	-11.4673
▁quall	-11.4675
▁ipilhua	-11.468
cchiuhcnahui	-11.4693
▁mahuiztililo	-11.4699
▁cuitlapill	-11.4699
▁ximopanolti	-11.4699
ltzallan	-11.47
uiaya	-11.4701
▁yehuanti	-11.4702
exo	-11.4703
ochtzin	-11.4705
moyahua	-11.4705
▁quexqui	-11.4705
▁quipohua	-11.4708
▁Nech	-11.4712
mekat	-11.4716
▁Universi	-11.4717
▁Celestial	-11.4717
▁Motecuhçoma	-11.4717
▁Moteoczoma	-11.4717
▁Moteucsomazin	-11.4717
▁Oficio	-11.4717
▁cathetrá	-11.4717
▁confirmació	-11.4717
▁itzmiquilitl	-11.4717
▁jubileo	-11.4717
▁lugar	-11.4717
▁officiales	-11.4717
▁prefect	-11.4717
▁tetetstik	-11.4717
▁tlacoçahuia	-11.4717
KOYO	-11.4717
beatificaci	-11.4717
▁Suprem	-11.4717
▁Tlantilolco	-11.4717
▁Vespas	-11.4717
▁calhuahza	-11.4717
▁civil	-11.4717
▁tuwalt	-11.4717
KAMOJ	-11.4717
▁hordinario	-11.4717
▁yehyecatl	-11.4717
▁Tetlepanquetza	-11.4717
▁nimitsilui	-11.4717
▁quitzonquixti	-11.4717
▁tlaihiyouilizt	-11.4717
▁Teotihuacan	-11.4717
▁ximonemiti	-11.4717
▁monges	-11.4717
▁tlacanecuilo	-11.4717
▁tepoztlacuepon	-11.4717
▁Ajusco	-11.4717
▁pitzonacatl	-11.4717
▁huallamelauh	-11.4717
▁tlazomaxtla	-11.4717
▁quateçontzi	-11.4717
QUIN	-11.4717
▁tomahpil	-11.4717
▁Tziuactla	-11.4717
▁quiuatqui	-11.4717
▁Moyocoyatzin	-11.4717
▁acolnauacat	-11.4717
▁kiuatsa	-11.4717
▁mosencahuas	-11.4717
phet	-11.4718
▁umoteca	-11.4718
▁caxtilantlacah	-11.4718
▁Melahuac	-11.4718
▁oquixixitini	-11.4718
▁Monser	-11.4718
▁peones	-11.4718
cuepca	-11.4718
▁oquixitini	-11.4718
▁Cuauhtemoctzin	-11.4718
▁mocehuitzino	-11.4718
▁oquimocohui	-11.4718
▁Quaquauhçi	-11.4718
▁onmiquani	-11.4718
▁Nomaicni	-11.4718
▁otechilhui	-11.4718
▁Totoquihua	-11.4719
▁ihuitopil	-11.4719
▁tamechtohuiquil	-11.4719
▁kalijtik	-11.4719
▁kipaka	-11.4719
▁tictocuitlahui	-11.4719
▁nipahpaqui	-11.4719
▁quinmochihuilli	-11.4719
▁timocacaya	-11.4719
▁Cuitlauac	-11.472
▁anmohuica	-11.472
▁chilpitzahuac	-11.472
quipanos	-11.472
▁nopapá	-11.472
▁kweb	-11.472
▁maquimatica	-11.4721
▁kajón	-11.4721
▁Acatla	-11.4721
▁yoquichhui	-11.4721
▁tlemamal	-11.4721
úb	-11.4721
▁Oyeya	-11.4721
▁ikuitlapa	-11.4722
tiyanquiz	-11.4722
▁tekuani	-11.4722
▁quinmotlalili	-11.4722
▁omoteylhui	-11.4723
▁Uitzilopuch	-11.4723
▁quiximati	-11.4723
▁quiixpanos	-11.4723
▁itlaaltil	-11.4723
▁uajtli	-11.4723
▁oquitecaquilti	-11.4723
▁tlejkok	-11.4723
▁Mihtoa	-11.4723
▁quitlalten	-11.4724
▁Chacha	-11.4724
▁Conilhuia	-11.4724
▁motomine	-11.4724
▁yxpoyahua	-11.4724
▁caxtillan	-11.4724
▁Carran	-11.4725
▁Alç	-11.4725
▁inextla	-11.4725
▁tetlaocolti	-11.4725
▁mapapatauak	-11.4725
▁angli	-11.4726
▁cuanaca	-11.4726
▁tonemiliz	-11.4726
▁quiihtohua	-11.4727
▁descar	-11.4727
▁napoualli	-11.4727
▁cihuatontli	-11.4728
▁amihiyo	-11.4729
uchtzin	-11.473
mocentlamachti	-11.473
▁quipallehui	-11.473
▁iheua	-11.4731
▁nicxochi	-11.4732
▁kwalani	-11.4732
▁ynquisidores	-11.4732
▁konetl	-11.4733
▁nohuan	-11.4733
▁quinmohuiquilli	-11.4733
▁Guadalcá	-11.4734
▁estaga	-11.4734
ek	-11.4735
▁mecahuiteco	-11.4735
▁tenamiki	-11.4735
▁moxima	-11.4737
▁Ihyo	-11.4737
▁Chalchihuitl	-11.4738
yoh	-11.4738
▁niquiximati	-11.4738
▁tlapapal	-11.4739
▁Acul	-11.4739
▁honpohual	-11.4739
cuechahua	-11.4739
▁nihuehue	-11.4739
quicac	-11.474
▁oquinamiquito	-11.4741
▁oquinmomaquilli	-11.4741
▁cuartel	-11.4741
▁cualtetzi	-11.4742
▁Acuezcoma	-11.4742
▁nimiquis	-11.4742
▁timonan	-11.4742
▁moixcotona	-11.4743
▁nečtla	-11.4743
▁pohpolihui	-11.4744
▁Ticoc	-11.4744
ueyo	-11.4744
▁atliua	-11.4744
enanca	-11.4745
▁cepaya	-11.4745
▁amatlacuilol	-11.4745
euayo	-11.4746
▁Theohuaca	-11.4747
▁ichtaca	-11.4747
▁quimixpanti	-11.4748
▁imaceual	-11.4748
▁ychcapixqu	-11.4748
▁tlazohtla	-11.4748
▁Ximotlali	-11.4749
▁tequichihuani	-11.4749
▁mocueptzino	-11.4749
▁kikuito	-11.475
idad	-11.475
▁chichipahuaque	-11.475
▁mochihuazquiani	-11.475
▁ypial	-11.4752
▁sehcano	-11.4752
▁mocuecuep	-11.4752
▁ontlaxtlauaz	-11.4752
▁quipatiyoti	-11.4752
▁Uacal	-11.4752
▁nauhcanpa	-11.4753
tlacemicnopilhui	-11.4753
▁hualmocallaqui	-11.4754
tlapalo	-11.4758
▁tlateteko	-11.4758
▁toyao	-11.4758
▁otlamic	-11.4758
ecuhtli	-11.4758
▁ocaxilti	-11.4759
▁sikiw	-11.476
▁Viv	-11.4761
azqual	-11.4761
▁mohuepahua	-11.4761
▁Nem	-11.4761
▁AUH	-11.4762
▁proces	-11.4762
.	-11.4762
▁tinotzaloz	-11.4764
▁yxcoyan	-11.4764
▁Tenonotzaliztl	-11.4764
▁quauhtlatollo	-11.4765
terio	-11.4765
nopilhuantzitzin	-11.4766
▁Des	-11.4766
▁itečin	-11.4766
▁Tlauel	-11.4767
▁iyaoquizca	-11.4767
▁ánima	-11.4767
▁tetlatqui	-11.4768
▁monetolti	-11.4768
▁kuapalak	-11.4768
▁moilochti	-11.4768
titotlatolcuepaz	-11.4769
▁Crucifixo	-11.4769
sion	-11.477
▁oquimacaque	-11.4771
▁itiachcauh	-11.4771
▁tepehua	-11.4771
▁omonanahuati	-11.4772
▁nonemiliz	-11.4773
cocone	-11.4773
▁coche	-11.4773
▁nicpiazquia	-11.4773
xoxo	-11.4774
▁huipile	-11.4774
▁itelpoch	-11.4775
▁tzopelic	-11.4776
▁tlanauatia	-11.4778
▁quitzacuilli	-11.4779
▁conix	-11.478
▁cuetlaxtecatl	-11.4781
pahpati	-11.4782
▁techpalehuiz	-11.4782
▁Quetzaltotot	-11.4784
▁xexeliuh	-11.4784
▁otu	-11.4785
rax	-11.4786
axcalli	-11.4787
▁yoyolime	-11.4788
▁Nahual	-11.4789
▁conmotlalili	-11.479
▁centecpan	-11.4792
▁otite	-11.4793
▁kikaki	-11.4794
▁tzomi	-11.4794
▁quiixnextis	-11.4795
▁tlachiya	-11.4795
▁Yzcoatzi	-11.4796
▁Tizoc	-11.4797
ssion	-11.4797
▁mosen	-11.4797
▁otiquitaque	-11.4799
▁ver	-11.4799
▁oquipixque	-11.48
▁weyi	-11.48
▁Otic	-11.4801
▁Noteahu	-11.4803
▁talpan	-11.4804
iua	-11.4805
▁chicuexiuhti	-11.4805
▁huerta	-11.4805
▁mixnamic	-11.4806
hapultepe	-11.4806
▁timika	-11.4807
▁mizquitl	-11.4807
▁titlakuas	-11.4808
▁Ur	-11.4808
▁tzitziquitzin	-11.4808
nečmaka	-11.4808
▁Tzompahuaca	-11.4808
▁tlayllotla	-11.4809
▁oquinnahuati	-11.4809
▁quemen	-11.481
▁nopiltzintzin	-11.4811
▁tlapohual	-11.4812
alhuia	-11.4813
TOMAT	-11.4814
▁itokay	-11.4815
teh	-11.4818
▁pitzome	-11.4818
▁bulla	-11.4819
petlame	-11.4819
▁Manozo	-11.482
▁moteneua	-11.482
▁yahtinemi	-11.4821
▁tlazolli	-11.4821
▁huilohua	-11.4821
▁conmo	-11.4822
▁tiquinmaca	-11.4824
▁hualmocueptzino	-11.4825
miccahue	-11.4825
▁quitoquilia	-11.4826
tlacatecollo	-11.4827
▁omotlahtocatlal	-11.4828
▁ounaci	-11.4828
▁titlakwa	-11.4831
▁tepi	-11.4832
▁oticcac	-11.4833
▁quicuepil	-11.4833
▁quitocatinemi	-11.4834
▁tlalmaceuhqu	-11.4836
▁molino	-11.4836
▁Gon	-11.4838
ehuetzquiti	-11.4838
▁antle	-11.4839
▁Tepaneca	-11.484
nijki	-11.484
▁Dom	-11.4841
ido	-11.4841
▁conmochihuili	-11.4842
▁netequi	-11.4849
▁Xolo	-11.4851
▁ichpuchtzin	-11.4851
▁Oaci	-11.4853
▁Tlotli	-11.4854
nahuatilia	-11.4855
▁ocenquiz	-11.4855
▁temolcax	-11.4856
▁Toci	-11.4857
kema	-11.4861
laque	-11.4862
▁bor	-11.4863
▁niyas	-11.4865
▁quichihuaznequi	-11.4866
▁quimihtalhui	-11.4866
xayaque	-11.4866
▁mizquica	-11.4868
▁Otech	-11.4868
▁mopilhuan	-11.4869
▁quiualilhui	-11.4869
traba	-11.4871
yezque	-11.4871
▁ticuazque	-11.4872
ualiztli	-11.4872
nechmocnelili	-11.4875
tlacuauhnahuati	-11.4875
▁oyeca	-11.4875
▁quimoyacanilia	-11.4876
walkis	-11.4876
peualtia	-11.4877
▁tineci	-11.4877
nen	-11.4877
▁anquimati	-11.4878
▁nixochi	-11.4881
▁yuhquim	-11.4882
▁pastor	-11.4883
▁itzmolini	-11.4884
▁ycalaquiyan	-11.4885
tipohualo	-11.4885
▁Roch	-11.4885
tejtek	-11.4886
▁tlaocoxti	-11.4888
▁tecuani	-11.4889
▁tečmaka	-11.4891
▁cavalleros	-11.4893
▁pouhtica	-11.4898
▁tiwala	-11.4898
▁quihuallitta	-11.4901
▁yolo	-11.4902
▁mocolhua	-11.4903
▁ittaz	-11.4904
▁icuiliuhti	-11.4904
▁ixpolihui	-11.4904
ihuitz	-11.4904
▁siya	-11.4905
▁yho	-11.4906
quiliztica	-11.4907
tetlacamachiliz	-11.4907
▁ijk	-11.4907
▁quinmopachilhui	-11.4909
T	-11.491
▁awelito	-11.491
eopixcatlatecpan	-11.4911
notzalo	-11.4913
▁xochitla	-11.4913
tetzotzon	-11.4913
▁ant	-11.4916
▁tzatzayan	-11.4917
▁auto	-11.4918
▁Ayopocht	-11.4919
▁kichijchiua	-11.4922
terre	-11.4922
▁quipachoua	-11.4923
▁onyohuac	-11.4924
▁tlatzotzona	-11.4924
▁ninoquixti	-11.4926
▁mayan	-11.4926
cihuaicni	-11.4926
▁oquimpeuh	-11.4928
▁notata	-11.4929
▁Mor	-11.493
▁mocnelili	-11.493
▁yoloxochi	-11.493
ivitla	-11.4934
▁chinampaneca	-11.4934
▁tlayahualo	-11.4934
kwalikak	-11.4934
▁ymachtzi	-11.4934
xilan	-11.4935
▁Tlalti	-11.4935
▁QUE	-11.4935
▁kal	-11.4935
▁oquinchiuhque	-11.4937
motlatlauhtilia	-11.4939
▁ytechcopa	-11.4941
fi	-11.4941
▁neltillizt	-11.4942
▁tetta	-11.4944
lot	-11.4945
▁yten	-11.4945
▁oquitemaca	-11.4945
▁otzintic	-11.4946
▁none	-11.4947
▁teochol	-11.4949
▁Moyot	-11.4953
▁nemilistli	-11.4954
▁itztoc	-11.4957
▁actihuetz	-11.4957
lado	-11.4957
▁oquitoca	-11.4957
uhti	-11.4958
▁tlapallan	-11.4959
▁Nicpia	-11.496
▁moyahua	-11.4963
▁quilnamiqui	-11.4968
eski	-11.4968
zcaliliz	-11.4969
auhcampa	-11.497
▁mulatoti	-11.497
palehuilo	-11.4974
ados	-11.4974
▁otlamomotla	-11.4974
ahuaqui	-11.4976
▁Dionis	-11.4976
▁chipaua	-11.4976
▁quineltilizque	-11.4977
▁motamachi	-11.4978
▁ipillo	-11.4979
▁yolca	-11.498
▁cihuatzitzinti	-11.4984
alijtik	-11.4985
▁ijuanti	-11.4985
▁quincuitia	-11.4986
▁nokone	-11.4986
▁Aztax	-11.4989
▁Coz	-11.4989
▁quicuazque	-11.4989
ava	-11.499
tlehuatza	-11.499
▁ymal	-11.4993
▁Nahuaqueh	-11.4995
tocauh	-11.4997
chtique	-11.4997
▁notomine	-11.4999
panoaya	-11.5
ahuilquixti	-11.5003
▁huehuetz	-11.5003
▁ichpo	-11.5003
▁quimixotili	-11.5004
tecpaneca	-11.5012
▁yoma	-11.5013
▁onoz	-11.5017
▁vara	-11.5018
▁nahuatlahto	-11.5019
▁cempual	-11.502
▁ijtik	-11.5021
▁kilnamiki	-11.5022
paño	-11.5023
▁ayxtlahua	-11.5024
ottatzin	-11.5032
macoz	-11.5034
pachohua	-11.5036
icontetl	-11.5039
▁pielo	-11.5039
▁Ayocua	-11.504
▁quauhtlapecht	-11.504
yaoquizca	-11.5041
▁Cemanahua	-11.5042
▁lis	-11.5043
▁omocehui	-11.5043
cuillohua	-11.5048
▁quimictia	-11.5049
▁iquech	-11.5052
▁Huitz	-11.5053
▁yncal	-11.5053
▁ninomiquili	-11.5054
▁mero	-11.5055
▁nauinti	-11.5055
▁tepatique	-11.5057
▁Quaquauh	-11.5058
▁timoquixti	-11.5068
nenequi	-11.5069
icualita	-11.5069
hpiani	-11.5071
ciua	-11.5073
▁walpano	-11.5074
▁papa	-11.5079
▁Xocon	-11.5079
illan	-11.5082
▁hualnez	-11.5084
ad	-11.5087
▁libre	-11.5088
ipto	-11.5089
▁tepitoto	-11.5092
▁nikile	-11.5093
▁quixelo	-11.5094
▁topilhua	-11.5094
▁itlazo	-11.5095
asitiw	-11.5098
kwent	-11.5098
cuitlahuic	-11.5099
nice	-11.5103
ihcac	-11.5106
▁quicouh	-11.5107
xueli	-11.5108
papalotl	-11.5109
▁moix	-11.5109
▁macehualtzitzin	-11.5109
▁oquiça	-11.5112
▁takua	-11.5112
eltica	-11.5112
▁achtopan	-11.5116
tzotzopaz	-11.5121
▁occan	-11.5124
iloz	-11.5127
▁intlahtocayo	-11.5128
▁cihuanton	-11.513
▁onchicom	-11.5132
otica	-11.5135
nemac	-11.5138
▁nacayo	-11.5141
▁techpaleui	-11.5142
▁yuwa	-11.5147
petlacal	-11.5147
▁ancate	-11.5147
▁Yztacal	-11.5147
▁xol	-11.5148
▁caltempa	-11.515
▁yaomiqui	-11.515
uis	-11.5157
▁itey	-11.5157
tlatoaya	-11.5158
▁tommo	-11.5165
▁mok	-11.5169
lotzin	-11.517
▁mitotique	-11.517
▁cecentlamant	-11.5172
panoya	-11.5173
cayohua	-11.5174
▁totlahtoca	-11.5178
▁tzillin	-11.518
yencuic	-11.5182
▁quimomictili	-11.5182
▁Hel	-11.5182
akak	-11.5183
▁tajtol	-11.5184
▁tlallolini	-11.5186
momaquilli	-11.5191
▁motlapachilhui	-11.5191
ahuil	-11.5193
▁kitekili	-11.5201
▁conc	-11.5201
▁quiquetztia	-11.5202
cuauhyo	-11.5203
ços	-11.5203
▁tlachix	-11.5205
nauhcampa	-11.5205
▁cehuiz	-11.5206
▁oquinmaca	-11.5209
▁onpohuallon	-11.521
▁Tepetla	-11.5215
▁oyah	-11.5217
▁quinanquilli	-11.522
kak	-11.5225
otza	-11.5226
mayiti	-11.5226
C	-11.5234
▁Nixpa	-11.5236
ochihuaya	-11.5238
▁yotla	-11.5239
▁mayanallo	-11.5239
hquia	-11.5239
▁tematequilo	-11.524
cacopa	-11.5241
▁hualmoquetz	-11.5244
icnotlamati	-11.5247
▁ytlacauh	-11.5248
né	-11.5251
notlahuel	-11.5253
▁Velá	-11.5253
miximati	-11.5253
quihuecapano	-11.5256
▁Yxquich	-11.5257
koj	-11.5262
▁tlacatec	-11.5263
aquiz	-11.5268
▁fue	-11.5269
▁tocen	-11.5273
▁Herm	-11.5273
▁Quiyauh	-11.5281
ijtik	-11.5281
▁moxochi	-11.5282
▁pilan	-11.5283
hualoc	-11.5285
▁notlalnaca	-11.5288
▁moquich	-11.5296
machtiaya	-11.5297
ezque	-11.5299
liuhqui	-11.5308
mofirmati	-11.5308
yolocacopa	-11.5313
ehuaz	-11.5313
▁quitlapo	-11.5315
opan	-11.5315
kali	-11.5318
teco	-11.5327
toco	-11.5327
▁Icno	-11.5328
iztac	-11.5329
▁Cana	-11.5329
▁matlatlac	-11.5331
huiliztli	-11.5333
ihtoa	-11.5334
cuepque	-11.5338
tiv	-11.5339
▁tzatziz	-11.5341
▁quihualla	-11.5346
urga	-11.5351
cuecuenot	-11.5352
cuel	-11.5356
▁mohuic	-11.5356
ltextli	-11.5356
▁onicon	-11.536
▁hualm	-11.536
oquipan	-11.5361
▁techon	-11.5362
▁zanio	-11.5365
▁Ohui	-11.5367
▁quiualit	-11.5368
opochcopa	-11.5368
▁yancuique	-11.5369
▁tlacotl	-11.5371
matinime	-11.5372
HUA	-11.5375
močiwili	-11.5375
▁pipil	-11.5376
▁anquito	-11.538
ualloc	-11.538
mahpict	-11.5381
ine	-11.5385
hcuilhui	-11.5386
P	-11.5387
iquintayocoli	-11.5389
ixpantis	-11.5389
benta	-11.5392
oncexiuhti	-11.5393
▁motlaliaya	-11.5394
▁ytlalpan	-11.5394
▁conmanili	-11.5395
▁Agust	-11.5396
▁quipanahui	-11.5399
IX	-11.5399
technonotza	-11.5402
melchiquiuh	-11.5407
▁kikwa	-11.5408
nto	-11.5408
▁chiquacemin	-11.5409
▁sihua	-11.5409
▁Rr	-11.5412
nicmachiyoti	-11.5415
▁maman	-11.5415
▁oquicht	-11.5417
▁quiya	-11.5417
▁cuart	-11.542
▁mocuicati	-11.5422
▁oniye	-11.5422
▁nocontlali	-11.5424
▁otim	-11.5425
hualmeh	-11.5425
▁nezi	-11.5433
▁muchihua	-11.5434
▁quinnotza	-11.5438
manaya	-11.5438
kin	-11.5439
▁tlamana	-11.544
▁itepotzco	-11.5443
xotlac	-11.5444
echo	-11.5445
▁Tocui	-11.5446
▁Mitoa	-11.5449
▁temoque	-11.5451
▁oquitlalitia	-11.5453
▁tetzahua	-11.5453
▁cac	-11.5458
▁eztla	-11.5459
▁onquiça	-11.5461
▁Do	-11.5463
▁Francis	-11.5465
▁parte	-11.5465
▁quimocahuili	-11.5466
▁kem	-11.547
iac	-11.5472
amox	-11.5473
omotlahtocatilli	-11.5473
maquilli	-11.5474
▁nohuel	-11.5475
▁Amilpam	-11.5479
▁achica	-11.548
eas	-11.5484
▁techual	-11.5484
nezque	-11.5488
▁Coyo	-11.5489
tlatl	-11.5498
▁R	-11.5498
▁momama	-11.5499
▁tlanextia	-11.5501
▁castillo	-11.5503
▁quitlaniz	-11.5505
▁iteyc	-11.551
monequiltitzino	-11.5511
euhtli	-11.5514
▁tzihuactla	-11.5517
▁tlatlaz	-11.5517
▁canon	-11.5518
▁tlapalti	-11.5519
macpal	-11.5519
icuillo	-11.552
▁Chimallaxotzi	-11.5521
quentia	-11.5521
tlactlomome	-11.5524
▁ayya	-11.5525
▁nahuilhuit	-11.5526
▁kion	-11.5527
▁tecon	-11.5528
▁tlachallani	-11.5528
úni	-11.5529
▁noxochi	-11.5529
▁cahuat	-11.553
cali	-11.5534
▁pati	-11.5537
▁monauati	-11.5537
upil	-11.5543
▁tlatoaya	-11.5543
▁motechiuhcaua	-11.5543
ozquia	-11.5544
▁Magn	-11.5546
kas	-11.5549
▁cuicanitl	-11.5549
▁moquimilo	-11.5549
▁tlasencahual	-11.555
maxitic	-11.5553
uauhtzin	-11.5554
▁ihc	-11.5556
▁nemih	-11.5557
ál	-11.5558
koneme	-11.5561
▁teuctl	-11.5564
atzitzintin	-11.5564
▁tijkuaj	-11.5568
▁ycha	-11.5569
▁Tecama	-11.5569
▁nove	-11.5569
▁notio	-11.5573
cizque	-11.5574
yauhtzin	-11.5577
coliztli	-11.5584
▁quimmaca	-11.5588
▁tichane	-11.5588
▁yepohuall	-11.5588
tlacahuan	-11.5595
▁Kiilui	-11.5596
kito	-11.5597
quimati	-11.5601
▁oma	-11.5607
▁quenmani	-11.5608
ierra	-11.561
▁timitzno	-11.5612
intokay	-11.5612
▁tlacualoya	-11.5614
▁yaoti	-11.5618
orral	-11.5619
▁tlale	-11.5621
▁key	-11.5622
tlalhuiquixti	-11.5623
oyo	-11.5624
netequipachol	-11.5624
▁onechmaca	-11.5626
▁quineltoca	-11.5629
au	-11.5632
▁yxquichca	-11.5633
▁huetzti	-11.5633
tlatlaniloz	-11.5637
▁Azt	-11.5638
neyxcuitill	-11.5638
cayotica	-11.5638
omačti	-11.564
totlatol	-11.5641
poyahua	-11.5642
lteca	-11.5646
▁teaxca	-11.5647
totonil	-11.5648
ht	-11.5653
motlazotilia	-11.5655
▁toconmela	-11.5658
tizquia	-11.566
inantzin	-11.5661
wakun	-11.5663
▁macuiltzon	-11.5663
▁oquintla	-11.5667
etitlaniz	-11.5667
▁Matlactlo	-11.5667
▁Cuetlax	-11.5669
▁quimichi	-11.567
tlamati	-11.5671
▁yaca	-11.5675
toma	-11.5677
▁ycuiliuht	-11.5681
▁xoxoui	-11.5682
▁intlacam	-11.5687
▁ixitlan	-11.5688
▁tlapitz	-11.5691
▁Juare	-11.5694
auaque	-11.5696
▁quinpalehui	-11.5696
▁momachti	-11.5697
▁nauhp	-11.5697
iton	-11.57
▁namicoz	-11.5704
▁onezque	-11.5707
▁čan	-11.5709
iske	-11.5713
chihuazquia	-11.5716
▁Beat	-11.5718
▁nenonotzal	-11.5719
▁nimitzn	-11.5721
necuil	-11.5725
▁oquimopaccaceli	-11.5731
ouaj	-11.5737
▁Quilhui	-11.5737
▁tictla	-11.574
ikniua	-11.5746
ualoua	-11.5746
popocatzi	-11.575
▁ohuel	-11.5751
▁kikoua	-11.5755
▁nanmo	-11.5757
▁hualmoquetza	-11.576
▁quenma	-11.5762
mimicti	-11.5762
ilio	-11.5763
yahual	-11.5763
tolo	-11.5764
llocan	-11.5767
pactia	-11.5767
▁tlamacehua	-11.5769
hicuacen	-11.577
▁mohuetziti	-11.5779
▁yaotlapia	-11.578
xcatzin	-11.578
▁metzt	-11.5781
▁quitlaça	-11.5783
nahual	-11.5789
mamalihua	-11.5789
comitl	-11.579
▁quinm	-11.5804
mekoj	-11.5805
▁Ci	-11.5807
▁chal	-11.5809
▁nehnemi	-11.581
▁Nav	-11.581
▁yvispera	-11.581
▁Aqui	-11.581
poloua	-11.581
ohhuanalti	-11.5816
nganin	-11.5822
sneki	-11.5822
▁Note	-11.5823
liti	-11.5823
ares	-11.5828
▁Quah	-11.5828
wali	-11.5829
▁niqu	-11.583
▁elo	-11.583
▁techmo	-11.5833
ochiuh	-11.5834
titica	-11.5837
▁otechmo	-11.5839
▁ylhuilo	-11.5839
▁tijtil	-11.5841
tlani	-11.5843
▁Iz	-11.5844
▁onhuala	-11.5848
moteneuh	-11.5851
chixtica	-11.5851
▁tewa	-11.5853
▁Uitziliui	-11.5855
▁Bar	-11.5855
tidan	-11.5856
▁tocoto	-11.5857
▁fr	-11.5859
tlachihualtzin	-11.5861
▁huehuentzi	-11.5864
▁titlanamacazqui	-11.5866
zotl	-11.5866
pilhua	-11.5867
altiaya	-11.5869
▁teuhc	-11.587
▁tlanamacazquia	-11.5871
▁xite	-11.5872
▁tlatoc	-11.5873
ncauhque	-11.5875
▁tatli	-11.5879
▁pepen	-11.5881
▁papac	-11.5883
▁Toto	-11.5885
▁monequiltia	-11.5885
▁incha	-11.5886
▁tlamochihua	-11.5889
▁imiquiliz	-11.5889
eyçahui	-11.5893
▁itlapohual	-11.5895
pohuall	-11.5896
▁mopilo	-11.5896
ntoc	-11.5898
▁otemoc	-11.5899
▁čiči	-11.59
▁ihcaz	-11.5901
▁motema	-11.5901
▁quitlatia	-11.5903
▁ume	-11.5905
▁nocni	-11.5905
▁Nanal	-11.5906
▁tlatamachihual	-11.5909
▁mochiuhtzinohua	-11.5913
▁Tezozomoct	-11.5914
apata	-11.5919
huatin	-11.592
▁tlamahuizol	-11.5922
obi	-11.5927
▁yoya	-11.5927
chintin	-11.5928
itohua	-11.5931
ihuiz	-11.5932
toh	-11.5934
▁metl	-11.5935
▁oquixtla	-11.5935
▁Matlatzinc	-11.594
▁amotlatoca	-11.5943
▁tlatlam	-11.5944
oloc	-11.5949
▁yepohualxi	-11.595
▁ihuitz	-11.5952
xicoz	-11.5954
▁yntlal	-11.5954
rag	-11.5954
quihue	-11.5956
▁marquesa	-11.5956
▁Matlac	-11.5958
▁xihualla	-11.5962
xqui	-11.5971
▁Quauhtlato	-11.5972
hualazque	-11.5973
▁coyo	-11.5975
▁ythuall	-11.5976
▁moquetzino	-11.5979
▁Ten	-11.5981
▁otlan	-11.5982
matini	-11.5985
machitia	-11.5985
tlalis	-11.5987
▁oyaqu	-11.5987
▁ueca	-11.599
las	-11.5995
catia	-11.5996
tekitiske	-11.5997
▁Ke	-11.5997
▁immoma	-11.6002
altepec	-11.6008
tazque	-11.6009
▁met	-11.6011
coton	-11.6018
son	-11.6021
▁otlam	-11.6022
contetl	-11.6022
atla	-11.6022
calxelol	-11.6024
▁mochallani	-11.6031
▁chihuallo	-11.6033
▁tiqu	-11.6035
▁nimitzon	-11.6041
tlatlacol	-11.6041
▁quihualtoca	-11.6043
tú	-11.6044
▁onhui	-11.6046
ahtolli	-11.6048
kilnamiki	-11.6052
oloz	-11.6052
ehuiliaya	-11.6052
quisas	-11.6052
tlaxili	-11.6052
▁TE	-11.6056
ijuanti	-11.6056
loaya	-11.6058
eliz	-11.6062
mayahui	-11.6064
▁tepetli	-11.6064
▁uejkapan	-11.6066
▁Tot	-11.607
hihua	-11.6071
▁Tex	-11.6074
▁cencamat	-11.6078
tonati	-11.6079
▁timoquetz	-11.608
▁omocencauh	-11.6083
▁nicpo	-11.6083
▁cochi	-11.6084
tlapalli	-11.6085
cayo	-11.6088
ega	-11.6088
▁quauhtlahto	-11.6089
▁quinequiz	-11.609
chia	-11.609
pitz	-11.6092
tolome	-11.6093
▁tlahuana	-11.6095
zon	-11.6096
uallachia	-11.6097
▁yyo	-11.6097
▁teut	-11.6098
▁totollin	-11.6098
▁um	-11.6101
chimall	-11.6104
▁ba	-11.6104
ihtac	-11.6106
▁amoxt	-11.6106
quichtin	-11.6107
auac	-11.611
▁tlalla	-11.6111
ntar	-11.6112
anca	-11.6113
onakat	-11.6116
▁totonia	-11.6116
temi	-11.6117
▁yehuat	-11.6119
▁weya	-11.6121
▁sent	-11.6123
oval	-11.6123
centlamantin	-11.6125
▁motzon	-11.6125
mocuil	-11.6128
emo	-11.6136
onequixtil	-11.6136
▁Q	-11.6136
maquixti	-11.6137
▁yewi	-11.6139
▁ualcallaqu	-11.6139
▁monamiqui	-11.6139
▁ahc	-11.6142
▁oxiuhti	-11.6145
▁miquiztl	-11.6148
▁pica	-11.6151
▁onotzalo	-11.6152
▁Teyehua	-11.6154
▁Ozoma	-11.6154
▁mohuicaz	-11.6161
▁cuicca	-11.6163
tipa	-11.617
bas	-11.6176
▁tos	-11.6177
▁quimocallaquil	-11.6178
▁ixtla	-11.6182
▁motlahtocatil	-11.6185
pualli	-11.6189
▁tilmah	-11.6191
ebes	-11.6193
rna	-11.6196
imihiyo	-11.6196
tohuaya	-11.6197
▁quipano	-11.6198
▁pahpaquiliz	-11.6199
ittac	-11.6204
quitenyoti	-11.6205
ahuih	-11.6206
▁honp	-11.6207
miquiliz	-11.6207
matcatzintli	-11.6211
▁tlanamaca	-11.6212
chicahuaque	-11.6213
▁tlax	-11.6213
▁copal	-11.6217
▁Quauhtl	-11.6219
nila	-11.622
▁iikni	-11.6221
itlema	-11.6221
▁otimitz	-11.6221
▁mocehui	-11.6225
▁moixtlali	-11.6237
▁niccauhti	-11.6238
▁tlapitzal	-11.6239
▁iccentlamant	-11.6242
▁Maça	-11.6245
▁quimpia	-11.6246
erre	-11.6247
▁yoyol	-11.6249
cayotzin	-11.6249
▁Tlat	-11.6252
yohuan	-11.6255
▁ehua	-11.6258
quizqueh	-11.6258
▁Cuauhtli	-11.6259
▁otlatlacoltil	-11.6259
tlaxtlahuil	-11.6262
pantzin	-11.6263
▁epoual	-11.627
▁Izcat	-11.6272
tzatzi	-11.6274
▁tilmat	-11.6274
atin	-11.6276
▁marques	-11.6276
▁tlamachilli	-11.6281
icpiaya	-11.6289
qué	-11.629
omeca	-11.6295
manaca	-11.6296
▁koua	-11.6296
quimixquechilli	-11.6298
monanquilili	-11.63
tzauh	-11.6305
tekitise	-11.6305
tlamia	-11.6305
▁semp	-11.6306
▁motlahtocatlali	-11.6307
▁matlacpoal	-11.6314
toto	-11.6326
axochitl	-11.6327
▁Mex	-11.6328
▁oquichpil	-11.6329
tlalili	-11.6329
▁metst	-11.6329
▁otinechmo	-11.633
▁kitemo	-11.6335
cahuatl	-11.6336
testigo	-11.6339
▁nohuiyanpa	-11.634
▁omix	-11.6348
mihiyohuilti	-11.6349
iern	-11.6351
▁mitzon	-11.6351
▁poli	-11.6351
alcatl	-11.6354
▁axa	-11.6354
uicaz	-11.636
yu	-11.6361
▁quicualitas	-11.6361
liuhtica	-11.6364
titia	-11.6365
▁xochim	-11.6365
▁tlaxilacalpa	-11.6367
uhtiaque	-11.6368
tlehuatl	-11.637
mocaquilti	-11.6371
▁mano	-11.6376
▁nicn	-11.6377
▁tohuey	-11.6378
č	-11.6382
▁mayana	-11.6384
▁quizaqui	-11.6385
▁cortes	-11.6385
▁Oca	-11.6386
gustin	-11.6386
▁xitla	-11.6387
ahqueh	-11.6392
panoque	-11.6394
▁wey	-11.6395
noque	-11.6397
▁tlahui	-11.6398
otlan	-11.6399
xihui	-11.6399
▁nezti	-11.6401
▁quimonpehualti	-11.6401
PAN	-11.6402
▁itlachi	-11.6404
xolehua	-11.6405
uetz	-11.6409
▁ycce	-11.641
tentlapiqui	-11.641
▁čiko	-11.6411
▁Tlahui	-11.6411
▁quimil	-11.6412
choquiz	-11.6414
▁yeylhuit	-11.6415
▁nemico	-11.6416
▁ilhuicat	-11.642
▁tijkua	-11.6422
močiw	-11.6423
▁oniquin	-11.6424
chocaya	-11.6425
▁tiye	-11.6426
ecpatl	-11.6428
čiwalti	-11.6428
▁quincahuazqu	-11.6432
cahualtiz	-11.6433
callaquilli	-11.6434
▁Omp	-11.6435
emb	-11.6436
kišmat	-11.6438
cmo	-11.6444
▁onehua	-11.6448
▁mopolo	-11.6453
peuhca	-11.6454
equichihuani	-11.6458
huicaz	-11.6459
▁otiqui	-11.6459
▁uejka	-11.6462
▁tocay	-11.6464
▁tlahuizcal	-11.6468
▁tiwi	-11.6472
▁Teocuitlap	-11.6475
mauhti	-11.6477
▁em	-11.6478
▁conitot	-11.648
▁chichina	-11.648
▁mohuitequi	-11.648
▁Toton	-11.6482
otinemi	-11.6486
uicoc	-11.6488
▁noteh	-11.6489
▁oquimon	-11.6492
▁teohua	-11.6496
hualtzin	-11.6497
▁miltequitca	-11.6498
cuique	-11.6498
▁motzacua	-11.65
▁occetic	-11.6502
oquan	-11.6502
▁omochihu	-11.6515
monequitia	-11.6516
yunka	-11.6518
ahhuilia	-11.6518
aquilli	-11.6518
▁nix	-11.6519
▁ichpocht	-11.652
▁cecente	-11.6522
▁Omo	-11.6524
▁quita	-11.6528
▁quitemohu	-11.6531
elnamiqui	-11.6532
jas	-11.6537
hquez	-11.654
touaya	-11.654
▁yeuanti	-11.6541
cavallo	-11.6545
matizque	-11.6548
xochime	-11.6549
▁Perd	-11.6551
imacoc	-11.6555
▁nopil	-11.6561
rda	-11.6565
▁mie	-11.6567
ebre	-11.6571
▁quimocuiti	-11.6577
tecolotl	-11.6577
▁Po	-11.6578
tzontlan	-11.6583
▁yepohuallo	-11.6584
▁kite	-11.6588
chil	-11.659
atlactlomome	-11.6591
ub	-11.6592
▁tlatlanti	-11.6592
undo	-11.6594
▁tlaceli	-11.6595
▁Ru	-11.6596
▁noconito	-11.6597
ale	-11.6605
lant	-11.6605
motequitilia	-11.6605
▁titlazohtlazqu	-11.6606
çoma	-11.6606
▁Azc	-11.6609
▁nicuica	-11.6609
▁quimix	-11.6609
▁Jo	-11.661
▁contoca	-11.6614
▁moteylui	-11.6615
▁tomil	-11.6617
▁Teuc	-11.6618
▁ake	-11.6621
▁zem	-11.6622
▁oquimotla	-11.6623
muztla	-11.6625
▁izta	-11.6625
dro	-11.6625
▁tzonteco	-11.6626
▁tiquit	-11.6627
▁acall	-11.6628
rne	-11.6633
yocam	-11.6634
▁oquimah	-11.6634
▁nicalaqui	-11.6635
ntes	-11.6638
▁mictla	-11.6638
tatah	-11.664
▁titlanauati	-11.6641
temachtica	-11.6642
▁Tlazo	-11.6643
▁max	-11.6648
macehualti	-11.6649
▁Nika	-11.6649
▁omicuani	-11.6651
totol	-11.6654
▁monamicti	-11.6654
col	-11.6661
▁acue	-11.6661
▁nipilt	-11.6661
▁kiti	-11.6665
cihuatlahtoca	-11.6666
tzatzaqua	-11.6668
▁nicnoc	-11.6672
▁tlacotenc	-11.6672
mayo	-11.6674
S	-11.6674
▁ič	-11.6676
▁quicohuaz	-11.668
tlacallaquil	-11.6681
tlayocoya	-11.6686
▁tetzacu	-11.6687
▁chilt	-11.6692
▁tepinauhti	-11.6695
▁quicaquiz	-11.6702
▁itocayo	-11.6705
namacaque	-11.671
▁Jacobit	-11.6711
▁nekwa	-11.6716
▁macehuall	-11.6717
▁nikita	-11.6718
hoaz	-11.6718
▁ymixpa	-11.6719
uitec	-11.6725
itlani	-11.6728
▁atlapall	-11.6728
icio	-11.673
▁caxtilantlahto	-11.6732
panohuaya	-11.6732
lle	-11.6739
▁moye	-11.6744
pal	-11.675
omopehualti	-11.6751
aseh	-11.6755
oquizque	-11.6759
petlauh	-11.676
▁Acal	-11.6765
▁tonte	-11.6765
▁šo	-11.6768
▁cemen	-11.6768
CO	-11.6769
mome	-11.6771
mocalti	-11.6776
toltica	-11.6779
▁Cop	-11.6783
▁ych	-11.6792
▁Opoch	-11.6792
▁niccuepa	-11.6793
imopanolti	-11.6795
nomatca	-11.6795
▁mihmati	-11.6795
span	-11.6798
lcahua	-11.6802
çacatl	-11.6805
▁hualoli	-11.6806
antica	-11.6806
▁tzinitzca	-11.6811
colhuacan	-11.6812
machiyoti	-11.6813
llac	-11.6814
éj	-11.6818
ixnamic	-11.6829
▁quimocuitlahuiz	-11.6833
tlipan	-11.6836
▁yhuin	-11.684
ixnamiqui	-11.6844
teuhctlahtoca	-11.6847
▁quinauati	-11.685
tur	-11.6856
▁pahpaquilizt	-11.6857
cito	-11.6857
▁tzonquiz	-11.6867
▁tepil	-11.6872
caque	-11.6879
▁moyecti	-11.6882
corona	-11.6885
yollamachiliz	-11.6886
▁mili	-11.6887
tijneki	-11.6888
▁itequi	-11.6894
cahui	-11.6895
xocpal	-11.6902
▁Totomi	-11.6902
▁omochanti	-11.6902
tehuaz	-11.6904
▁pobre	-11.6905
▁Totolli	-11.6907
chtlan	-11.691
huaco	-11.691
miento	-11.6912
▁tiquelehui	-11.6912
mandamiento	-11.6913
▁motecat	-11.6913
xacal	-11.6917
ayaya	-11.692
▁omp	-11.692
▁ohualmo	-11.6926
▁machia	-11.6929
uiya	-11.6935
▁huetzic	-11.6937
yhuin	-11.6939
ečilwia	-11.6939
▁nextic	-11.6943
uicaque	-11.6944
▁quimoquechiliz	-11.6945
tlahtlacol	-11.6949
coyahuac	-11.6955
▁tlatzacca	-11.6958
▁tetlaocol	-11.6959
ense	-11.696
▁iteo	-11.6972
olca	-11.6972
ualtin	-11.6973
asilio	-11.6975
▁axcam	-11.6976
▁tlequa	-11.6981
▁Is	-11.6986
hamo	-11.6986
cuiz	-11.6989
▁Zazo	-11.6991
▁moquetzaz	-11.6993
▁oquitlatla	-11.7003
itoloc	-11.7005
▁ynmacehual	-11.7007
xti	-11.7007
tlacatiliz	-11.701
ilistli	-11.7011
juanti	-11.7012
moquixtili	-11.7014
tlatilulca	-11.7015
pre	-11.7016
▁Tiquin	-11.7018
moteochihuilli	-11.702
▁choquiz	-11.7027
ocelo	-11.7027
atia	-11.7043
▁tiaw	-11.7043
▁tlahtolpehua	-11.7045
▁patlah	-11.7047
▁moyoll	-11.7047
stre	-11.7048
▁oconmo	-11.7052
▁onya	-11.7053
▁Sanch	-11.7054
kitowa	-11.7061
mexicah	-11.7062
ualtzin	-11.7067
▁iyeya	-11.7067
▁Hor	-11.7068
cizquia	-11.7069
▁ilamatzi	-11.707
▁yaoyot	-11.7072
▁mexic	-11.7074
tetlatlauhti	-11.7077
atipa	-11.7077
▁hocat	-11.7078
▁timota	-11.7079
auhca	-11.7083
kimikti	-11.7086
▁xalte	-11.7087
▁hualqui	-11.7089
▁tequipan	-11.7098
▁Mictla	-11.7099
▁sayo	-11.7099
▁quiyahualloto	-11.7101
lantica	-11.7102
mochi	-11.7103
ipil	-11.7105
cenquizca	-11.7107
teomama	-11.7108
▁imayauhca	-11.7109
▁Notat	-11.711
almazalo	-11.7113
▁nopilhua	-11.7113
mohtili	-11.7115
▁Cihuatla	-11.7118
▁oquihualmo	-11.712
▁mimati	-11.712
mochihuaz	-11.7121
ythual	-11.7122
huallamattia	-11.7123
necah	-11.7123
▁Tzinacant	-11.7126
▁Pu	-11.7127
▁rep	-11.713
▁ontlami	-11.7131
nextik	-11.7132
cuauht	-11.7132
tlatocayo	-11.7132
▁totatzi	-11.7132
chcue	-11.7135
▁quicaua	-11.7137
▁tlatlacah	-11.7141
pehualtia	-11.7143
▁iquizaya	-11.7144
caxiltia	-11.7148
tlatlalochti	-11.7149
▁kos	-11.7154
▁Tul	-11.7156
teocal	-11.7157
imati	-11.7158
poctzi	-11.716
maceual	-11.7161
esek	-11.7161
tiwe	-11.7161
hué	-11.7162
zohcamati	-11.7162
huicac	-11.7164
hpan	-11.7165
▁Ge	-11.7166
teuc	-11.7168
▁conetzin	-11.7168
▁motlati	-11.7168
tlaoli	-11.7172
tlaneuhti	-11.7177
nahuatilih	-11.7177
▁ticchi	-11.7177
▁Acoc	-11.7178
cuauhtli	-11.7179
▁letra	-11.7182
▁tlamaquixti	-11.7183
mahuizoh	-11.7184
▁Macuilp	-11.7184
tlamotla	-11.719
▁iluikak	-11.7193
tenoj	-11.7193
uicac	-11.7195
tlachilis	-11.7198
chihual	-11.7203
QUI	-11.7203
htili	-11.7211
TLI	-11.7214
machti	-11.7216
▁kiijku	-11.7216
▁nauilhuit	-11.7216
▁nemilizahuiyaca	-11.7217
▁tlenkikwas	-11.7217
rociaroquih	-11.7217
▁Chikomexochitl	-11.7217
▁Cuauhtemalla	-11.7217
▁Encarnació	-11.7217
▁Quaquapiça	-11.7217
▁Secretaría	-11.7217
▁almendra	-11.7217
▁cathólic	-11.7217
▁centímetro	-11.7217
▁cilantro	-11.7217
▁descomunió	-11.7217
▁iluikatl	-11.7217
▁orégano	-11.7217
▁quimocihuahuati	-11.7217
▁tiitstose	-11.7217
ocoltlatzillinil	-11.7217
▁Tlaquilx	-11.7217
cedula	-11.7217
▁Dircio	-11.7217
▁mičoak	-11.7217
▁Moteuhcçuma	-11.7217
▁clavo	-11.7217
▁minuto	-11.7217
LIN	-11.7217
▁axaxayacatl	-11.7217
▁carmelita	-11.7217
▁Fabi	-11.7217
▁Nimitztatauhtia	-11.7217
▁amaihcuilol	-11.7217
▁huallitztoc	-11.7217
▁kuidado	-11.7217
▁malinči	-11.7217
▁retabl	-11.7217
▁tlaolkuntl	-11.7217
▁Cadena	-11.7217
▁descalso	-11.7217
▁immotozcatlan	-11.7217
▁tlatomonki	-11.7217
▁neyxnamiquilizt	-11.7217
tenqualac	-11.7217
▁Xuchimilco	-11.7217
▁kitameui	-11.7217
xiuhmolpilli	-11.7217
radici	-11.7217
▁quimixiptlati	-11.7217
▁Temalaca	-11.7217
▁quimacicacaqui	-11.7217
▁ixcuichehua	-11.7217
▁kipixtó	-11.7217
▁xokok	-11.7217
▁kaswela	-11.7217
ZO	-11.7217
caltzaquallo	-11.7217
▁Altepechanehque	-11.7217
OCON	-11.7217
▁Techichiquil	-11.7217
▁Xiuhcoyol	-11.7217
▁kokolis	-11.7217
▁tlaxamanil	-11.7217
tlahtocaycpal	-11.7217
yewalo	-11.7217
▁polliohuac	-11.7217
▁Chollol	-11.7217
▁poyoxnacatl	-11.7217
▁tlapopoka	-11.7217
dalena	-11.7217
▁guerr	-11.7217
mictiaya	-11.7217
▁tlaçul	-11.7217
▁tlalquitzquili	-11.7217
▁quimonehualti	-11.7217
▁ythoal	-11.7217
▁isiua	-11.7218
▁toxochimil	-11.7218
▁motocatenehua	-11.7218
▁icehce	-11.7218
▁conmotla	-11.7218
▁xijmaka	-11.7218
▁responso	-11.7218
▁kinkui	-11.7218
▁Kiijtouaj	-11.7218
▁Huixacht	-11.7218
▁comun	-11.7218
armas	-11.7218
▁domíni	-11.7218
quetzalpatzac	-11.7218
▁oquimotlallili	-11.7219
▁misotlak	-11.7219
▁prior	-11.7219
▁xeliuhtica	-11.7219
▁Tzihuac	-11.7219
▁hualmotzotzona	-11.7219
▁huallotlatoca	-11.7219
▁lisian	-11.7219
▁monexiti	-11.7219
ranpi	-11.7219
▁quiquechcoton	-11.7219
▁tlamelaua	-11.7219
▁itstoya	-11.7219
▁quihualquixti	-11.7219
▁Nelí	-11.7219
▁omonanahoati	-11.722
▁Xichualcuican	-11.722
▁copehualti	-11.722
▁taxcaltzin	-11.722
▁mocuihcui	-11.722
▁Tepotzotla	-11.722
▁quiyomahui	-11.722
▁tiquihtohua	-11.722
▁Calliyma	-11.722
▁chipauak	-11.722
▁Yxtlil	-11.722
▁quinamoya	-11.7221
▁inglestlahtohua	-11.7221
▁oquinhualquixti	-11.7221
▁itlahcuiloltzi	-11.7221
▁yepewa	-11.7221
▁cuicoano	-11.7221
▁xichualcui	-11.7221
▁plantano	-11.7221
▁Xichual	-11.7222
▁tokone	-11.7222
vez	-11.7222
▁tlatecqui	-11.7222
▁tontemiquico	-11.7222
▁nijchiuas	-11.7222
▁tiquitlani	-11.7222
▁Pepena	-11.7222
▁Merino	-11.7222
ixhuasanis	-11.7222
▁yeva	-11.7223
▁tiualajki	-11.7223
▁oconanacatl	-11.7223
tojmi	-11.7223
▁Uax	-11.7223
▁yehepohual	-11.7223
▁quiteyttiti	-11.7223
▁mixcahui	-11.7223
▁necuiltonolizt	-11.7223
▁ynmacaça	-11.7223
▁nipaxialo	-11.7223
▁onicteneuh	-11.7224
▁Tlacanteo	-11.7224
▁ontlazohtla	-11.7224
▁imeyxtin	-11.7224
▁niccohuili	-11.7224
▁Xaquin	-11.7224
▁Oçomat	-11.7224
▁Goçal	-11.7224
▁chanono	-11.7224
▁Dur	-11.7224
▁nicnocohui	-11.7225
▁moteuiaj	-11.7225
▁telpopocht	-11.7225
▁quimononochil	-11.7225
▁omoyecti	-11.7225
▁oquinexti	-11.7225
▁horno	-11.7225
▁omotlahtolti	-11.7225
▁otlaneltoca	-11.7225
▁tlahuahhualoa	-11.7226
▁Nicnequi	-11.7226
▁titekitij	-11.7226
▁tlatzopeliloni	-11.7226
▁seyajtok	-11.7226
▁kinimak	-11.7226
▁TIen	-11.7226
▁ocenquiça	-11.7226
▁tiqualhuica	-11.7226
▁Lante	-11.7226
▁aregl	-11.7226
▁uajkajki	-11.7226
▁mohta	-11.7226
▁Tapal	-11.7226
▁tlamina	-11.7226
▁miquitlani	-11.7227
▁matlactloce	-11.7228
▁chicuacentetl	-11.7228
▁itotonca	-11.7228
▁amoztlacat	-11.7228
▁Ytztlotzin	-11.7228
▁agust	-11.7228
▁cacalac	-11.7228
▁monamikia	-11.7229
▁tetolini	-11.7229
▁xiquim	-11.7229
▁Tesca	-11.723
▁atlapozon	-11.723
▁icyey	-11.723
▁omonexti	-11.7231
▁quitlepanitas	-11.7231
▁Oje	-11.7231
▁quimotlauhti	-11.7231
▁oquinmoten	-11.7232
▁nimitstem	-11.7232
▁yxmatlallehua	-11.7232
cayeliztli	-11.7232
ntique	-11.7232
▁kiyekana	-11.7233
▁matlaktli	-11.7233
▁oquimanili	-11.7233
▁amatlahcuilol	-11.7233
moujti	-11.7234
▁contzinti	-11.7234
▁cuentla	-11.7234
▁conetic	-11.7234
▁timotlacohuia	-11.7235
▁Minas	-11.7236
▁mitztequipacho	-11.7236
▁Tlamacazqui	-11.7236
▁quinmanilli	-11.7236
conehua	-11.7236
nenepaniuhtica	-11.7237
▁Cuauhtlahto	-11.7237
▁tenemiliz	-11.7237
▁timihtilhuia	-11.7237
▁nohuaxca	-11.7238
▁naška	-11.7239
▁ocontlalli	-11.7239
▁oquimocaquiti	-11.7239
▁Yohuall	-11.7239
▁tijuikas	-11.724
▁notlaquen	-11.724
▁omopanolti	-11.724
▁Nohuian	-11.7241
miccatepozt	-11.7241
▁itomine	-11.7241
▁quintlamamaca	-11.7241
▁ohtlatoca	-11.7241
▁quitlapehpeni	-11.7242
elelquixtiz	-11.7242
▁esquina	-11.7242
▁cahuah	-11.7242
▁Uizil	-11.7243
▁ticana	-11.7244
▁omonemilti	-11.7245
▁cahuapa	-11.7245
tijtok	-11.7245
▁mopialis	-11.7245
▁imaicni	-11.7246
▁oquilpico	-11.7246
▁neteilhuil	-11.7246
▁quichioa	-11.7246
▁estava	-11.7246
▁mahtlacp	-11.7246
▁nimitzqualti	-11.7246
▁mal	-11.7247
▁oquimitalhui	-11.7247
▁tzapoteca	-11.7247
▁itlanequiliz	-11.7247
▁itzcuauht	-11.7247
▁nocuacuil	-11.7248
▁itleyo	-11.7248
▁Yaote	-11.7248
▁nimitzcue	-11.7249
▁Muy	-11.7249
▁tinemizquia	-11.7249
▁Mastlat	-11.7249
▁menor	-11.7249
ahuachyo	-11.725
▁oquinpehua	-11.725
▁ceyohual	-11.725
kiera	-11.7251
▁Quimolhuili	-11.7251
▁mixtlapacho	-11.7251
▁netlapachol	-11.7252
▁iyomiyo	-11.7253
▁tehuat	-11.7254
▁tipolihui	-11.7254
▁tlatzotzonque	-11.7254
▁kipixki	-11.7254
▁Kejn	-11.7255
uazqueh	-11.7255
ltilli	-11.7255
▁ineneuhca	-11.7257
xtlatl	-11.7258
nonoualc	-11.7258
▁tohueytlatoca	-11.7258
▁kitl	-11.7258
▁Quauhtemalla	-11.7259
▁tochimal	-11.7259
▁monetech	-11.7259
juits	-11.7259
▁avía	-11.7259
▁inhuaxca	-11.726
▁Yollo	-11.726
▁nikinca	-11.7261
▁nesis	-11.7261
▁yaotlapiallo	-11.7261
▁tlanamacani	-11.7262
▁Tlanonotzalo	-11.7262
▁ualeua	-11.7262
▁cuauhtlapech	-11.7263
▁centlaman	-11.7263
▁quitlahtlati	-11.7264
▁ohualhuil	-11.7264
nezcayotili	-11.7265
tlaachtopaytt	-11.7265
▁toncuica	-11.7266
cualtzin	-11.7266
▁tihuetzca	-11.7266
▁carmeni	-11.7267
▁Tzimpa	-11.7267
▁aoh	-11.7267
▁tlahcuilolli	-11.7267
▁tlapetlani	-11.7268
▁Huitzitl	-11.7268
▁otlatolmelauh	-11.7268
▁çoço	-11.7269
▁itlapil	-11.7269
▁tichoca	-11.727
▁quelehui	-11.727
tlachcuitetel	-11.727
▁Titlacahua	-11.7271
▁nesi	-11.7272
▁quetzalitzt	-11.7273
▁Itzquauh	-11.7273
▁quiyolloti	-11.7273
▁ora	-11.7274
▁Yeuantin	-11.7275
▁xihualhuiya	-11.7275
▁oaxcatil	-11.7276
quiyahuac	-11.7276
tlanamaquiliz	-11.7277
▁nextamal	-11.7277
▁icuitlapan	-11.7277
ilui	-11.7278
▁tlatemowi	-11.7278
▁topalehuil	-11.728
quetzqui	-11.7281
▁tozan	-11.7282
▁quauhtzonyo	-11.7285
▁theniente	-11.7285
appan	-11.7285
▁nexicol	-11.7286
▁motlaxcal	-11.7287
▁tihuallaz	-11.7288
▁omopacho	-11.7288
▁Nicu	-11.7289
▁kipantem	-11.7289
▁quinmolhuilli	-11.7289
tentoc	-11.729
▁ocçe	-11.7291
▁nemaque	-11.7292
▁mošiyo	-11.7293
▁tepexictlac	-11.7293
▁tequipanos	-11.7293
▁escuella	-11.7293
▁koš	-11.7294
ninoquetza	-11.7294
▁quilpillico	-11.7294
▁tropa	-11.7295
▁YE	-11.7296
▁techmaca	-11.7297
quinchololti	-11.7297
▁noyolio	-11.7297
▁takuauak	-11.7297
▁izcalti	-11.7298
noteyccahuan	-11.7299
▁quihualmotla	-11.7299
▁moteochiuhtzino	-11.7299
eros	-11.7299
▁immohua	-11.7299
▁otemoque	-11.73
▁nicte	-11.7303
▁momaceual	-11.7303
▁quimonamaquil	-11.7303
▁fuerza	-11.7304
▁quimopilhui	-11.7305
ños	-11.7305
▁prima	-11.7306
xexelo	-11.7306
culo	-11.7307
▁mochijki	-11.7307
yolquima	-11.7307
tolli	-11.7308
▁Chapoltepe	-11.7308
euhctlacoçauh	-11.7308
▁nakas	-11.7309
acachto	-11.7309
▁opouh	-11.7309
zteca	-11.7309
▁opopoca	-11.731
▁totahuan	-11.731
tificaci	-11.7311
xoco	-11.7311
▁mopilhoa	-11.7312
▁tlatemo	-11.7312
▁xoconcaqui	-11.7314
▁totalmanic	-11.7315
acizque	-11.7315
▁titlamati	-11.7316
▁tezcatecomat	-11.7317
momachitia	-11.7318
chalaniz	-11.7318
▁ahuic	-11.7319
ono	-11.7319
▁yatok	-11.7319
▁Chicomo	-11.732
▁oquinm	-11.732
tzivac	-11.7321
kuoujyo	-11.7321
▁quinmocahuilli	-11.7321
▁icnauhtetl	-11.7322
▁cecem	-11.7323
▁nonquiz	-11.7323
▁ameyal	-11.7324
tičolo	-11.7325
▁quinma	-11.7326
▁immotlahtol	-11.7327
▁ipatillo	-11.7327
▁itlacamecayo	-11.7328
▁conpeualti	-11.7329
▁bá	-11.7329
▁Cohuanac	-11.733
▁tlakuaka	-11.7331
▁cecenyaca	-11.7331
pt	-11.7331
▁quintollini	-11.7332
▁Tepitzin	-11.7333
▁cuetlahui	-11.7333
▁cehual	-11.7334
▁oquipilo	-11.7334
malacacho	-11.7335
▁Agost	-11.7336
▁tequitiz	-11.7339
▁tečin	-11.7339
▁tetlanextilli	-11.7341
▁netecpano	-11.7341
▁oteochihual	-11.7343
▁tatama	-11.7346
▁chinampa	-11.7346
▁nihualla	-11.7346
▁apachihuil	-11.7346
▁hon	-11.7347
▁kitlani	-11.7348
▁quincallaqui	-11.7349
▁tateuat	-11.735
▁calohtli	-11.735
maxiujyo	-11.735
machizti	-11.735
▁Mochihua	-11.735
▁nit	-11.7351
▁moteihtiti	-11.7352
tapayol	-11.7352
hualmiquanitzino	-11.7352
▁oualla	-11.7353
▁quitzacu	-11.7354
xeliuhcayo	-11.7355
tlachihual	-11.7356
▁moxtlauh	-11.7357
▁titoto	-11.7358
ontetl	-11.7359
▁secretario	-11.7359
oppa	-11.7359
tlatla	-11.7361
▁nipoliuh	-11.7361
tenonotzaliz	-11.7362
▁techmaka	-11.7362
▁motlatqui	-11.7363
▁kit	-11.7363
▁yxtlamati	-11.7367
alia	-11.7367
▁tlalnamaca	-11.7368
zhuatl	-11.7368
▁tlaneltoca	-11.7368
▁siki	-11.7369
kespa	-11.737
ollohua	-11.7371
▁motlacatili	-11.7371
▁petici	-11.7372
▁Amb	-11.7372
▁Omoce	-11.7372
▁tlatzacuil	-11.7373
▁çacap	-11.7373
▁ista	-11.7374
▁noxuiuh	-11.7374
▁timitznotili	-11.7375
▁cehcen	-11.7377
nauhpo	-11.7377
▁tlahuil	-11.7377
▁oquimoma	-11.7378
▁oquimanque	-11.7378
▁Tepal	-11.7379
mazatl	-11.7379
▁Zara	-11.738
ontetoca	-11.738
▁anech	-11.7381
▁chalchiuhtoto	-11.7382
cuexcochtlan	-11.7382
▁intlanel	-11.7383
▁nahuati	-11.7383
▁quititlaniz	-11.7383
atlycha	-11.7384
▁fres	-11.7384
▁xolopi	-11.7385
▁axtlen	-11.7385
▁ycalaquiam	-11.7387
sur	-11.7387
▁tachcauh	-11.7388
▁maxix	-11.7388
▁ichtequi	-11.7388
▁imetz	-11.7388
namacazque	-11.7389
▁ynmac	-11.7391
▁ticceli	-11.7391
▁poçoni	-11.7392
▁ticmocuili	-11.7394
▁quimitlanilili	-11.7395
▁otlayohuac	-11.7398
▁Xoh	-11.7398
mantli	-11.7399
▁yacachto	-11.74
▁nezca	-11.7401
▁tinocone	-11.7402
▁gran	-11.7403
▁xitin	-11.7404
▁tequitih	-11.7404
▁inyeya	-11.7407
▁mona	-11.7408
▁xicmat	-11.7408
▁cavallotlatlal	-11.7409
▁cacahuaxochitl	-11.7409
▁teponaz	-11.741
quiaya	-11.741
▁nitlacua	-11.741
▁onchiuhcnahui	-11.7414
zillo	-11.7417
tiquitaque	-11.7419
▁monono	-11.7419
tlatzontequiliz	-11.7423
matlactlomey	-11.7423
▁Unca	-11.7423
▁quica	-11.7424
▁toconnamiqui	-11.7424
▁timalihui	-11.7424
▁quitepotztoca	-11.7424
▁oquimohuiquilli	-11.7425
▁Teutontlal	-11.7425
▁imayauhcan	-11.7428
▁yeni	-11.743
machio	-11.7432
▁tlalhuacpan	-11.7432
▁plata	-11.7434
cihua	-11.7435
▁melel	-11.7435
II	-11.7435
▁quiualtza	-11.7436
▁Nanqui	-11.7437
▁ycxitla	-11.7437
▁Lucia	-11.7437
cuilia	-11.7438
▁Tlacochin	-11.7438
▁yayá	-11.7439
xotla	-11.7439
quauhtzin	-11.744
▁Tu	-11.7443
▁yoni	-11.7445
▁onemia	-11.7445
tlamahuiso	-11.745
▁ticcuiz	-11.7451
catiaz	-11.7451
▁Gutier	-11.7452
▁ynteyacanca	-11.7453
▁quihuicatz	-11.7454
▁quiuallitla	-11.7454
▁ianiman	-11.7454
▁Chiconquiauh	-11.7454
▁conquechcoton	-11.7455
▁tenyo	-11.7457
calti	-11.7457
▁cuauhta	-11.7458
rólogo	-11.746
▁manima	-11.7461
▁quihuillantia	-11.7461
tlahcuilo	-11.7462
▁motemitia	-11.7462
cente	-11.7467
▁tlam	-11.7467
▁xexelolo	-11.7468
▁quinemilli	-11.7469
teloloh	-11.7472
octacatl	-11.7473
▁oconchiuh	-11.7474
▁Acolnahuac	-11.7474
▁xihui	-11.7476
pehua	-11.7477
▁ytlanahuatilt	-11.7477
panahuia	-11.7477
▁mochantlalia	-11.7479
nt	-11.7481
▁molcaxi	-11.7483
▁mohuillan	-11.7484
choquiztlapal	-11.7485
▁oconquixti	-11.7487
▁Tolnahuac	-11.749
▁tlalpolo	-11.7491
▁ticmonequilti	-11.7492
uiyo	-11.7492
▁cholojk	-11.7492
▁tlanez	-11.7493
▁moteka	-11.7495
▁ahciz	-11.7495
tlatequipano	-11.7497
▁tlatlauhtilo	-11.7497
▁toka	-11.7497
▁motozcatlan	-11.7497
▁ticalaquiz	-11.7498
▁amiqui	-11.7498
▁momimicti	-11.7499
iqui	-11.7501
yeman	-11.7501
▁Chicueyi	-11.7501
▁mochichihua	-11.7502
▁notlatzin	-11.7505
iximati	-11.7506
▁difun	-11.7506
chihuilia	-11.7508
▁kualanij	-11.7509
tlaniz	-11.751
▁Topan	-11.7511
tillo	-11.7512
▁icnime	-11.7513
hueliti	-11.7513
▁huicoc	-11.7513
▁tzaqualtzint	-11.7514
▁ochpan	-11.7514
▁tlatzacui	-11.7515
tlacatzitzintin	-11.7515
▁yeyeca	-11.7516
motepotztoquili	-11.7517
▁ualciuatla	-11.7517
auhqui	-11.7518
▁quicahuazque	-11.7519
huitia	-11.7519
llotzin	-11.7521
▁Yeyi	-11.7525
chotl	-11.7525
quichihua	-11.7527
ijuikas	-11.753
titinen	-11.7533
emanahuac	-11.7534
molcahuili	-11.7534
▁cozti	-11.7535
ochteca	-11.7537
ukw	-11.7538
▁otiquinte	-11.7539
quiltic	-11.754
tlacuilol	-11.7541
molco	-11.7542
▁Cacamatl	-11.7545
▁Quiual	-11.7545
▁Mohuic	-11.7545
tlahtoltica	-11.7548
▁oyx	-11.755
▁moquequetz	-11.7552
▁nitlahui	-11.7553
▁temallaca	-11.7553
▁semilla	-11.7554
▁tetlamaco	-11.7558
zouipill	-11.7558
oyotica	-11.7558
▁Otompa	-11.7558
▁pobres	-11.756
▁mopo	-11.7561
▁ymoztla	-11.7561
▁tlamahuiço	-11.7562
▁quimopalehuili	-11.7562
▁ciuatlan	-11.7564
▁quichihu	-11.7564
▁Servan	-11.7565
▁conm	-11.7566
lome	-11.7567
▁oczequi	-11.7567
▁ilhuil	-11.7567
▁Iuhqui	-11.7569
▁monextia	-11.757
teponaz	-11.757
▁nahua	-11.757
▁bast	-11.7571
mextin	-11.7577
guero	-11.7577
iasica	-11.7577
▁otlatopil	-11.7578
der	-11.758
▁ytenyo	-11.7581
ijki	-11.7587
▁achitzinca	-11.7588
▁Nauh	-11.7593
çalo	-11.7593
ouat	-11.7595
▁quintlamaca	-11.7596
▁tiqua	-11.7597
▁Oto	-11.7597
▁momuztl	-11.7599
▁hualteyacan	-11.76
▁ihtolo	-11.76
▁namehuan	-11.76
▁pexon	-11.7601
▁mosoa	-11.7605
▁nocne	-11.7606
conelhua	-11.7608
▁muchiuhtzino	-11.761
▁Onca	-11.7611
metz	-11.7611
▁cuico	-11.7612
▁governadores	-11.7612
▁itepeuh	-11.7614
lomey	-11.7616
▁teyxhuihua	-11.7618
acia	-11.7619
tlanepanol	-11.7621
xicol	-11.7621
▁Cuetlaxo	-11.7625
▁caxtilteca	-11.7627
yolloco	-11.763
▁quicotonas	-11.7631
▁tocayotil	-11.7632
ibuen	-11.7633
quimiliuhtia	-11.7637
tlahtocayo	-11.7637
pachihuiz	-11.7637
anato	-11.7638
ualyaca	-11.7639
mochiuhtzinotica	-11.7641
tzinitzcan	-11.7643
tlachiuhtli	-11.7644
▁oytt	-11.7644
tlatlauhtilia	-11.7645
▁oquimoca	-11.7646
▁huelitiliz	-11.7647
colli	-11.765
▁mazeuhal	-11.765
▁oquiyocox	-11.7652
▁quitocaya	-11.7652
▁nimitzilhui	-11.7652
ahci	-11.7653
▁itlacapa	-11.7654
▁yz	-11.7656
▁acalot	-11.7656
tlatski	-11.7658
▁Atlaco	-11.7658
▁oncuica	-11.7663
▁oncallaqui	-11.7663
▁Chicon	-11.7664
▁Zoqui	-11.7665
▁tlalnan	-11.7668
tlapitzaliz	-11.7669
▁cocin	-11.767
iernes	-11.7673
▁cuic	-11.7674
▁xami	-11.7675
▁huallo	-11.7675
▁oniquita	-11.7677
▁juzti	-11.7678
ezcayo	-11.768
▁topixcatzin	-11.768
▁omotlalia	-11.7681
▁Xicon	-11.7683
▁Altepeyo	-11.7684
tlaxcal	-11.7686
anilli	-11.7686
▁omotocayoti	-11.7686
▁Cuitlahua	-11.7686
▁yepohualxiuhti	-11.7687
taro	-11.769
▁tinechmaca	-11.7691
mahuiz	-11.7694
cuacecahuil	-11.7694
pich	-11.7695
cualo	-11.7696
▁Yoyo	-11.7696
▁quimochihuillia	-11.7697
▁ouala	-11.7699
▁techhual	-11.7699
cuacua	-11.77
▁onite	-11.7701
▁taoltsi	-11.7702
▁tzonquiça	-11.7703
▁onye	-11.7704
▁nanahu	-11.7707
▁monemitia	-11.7707
▁chanti	-11.7708
▁Bea	-11.7709
salo	-11.7709
▁go	-11.771
▁aki	-11.7711
yotoc	-11.7712
tlatlauhtilli	-11.7714
tlalcohual	-11.7715
lloni	-11.7716
lín	-11.7717
▁tlananquili	-11.7717
▁maestr	-11.7718
llico	-11.7724
tzonquizca	-11.7725
▁quizqui	-11.7727
tit	-11.7728
imon	-11.7731
tilizque	-11.7731
▁xochihuehuet	-11.7735
nemilis	-11.7735
▁Tequichihualis	-11.7736
namiquiliztzin	-11.7736
▁Tell	-11.7737
▁cecenyohua	-11.7737
▁quimonamicti	-11.7742
▁iztlacati	-11.7743
▁nemauhtilo	-11.7743
▁namot	-11.7743
▁nicnanquili	-11.7744
▁Xiuhca	-11.7746
onmicuani	-11.7747
cohuilli	-11.7749
▁bay	-11.7749
▁amaxca	-11.7751
▁TLA	-11.7753
ané	-11.7753
▁quimomaca	-11.7756
tlachcuitla	-11.7756
▁ichantzin	-11.7758
▁nitlachi	-11.7759
▁oquinmonochili	-11.7759
gada	-11.7764
poctlan	-11.7765
otechmonequi	-11.7765
▁chiuh	-11.7765
cuitiuetz	-11.7767
▁Occente	-11.7771
▁onihual	-11.7771
▁quihualitqui	-11.7772
▁teuhctlato	-11.7773
▁tlatlacoltiloc	-11.7775
lás	-11.7777
caqui	-11.7777
▁antlanamacazqu	-11.7777
▁cempoali	-11.7778
▁quicen	-11.7779
ixque	-11.7785
tzacuili	-11.7785
▁tamechto	-11.7785
▁tlamachtili	-11.7786
▁Xillo	-11.7788
▁kiyek	-11.7791
▁couatl	-11.7793
▁ayah	-11.7794
▁Tleyca	-11.7794
▁kikixtia	-11.7796
▁cuep	-11.7798
tecuiyo	-11.7801
▁ochollo	-11.7803
▁tis	-11.7805
▁quinmomaquili	-11.7808
▁tei	-11.7809
omotlan	-11.7812
▁titononotza	-11.7812
notlatlahtia	-11.7813
▁quimopieliz	-11.7813
▁momachtia	-11.7816
▁quixitiniz	-11.7821
▁ichichi	-11.7822
atzi	-11.7823
▁vis	-11.7824
▁timoma	-11.7824
▁metztaya	-11.7828
▁cuau	-11.7831
ntsi	-11.7831
mottititzino	-11.7835
▁ate	-11.7836
alcalte	-11.7845
nepa	-11.785
EL	-11.785
▁Alcalde	-11.7851
▁niquita	-11.7851
▁tikin	-11.7851
▁kwali	-11.7853
▁nictoca	-11.7853
▁chalchiuhtla	-11.7855
▁calxexelol	-11.7855
▁Nikan	-11.7857
tlatecpan	-11.7857
manili	-11.7858
▁axkimati	-11.7858
▁macuilti	-11.7861
▁comiss	-11.7863
▁notlaxilacalti	-11.7864
▁niantle	-11.7874
▁quincauh	-11.7874
▁quimococol	-11.7877
tlacamecayoti	-11.7878
tetzilo	-11.7881
quichihuaco	-11.7885
nemiliztli	-11.7887
icue	-11.7887
▁paht	-11.7891
cayotia	-11.7892
xolo	-11.7893
quiztiquiça	-11.7893
▁ximochi	-11.7894
ecient	-11.7894
cauhtica	-11.7894
lolca	-11.7895
calcohual	-11.7896
▁moh	-11.7898
quequetz	-11.7898
mitalhui	-11.7898
▁Fi	-11.7901
▁kimolontia	-11.7905
▁quihualmomaquil	-11.7905
▁uejkaua	-11.7906
cohcolti	-11.7907
llan	-11.7912
quimopialia	-11.7913
ber	-11.7915
▁esp	-11.7917
ip	-11.7919
nanamiqui	-11.7919
▁mocalaquis	-11.792
▁nanaka	-11.7921
▁le	-11.7921
itz	-11.7921
▁mocenpo	-11.7925
▁bot	-11.7929
morado	-11.7929
loxochitl	-11.7935
tlaecolti	-11.7936
▁quinamicti	-11.7936
▁z	-11.7939
▁ipetlacal	-11.7939
ameh	-11.7939
poloz	-11.7939
▁cocoli	-11.7942
▁mocepan	-11.7942
▁chimalhua	-11.7945
nextia	-11.7945
machix	-11.795
▁teteuh	-11.7951
iloni	-11.7953
motlaliliz	-11.7954
iuhtia	-11.7955
▁ypil	-11.7955
otlal	-11.7955
▁uc	-11.7955
▁topil	-11.7956
▁titlazohtla	-11.7958
▁Nonohualc	-11.7959
nauati	-11.7959
motlali	-11.7961
cexiuh	-11.7961
▁omom	-11.7963
caca	-11.7963
▁tonto	-11.7963
▁Cani	-11.7964
▁Cohuatla	-11.7965
caquiz	-11.7969
tlamachiliz	-11.7971
chichiuhtia	-11.7973
amana	-11.7973
ehcoc	-11.7976
quiti	-11.7977
▁Chicahua	-11.7978
otzaya	-11.7979
ctia	-11.7981
▁titlatla	-11.7981
▁keni	-11.7984
xakual	-11.7987
▁tlatlacahui	-11.799
▁quimocaquitica	-11.7992
▁timonequiti	-11.7992
▁Ja	-11.7998
lnamiquiz	-11.7998
▁Amil	-11.7999
▁huitzeh	-11.8004
mecauh	-11.8007
capan	-11.8007
▁quihualnotz	-11.8013
angor	-11.8013
apantica	-11.8018
eltzin	-11.8021
ovar	-11.8023
ulli	-11.8024
▁tlayoua	-11.8029
▁teotica	-11.8031
▁fi	-11.8032
cohuac	-11.8032
▁Itechpa	-11.8034
cuacuala	-11.8034
▁tlalchi	-11.8036
▁oquitocac	-11.8037
▁quimotocayoti	-11.8038
▁yuhca	-11.8038
▁atli	-11.8039
▁tepoztla	-11.804
wti	-11.8042
▁xiquimon	-11.8043
▁opahpac	-11.8044
piqui	-11.8045
iak	-11.8046
▁xilot	-11.8046
▁cuetla	-11.8048
▁mocuaatequi	-11.8049
nenonotzal	-11.805
▁tenehualo	-11.8051
▁nechilhui	-11.8051
▁tsik	-11.8053
▁ychpuch	-11.8055
▁chimalti	-11.8056
▁ixtlahua	-11.806
pahuic	-11.8061
▁ytlaxilacaltia	-11.8062
▁niwi	-11.8065
▁xuchi	-11.8065
▁immalaca	-11.8065
mahmana	-11.8067
▁poliui	-11.8067
teochihua	-11.8069
teniente	-11.8073
amento	-11.8073
temoz	-11.8076
quixmati	-11.8078
▁nom	-11.8078
iollo	-11.8081
yxpan	-11.8082
▁quitemohui	-11.8083
itlahuiz	-11.8084
▁inyeyan	-11.8086
mozcalili	-11.8086
orden	-11.8089
quimonechicalhui	-11.809
▁iixco	-11.8092
ihtaz	-11.81
miak	-11.8103
▁kitlachili	-11.8105
▁Yaocui	-11.8108
quilli	-11.8112
▁xwe	-11.8112
▁ohualmocuep	-11.8119
rcas	-11.812
▁motlatoltiz	-11.812
▁Anmehuan	-11.8123
nehnen	-11.8124
moyolcehui	-11.8125
sus	-11.8126
das	-11.8127
▁kenk	-11.8128
▁ayot	-11.813
▁fra	-11.8132
▁tomacehual	-11.8133
tlachalaniz	-11.8134
oltiaya	-11.8135
▁cuicuil	-11.8135
▁Xicc	-11.8136
▁Azca	-11.8136
yotia	-11.8137
tokaytia	-11.8142
▁ayam	-11.8143
tecopa	-11.8145
macuex	-11.8147
▁otito	-11.815
tecpancal	-11.8151
icaya	-11.8151
majts	-11.8152
▁Yztacxochit	-11.8152
kakatso	-11.8154
▁concauh	-11.8157
▁Yxquichi	-11.816
▁kaka	-11.8162
▁ticman	-11.8169
▁quezquil	-11.817
▁moxtlaua	-11.8173
uanyolque	-11.8175
▁niva	-11.8175
catetel	-11.8178
iš	-11.8182
▁tum	-11.8182
▁tzonquiza	-11.8184
▁Epcohuat	-11.8184
▁kiix	-11.8187
▁mohui	-11.8187
▁Mis	-11.8189
eteylhui	-11.819
jchiua	-11.8192
▁Cuetzpaltzi	-11.8194
▁ahuiya	-11.8195
▁motlaloa	-11.8198
pitzahua	-11.8198
ecatzin	-11.8202
pixtok	-11.8202
▁quimahuizo	-11.8206
▁quico	-11.8207
▁Ocelopa	-11.8209
▁immac	-11.821
▁xiuht	-11.8212
▁quimonahuatili	-11.8212
▁tapalca	-11.8219
itihui	-11.8221
▁nichihua	-11.8223
▁tlacatecat	-11.8224
▁cualan	-11.8227
▁yectic	-11.823
▁immotta	-11.823
quimilolo	-11.8233
▁colhuaca	-11.8236
ehualoz	-11.824
nolhuil	-11.8246
▁quicualita	-11.8247
▁titlazotla	-11.8247
amictzin	-11.8247
elipe	-11.8248
lhuiz	-11.8251
▁Chalchiuhma	-11.8253
▁ixic	-11.8253
cceppa	-11.8253
▁Bon	-11.8254
toka	-11.8255
▁mixiuh	-11.8256
▁tlahtoa	-11.8257
onpa	-11.8257
▁ommacuil	-11.8257
▁Mun	-11.8258
▁niquimoni	-11.8259
macazqui	-11.826
čiwa	-11.826
▁Tiyaca	-11.8262
▁Tlanahuati	-11.8264
▁Tlacotepe	-11.8266
telhuili	-11.8266
titi	-11.8268
nac	-11.8268
ll	-11.8269
tlaco	-11.8271
▁Sala	-11.8272
TZ	-11.8272
kajki	-11.8273
▁mochiu	-11.8274
ses	-11.8277
nbr	-11.8277
onimic	-11.8278
▁cauhtica	-11.8283
quicauh	-11.8284
▁quixnamicti	-11.8284
▁monacaz	-11.8284
ixahuia	-11.8289
▁chiqui	-11.8291
neros	-11.8292
tinemizque	-11.8293
▁tlatechpohuili	-11.8294
concaqui	-11.8295
▁Moc	-11.8299
estre	-11.8301
▁huexotl	-11.8307
tacayoti	-11.8308
▁quenameh	-11.8308
▁acitica	-11.8314
totonia	-11.8315
▁quincauhti	-11.8317
onew	-11.832
hto	-11.8323
fessión	-11.8323
▁motepe	-11.8327
▁obispos	-11.8328
altica	-11.8328
čan	-11.833
cencahua	-11.8333
quimotlaltia	-11.8333
quaque	-11.8334
ujtok	-11.8336
▁niconet	-11.8336
▁ixtlahuatlaca	-11.8338
▁xihual	-11.8339
pohui	-11.8339
▁oncastol	-11.8343
▁tiquimon	-11.8343
▁Xochiteuct	-11.8344
▁nauhpohualxi	-11.8347
▁ocu	-11.835
▁kuo	-11.8351
chicahua	-11.8357
lamacazqui	-11.8357
▁imicpa	-11.8357
▁ihquino	-11.8357
pili	-11.8358
▁quilnamic	-11.8359
▁oquimin	-11.836
▁kalaki	-11.8364
▁tlaye	-11.8365
itta	-11.8366
otli	-11.8366
uiti	-11.8369
kisa	-11.837
quimocnelili	-11.8372
▁Tiçaua	-11.8373
▁tlahuizcalpa	-11.8374
▁Mexicame	-11.8374
▁nontlachia	-11.8376
huitiaya	-11.8378
lam	-11.8379
eta	-11.8383
cayopan	-11.8384
▁tocniuhtzi	-11.8389
mochihua	-11.8392
▁pialo	-11.8396
▁oncat	-11.8397
▁niquauhtl	-11.8398
▁quinextiz	-11.8399
pinos	-11.8402
payo	-11.8402
▁quitlacamatiz	-11.8403
▁pregone	-11.8406
nelhuayo	-11.8406
▁či	-11.8409
abad	-11.841
▁xolotz	-11.8412
▁ocat	-11.8415
▁nenquiça	-11.8416
▁immot	-11.8416
timitzmaca	-11.8417
▁elotla	-11.8418
tzatzayan	-11.8419
▁noconit	-11.8426
▁Axo	-11.8428
yahuallo	-11.843
▁kanik	-11.8431
ajar	-11.8431
miquili	-11.8432
tiyajki	-11.8432
▁oan	-11.8438
▁oquimiqu	-11.8439
machiyotl	-11.8441
apohuali	-11.8442
pilçi	-11.8442
aocmo	-11.8445
▁Marty	-11.8447
tul	-11.8448
▁kip	-11.845
▁motitiz	-11.8452
▁quehuac	-11.8454
yuh	-11.8457
▁yepoal	-11.8459
▁ilama	-11.846
pilhuati	-11.846
quiquiz	-11.846
▁ayk	-11.8461
▁ori	-11.8462
▁ahua	-11.8463
▁oniqu	-11.8464
▁quimontlalia	-11.8466
quicuitlacoyoni	-11.8468
cuilli	-11.8469
melel	-11.8469
popoca	-11.848
uiyaj	-11.8482
callac	-11.8484
▁immoyollot	-11.8484
▁timotlaco	-11.8485
▁chichihuala	-11.8487
nka	-11.8488
▁tequa	-11.8488
▁quimonahuatil	-11.8492
teopixcahua	-11.8497
pohuaz	-11.8498
▁patlani	-11.8499
▁quellehuia	-11.8499
▁tziua	-11.85
atica	-11.8501
▁quiquaz	-11.8505
ski	-11.8507
hualmohuicac	-11.8507
▁Ot	-11.8513
panoz	-11.8516
▁tepam	-11.8517
obarr	-11.8519
▁pozon	-11.8519
▁Onen	-11.8519
▁Coatl	-11.852
potica	-11.852
icnopillo	-11.8521
cehui	-11.8522
▁Oh	-11.8523
▁More	-11.8526
▁iyoca	-11.8527
nació	-11.8528
▁ixne	-11.8529
▁kwent	-11.853
▁totlatla	-11.853
▁momachitia	-11.8537
▁kaj	-11.8541
noc	-11.8542
▁quitocaz	-11.8543
zintin	-11.8547
▁Tenucht	-11.8548
mamaza	-11.8555
▁atlaco	-11.8555
▁Pen	-11.8558
▁TLEN	-11.8559
▁yhuian	-11.856
quihuicaya	-11.8561
▁tima	-11.8563
▁tlahe	-11.8565
teyo	-11.8565
▁otiya	-11.8566
▁nitlachie	-11.8566
▁tetz	-11.8567
▁oconanqu	-11.8571
ueve	-11.8571
▁cax	-11.8571
▁Fr	-11.8572
uantzi	-11.8573
ilotl	-11.8575
▁quitemachi	-11.858
lactli	-11.858
acitihui	-11.8581
▁ipal	-11.8583
▁Tull	-11.8587
iquixmati	-11.859
▁Tecpatzin	-11.859
moztlatica	-11.8591
▁neltiliz	-11.8592
▁ajko	-11.8592
▁caqui	-11.8592
▁ayocm	-11.8597
▁pepetlaca	-11.8598
▁kwalikak	-11.8599
▁Cuetlach	-11.8605
▁Grec	-11.8608
huetzi	-11.8612
huitica	-11.8612
molhuichihuilili	-11.8618
quimihiyohuilti	-11.8619
▁notequi	-11.8621
▁nimitzt	-11.8621
ahtoltzin	-11.8624
▁cihuaco	-11.8625
lliz	-11.8626
▁tlaneltoc	-11.8628
apantli	-11.863
▁itlacauh	-11.863
▁baratu	-11.8631
▁ticchihuazque	-11.8631
▁teuton	-11.8637
loli	-11.8639
▁tetlaca	-11.8641
▁aš	-11.8644
▁nenemo	-11.8645
PA	-11.865
▁Oyuh	-11.8654
▁oquiqua	-11.8655
▁immona	-11.8655
firmat	-11.8655
▁ymaltepe	-11.8655
▁techpeuh	-11.8658
▁sekin	-11.8662
ticnamaquilti	-11.8662
▁caltequichihua	-11.8663
▁ymix	-11.8664
ocu	-11.8665
▁Tlacate	-11.8666
▁quiauh	-11.867
▁Consep	-11.8674
tiquiça	-11.8675
▁quintemo	-11.8677
tlahtocatlallilo	-11.8677
▁tem	-11.8678
▁Huitznahua	-11.8683
xayacatzi	-11.8683
▁Mic	-11.8688
▁Texo	-11.8689
▁camanal	-11.8693
▁espada	-11.8693
quixtili	-11.8699
▁teuhcyot	-11.87
ixtin	-11.8705
ehuan	-11.8706
chihchica	-11.8706
oniznequi	-11.8707
yollali	-11.8711
▁Tezozomoctzi	-11.8714
uj	-11.8716
cencauh	-11.8717
paltzin	-11.8718
antia	-11.8719
panitlaza	-11.872
huiquilli	-11.872
▁imi	-11.8721
▁moih	-11.8722
▁Ybar	-11.8725
▁Xolotl	-11.8727
chicahualiz	-11.8728
laixhuasan	-11.8733
▁quitlatlaz	-11.8734
▁icalaquia	-11.8737
htihuitz	-11.8739
ahual	-11.8739
huantoc	-11.8744
calpan	-11.8745
uazque	-11.8745
▁Red	-11.8755
▁tlach	-11.8756
▁tlecuahuit	-11.8758
▁yaotequi	-11.876
calpixca	-11.8762
▁nikito	-11.8763
▁quipehualtia	-11.8765
▁quinotz	-11.8765
elotl	-11.8766
▁otonya	-11.8774
catoc	-11.8775
▁niquilhui	-11.878
▁ahuehue	-11.8782
cahualo	-11.8789
quamimi	-11.8791
▁sik	-11.8798
▁ahuia	-11.8798
▁Quauht	-11.8803
▁quimotetza	-11.8806
▁quimiximachili	-11.8806
quitoa	-11.8807
kpak	-11.8811
amaco	-11.8815
▁niquinno	-11.8816
ema	-11.8817
tonameyo	-11.882
▁xitiniz	-11.8825
auhtli	-11.8826
eonechicoliz	-11.8829
▁kinin	-11.8832
▁tecpayo	-11.8837
▁mimiqu	-11.8838
pipilt	-11.8847
ebr	-11.885
▁motlanequiliz	-11.885
nmanque	-11.885
▁chich	-11.8853
hyo	-11.8856
ecu	-11.8856
quinmonahuatilli	-11.8857
chichina	-11.8863
ocializ	-11.8865
tetzotzona	-11.8869
moma	-11.887
▁nitlal	-11.8871
▁quihualcen	-11.8873
chocti	-11.8876
lko	-11.8876
g	-11.8877
ohualla	-11.8879
▁ico	-11.8885
▁elisk	-11.8885
llohuaya	-11.8887
imal	-11.8888
uito	-11.8888
▁chachal	-11.889
▁motlapa	-11.8893
ixtoc	-11.8894
▁poste	-11.8894
▁komalta	-11.8897
ehuilo	-11.8898
▁oquichihuili	-11.89
tlacatecolo	-11.89
▁nat	-11.89
omiyo	-11.8904
xiuhtia	-11.8905
▁quitlacamati	-11.8908
kano	-11.8913
▁huelitiz	-11.8916
▁quipopo	-11.8916
▁yehuatzi	-11.8917
▁ogovernadorti	-11.8918
▁ipampan	-11.8919
▁ximote	-11.8921
mahcehual	-11.8922
▁omotlan	-11.8922
list	-11.8923
huiliz	-11.8931
LLI	-11.8933
iltik	-11.8941
vent	-11.8943
ene	-11.8944
wala	-11.8944
▁kw	-11.8945
▁hehecatic	-11.8947
yolic	-11.8948
NIN	-11.895
uitz	-11.8951
olini	-11.8954
▁ga	-11.8957
nacaztla	-11.8962
▁tlatz	-11.8963
▁cima	-11.8964
▁ualajk	-11.8964
NO	-11.8965
toneuh	-11.8966
▁quimotlaliliz	-11.8967
▁Chic	-11.8967
echipahual	-11.8968
tlanilli	-11.8969
tlachicahuilili	-11.897
▁tlazaloa	-11.8971
▁par	-11.8973
▁cenpoal	-11.8974
inechmopahcayohu	-11.8975
▁quitemoa	-11.8978
▁Tzo	-11.8981
▁oquicuic	-11.8981
mexica	-11.8983
fr	-11.8983
▁ticm	-11.8983
▁oceppa	-11.8988
motlatlanili	-11.899
oce	-11.8993
epan	-11.8993
▁neltoc	-11.8997
▁Chiuhcna	-11.8999
▁quichiu	-11.8999
xitiniz	-11.9
▁mocehuia	-11.9005
▁mochantili	-11.9006
▁yeki	-11.9008
mmomatzin	-11.901
coaz	-11.9011
▁timoqua	-11.9013
opeuh	-11.9014
▁tlanex	-11.9015
▁calco	-11.9015
tlahcuilol	-11.9015
tlacahualtiz	-11.9015
tlahtocateopixqu	-11.9019
▁atencopa	-11.9021
▁occeh	-11.9023
▁huac	-11.9023
▁omotlahtocatil	-11.9024
▁kik	-11.9025
š	-11.9029
epanca	-11.9032
moquixtitiquiz	-11.9033
▁Oco	-11.9033
spíritu	-11.9033
centlaliaya	-11.9034
yectiliz	-11.9037
euaya	-11.9038
▁tlatolti	-11.9038
▁notecu	-11.9039
tlahtoli	-11.9042
▁cecentlaca	-11.9043
tlapalehuia	-11.9044
panok	-11.9046
▁niquintemo	-11.9049
▁iatlapal	-11.9049
▁Tlayecan	-11.905
rrill	-11.9056
tlatlami	-11.9059
▁je	-11.906
lantlaca	-11.9061
▁quimochihuilili	-11.9062
▁Un	-11.9066
▁sitlal	-11.9066
nicmohtili	-11.9068
tlamacho	-11.907
úr	-11.9071
▁kayot	-11.9072
▁tlalticpactl	-11.9074
uilo	-11.9075
▁almo	-11.9076
▁Tel	-11.9076
▁ixnesis	-11.9077
pouh	-11.9079
mikti	-11.9079
▁Yohual	-11.9083
oquizaya	-11.9084
tihueh	-11.9086
▁Tleca	-11.9089
mohualhuiquili	-11.9091
illoque	-11.9093
▁tlacateca	-11.9099
▁icpalpa	-11.91
▁quintequi	-11.9103
▁icopa	-11.9105
netitlaniz	-11.9106
chtin	-11.9108
▁otlacati	-11.911
▁iccaxtollom	-11.911
nechmononochili	-11.9111
▁tihualaz	-11.9111
momanque	-11.9112
petlac	-11.9112
▁Xime	-11.9114
▁oniual	-11.9116
▁quihualyaca	-11.9118
▁celia	-11.9119
anacan	-11.9119
ileui	-11.9128
tlaliliaya	-11.913
▁ylhui	-11.9133
ge	-11.9135
▁Ytzc	-11.9135
namaca	-11.9136
nicnamaquilti	-11.9137
nna	-11.9139
▁mozcalli	-11.9139
▁xinechmo	-11.9145
▁cacax	-11.9147
▁ycuiliuhti	-11.9148
xcan	-11.9148
titihui	-11.9152
▁ycalaquia	-11.9153
▁ua	-11.9156
pilo	-11.9158
lacxipanhui	-11.916
HUAN	-11.916
tlachicauili	-11.916
▁Calm	-11.9162
gon	-11.9168
mauiztili	-11.9171
▁yaote	-11.9172
▁ycihua	-11.9173
axcan	-11.9173
▁yeho	-11.9175
tepuzmacuauh	-11.9175
▁aju	-11.9175
nemachti	-11.918
ençacat	-11.9181
elo	-11.9182
riz	-11.9182
zitzin	-11.9183
quixtilli	-11.9187
▁tlalilo	-11.9188
▁cera	-11.9192
▁Asi	-11.9192
▁Uitzilla	-11.9194
▁otitlachi	-11.9197
▁tlayocoya	-11.9197
▁tičiw	-11.92
▁hualmoto	-11.9202
mimi	-11.9202
▁onaqui	-11.9206
▁ycnauh	-11.9207
▁titlachiaz	-11.9207
▁yntlahtol	-11.9208
▁tlaqualli	-11.9213
ochco	-11.9213
▁itlachihual	-11.9213
▁moyaochichiuhti	-11.922
▁motzacuaz	-11.9227
teputz	-11.923
miquiliztzin	-11.9232
amanal	-11.9233
mopiyal	-11.9233
▁inchinan	-11.9236
▁oquicel	-11.9237
var	-11.9239
▁honca	-11.9241
▁axiua	-11.9241
▁china	-11.9243
▁quihualm	-11.9243
▁amocol	-11.9244
▁caxati	-11.9246
aventura	-11.925
erón	-11.9251
uetzi	-11.9252
ahuitzin	-11.9252
temohui	-11.9252
paka	-11.9253
quili	-11.9254
▁mism	-11.9254
macati	-11.9256
mecayo	-11.9257
▁Vie	-11.9258
▁quimixnamic	-11.9258
▁oquiquixtili	-11.9264
▁quilui	-11.9265
▁tictemo	-11.9267
nki	-11.9269
▁onpan	-11.9275
tlama	-11.9277
▁tomakil	-11.9278
roz	-11.9278
mantoc	-11.9279
▁tocontla	-11.928
▁yekyekt	-11.9281
▁noteocal	-11.9283
uallo	-11.9285
▁teopixcazi	-11.9286
▁indu	-11.9286
▁He	-11.9286
▁Ocello	-11.929
▁tine	-11.9292
▁tlachichihua	-11.9296
▁moyec	-11.9297
▁yacuica	-11.9299
▁iyom	-11.9302
▁kipa	-11.9303
▁Cox	-11.9303
icneli	-11.9308
▁oquimita	-11.9309
konana	-11.931
▁Popoyot	-11.9312
▁iloti	-11.9312
▁amame	-11.933
▁inte	-11.9332
▁ticpie	-11.9335
uali	-11.934
▁Anauac	-11.9347
niquilhui	-11.9348
quinhualhuicac	-11.9351
aye	-11.9352
▁oquihuicac	-11.9356
▁Tzaqual	-11.9357
▁mihtotia	-11.9359
quimiloa	-11.9361
ltilo	-11.9362
▁cihuateopix	-11.9363
▁zacatla	-11.9365
PE	-11.9366
▁caxtiltlahto	-11.9366
piliz	-11.9366
uhquinma	-11.937
comit	-11.9371
▁icpa	-11.9371
ztlaeual	-11.9372
xco	-11.9374
dal	-11.9374
▁uetz	-11.9376
nikanik	-11.9376
▁hualah	-11.9377
▁kač	-11.9378
mat	-11.9378
quezqui	-11.9379
xochitzi	-11.938
▁oquintlal	-11.9383
tlachia	-11.9383
kawili	-11.9385
ie	-11.9389
milco	-11.9401
▁popoch	-11.9403
▁amoca	-11.9406
tlahuelilocati	-11.9407
▁kim	-11.9412
ajuia	-11.9413
▁Tezcat	-11.9414
▁nicpie	-11.9418
ztoc	-11.9424
quiça	-11.9426
chicueylhui	-11.9429
▁quichihuilia	-11.943
▁cempoual	-11.943
▁quitemoz	-11.943
poua	-11.9432
▁quitlapalo	-11.9432
chichiuh	-11.944
was	-11.944
▁machoc	-11.9441
nijke	-11.9444
▁quemma	-11.945
▁oconcui	-11.9454
ád	-11.9456
piellia	-11.9462
▁kualani	-11.9463
▁quiix	-11.9464
▁onica	-11.9468
sla	-11.9468
▁popoc	-11.947
▁tlalcou	-11.9471
▁azcat	-11.9472
ocolhua	-11.9473
▁oquico	-11.9484
xiuhtico	-11.9485
▁yxco	-11.9488
▁Lim	-11.9488
▁nitlama	-11.949
▁ticmotlalili	-11.9491
ihuatl	-11.9491
▁omahuilti	-11.9493
zti	-11.9493
teopancal	-11.9495
▁toconi	-11.9496
▁Xali	-11.9496
▁tac	-11.9496
▁sia	-11.9497
▁Motlali	-11.9498
imani	-11.9499
▁quimitt	-11.9501
▁Opano	-11.9503
quinotzque	-11.9503
alcay	-11.9504
lana	-11.9506
AYOJ	-11.9512
ehichi	-11.9512
edo	-11.9513
ilito	-11.9515
▁yhu	-11.9519
▁macuilxi	-11.952
▁tonaci	-11.9521
▁quimin	-11.9522
ehuico	-11.9523
axix	-11.9523
▁ihuitl	-11.9524
▁Atlan	-11.9524
lxochitl	-11.9525
▁Tecu	-11.9527
tlacual	-11.9527
▁Mote	-11.953
ikate	-11.9531
▁nictla	-11.9532
tehuitequi	-11.9532
tque	-11.9533
▁quinpehuat	-11.9534
▁ohuilo	-11.9535
▁cehua	-11.9535
camac	-11.9537
▁tlapopotz	-11.9537
▁tlazotl	-11.9541
▁yxiptlatzi	-11.9544
▁onpoual	-11.9546
tennamic	-11.9547
quimilo	-11.9548
zomal	-11.955
▁Matlal	-11.955
yx	-11.955
▁tlalm	-11.9553
tapach	-11.9557
yahualol	-11.956
▁mitotiz	-11.9563
▁nop	-11.9567
monochilli	-11.9568
▁amic	-11.9569
▁ivi	-11.957
▁Her	-11.957
ecayotl	-11.9573
▁Upan	-11.9573
challaniz	-11.9574
nalli	-11.9574
▁Toz	-11.9581
▁otlahtocat	-11.9582
actica	-11.9582
▁incel	-11.9583
▁otima	-11.9584
cocoliz	-11.9588
▁nob	-11.9591
▁Tlaxcala	-11.9592
▁Chalchiuhtla	-11.9592
▁mimichti	-11.9593
▁mochioa	-11.9595
cuaya	-11.9597
▁notlaço	-11.9597
acayohua	-11.9599
rrí	-11.9605
▁mochiuhtihuitz	-11.9606
ncha	-11.9607
lhuil	-11.9607
▁ciento	-11.961
▁tlallo	-11.9615
▁tlatlatla	-11.9616
ictocaquiltilico	-11.9617
xiko	-11.9618
vatl	-11.9618
▁iyamanca	-11.962
▁yaw	-11.962
▁icpalti	-11.9624
exexellolo	-11.963
panoua	-11.963
▁Bart	-11.9631
ueyi	-11.9634
coyan	-11.9641
yak	-11.9642
huehuetlal	-11.9642
▁tlayahualol	-11.9643
▁caltitlan	-11.9647
htocatlalitzino	-11.9649
,	-11.9652
orre	-11.9654
▁nomach	-11.9656
hualpanahui	-11.9657
▁quenamica	-11.9658
▁Uitzil	-11.9659
alca	-11.966
tí	-11.9661
biex	-11.9662
▁Ahua	-11.9664
quechilia	-11.9665
lloyan	-11.9667
▁tact	-11.9669
em	-11.9669
eltic	-11.9672
▁macui	-11.9672
yezquiani	-11.9673
▁cenpohuallom	-11.9673
lahuac	-11.9674
▁Cec	-11.9675
ag	-11.9675
ueli	-11.9678
motitlanilili	-11.968
▁omoc	-11.9681
uenta	-11.9682
▁totlaçomahuizt	-11.9684
amic	-11.9685
▁quihualcauh	-11.9685
▁Niquito	-11.9687
▁icnopil	-11.9687
ssa	-11.969
volu	-11.9692
neyxca	-11.9694
roa	-11.9694
hualmoquixtili	-11.9696
caltema	-11.9697
tlenamaca	-11.9698
▁Madr	-11.97
▁tzauh	-11.9701
vic	-11.9701
▁nocn	-11.9701
▁omatlactl	-11.9702
kilia	-11.9704
▁timaco	-11.9706
▁quimocaltili	-11.9707
nec	-11.9707
ntlapal	-11.9707
▁nina	-11.9715
▁tlaxcaltecatl	-11.9715
▁quimahuizoh	-11.9715
ouas	-11.9716
▁gan	-11.9718
quipan	-11.9719
▁Onia	-11.972
▁xihuit	-11.9721
xica	-11.9722
▁machiyotica	-11.9722
▁calxexelolt	-11.9725
tepalehuiliz	-11.9725
nentlamatia	-11.9726
tzinotica	-11.9732
▁omeh	-11.9734
nahuacatl	-11.9734
▁quimopieli	-11.974
ihto	-11.9741
▁aih	-11.9745
itlaniliz	-11.9746
pah	-11.9746
umpa	-11.9747
acxoya	-11.975
▁inacaztla	-11.9752
▁quitetec	-11.9753
apo	-11.9753
▁ahhuiya	-11.9756
▁tipa	-11.9756
▁christiano	-11.9759
tequipachoz	-11.976
opixque	-11.9762
ahuellamati	-11.9764
▁xx	-11.9764
▁cah	-11.9764
otacique	-11.9764
▁viz	-11.9764
ole	-11.9765
mihto	-11.9766
nyan	-11.9767
tlachallani	-11.9767
▁nenen	-11.9769
▁cocolli	-11.9773
ahtli	-11.9773
nete	-11.9774
emol	-11.9776
chitl	-11.9776
▁ylhuicat	-11.9777
ahuiyacan	-11.9782
chca	-11.9782
▁tlacamecayo	-11.9783
inko	-11.9785
tiahqueh	-11.9786
▁Ri	-11.9788
▁tlathuic	-11.9789
▁tocateneuh	-11.979
▁kipoyeli	-11.9794
▁Teh	-11.9796
▁tlaapacho	-11.9798
▁ometzta	-11.9799
momiquilli	-11.9803
▁maça	-11.9806
▁motlalitzino	-11.9808
cuilolli	-11.9809
▁Tlach	-11.981
nça	-11.9813
▁mayanalizt	-11.9814
yancuilli	-11.9815
▁naca	-11.9818
▁xonahui	-11.9818
▁oquinhual	-11.9819
tlalnamiki	-11.982
tu	-11.9826
▁concahua	-11.983
motlapalo	-11.9839
tlatoca	-11.984
tlanehui	-11.9841
▁nitlapal	-11.9842
▁Acolma	-11.9847
ihqueh	-11.9848
auhtoc	-11.9851
huellamatiz	-11.9851
▁intlaca	-11.9853
anillo	-11.9854
ihcuac	-11.9855
▁ecauh	-11.9857
▁teotla	-11.9859
manik	-11.9862
▁onhuetz	-11.9863
▁omop	-11.9867
tex	-11.9867
tlamaka	-11.9868
nehua	-11.9868
uitiaya	-11.9869
▁ticqua	-11.9869
▁nuestr	-11.9869
▁xiuj	-11.987
▁noz	-11.987
ltican	-11.9871
kwaw	-11.9877
▁mih	-11.9879
matiltis	-11.9879
quihualmohuiquil	-11.988
▁otlatla	-11.9883
pano	-11.9883
chcatl	-11.9884
ketsa	-11.9885
teuhctlatol	-11.9885
▁XXVI	-11.9887
▁Tlotlitec	-11.9892
vas	-11.9892
yoyah	-11.9892
tlaocoya	-11.9894
▁nictlal	-11.9896
▁Yzqui	-11.9897
mekayo	-11.9899
▁cuahui	-11.9902
mino	-11.9902
▁mocni	-11.9902
▁Be	-11.9903
oñ	-11.9904
echicolis	-11.9908
▁totemachtica	-11.991
nextis	-11.9911
sitsi	-11.9914
huitza	-11.9918
xamani	-11.9922
intli	-11.9924
enti	-11.9924
tzayan	-11.9925
▁omoten	-11.9926
▁quichichiuh	-11.9928
uca	-11.993
▁mohuenti	-11.9932
▁ticpiaz	-11.9933
▁Ahuiy	-11.9933
tzotzopazt	-11.9934
neltiliz	-11.9935
▁huehueca	-11.9942
▁cocolis	-11.9944
dre	-11.9945
▁etzon	-11.9947
▁oquicuep	-11.9948
quitz	-11.995
▁tlacualchihualo	-11.9952
▁toteu	-11.9954
ngel	-11.9954
▁amm	-11.9958
tejko	-11.9958
▁oquichi	-11.9959
▁uexotzinca	-11.996
▁ontlamin	-11.996
ualtiz	-11.996
▁ait	-11.9962
▁Yacate	-11.9963
▁motlalica	-11.9963
Te	-11.9965
quich	-11.9966
zazan	-11.9967
ocal	-11.9968
mocelo	-11.9975
zcatl	-11.9976
▁anauacatl	-11.9978
ecni	-11.9981
▁acatitla	-11.9982
▁ycopa	-11.9984
▁Ar	-11.9987
juez	-11.9996
tlachialti	-11.9998
▁quauhtlapech	-11.9998
▁kiualik	-11.9999
quallani	-12
▁otihuala	-12.0001
tlati	-12.0004
▁ommatlac	-12.0012
namicti	-12.0016
▁otlacua	-12.0016
▁tlayec	-12.0019
▁cec	-12.0022
▁libr	-12.0023
▁tlaj	-12.0023
▁tlahtlaco	-12.0023
▁quitec	-12.0024
▁Gr	-12.0024
▁tequit	-12.0024
▁cor	-12.0025
ed	-12.0026
uextecatl	-12.0026
▁tlahtocan	-12.0028
▁padr	-12.0029
mahuiztililoni	-12.003
conen	-12.0032
onoc	-12.0033
ichtequi	-12.0038
ipia	-12.0038
▁tzinti	-12.004
▁xinechon	-12.0041
▁onpoliuh	-12.0043
▁hor	-12.0043
▁quicuili	-12.0044
mexi	-12.0047
nahuatih	-12.0051
huiquiliz	-12.0054
hcihui	-12.0055
opoch	-12.0056
XO	-12.0056
▁tlatzintill	-12.0056
▁neto	-12.006
▁ompo	-12.0061
▁Val	-12.0062
▁oquixi	-12.0063
tatauhtia	-12.0064
huetziqui	-12.0064
spital	-12.0066
▁momanilti	-12.0068
▁tlacuiloz	-12.0075
hcuilo	-12.0077
tlazocamachilili	-12.008
▁alt	-12.0081
▁Xoxo	-12.0082
▁mopi	-12.0084
▁tlaquen	-12.0085
mučiw	-12.0087
albaceas	-12.0088
▁yztlacati	-12.0093
▁Celi	-12.0095
OJ	-12.0097
ctique	-12.0097
eocolhua	-12.0101
chollohua	-12.0109
tlahuanque	-12.011
▁altepetlaca	-12.0111
▁regla	-12.0114
macehualhua	-12.0114
▁bi	-12.0115
kwik	-12.0118
▁yot	-12.0118
ike	-12.0119
▁iacal	-12.0121
▁titlachia	-12.0123
▁otitlahto	-12.0126
▁quinmottili	-12.0127
lcatl	-12.0127
▁Tlacochcalc	-12.0129
namictzin	-12.0129
▁hualpano	-12.0129
alitic	-12.0129
ocalpan	-12.0129
español	-12.013
▁Motec	-12.0131
▁xw	-12.0142
▁huiya	-12.0144
tlatlatlauhtiliz	-12.0147
▁Pipi	-12.0148
▁yekwal	-12.0148
izqueh	-12.0148
tene	-12.0153
quauhtitlan	-12.0153
iuapili	-12.0154
itecoc	-12.0156
▁noche	-12.0157
G	-12.0157
rdia	-12.0157
tiuala	-12.0158
▁Opeh	-12.0158
▁anquimocaqui	-12.0158
xiujyo	-12.0159
omanilli	-12.016
▁nie	-12.0161
difun	-12.0161
kualanij	-12.0163
▁yetic	-12.0164
▁Chicue	-12.0165
tlaxil	-12.0167
▁quiyocox	-12.0168
chihualiztli	-12.0169
▁huapahua	-12.0171
QUE	-12.0172
▁cempouali	-12.0173
jmej	-12.018
▁quiualhuica	-12.0181
barrio	-12.0182
▁Quitla	-12.0185
axihuac	-12.0186
▁nitlahtohua	-12.0186
▁ilnamiqui	-12.0188
ex	-12.0189
ichkua	-12.0189
▁tlanamaco	-12.019
padrino	-12.0191
▁cencamatzin	-12.0192
sis	-12.0192
▁tequitihua	-12.0193
ué	-12.0195
▁nete	-12.0195
camisa	-12.0205
xe	-12.0207
▁timel	-12.0207
ehualti	-12.0207
alquizque	-12.0209
▁Maz	-12.021
mocemaxcatilli	-12.0212
▁huehcatla	-12.0215
▁tlatilo	-12.0215
▁iç	-12.0217
▁españolti	-12.0217
quixtis	-12.0217
▁ialtepe	-12.0217
maestro	-12.0219
▁Ximotla	-12.0219
quitl	-12.0222
▁quihualmin	-12.0223
Amatepe	-12.0224
xtlauaz	-12.0236
tzintla	-12.0236
xiuhquechol	-12.0237
onal	-12.0237
mahuiçohua	-12.024
▁kiixmati	-12.0241
▁euanti	-12.0241
▁ox	-12.0245
mojuanti	-12.0245
chco	-12.0248
moyetzticate	-12.0248
texcall	-12.0249
▁Xon	-12.025
chiquacemin	-12.0252
laqui	-12.0257
mimictia	-12.0257
▁ipeuh	-12.0257
mihtalhui	-12.0257
huiltiz	-12.026
echcuiliznequi	-12.026
▁tlaxexeloli	-12.0261
▁Tecuic	-12.0262
▁cihuateupixqu	-12.0264
ehecac	-12.0264
ehuazque	-12.0266
tepacti	-12.0268
▁manto	-12.0268
patlahuac	-12.0272
tlananquili	-12.0274
yectli	-12.0275
▁mochoquiliti	-12.0275
▁pac	-12.0277
amalco	-12.0281
edi	-12.0283
tonia	-12.0285
tlayeyecoli	-12.0289
▁quiquiz	-12.0293
moquixtilia	-12.0295
▁centet	-12.0297
pana	-12.0298
▁mexicatlaca	-12.0299
tlaquehui	-12.03
jkana	-12.03
▁Niñ	-12.0301
▁iix	-12.0302
provisor	-12.0303
▁Ra	-12.0303
▁xime	-12.0304
tlanamacazque	-12.0304
ntlanahuatil	-12.0307
uauj	-12.031
aliz	-12.0311
uatzin	-12.0315
mixnamiqui	-12.0317
quilitl	-12.0321
▁Izca	-12.0321
▁tiemo	-12.0326
olti	-12.0326
gado	-12.0326
▁onitla	-12.0328
sti	-12.0328
petici	-12.0331
▁tenonotza	-12.0332
▁quicencau	-12.0337
▁quinamic	-12.0338
tlanequilis	-12.0338
ekij	-12.0339
▁Moquihui	-12.034
çac	-12.0341
ximohtili	-12.0341
▁pitzo	-12.0342
tayotzin	-12.0343
aquillo	-12.0343
temaquixti	-12.0343
mpan	-12.0344
totonti	-12.0344
▁omonono	-12.0344
▁sowat	-12.0345
▁pachiuhti	-12.0345
nomacehual	-12.0346
▁nochichi	-12.0348
ulla	-12.0349
pinauhtiz	-12.035
▁mochiuj	-12.0351
tete	-12.0351
▁noxuiu	-12.0352
▁inne	-12.0353
okoj	-12.0355
quinamiquito	-12.0357
tlatilolca	-12.0358
▁XXXVII	-12.0358
▁Antoni	-12.036
▁ixochi	-12.0362
▁ianima	-12.0366
▁teua	-12.0371
▁hualmoquixti	-12.0373
▁motlah	-12.0374
▁quiahua	-12.0376
▁monja	-12.0378
tlallolin	-12.038
▁mochiuhtoc	-12.0381
xto	-12.0383
▁catli	-12.0387
▁tajta	-12.0388
▁coh	-12.0389
ichocaya	-12.0389
▁Tetz	-12.0389
▁Motecu	-12.0395
▁mocuiltono	-12.0396
tzetzeloa	-12.04
▁tecuh	-12.0403
ychan	-12.0405
▁Itey	-12.0406
▁quincuili	-12.0406
timalihui	-12.0406
ticmati	-12.0407
walikak	-12.0411
▁tequichihuali	-12.0411
ndo	-12.0411
titlaniz	-12.0412
▁Ue	-12.0415
▁yzcat	-12.0417
temoya	-12.0417
▁papalo	-12.0417
mitalhuia	-12.0417
iliaj	-12.0418
macuilpoal	-12.0418
nextil	-12.0421
tzicuini	-12.0423
jti	-12.0424
pilla	-12.0426
▁quihua	-12.0427
quimomictili	-12.0427
ciz	-12.0429
quih	-12.0429
niente	-12.0437
▁cuauhtlat	-12.0438
▁choka	-12.0438
▁monoma	-12.044
▁oyec	-12.044
tacic	-12.0443
mitla	-12.045
▁haca	-12.0451
▁yoyoli	-12.0452
htiaya	-12.0454
▁tepexic	-12.0456
▁tocuic	-12.0457
▁ompoh	-12.0458
amatzin	-12.0459
tlatititzal	-12.046
▁noteyc	-12.0464
▁quitlanili	-12.0464
▁quitemacaz	-12.0465
itzto	-12.0465
▁Otec	-12.0466
tenehuallo	-12.0468
leui	-12.0468
tenyotiz	-12.0468
calaquian	-12.047
put	-12.0471
▁ticah	-12.0471
▁Chapol	-12.0472
▁quitlati	-12.0473
ztique	-12.0474
▁quj	-12.0475
▁mant	-12.0475
ohtli	-12.0477
aka	-12.0478
▁icchicue	-12.0479
ania	-12.0479
tetetzotzon	-12.0479
hualoya	-12.048
ateko	-12.0482
ompa	-12.0482
napalo	-12.0483
netlamachtil	-12.0485
octzin	-12.0486
▁nicnamaca	-12.0486
▁tsikat	-12.0486
erico	-12.0489
motequipacho	-12.0491
▁Tzonpan	-12.0491
▁otioal	-12.0492
lhuichihuilil	-12.0493
▁quimoten	-12.0495
▁tlachpa	-12.0497
▁macho	-12.0498
▁Nono	-12.05
▁tlatequipano	-12.05
tlahpalo	-12.0501
oxhuihua	-12.0501
tequitihuac	-12.0502
▁CA	-12.0502
▁tiy	-12.0504
uicatz	-12.0504
itztica	-12.0505
▁notlalco	-12.0505
▁molon	-12.0507
tlaçallo	-12.0508
▁nomicca	-12.0509
tlapallan	-12.0509
▁cien	-12.051
ichiuhque	-12.0511
▁cinc	-12.0511
Lo	-12.0512
▁ahueli	-12.0512
▁čičik	-12.0512
auhnahuaca	-12.0512
chihuiliz	-12.0513
▁atlatl	-12.0513
molhui	-12.0513
sisna	-12.0515
▁icuiliuht	-12.0516
▁quimochicahuil	-12.0517
▁yueltiu	-12.0518
▁tepetlamimil	-12.0518
iquipilc	-12.0519
▁tezca	-12.052
▁ocual	-12.052
chihchi	-12.0522
▁matlacxi	-12.0526
▁nohpal	-12.0526
uayo	-12.0526
aliaya	-12.0527
▁conpi	-12.053
ixmachilia	-12.053
▁komit	-12.053
▁oahzi	-12.0532
asikiw	-12.0532
bbad	-12.0533
▁Tollantzin	-12.0535
huiti	-12.0535
▁yohualnepa	-12.0536
▁puchtecayo	-12.0536
▁Xiloxochc	-12.0536
▁titlacua	-12.0537
CAHU	-12.054
▁sam	-12.054
▁conquistador	-12.054
▁Cuauht	-12.0542
uitzilopoch	-12.0547
tlaneltoquilizt	-12.0547
▁mixteca	-12.0549
matzatza	-12.0549
teu	-12.0549
itiquiz	-12.055
▁mazayel	-12.055
▁pontifical	-12.055
IHTACATL	-12.055
kuitaxkol	-12.055
motsojtsouiteki	-12.055
nonnocuiltonohua	-12.055
▁Atlitlallacya	-12.055
▁Bartholome	-12.055
▁CECEN	-12.055
▁Chikometepetl	-12.055
▁Moteuczoma	-12.055
▁Offic	-12.055
▁Olhuatecatl	-12.055
▁Proffes	-12.055
▁Vitzilop	-12.055
▁Xuchmilco	-12.055
▁abnegad	-12.055
▁atonahuiztli	-12.055
▁ayatilakt	-12.055
▁clerigos	-12.055
▁conmononochilli	-12.055
▁cuicapicqui	-12.055
▁diploma	-12.055
▁distansia	-12.055
▁kiiskaltiyaj	-12.055
▁kipijpixka	-12.055
▁kitsetseloua	-12.055
▁kiuiuita	-12.055
▁mimientaj	-12.055
▁momecahuitec	-12.055
▁ommihzo	-12.055
▁philosoph	-12.055
▁pimienta	-12.055
▁quiasicamatis	-12.055
▁quimotzatzilili	-12.055
▁sacerdote	-12.055
▁taxtahuil	-12.055
▁toconicxinami	-12.055
▁unpopoliui	-12.055
▁xikualani	-12.055
▁Tetlacolti	-12.055
▁chakay	-12.055
▁palomaxt	-12.055
▁spirit	-12.055
▁ueuejkapan	-12.055
vigilia	-12.055
▁Sepastia	-12.055
▁Tezcatlamiaual	-12.055
▁camdela	-12.055
▁cuatlacecahui	-12.055
▁necetochhuil	-12.055
▁piksa	-12.055
▁planeta	-12.055
▁simolotl	-12.055
▁tlatzitzilica	-12.055
▁uitzmallot	-12.055
▁Tziuacpopocatzi	-12.055
▁XOXOUHQUI	-12.055
▁epíst	-12.055
▁itehuical	-12.055
iquixpamtili	-12.055
▁Xokoyol	-12.055
▁acitimoquetzaco	-12.055
▁anmonelchihua	-12.055
▁zuquichiuhqui	-12.055
pašalo	-12.055
▁Nativida	-12.055
▁omotlayahualhui	-12.055
▁rancho	-12.055
▁ylicencia	-12.055
▁Yztactlalloca	-12.055
▁moteuhcçauh	-12.055
▁onicnocohui	-12.055
▁tolxacal	-12.055
▁beata	-12.055
▁nociyeliz	-12.055
aquauhtlatlachia	-12.055
pachilhuiya	-12.055
▁luminari	-12.055
▁tequicehuiliz	-12.055
▁netotonaca	-12.055
moteyttititzino	-12.055
▁tetonalmaca	-12.055
▁adelant	-12.055
▁otechcocoli	-12.055
tlatoltecatlalia	-12.055
▁Quaquapitza	-12.055
▁Metztitla	-12.055
▁intlamaceuhca	-12.055
▁inihuantih	-12.055
▁Omotelhuili	-12.055
▁moijtó	-12.055
▁Centenario	-12.055
▁calacecahuil	-12.055
▁chayauac	-12.055
▁couixca	-12.055
▁oquimitlanilili	-12.055
nimitznomacquili	-12.055
▁ojolol	-12.055
▁Anglitlal	-12.055
▁kimolta	-12.055
▁xicmottili	-12.055
▁hualmoxtlahua	-12.055
▁oconmocaquilti	-12.055
▁oconmocaquiti	-12.055
▁momajkajki	-12.0551
▁oniquilnamic	-12.0551
▁onechtlahtlani	-12.0551
tihtlaštlawi	-12.0551
▁tehuilotl	-12.0551
▁ticcemaxcati	-12.0551
▁Mallinal	-12.0551
▁otlamamauhti	-12.0551
▁quisencahuas	-12.0551
▁Kinamaka	-12.0551
ticmuchihuili	-12.0551
YACA	-12.0551
▁quimoyolloti	-12.0551
▁omotlanahoatili	-12.0551
▁oquelehuiyaya	-12.0551
▁tzomoni	-12.0551
uidaro	-12.0551
▁ximomauhtica	-12.0551
mochiuhililiz	-12.0551
▁quinyacapi	-12.0551
▁Quemmani	-12.0551
▁xicmomachilti	-12.0551
▁onechnanquili	-12.0551
tequipacho	-12.0551
▁quitztilti	-12.0551
▁ticmaxcatiz	-12.0551
▁compeualtia	-12.0551
▁titletlali	-12.0551
kwaltlamotlatewa	-12.0551
▁cociuatlani	-12.0551
▁tenayoca	-12.0551
▁tepejxi	-12.0551
▁evangeli	-12.0551
▁oquimotenehuili	-12.0551
▁necuame	-12.0551
▁huipta	-12.0551
▁notlaçomahuizt	-12.0551
▁quicahcahua	-12.0551
▁nimitzilpili	-12.0551
▁oquimonochili	-12.0551
ancopinca	-12.0551
sojeto	-12.0551
▁ajsiko	-12.0551
▁tequixqui	-12.0551
▁icnoueue	-12.0551
▁sikera	-12.0551
▁tecuanotza	-12.0551
▁oniquim	-12.0551
▁pitztzahtz	-12.0552
▁Alexand	-12.0552
▁nijmati	-12.0552
▁Chichicuepo	-12.0552
▁immoquechtlan	-12.0552
▁omocentlali	-12.0552
▁quimomachizti	-12.0552
▁tlatlatzcuepon	-12.0552
▁quicoyoni	-12.0552
▁tlalxocot	-12.0552
▁Edu	-12.0552
▁mavizpan	-12.0552
▁teixami	-12.0552
aztlacapal	-12.0552
▁motlaqualti	-12.0552
▁niteixmati	-12.0552
▁quixtoquiliz	-12.0552
▁oquimmicti	-12.0552
▁teocuitlaxochi	-12.0552
▁tlejkotok	-12.0552
▁toztomeca	-12.0552
▁xicmocaquilti	-12.0552
▁kiitski	-12.0552
▁temahtequil	-12.0552
▁mozohhua	-12.0552
▁hualquixohua	-12.0552
▁tohuaxca	-12.0552
ueuetl	-12.0552
▁Abrah	-12.0552
▁sasampa	-12.0552
▁niczaloz	-12.0552
▁onmomayauh	-12.0552
▁bisi	-12.0552
▁tohuampoh	-12.0552
▁motlatlamallia	-12.0552
▁teumecha	-12.0552
▁ihtacatl	-12.0552
▁Ilhuicamina	-12.0553
▁otimochica	-12.0553
▁Tlaylotla	-12.0553
▁ajachi	-12.0553
▁tsikame	-12.0553
▁kitepeua	-12.0553
▁immi	-12.0553
vitaminah	-12.0553
▁kitemaka	-12.0553
▁tiitstoke	-12.0553
▁patlantinemi	-12.0553
▁ximocaquiti	-12.0553
▁Asun	-12.0553
▁divin	-12.0553
▁tipopolihuiz	-12.0553
▁mopapá	-12.0553
▁nemonhua	-12.0553
▁intepachoca	-12.0553
uauhtexpetla	-12.0553
▁gracia	-12.0553
▁cuitlaxcolizta	-12.0553
▁Tapia	-12.0553
▁tliletl	-12.0553
▁kikauili	-12.0553
▁tatemp	-12.0553
▁ixtlamati	-12.0553
uatzi	-12.0553
▁cuauhchilli	-12.0553
▁mamatiw	-12.0554
▁quintequimaca	-12.0554
▁Esteba	-12.0554
▁tlakuaj	-12.0554
▁huitzilopoch	-12.0554
ecuy	-12.0554
▁nimicmaka	-12.0554
▁šokt	-12.0554
▁Mixtlan	-12.0554
▁tzotzoyo	-12.0554
▁Ahuax	-12.0554
▁omoxexelo	-12.0554
▁ticpaccaceli	-12.0554
▁timoquequelo	-12.0554
▁ticualani	-12.0554
▁titlachpana	-12.0554
▁Tlahtolchihuali	-12.0554
▁oticpolo	-12.0554
▁ilacatziuh	-12.0554
▁Lib	-12.0554
▁tonnetla	-12.0554
▁Xiquixti	-12.0554
▁Noyol	-12.0554
▁tlatlapollo	-12.0554
kriad	-12.0554
▁nokta	-12.0555
▁quiponhua	-12.0555
▁tlanescayotili	-12.0555
▁zaquan	-12.0555
▁tiquintlachica	-12.0555
▁motollini	-12.0555
▁Cuauhtlehuanit	-12.0555
▁nimitznotlalca	-12.0555
▁yntepachoca	-12.0555
▁teonacaz	-12.0555
tlapaltehuil	-12.0555
mixmauhti	-12.0555
▁Xochitecuitl	-12.0555
▁ualase	-12.0555
▁ayocuic	-12.0555
▁yntlaquetzal	-12.0555
▁oquihualmama	-12.0555
quecizqui	-12.0555
▁patlahuacchilli	-12.0555
▁tlaocolchoca	-12.0555
▁cihuachichi	-12.0556
▁quiyaochihua	-12.0556
▁Mocihuaicni	-12.0556
▁Motenehua	-12.0556
▁omotepexihui	-12.0556
▁ehecahuaqui	-12.0556
▁itestigoua	-12.0556
▁Ixtlil	-12.0556
▁quinohnotza	-12.0556
▁Hier	-12.0556
▁xihualmohuica	-12.0556
xal	-12.0556
▁Gonz	-12.0556
▁Santísim	-12.0556
▁axnijmati	-12.0556
▁tezcatzintli	-12.0556
▁tlazopilli	-12.0556
ubeta	-12.0557
▁Totonacapa	-12.0557
▁oquinmolhuili	-12.0557
▁yaotachcau	-12.0557
perroqu	-12.0557
▁xiquimilhui	-12.0557
▁ymachcauh	-12.0557
▁tiualauij	-12.0558
▁Quenotimo	-12.0558
mellauac	-12.0558
▁Amuel	-12.0558
▁quiquehquetza	-12.0558
▁tepeyacac	-12.0558
▁paraxes	-12.0558
▁Xiuhnel	-12.0558
▁Teuhcho	-12.0558
quitzquili	-12.0558
▁immeca	-12.0559
▁imaçehualtzin	-12.0559
xicmonequilti	-12.0559
▁nochcalco	-12.0559
▁ximocuepa	-12.0559
▁motlacohuilte	-12.0559
▁perochia	-12.0559
▁quihuilana	-12.0559
▁tamachti	-12.0559
▁horació	-12.056
▁Chololla	-12.056
▁tepoçot	-12.056
▁conquistadores	-12.056
▁talcaldes	-12.056
▁motzauhc	-12.056
▁Macues	-12.056
mahuiztlachihual	-12.056
▁quitzontequi	-12.0561
▁itelpuch	-12.0561
▁momaicni	-12.0561
▁mald	-12.0561
sowaw	-12.0561
sejsé	-12.0561
▁Orne	-12.0561
▁otlacuecuepotza	-12.0561
▁tictenehuaz	-12.0562
▁pajke	-12.0562
▁ticnanquiliz	-12.0562
▁Ocellopan	-12.0562
cahuiliz	-12.0562
▁Cuauhtenco	-12.0562
▁quiyeyeco	-12.0562
kueta	-12.0562
▁xiccui	-12.0562
šišiko	-12.0562
▁Tlallocan	-12.0563
▁itsinta	-12.0563
▁Azcatlxoch	-12.0563
▁nečkwa	-12.0563
▁tetzahuitl	-12.0563
▁Hipo	-12.0563
▁Huehcapa	-12.0563
▁Itzintla	-12.0563
ticnenelo	-12.0564
▁quitocatlalis	-12.0564
▁quiyancuilli	-12.0564
ltal	-12.0564
▁otlanamacaya	-12.0564
▁Otlecoya	-12.0564
▁tlatlapana	-12.0564
▁totlaakatsii	-12.0565
tlaytlaniliz	-12.0565
▁Tonalix	-12.0565
▁Tlacoxi	-12.0565
▁Ytencopa	-12.0565
▁xaxal	-12.0565
▁chijchi	-12.0565
▁Cihuay	-12.0565
ihuaz	-12.0566
▁Ohuecauh	-12.0566
▁cuesol	-12.0566
▁tinechmocahuili	-12.0566
▁cuachpani	-12.0566
▁netzoll	-12.0566
▁Momoztlatica	-12.0566
▁Chá	-12.0567
▁omotlanaoatili	-12.0567
▁nocohuiz	-12.0567
▁itlazohixip	-12.0567
▁tlatlehuatz	-12.0567
cehcemm	-12.0567
▁onechmonochili	-12.0567
▁yotlacua	-12.0567
▁Quauhtla	-12.0568
jtsili	-12.0568
▁tlapatio	-12.0568
▁huallachixtine	-12.0568
nohnochili	-12.0568
▁tlatzihuiz	-12.0569
▁kiitstok	-12.0569
▁omozcalli	-12.0569
▁tlehuaqui	-12.0569
moyollalili	-12.0569
▁ninoteylhui	-12.0569
▁neçahual	-12.0569
▁peniten	-12.057
▁ticaaman	-12.057
▁icnoilama	-12.057
▁Quimilhui	-12.057
▁nictlazohcamati	-12.057
xtlahua	-12.057
▁mocenquixti	-12.057
momachiztilli	-12.0571
quinmonanamiquil	-12.0571
▁nechmohuiquili	-12.0571
▁momachiyoti	-12.0571
▁momatiltis	-12.0571
▁maldad	-12.0572
▁temauhti	-12.0572
▁plantas	-12.0572
▁compehualti	-12.0572
▁nihualno	-12.0572
▁oquipollo	-12.0572
▁ihcua	-12.0572
▁kiuipana	-12.0573
▁inmonasterio	-12.0573
▁chicuepoual	-12.0573
▁quitequipanos	-12.0574
▁ahuacacua	-12.0574
▁anquimot	-12.0575
▁ahuiltechi	-12.0575
tlamachiotitinen	-12.0575
quimottili	-12.0575
▁iistak	-12.0575
▁cualantican	-12.0575
▁huacqui	-12.0576
▁Ometochtitla	-12.0576
▁otimitznotil	-12.0576
▁omotlananquili	-12.0576
▁tlamamauhti	-12.0576
▁innechichiual	-12.0576
▁mimil	-12.0576
ahkwe	-12.0576
▁notlake	-12.0576
litih	-12.0577
▁od	-12.0577
▁Ray	-12.0577
▁imomiyo	-12.0577
▁tiquitztiaz	-12.0577
▁quitlamamaca	-12.0577
tavian	-12.0577
▁quicauhtehua	-12.0577
zcapoçalc	-12.0578
▁motequipanohua	-12.0578
▁timonenequi	-12.0579
▁quincauhtiquiz	-12.0579
▁Xicomoyahual	-12.0579
▁okwika	-12.0579
neuh	-12.0579
▁quinpollo	-12.0579
▁motepanti	-12.0579
▁Coa	-12.0579
▁tepuztlahui	-12.058
▁cahcic	-12.058
xotzin	-12.058
▁tlapihui	-12.0581
▁mocauhtzino	-12.0581
▁Tictemohu	-12.0581
▁Quauhxaya	-12.0581
▁ichp	-12.0581
▁quitzohuiz	-12.0582
▁Herna	-12.0582
▁onotech	-12.0582
yaoyahuallo	-12.0583
nepapan	-12.0583
▁točan	-12.0583
▁iluikaktli	-12.0583
▁sangre	-12.0583
tlantoncant	-12.0584
▁inelhuayo	-12.0584
▁quinpehualti	-12.0584
bito	-12.0584
▁imontlamanixtin	-12.0584
▁motoka	-12.0585
▁Xopil	-12.0585
▁tocaitl	-12.0585
▁moteponaço	-12.0585
▁toktli	-12.0586
▁tlahtocaychp	-12.0586
▁timochin	-12.0586
▁quinapallo	-12.0586
▁totopixque	-12.0586
nochtin	-12.0586
tlačičino	-12.0587
▁Nottatzin	-12.0587
▁kiitato	-12.0588
▁xelhuaz	-12.0588
▁quauhxinqu	-12.0589
▁connotza	-12.0589
xillo	-12.0589
▁quahuixtlahua	-12.0589
▁moyeyeco	-12.0589
▁Tecocoltzi	-12.0589
cohuili	-12.0589
▁itlatlacol	-12.059
▁nineci	-12.059
▁tlachixtoc	-12.0591
▁quitlecahui	-12.0591
▁ohualnen	-12.0591
▁cahuatemo	-12.0591
quico	-12.0591
▁mulcaxi	-12.0592
▁nimitztla	-12.0592
▁tiquixmati	-12.0592
▁yxtoma	-12.0592
[...]
